#version: 0.2 - Trained by `huggingface/tokenizers`
Ø §
Û Į
Ġ Ø
Ú ©
Ġ Ù
Ø ±
Ù Ī
Û ģ
Û Ĵ
Ġ Ú©
Ù Ĩ
Ø§ Ø
Ù Ħ
Ù ħ
ĠÙ ħ
Ú º
Ġ Ø§
Ø ª
Ġ Ûģ
ÛĮ Úº
Ø ¯
ĠØ ³
Ø ³
Ú ¯
ĠØ ¨
Ú ¾
ĠÙ Ĩ
Ø ¨
ĠÚ© ÛĮ
ÙĪ Ø±
ĠÙ ¾
ĠÚ© ÛĴ
Ø§ ÙĨ
ĠØ ª
Ø§ Ø±
Ġ Ø§Ø
ĠØ ¬
Ġ Û
Ù ¹
ĠÛ Ķ
ĠØ ¯
Ù Ĥ
Ù ģ
ĠÙħ ÛĮÚº
Ø§Ø ¦
Ø ¹
ĠÙ Ī
ÙĪ Úº
ĠÚ© Ø±
Ġ Ú¯
Ø ¦
ĠØ ±
ĠÚ© Ûģ
Ø§ ÙĦ
Ø ²
ĠÛģ ÛĴ
Ø ´
ĠØ§ ÙĪØ±
Ù ¾
Ø± ÛĮ
Ø§ Ùħ
ĠÚ© ÙĪ
Ú Ĩ
Ø ¬
ĠÙ Ħ
ĠØ³ ÛĴ
Ø§Ø ª
ĠØ Į
ÛĮ Ø§
ĠÙĨ ÛĴ
ĠØ ¢
Ø Ń
ĠÚ© Ø§
Ú Ī
ĠÛģ ÙĪ
ÙĨ ÛĴ
ĠØ§ ÙĨ
ĠØ ¹
ĠÙ¾ Ø±
ĠØ§Ø ³
ÛĮ ÙĨ
ĠØ ®
ĠØ Ń
ĠØ ´
ÛĮ Ú©
ĠÙ ģ
Ø§Ø ¯
Ø¦ ÛĴ
Ø µ
Ú¾ ÛĮ
Ø§Ø ¨
Ø§ Ûģ
ÙĦ ÛĮ
ÛĮ Ø±
ĠÙ Ĥ
Ġ ÚĨ
Ø§Ø ³
ĠÛģ ÛĮÚº
Ø ®
Ġ ÛĮ
Ø¦ ÛĮ
Ø ·
Ùħ ÛĮ
ĠØ§ ÙĦ
ÙĪ ÙĨ
Ø§Ø ²
ĠÙĨ Ûģ
Ú ĳ
ĠØ µ
ĠØ¨ Ú¾ÛĮ
ÙĦ Ûģ
ĠØ§ ÛĮ
ĠØ± Ûģ
Ø§Ø¦ ÛĮ
Øª ÛĴ
Ø§ Ú©
ĠÚ©ÛĮ Ø§
ÙĦ Ø§
ÙĨ Ø§
Ú© ÛĮ
ĠÚ©Ûģ Ø§
Øª ÛĮ
ĠØª Ú¾
ÙĪ ÙĦ
ÙĨ ÛĮ
Ġ )
ÛĮ Ø¯
ĠØ§ Ù¾
ĠØ ·
ĠÙ ¹
Ġ ÚĪ
ĠØ ²
ĠØ¯ ÛĮ
Ø§Ø± ÛĮ
Ù¹ ÛĮ
Ø ¸
Ġ 2
ÙĨ Ø¯
Ø± Ø¯
ĠÙĨÛģ ÛĮÚº
Ġ (
Ø³ Øª
ĠÙĦ ÛĮ
ÙĨ Ù¹
ĠÛĮ Ûģ
ĠÙħ ÙĦ
ÙĪ Ùħ
Ø ¶
ĠØ§ ÛĮÚ©
Ø§Ø¦ ÛĴ
Øª Ø§
ĠÙ¾ ÛĮ
Ø³ ÛĮ
Ø´ ÙĨ
Ø¨ Ø±
ÙĨ Ú¯
â Ģ
ĠØª ÙĪ
ĠØ± ÙĪ
Ø± ÙĪ
ĠÙĪ Ø§ÙĦ
Ø±ÛĮ ÙĨ
ÙĪ Ø¯
Ú© ÛĴ
ĠÚ¯ ÛĮØ§
Ú¯ Ø±
ĠÙħ ÙĪ
Ø§ÙĨ Ûģ
Ù¹ Ø±
ĠØ¬ ÙĪ
ĠØ§Ø ®
ĠÙĪ Ûģ
ÛĮ Ùħ
ÛĮ ÙĦ
Ø§ÙĨ ÛĮ
Ø§Ø± Øª
Ġ2 0
ĠÚ©Ø± ÙĨÛĴ
ĠÙ¾ ÙĪ
ĠØ¬ Ø³
Ùħ Ø¯
ĠÙħ ØŃ
ĠÙħ ÙĨ
Ø§ Ùģ
ĠØªÚ¾ Ø§
Ø§ÙĨ ÛĴ
ÛĮ Øª
Ø¹ Ø¯
ĠÛģÙĪ Ø¦ÛĴ
Ú© Ûģ
ĠÙħ Ø¹
Ø§Ø ¹
ĠÚ¯ Ø§
ĠØ¯ ÛĮØ§
Ú¾ Ø±
ÙĦ ÛĴ
Ġ20 1
Ø§Ø¨ ÙĤ
Ø «
ÙĪ Ø¨
ĠÙħ Ø·
Ø °
ĠÛģ Ùħ
Ġ 1
Ø± Ùģ
ĠØ§ÙĦ ÙĦÛģ
Ø³ ÙĦ
Ø ¡
ĠØ³ ÛĮ
Ø§ ÙĤ
Ú© Ú¾
ĠØ¨ ÛĮ
Ø§Ø ¬
Ùħ Ø§ÙĨ
ĠØª Ø±ÛĮÙĨ
Ø ¢
ĠØª Ø¹
ĠØŃ Ú©
ĠÙģ Ø±
ĠÚ©Ø± ØªÛĴ
Ø§Ø² Ûģ
Ø§Øª Ú¾
ĠÙĦÛĮ ÛĴ
ĠÙģ ÛĮ
Ø º
Ø§Ø¦ ÙĨÙ¹
ĠØ§ Ø±Ø¯
ĠØª Ùħ
ĠØ§Ø ¹
ĠØ§Ø® Ø¨
ÛĮ Ûģ
ĠØ§ Ùħ
Ġ201 8
ĠØ§Ø±Ø¯ ÙĪ
ĠÙħ ÙĤ
ĠÚ¯ ÛĴ
Ø§ Úº
ĠØ¯ ÙĪ
Ø± Ú©
ĠØ±Ûģ ÛĴ
ĠØ¬ Ø§Ø¦ÛĴ
Ùħ ÙĦ
ĠÙ¾ÙĪ Ø§Ø¦ÙĨÙ¹
Ùģ Ø±
ĠØ³ Ú©
ĠÙ¾ Ûģ
ĠÙħ ÛĮ
ĠØ§Ø ¨
Ú¯ ÛĮ
ĠØ§Ø®Ø¨ Ø§Ø±Øª
ĠØ§Ø®Ø¨Ø§Ø±Øª Ø§Ø²Ûģ
ĠÛģ ÛĮ
âĢ ĺ
ĠØ§Ù¾ ÙĨÛĴ
ĠØ º
ĠÙħØ· Ø§Ø¨ÙĤ
Ø³ Ø±
ĠØ¬ ÙĨ
ĠØ¨ ÙĨ
ĠØ¨ Ø±
ÙĪ ÛĮ
ĠÙĦ ÙĪ
Ø¨ Ø§Ø¯
Ø§ÙĦ ÛĮ
ĠØ¬ Ø§ÙĨ
ĠØ¯ Ø±
ÙĦ Ø§Ùħ
Ø´ Øª
ĠØ§Ø ¯
ÙĪØ± ÛĮ
Ú© Ø±
ĠØ¬ Ø§
ĠÙĪ Ø²
ĠØª Ú©
ĠØ³ Ø§ØªÚ¾
ĠØ¨ Ûģ
Ø§Ø Ń
Ø§ÙĨÛģ ÙĪÚº
ĠÙħ Øª
ĠØ¨ Ø¹Ø¯
ĠÚ¯ Ø¦ÛĮ
ĠØ§ÙĨ Ûģ
ÙĦ Ø¦ÛĴ
ĠØ ¶
ĠÚ© Ùħ
ĠÙĦ Ø¦ÛĴ
ĠØ °
Ø¬ Ûģ
Ø¯ Ø±
ÙĤ ÛĮ
ĠÚ©ÛĮ ÙĦØ¦ÛĴ
ÙĪ Ûģ
ĠØ³ Ø±
ĠØ¯ ÙĪØ±
ÙĪ Ø§Ùħ
Ùħ Ø§
ĠÚ¯ ÛĮ
Ø§Ø± ÛĴ
ĠÚ© Ø§Ø±
ÙĪ Ø§ÙĦ
ĠØ¢ Ù¾
ĠÚ© Ø§Ùħ
Ú© Ø§
Ø® Øª
ĠÙ¾ Ø§Ú©
Ùħ ÛĮÚº
Ø§ ÙĪØ±
ĠØª ØŃ
ĠÙĨ ÙĪ
ĠÙĪØ§ÙĦ ÛĴ
ĠØ® Ø§ÙĨ
Ø³ Ù¹
Ùħ Ûģ
ĠØ¹ ÙĦÛĮ
ÙĪÙħ Øª
Ø± Ø¨
ÙĦØ§ Ùģ
ĠØ§ÛĮ Ø³
ĠØ´ Ûģ
ĠØªÚ¾ ÛĴ
Ø§Ø µ
ĠØ§Ø Ń
ĠÙĪØ² ÛĮØ±
ĠØ§Ù¾ ÙĨÛĮ
ÙĤ Øª
Ø¦ Ø±
ÛĮ Ø§Ø¯
Ù Ĵ
Ø§Ø ´
ĠÙĦÙĪ Ú¯
ĠØ¨ Úĳ
Ø± ØŃ
ĠØ¨ Ú¾
ĠÚ©Ø± ÛĮÚº
ĠÚ© Ú¾
ĠØ± Ú©Ú¾
ĠØ® ÙĪ
ĠÛģÙĪ ÙĨÛĴ
ĠØ¨Ûģ Øª
ÙĦØ§ ÙĤ
Ø³Øª Ø§ÙĨ
ĠØ¢ Ø¨Ø§Ø¯
ÙĦ ÙĤ
ÚĨ Ú¾
Ú© ÙĪ
ĠØ³ Ø§ÙĦ
ĠÙħÙĦ Ú©
Ùħ Ø±
ĠÙģÛĮ Øµ
ĠØ¬ Ø¨
ĠØ§ÙĨ Øª
ĠÚ¯ Ø¦ÛĴ
ĠØª Ø±
Ø§Ø ¡
Ø¯ Ûģ
ĠÚ©ÙĪ Ø¦ÛĮ
Ġ :
Ø§Ø¦ ÛĮÚº
ÚĪ ÛĮ
ĠØ¨ ÙĦ
ĠØ± ÛĮ
Ø§Ø ¶
Ø± Øª
Ùģ ÛĮ
ĠØ¢ Ø¦ÛĮ
Ø¯ ÛĮ
ĠØ§ Ûģ
ĠØŃÚ© ÙĪÙħØª
ĠØ¹ ÙĪØ§Ùħ
Øª Ùħ
ÛĮØ§ Úº
ĠÚ©Ûģ ÙĨØ§
ĠØ¬ Ø§Øª
ĠØ® ÙĦØ§Ùģ
ĠØ¬ Ø§Ø±ÛĮ
Ø§Ø± ÙĪÚº
ĠÚ© Ø³ÛĮ
Ø¬ ÙĪØ¯
ĠÙħ Ø³
ĠØ³ Ø¨
Ø³ ÛĴ
Ø² ÛĮ
Ùģ Øª
Ġ n
Ġ r
Ø§Ø³ Øª
ĠÙ¹ ÛĮ
Ø¨ ÙĦ
ĠÚĪ ÛĮ
ĠØ³ ÙĪ
ĠÚĨ ÛĮ
Ùħ Ø§ÙĦ
Ø¨ ÛĮ
ĠØ¨ Ø§Øª
ÙĪØ± Øª
ÙĪØ± Ù¹
ĠØ±Ûģ Ø§
ĠÙħØŃ ÙħØ¯
ĠØ¬Ø§ÙĨ Ø¨
ĠØ¯ ÙĨ
ĠØ§Ø³ Øª
ĠÙ¾ÛĮ Ø´
ĠÙħ Ø´
ÙĪ Ø³
Ø¨ Ûģ
Ø¬ Ø¨
ĠÙĦ ÛĮØ§
ÙĦ Ùħ
ĠØª Ú¾ÛĮ
Ø§ Ù¾
ĠÚĨ Ø§Ûģ
ĠÙĦ Ú¯
ĠØªÙħ Ø§Ùħ
ĠØ¬ Ùħ
Ù¹ Ú¾
ĠØ¨ ÚĨ
ĠÛģ ÙĪÚº
ĠÙĨ ÛĮ
ÛĮÚ© ÙĨ
ĠÛģ Ø±
ĠØ§Ø ¬
ĠÚĨ Ú¾
ÙĤ Ø¹
Ø¯ Ø§Ø±
Ø§Ø¦ ÙĦ
ĠØ§ÙĨÛģ ÙĪÚº
ĠØ§ Ùģ
ĠÙĨ Ø§Ùħ
Ġ ÛĮØ§
Ø± Ûģ
ĠÚ© ÙħÛĮ
ĠØ±ÙĪ Ø²
Ùħ Øª
Ġ 3
ĠØ±Ûģ ÛĮ
Ø§ ÙĪ
Ø§Ûģ Ùħ
ĠØ² ÛĮØ§Ø¯
Ø¬ Ú¾
ÙĨ Ø³
ĠÛģÙĪ Ø§
ÚĨ ÛĮ
Ø±ÛĮ Ú©
Ø§Ø± Ûģ
ĠÙħ Ø²
Ø§Ø ¤
ÙĪ Ù¹
ĠÙħ Ûģ
ĠØ§ ÛĴ
Ùħ ÛĮØ±
ĠØ§ ÙĪ
ÛĮÙĨ ÛĮ
Ø§Ø¯ ÛĮ
ĠØ® Ø·
ĠØ¯ÙĪØ± Ø§ÙĨ
ÙĪÙĨ ÛĮ
Ø¬ ÛĮ
ĠØ· Ø±ØŃ
Ù¹ Ø³
ĠÙĨ Ùħ
ĠÙĨ Ø¸
Ø¬ ÙĪ
Ûģ Ø§Ø±
ĠÙħÙĪ ÙĤØ¹
ĠØª ÛĮ
ĠÙħÙĪ Ø¬ÙĪØ¯
Ø¯ Ø§
ĠØ§ ÙĤ
Ùħ ÛĮÙĨ
ĠØ³ ÛĮÚ©
Ø³ Ùħ
ĠØ²ÛĮØ§Ø¯ Ûģ
âĢ Ļ
ĠØ¯ÛĮ Ú¯Ø±
ĠÙĪ ÙĤØª
Ø§Ùħ Ø§Øª
Ú© ÙĦ
Ø±ÛĮ Ø¨
ĠØ±ÙĪ Ù¾
ĠØ¬ ÛĮ
ĠÙĤ Ø±
ĠÚ©Ø± ÙĨØ§
ĠØ§ ÙģØ±
Ø§Ø ®
Ø±ÛĮ Ùģ
ĠØ§ Ú©
ĠÙ¾Ø§Ú© Ø³ØªØ§ÙĨ
ĠØ³ Ùħ
Ø§Øµ ÙĦ
Ø¯ Ø§ÙĦ
Ø® ÙĪ
ĠØ¯ ÛĴ
ĠÚ©Ø± ÙĪ
ĠØª ÙĤ
ĠØ¹ ÙĦØ§ÙĤ
Ø§Ùħ ÙĦ
Úĳ ÛĮ
Ø§Ø³ ÛĮ
ÙĪ Øª
ĠÚ© ÙĦ
ÙĨ ÚĨ
ĠÙ¾ Ø§Ø±
ĠØ· ÙĪØ±
ĠØ§ÙģØ± Ø§Ø¯
ĠØ±ÙĪÙ¾ ÛĴ
ĠÙħ Ø³ÙĦ
Ø³ Ù¾
Ú© ÙĨ
ĠØ§Ø ª
ĠÙĦÙĪÚ¯ ÙĪÚº
Ø´ ÛĮ
ĠØ¨ ØªØ§
ĠØ¨ ÙĨØ§
ÙħÛĮ Øª
ĠØ§Ø ¸
ÙĪ ÙĦÛĮ
ĠÙĪØ§ÙĦ ÛĮ
ĠØŃ ÙĪØ§ÙĦ
ĠÚ¯ Ø²
ĠØ§ Ú¯Ø±
ĠÙħ Ø¯
Ù¹ Ø±ÛĮ
ĠØµ ØŃ
ĠÙ¾ ÙĪØ±
Ø§Ø¦ Ø¯
ÙĦ Ùģ
Ø¸ Ùħ
Ø¹ Ûģ
Ø§Ûģ Ø±
ĠÙĦ ÛĮÚ©ÙĨ
Ø§Ø¹ Øª
Ø® Øµ
ĠÙħØª Ø¹
Ùħ ÙĨ
ĠØ³ Ø§Ùħ
ĠØ¨ Ú¾Ø±
ĠØ¹ ÙħÙĦ
ĠØ¶ Ø±
Ú© Ø§Ø±
Øµ ÛĮÙĦ
ĠÙħ Ø®Øª
ĠØ§ ÛĮÙĨ
ĠÙĪ ÛĮ
ĠØ¨ØªØ§ ÛĮØ§
ĠØ§Ø¸ ÛģØ§Ø±
ĠÚ© Ø´
ĠØ· Ø±Ùģ
Ø§Øª ÛĮ
ĠØ¯ ÛĮÚ©
ĠÙĪ Ø¬Ûģ
ĠØ§ÙĨ Ø³
ĠØ¹ Ø¨
ĠØµ ÙĪØ¨
ĠØŃ Ø§ØµÙĦ
ĠØ³ ÙĦ
ĠÙħ Ú©
Ø¯ ÙĪ
ĠØ¯ Ûģ
ĠØŃ ÙĤ
ĠÛģÙĪ Ø¦ÛĮ
ĠØŃÙĪØ§ÙĦ ÛĴ
ĠÙħØ² ÛĮØ¯
ĠØ§ÛĮ Ùħ
ĠÙ¾Ûģ ÙĨÚĨ
ĠÙħ ÛĮÙĨ
Ø§ÙĨ Ø§
Ø§ ÛĮØ§
ĠØ¹ÙĦÛĮ Ûģ
ĠØ§Ø³ ÙĦØ§Ùħ
ĠØŃ Ø³
ÙĦ Ø§Ø³
Ġ 4
ĠÙ¾Ûģ ÙĦÛĴ
Ø± ÙĦ
ĠØ§ÙĨÛģ ÛĮÚº
Ø± Ø²
ĠØ «
Ø± Ùħ
ĠÙ¹ ÛĮÙħ
Ø´Øª Ûģ
ĠØº ÛĮØ±
Ø§ ÛĮ
Ø§Ø¦ ÙĨ
ĠØ® ÛĮ
Ù¾ ÙĪØ±Ù¹
Ġ 5
ĠØµ Ø¯Ø±
ĠØ¯ÛĮÚ© Ú¾
ĠÛģ Ø²
ĠÙħÛĮ ÚĪ
ĠÙħØªØ¹ ÙĦÙĤ
ĠÙ¾ Úĳ
ĠØ´ Ø§Ûģ
Ø¬ ÙĨ
ĠØ§Ø³Øª Ø¹
Øª Ø±
ÙĪ Øµ
ĠØ¢ Ø±
Ù¾ ÛĮ
Ø±ÙĪ Ø¹
Ûģ Ø±
Ø§Ø¨ ÛĮ
ĠØ´ ÛĮ
ĠØ¬ Ø§Ø¦ÛĮÚº
ĠØ§Ø ¶
ĠÙĦ ÛĴ
Ø§Ø¦ Ùħ
Ø¯ Ùħ
ĠØª ÙĨ
ĠÚ© ÚĨÚ¾
ĠØ± Ø³
ĠØ¨ ÙĨØ¯
ĠØ¢ Ø¦
Ùģ ØµÛĮÙĦ
ĠØ¹ ÙħØ±
ĠÙ¾Ø± ÙĪ
Ø§ ÚĨÛĮ
ĠÙħ Ø±
ĠØ´ Ø±ÙĪØ¹
ĠØŃ Ø¶
Ø±Ùģ Øª
ÙĪ Ø²
ĠØ¨ÛĮ Ø§ÙĨ
ĠØ¨ Ø¯
Ù¾ Ø±
ĠÙħØ®Øª ÙĦÙģ
Ø¹ ÛĮ
ĠØ³ ÙĨ
Ø¬Ø¨ Ú©Ûģ
ĠÙħÙĦ Ø²
ĠØ¢ Ú¯
ĠØ¨ Ø§Ø±
ĠÚ©Ø± ÛĴ
ĠØµ Ø±Ùģ
Øµ ÙĪØ¨
ĠØ¯ ÙĦ
ĠÙ¾ Ú¾Ø±
Ġ âĢĺ
ÙĦ Ø§ÙĨ
ĠÙĤ Ø§ÙĨ
Ø§Ûģ ÙĪØ±
ĠØŃ Ø§ÙĦ
Øª ÙĪ
ĠÙĤ ÙĪ
ĠØ´ Ø§ÙħÙĦ
ĠÚ¯ Ø±ÙģØª
ĠØ§ØŃ ÙħØ¯
ĠØ¬Ø¨ Ú©Ûģ
ĠØ³Ú© ØªØ§
ĠÛģÙĪ ØªØ§
ĠØ¬ ÙĦ
ĠØ§Ø³ØªØ¹ ÙħØ§ÙĦ
ĠÙħ ÛĮØ±
ĠØ ¸
ĠØ¢ Ùģ
ĠØ¬ Ø§ÙĨÛĴ
ĠÙ¾ ÛĮØ¯
Ù ĳ
ĠØ´ Ø®Øµ
ĠÛģ Ø¯Ø§
ĠØŃ Øµ
ĠØ¢ Ø¬
ĠØªØ± ÙĤÛĮ
Ø§Ø³ ÙĦØ§Ùħ
ÙģØµÛĮÙĦ Ø§Øª
ÙĪÙĨ ÙĪÚº
ĠÙĪ Ùģ
ĠÚ© Ø¦ÛĴ
ĠØ¨ ÛĴ
ĠÙģÛĮØµ ÙĦÛģ
ĠØ³ ÙħÛĮØª
ĠÙĪ Ø§ÙĤ
ĠØ§Ø³ ÛĴ
ĠØ¯ Ú¾
ĠÙĨ Ø´
ĠØªØ¹ Ø§ÙĦÛĮ
ĠÙħ Ø°
Ø¯ ÛĮØ¯
ĠØª Ø¨
ĠÙħ Ø§Ø±
ÙĨ ÚĪ
ØŃ Ú©
ĠÛģØ² Ø§Ø±
ĠØ¬ Ûģ
ÙĪØ± Ø³
ÙĪ ÙĤ
Ġ 6
ĠØ§ ÙħÛĮ
ÙĦ Ø¨
Ø§Ùħ ÛĮ
ÙĦÛĮ Ùħ
ĠØª Ø¬
ĠÙģØ± ÙħØ§
Ú¯ ÙĪ
Ø§Ú© Ú¾
Ú© Ù¹
ĠØª ÛĮÙĨ
ĠØ¯ÙĪ Ø³Ø±
ĠÚ¯ Ú¾Ø±
ĠØ¬Ø§Øª Ø§
0 0
ĠØ® ÙĪØ¯
Ø±ÛĮ ÙĦ
ĠØ³ Ø§Ø¨ÙĤ
ĠÙħ Ø³Øª
Ø´ Ûģ
Øª Ø§ÙĦ
ĠØ§Ø¶ Ø§Ùģ
ĠÙħ Ø§Ûģ
ĠØ´ Ø±ÛĮÙģ
ĠØ§Ø¹ ÙĦÛĮ
ĠØ¨Úĳ Ú¾
ĠØ¯ ÛĮÚº
ĠØ¨ Ø¬
Ø¨ Øª
ĠÙģ ÙĪ
ĠØµ ÙĪØ±Øª
ÙĨ Ø¬
ĠÙħ Ø¬
Ø§ÙĤ ÛĮ
ĠØ¢ Ø²
ĠÙħÚ© ÙħÙĦ
ĠÚ©ÛĮ ÛĴ
ĠØŃØ¶ Ø±Øª
ĠØ¨ ÙĨÛĮ
ĠØ§ÙĨØª Ø¸
Ø³ÙĦ Ùħ
ĠØ¨ Ø§ÙĦ
ĠÛĮ ÙĤ
ĠÙħÛĮÚĪ ÛĮØ§
ĠØ¨ ØŃ
Øº ÛĮØ±
ĠØ§Ùħ Ø±ÛĮ
ĠÙĦ Ø§Ú©Ú¾
ÛĮ Ø§Øª
ĠÚ¯ Ø±
ĠÙ¾Ø§Ø± Ù¹ÛĮ
ĠØ¯ÛĮ ÙĨÛĴ
ĠØ´Ûģ Ø±
ĠÙ¾ Ø§Ø³
Ø§Ø¦ Ø±
ĠØ ¦
ÙĦ ÙĪÙħ
ĠØ§Ø ´
ĠÚ©Ø§Ùħ ÛĮ
Ø§Ú© Ûģ
ĠØ§Ø¯ Ø§
Ø§Ø¶ ØŃ
ĠØ§ Ù¹Ú¾
ĠØ´ Ø±Ú©
Ø³Øª Ø§ÙĨÛĮ
ĠÚ¯ Ú¾
Ø¹ ÛĴ
ĠÚ¯ Ø±Ø¯
ĠØ±Ûģ ÙĨ
ĠØ¨ ÛĮÙĨ
Ø¹ ÙĤ
ĠØ² ÙĨØ¯
ĠØ§ Ú¯
Ûģ Ùħ
ĠÚ©ÙĪ Ø´
ÙĪÙĨ Ú©Ûģ
ĠØ³ Ûģ
ĠØ§ Ø±
Ø§Ø «
ÛĮÚ© ÙĦ
Ø´ÙĨ ÙĦ
ĠØ§Ø¬ ÙĦØ§Ø³
ĠÙĨØ¸ Ø±
Ø³ ÙĨØ¯
ĠØ¯ ÙĪÙĨÙĪÚº
Ø§Ø¦ Ø²
ĠÙħ Ø§ÙĦ
ĠØ³Ø§Ùħ ÙĨÛĴ
ĠÛģØ¯Ø§ ÛĮØª
ĠØ®Ø· Ø§Ø¨
ĠØ§Ûģ ÙĦ
ĠÙģØ±ÙħØ§ ÛĮØ§
ĠÙĤ Ø¨
ĠØ¯ Ø¹
ĠØ¹ Ø§Ùħ
ĠØ¬ ÙĪÙĦ
ÚĪ Ø±
ĠÚ©ÛĮ Ø³
ĠÙħÙĨ ØµÙĪØ¨
Ø§Øª ÛĴ
ÙĨ ÙĪ
ĠÙĤÙĪ ÙħÛĮ
ĠØ¬ÙĪÙĦ Ø§Ø¦ÛĮ
Ø¬ Ø³
ĠØ´ Ø¹
ĠØ³ ÛĮÙĨ
ĠØ¹ Ùħ
ĠØ§ÙĤ Ø¯
ĠÚĪ Ø§ÙĦ
ÙĤ ÙĦ
ĠÚ¯Ø±ÙģØª Ø§Ø±
Ġ 7
ÛĮÚ© Ø³
Ø¢ ÙħØ¯
Ø§ ÙĪÙĨ
Ø§Ø º
Ø±ÛĮ Ø´ÙĨ
Ġ âĢ
ĠØ¶ ÙĦ
ĠÙĨÙĪ Ø§Ø²
ĠØ®ÛĮ Ø§ÙĦ
ĠØ± Ù¾ÙĪØ±Ù¹
Øª ÙģØµÛĮÙĦØ§Øª
ĠØ¨ÙĨ Ø§ÙĨÛĴ
Ø§Ø¦ Ø¹
ĠØ§Ù¾ ÙĨØ§
ĠØŃ ÙĦ
ĠÚ©ÙĪØ´ Ø´
ĠØµ ÙĦÛĮ
ĠØ¨ Ø§Ø¹
ĠÙĪ Ø¢
ĠØŃÚ© Ùħ
ĠØ§Ø³ ÛĮ
ÙĦ Ø§ÛģÙĪØ±
ĠÙĪ Ø³ÙĦÙħ
ĠÙħ Øµ
ÙĨ Ûģ
ÙĪ Ú©
ĠØ§Ø ²
ĠÙĤØ± Ø§Ø±
ĠÚ¯ ÙĪ
Ø§ÙĨ ÙĪÚº
ĠÙħÙĨ Øª
ĠÙĨ Ú©
ĠØ¯Ûģ Ø´Øª
ĠØ¨Ø§Ø¹ Ø«
ĠÙĤ ÙĪÙħ
ĠÙĪØ¢ ÙĦÛģ
ĠØ¯ Ø§Ø±
ĠØ¬ÙĨ Ø±ÙĦ
Ø§Ø ¸
Ø®ÙĪ Ø§Ø³Øª
ĠØªØ¹ ÙĦÙĤ
ĠÚĨÛĮ Ø¦Ø±
ĠÙ¾Ø§Ú© Ø³ØªØ§ÙĨÛĮ
ĠØ® Øµ
ĠØ³ Ø§Ø¦
ĠÙĤ Ø¨ÙĦ
ĠÙħØŃ Ú©
ĠÙħØ³ Ø§Ø¦ÙĦ
ĠØ³ÛĮ Ø§Ø³ÛĮ
ĠØ® Ø§Øª
ĠØ¬ Ú¾
ĠØ° Ø±ÛĮ
ĠØªÙĤ Ø±ÛĮØ¨
ĠØ§Ûģ Ùħ
ĠØ§ÙĦ ØŃ
Ù¾ ÙĦ
ĠÚ©Ø± ØªØ§
ĠØ´Ûģ Ø±ÛĮ
ĠÙħ Ùħ
Û ĥ
Ġ âĢĻ
ĠØª Øµ
ĠÚĨ ÙĦ
ĠÙģØ± Ø§ÛģÙħ
Ø±ÙĪ Ø§Ø¦ÛĮ
ĠØ¹ Ø§ÙĦ
ĠØª Ø´
ĠØ®Øµ ÙĪØµ
ĠØ¨ Ø§Ø±ÛĴ
ĠÛģÙĪ ØªÛĮ
ÙĦØ§ÙĤ Ø§Øª
Ø§Ûģ ÛĮ
ĠØ§Ø ·
ĠÙħ Ø¦ÛĮ
ĠÙĦÛĮ Ú¯
ĠØ¯Ø± ÙħÛĮ
ĠØ³ÙĦ Ø³
ĠØ± Ø¶
Ġ 8
ĠØ¯ÛĮ ØªÛĴ
ĠØ§Ø¹ ÙĦØ§ÙĨ
ĠÙĤ Ø§Ø¦Ùħ
ĠØ§ÙĨØª Ø®
ĠÚ©Ø± Ø¯Ø§Ø±
ĠÚ©ÙħÛĮ Ù¹ÛĮ
ĠÙģ Ø±ÙĪ
Ø§Ø ·
ĠÙĪØ§ÙĦ ÙĪÚº
ĠÙģÛĮØµ Ø¯
ĠØ¹ Ø¯Ø§ÙĦ
Ø±ÛĮ ÙĤ
ĠÙħ Ø¸
Ø§ÙĨ ÚĨ
ÙĪØ± Ù¹ÛĮ
ĠØ³Ú© ØªÛĴ
ĠÙ¾ÛĮØ¯ Ø§
Ùħ ÙĨÙ¹
ĠØ§ Ø±Ø¨
ĠØ² ÛĮØ±
ØªÛĮ Ø§Ø±
ĠØ¬Ùħ Ø§Ø¹Øª
ĠØ¨Úĳ ÛĮ
Ø§Øª ÛĮÙĨ
ĠØ§Ø µ
ĠÙĪØ§ÙĦ Ø§
ĠÚ¯Ø² Ø´ØªÛģ
Ùħ Ø¨
Øª ÙĪÚº
ĠØ¯ÙĪØ³Ø± ÛĴ
Ú©Ø± Ø§ÚĨÛĮ
ĠØ¯ Ø§Ø®
ÙĤÛĮ ÙĤ
ĠØ³ Ø±Ú©
ĠØªØŃ Øª
ĠØ§Ùģ Ø³Ø±
ĠÚ©ÙĪ ÙĨ
ØªÙĪ Ø¨Ø±
ĠØªÙħ Ûģ
ĠØ§Ø¹ Ø¸Ùħ
ĠØ¯Ø±ÙħÛĮ Ø§ÙĨ
ĠÙħÙĦ Ú©ÛĮ
ĠØ¯ÙĨ ÛĮØ§
ĠÙ¾ Ø±ÛĮ
Ø§Ø± ØªÛĮ
ĠÙ¾ Ú¾
Ø± Ø§Øª
ĠÚ© Ø§ÙĨ
Ø§Ø¨ Ø·
Ù¾ ÙĨ
ĠÚ© Ø§ÙĦ
ĠÚĨ Ø§Ø±
ĠØ§Ú© ØªÙĪØ¨Ø±
Ø³ ÙĨ
ĠØ¢ ÙĨÛĴ
ÛĮÙĨ ÚĪ
Ø¨ ÙĪ
ĠÛģÙħ Ø§Ø±ÛĴ
ĠÙħÙĤ Ø§Ø¨
ĠØ¢ Ø¦ÛĴ
ĠØª Ùģ
ĠØ§ÙħÛĮ Ø¯ÙĪ
ĠÚ©Ø´ ÙħÛĮØ±
ĠØ±Ø³ ÙĪÙĦ
ĠÚ©Ø§Ø± Ø±ÙĪØ§Ø¦ÛĮ
ĠØ· ÙĦØ¨
Ø± ÛĴ
ĠØ± ÙĤ
ĠØ¹Ø¨ Ø¯Ø§ÙĦ
ÙĪ Úĳ
ÙĦ ÙĪ
ĠØ²ÙĨØ¯ Ú¯ÛĮ
ĠÙħØ¹ ÙĦÙĪÙħ
Ø´ ÙĦ
ĠÚ© Ú¾ÛĮ
ĠÚĨØ§Ûģ ÛĮ
Ø§Ø² ÛĮ
ĠØ¯Ø± Ø®ÙĪØ§Ø³Øª
ÙĦØ§ ÙĪÛģ
ĠÙħ ÙĦØ§ÙĤØ§Øª
Ú© Ø´
ĠÙĤ ÛĮ
Ø³Ùħ Ø¨Ø±
ĠÙħÛĮ ÚĨ
ĠÙ¾ÙĪ ÙĦÛĮ
Ø¯ Ú¯ÛĮ
ĠØ¯ ÛĮÙĨ
ĠØ® ØªÙħ
Ø¬Ú¾ ÛĴ
ĠØ³ ØªÙħ
ĠØª Ø§ÛģÙħ
ĠØµÙĪØ¨ Ø§Ø¦ÛĮ
Ø¦ ÛĮÚº
ĠÙ¾ Ø³ÙĨØ¯
ĠØ¯ Ø³ÙħØ¨Ø±
ĠÚĨÛĮ Ø²
ĠØ´Ø±Ú© Øª
ĠÚ© Ù¾
ĠÚ©Ùħ Ø´ÙĨ
ĠÙģ Ø§Ø±
ÙĨØ¯ Ûģ
ÙĨ Ø²
Ø± Ù¹Ø±ÛĮ
ĠØµØŃ Øª
ĠÙħÙĨ Ø¸
Ø± Ø§ÙĨ
Ú¯ Ûģ
ĠØ¢ ÛĮØª
Ġ -
ĠÙħ Ø¨
ĠØ®ÙĪ Ø§ØªÛĮÙĨ
Ø³ Ø±ÛĮ
ÛĮ ÙĪÚº
ĠØ§ÙĤØ¯ Ø§ÙħØ§Øª
ÙĦ Ø§Ø¹
ĠØ®ØµÙĪØµ ÛĮ
ĠØ§Ø¶Ø§Ùģ Ûģ
ĠØ¬ ÙĪÙĨ
ÙĪ Ø§Ø±
ÙĦ Ø§ØŃ
ĠØ¹ÙĦØ§ÙĤ ÛĴ
Ø¹Ø¯ Ø§Ø¯
Ø§ ÙĪÙĦ
ĠÛģÙĪ Ú¯ÛĮ
Ø§ ÛĮÚ©
Ø§Ø¹ Ø¸Ùħ
ĠØ¨ÛģØª Ø±
Ġ1 0
ĠØ´ Ùħ
ĠØ³ØªÙħ Ø¨Ø±
ĠÚ© Øª
ĠØ§Ú¯ Ø³Øª
ĠØ¬Ùħ Ø¹
ĠØ² ÙħÛĮÙĨ
ĠØ§Ø® ØªÛĮØ§Ø±
ĠØ§ÙĨ Ø¯
ĠØ¬ ÙĨÚ¯
ĠØ¢ Ø®
ĠØŃØµ Ûģ
ÙħØ§ÙĦ Ú©
Øµ Ø§Ùģ
Ø± Ø§Ø¦Ø¹
ĠØ¨ÚĨ ÙĪÚº
ÙĪÛĮ Ø²
ĠÚ© Ø¦ÛĮ
ĠØ® Ø¨Ø±
ĠØ³Ùħ Ø¬Ú¾
ĠØ´ Ø±
ĠÙĤ ÛĮÙħ
ĠØ® Ø±
Ġ 9
ĠØ³ Ùģ
ĠÙĨ ÙĪÙħ
ĠØ§ÙĨ Ø¬
Ø¹ ÙĨÛĮ
ĠØªØŃ ÙĤÛĮÙĤ
ĠØ¨ÙĨØ§ ÛĮØ§
ĠÙħ Ø®
ĠÚ©Ø±ÙĪ Úĳ
Ø§Ø¬ ÛĮ
ĠØŃØ³ ÛĮÙĨ
ÙģÛĮ Ø³Ø±
ĠØ§ÛĮØ³ ÛĴ
Ø§Ø± Ùģ
Ø§ Ú¯Ø±
Ø§Ø± Ú©
ĠÙĤØ§ÙĨ ÙĪÙĨ
Ø§ÙĦ Ø¨
Ù¾ Ù¹ÛĮ
ĠÙĪ Ø±
ÙģØ± ÙĨØ³
ĠØ¬Ø§Øª ÛĮ
ĠØ³ÛĮÚ© Ø±Ù¹Ø±ÛĮ
ĠØ¶Ø± ÙĪØ±Øª
ĠØ¹ ÙĦÙħ
Ø¯ Ø±ÛĮ
ĠØ§Ùħ ÙĨ
ĠØ¢ ÛĮØ§
ĠØ®ÙĪ Ø´
ĠØ°Ø±ÛĮ Ø¹ÛĴ
Ø§Ú© Ù¹Ø±
Ø¢ ÙĨ
ĠÚ©ÙħØ´ÙĨ Ø±
ĠÚĪ Ø§Ø¦
ÛĮÙĨ Ûģ
Ú¾ Ø§
ĠØª Ø¹Ø¯Ø§Ø¯
ĠÙħ ÙħØ§ÙĦÚ©
ĠØ³Ø± Ø¨Ø±
ĠÙħØ¯ Ø¯
ĠØ¹ ÙĦØ§ÙĪÛģ
ĠÙ¾ÙĪÙĦÛĮ Ø³
ĠØ§Ø¯ Ø§Ø±ÙĪÚº
ĠØ±Ú©Ú¾ ÙĨÛĴ
ĠØ§ÛĮ Ùģ
ÙĪØ± Ûģ
ĠÚĨÛĮ Ùģ
ĠÙĤ Ø§Ø¨
ĠÙĨ ÙĤ
Ø§Ûģ Ø¯
Ø¬ ÛĴ
Ø¨ Ø§ÙĦ
ĠØªÛĮ Ø§Ø±
ĠØŃ Ùħ
ĠÛģÙĪ ØªÛĴ
ĠÙħ Ø±Ú©
Ú©ÛĮ ÙĦ
Ø¨ Ú¾ÛĮ
ĠØ³ Ú©ÛĴ
ĠÚĨØ§ÛģÛĮ ÛĴ
Ø§Ø¦ Ø´
Ø§Ø± Ù¹ÛĮ
ØŃ Ø§ÙĦ
ĠØ³ ÙĪØ§ÙĦ
Ú¯ Ø¦ÛĴ
Ø¸ ÛĮÙħ
ĠØ³ ÛĮØ¯
Ø§Ø´ Øª
ĠÙħ Ø¶
ĠÙħÙĦØ² ÙħØ§ÙĨ
Úĳ ÛĴ
ĠÙĨÙĪÙħ Ø¨Ø±
ĠÙĪ Ø§Ù¾
ĠØ¬ Ú¯Ûģ
Ø±ÛĮÚ© Ù¹Ø±
ĠÙĤ Ø³Ùħ
ĠÙħ Ú¯Ø±
ĠØ¬ÙĦ Ø¯
ĠÚĪ Ø±
ĠØ¹ÙĦØ§ÙĤ ÙĪÚº
ĠØ§Ù¾ Ø±ÛĮÙĦ
ĠÙħ Ø´Øª
Ø§Ûģ ÙħÛĮ
ĠÙĨÙĪ Ø¬ÙĪ
ĠØ§ÙĦ Ø²
ĠØ§ÙĨ Ø¯Ø±
ĠØªØŃ Ø±ÛĮÚ©
ĠØ±ÙĤ Ùħ
ĠØ² Ø§Ø¦Ø¯
ĠÙĨ Ø¹
ĠØ° ÙħÛģ
Ø³Ù¾ ØªØ§ÙĦ
ĠÙħØ³ÙĦ Ùħ
Ú ĺ
ĠÙħØŃÚ© ÙħÛģ
ĠÙĦ Úĳ
ÙĪØ± ÚĪ
Ú© Ø§ÙĨ
ĠÙĪÙģ Ø§ÙĤÛĮ
Ú¯ Ø²
ĠØ´ Ø¯ÛĮØ¯
ĠØ§ØŃ Øª
Ø§Ø¬ Ûģ
Ø§Ø¨ Øª
ÙĪØ± ÙĨ
Ø² Ø§
ĠØ§Ø¯ Ø§Ú©
ĠØ§ÙħØ±ÛĮ Ú©ÛĮ
ĠØ§ÙĨØª Ûģ
ĠÙħØ¹ Ø§Ùħ
ĠØ¹ÙħØ± Ø§ÙĨ
Ùģ Ø¸
ĠØ§ÙĨ ØµØ§Ùģ
ÙĪ Ø§
ĠÛģÙħ ÛĮÚº
ĠØ§Ø¯ Ø§Ø±ÛĴ
ĠØ¨ÙĦ Ú©Ûģ
ĠÚ¯ ÙģØª
ĠØ¶ÙĦ Ø¹
ĠØ¢ Øº
ĠÙħ Ø§ÙĨ
ĠØ¢ Ø³
Ø³ ØªÛĮ
Ø²ÛĮ Ø´ÙĨ
ĠØ§ÛĮ ÙħØ§ÙĨ
ĠÙħ Ùģ
ÙĪ Ø§ÙĨ
± Û
Ø§Ø¯ Ûģ
ĠÙ¹ Ú¾
Ù¹ ÙĪ
ÙĨØ¯ ÛĮ
Øª ØŃ
ĠÙĤÛĮ Ø§Ùħ
ĠÚ©Ú¾ ÙĦØ§
ĠÚ¯ÙģØª Ú¯ÙĪ
Ù¾ Ø§Ú©
ĠÙħØ³ÙĦ ÙħØ§ÙĨ
ĠØ¹ Ûģ
ĠØªØ¹ ÙħÛĮØ±
Ø¯ ÛĮÙĨ
ĠØ¦ ÛĴ
ĠÙĪ Ø§Ø±
Ú¯Ø± Ø§Ùħ
Ø¨ Ú¾
ĠÙĨ Ø§
ĠÛĮÛģ Ø§Úº
Ø³ÙĦ Ø§Ùħ
ĠÙ¾ Ø§ÙĨÚĨ
ĠÚ© ÙĨ
ÙĪØ±Ø³ Ù¹ÛĮ
Ú¯ Ø§
ĠÛģ Ø§ØªÚ¾
ĠÙĪØ²ÛĮØ± Ø§Ø¹Ø¸Ùħ
ĠØ±Ú©Ú¾ Ø§
Ùģ ÙĪ
ĠØ³ Ø¹
ĠØ§ÙĨØªØ¸ Ø§Ùħ
ĠØ¹Ø¯Ø§ÙĦ Øª
Úĳ Ú¾
ĠÛģ Ø³Ù¾ØªØ§ÙĦ
ĠØ³ ÙĨØ¯
ĠÛĮ ÙĪÙĨÛĮ
ĠØ§ÛĮÙĨ ÚĪ
ĠØ³Ø±Ú© Ø§Ø±ÛĮ
ĠØ¯ Ùģ
ĠÙģØ± Ùħ
Ġ1 9
ĠØ³Ú© ØªÛĮ
ĠØ¶Ø± ÙĪØ±ÛĮ
ĠØ± Ú©
Ø±Ø¯ Ø§Ø±
ĠØ¢Ø² Ø§Ø¯
ĠØ¨ Ø®
Ø· ØŃ
Ø¯Ùħ Ø§Øª
Ġ1 2
ĠÙĦ Ø§
ĠØ§Ø «
ĠÙħÛģ Ùħ
ĠØ§ÙģØ³Ø± Ø§ÙĨ
Ø§Ø±ÛĮ Ø®
ĠÙħ Ø¬Ú¾ÛĴ
Øª Ú¾
ØŃÚ© ÙĪÙħØª
ĠØ§ÙĨØ³ Ø§ÙĨÛĮ
ĠÚĨ ÙĪÛģ
Ø³ÛĮ Ùħ
ĠÙħ Ø±Øª
ÙĦ ÙĪÚº
ĠØµ Ùģ
ĠÙ¾ ÛĮØ±
Ùħ ÙĪ
ĠØ¯Ø± Ø¬
ĠØ³ Ø·ØŃ
Øµ Ùģ
Ø³ Ù¹Ø±
Ø¯ÛĮ Ø«
ĠÚ¯ ÙĦ
Ú©ÛĮ Ù¹
ĠÙĨÙħ Ø¨Ø±
Ø§ ÛĮØª
Ø¶ Ûģ
ĠÚĪ Ù¾Ù¹ÛĮ
Ø±ÛĮ Ùħ
Ù¹ Ø§
ĠØ¨Úĳ ÛĴ
ĠÙĤØ§ÙĨ ÙĪÙĨÛĮ
ÚĳÛĮ ÙĪÚº
ĠØ³ Ø®Øª
ĠÛģÙĪ Ú¯Ø¦ÛĴ
ĠÙĪØ§ÙĤ Ø¹
ĠØ§ÛĮØ³ Ø§
ĠØ³ Ù¾
ĠÙ¾ ÙĪØ±ÛĮ
ĠÙħÙĨ Ø¹ÙĤ
ĠÙĨØ¸ Ø§Ùħ
ĠÙħØ¹ Ø§Ø´
ĠÙħØ¹ ÛĮ
ĠÙģ ÙĪØ±ÛĮ
ĠÙĦ Ú©Ú¾
Øª Ûģ
Ø± Ø§Ûģ
ĠØ¨ÙĨÛĮ Ø§Ø¯
Ú¯ ÙĦ
ĠØ§ÙĦ Ø³ÙĦØ§Ùħ
ĠØ¯ÛĮ Ø¦ÛĴ
ĠØª Ø§Ø±ÛĮØ®
ĠÛģ ÙĦ
ĠØ¯ Ú©Ú¾
ĠØŃÚ© Ø§Ùħ
ĠÙĦ ÛĮÚº
ĠÚĪØ§Ø¦ Ø±ÛĮÚ©Ù¹Ø±
ĠØ¹Ø§ÙĦ ÙħÛĮ
ÛĮ Ø¨
ĠÙĨ ØªÛĮ
ĠÛĮ ÙĪÙĨ
ĠÙħØ´ Ú©ÙĦ
ØŃ Ûģ
ĠØªØ¹ Ø§ÙĪÙĨ
ĠØ§ÙħÛĮØ¯ÙĪ Ø§Ø±
ĠÙħÛĮØ± ÛĴ
ĠÙģ ÙĦ
ÙĪØ² ÛĮØ±
ĠØ¢Øº Ø§Ø²
ĠØ· Ø±ÛĮÙĤ
Ø¯ Ø§Ø¯
ÙĪÙĦ Øª
ĠØ¬Ø§Øª ÛĴ
ĠÙħÙĦØ² Ùħ
Ġ1 5
ĠÙĨÛĮ Ø¨
ĠØ± ØŃ
ĠØ±ÙĪ Ú©
ĠÙħ Ø«
Ù¹ ÙĨ
ĠØ® Ø§Ø±
ĠÚ©ÙĪÙĨ Ø³ÙĦ
Ûģ ÙĪ
ĠØ±ÛģÙĨ ÙħØ§
ÙĪØ¯ ÛĮ
ÛĮØ§Ø¯ Øª
ĠÛĮÙĤ ÛĮÙĨÛĮ
ĠØ¬Ø³ Ù¹Ø³
ÙĪ Ø§Ø¶ØŃ
ĠÚ©Ø§ÙħÛĮ Ø§Ø¨
ĠÙħÙĦ Ø§Ø²
ÙħÛĮ Ø±ÛĮ
Ú©ÛĮ ÙĪÙĨÚ©Ûģ
ĠØ¨ Ø§ÛģØ±
ĠÛĮÙĪÙĨÛĮ ÙĪØ±Ø³Ù¹ÛĮ
ÙĨØ¬ Ø§Ø¨
ĠÙģ Ø¶
ĠØµ Ø¯
ĠÚ¯ Ø±ÙĪ
ĠÛģÙħ Ø§Ø±ÛĮ
ĠÙģ ÙĦÙħ
ĠØ¢Ù¾ Ø±ÛĮØ´ÙĨ
ĠØ± Ø§Ø¦ÛĴ
ĠÙĨ Ø¦ÛĴ
ĠØ± ÙĨØ²
ĠØ¨ Øª
Ġ1 1
ĠÙĤ Ø±ÛĮØ¨
ĠÙĤ Ø¯Ø±
ĠÙħØ· Ø§ÙĦ
Ø§Ø± Ø§
ĠØŃÙĤ ÙĪÙĤ
ĠØ« Ø§Ø¨Øª
ĠÙ¾ Ø§Ø¨
ĠØ± Ø¨
ĠØ¹ÙĪØ§Ùħ ÛĮ
ĠÛĮÙĤ ÛĮÙĨ
ĠØ´ Ú©
ĠØªÚ¾ ÛĮÚº
ĠÚ©Ø± Ø§ÚĨÛĮ
ĠÚĪ Ø§Ú©Ù¹Ø±
ĠØª Ø§Ú©Ûģ
ĠÙħ Ø±Ø¯
ĠÙħÙĤ Øµ
Ø§Ø¶ ÛĮ
ĠØ§ÙĨØ³ Ø§ÙĨ
Ø±ÙĪ Ùģ
ĠØ§Ø³ Ù¹ÛĮ
ĠØ² Ø¨
Ø¹ Ø¶
Ø±ÛĮ Ø²
Ø§ÙĨÛģÙĪÚº ÙĨÛĴ
ĠÚĨÚ¾ ÙĪÚĳ
ĠâĢ Ŀ
ĠØ§ÙĨ ÚĪ
ĠÛĮ ÙĪ
ĠØ® Ø¯
ĠØ¢ ÙħØ¯
ĠØ¹ Ø²
ĠÙĤ ÛĮØ§Ø¯Øª
ĠØ§ÙĨØªØ® Ø§Ø¨
ĠÙħÙħ Ú©ÙĨ
ĠØ¨ ÙĪØ±ÚĪ
Ø± Ø§
ĠÛģÙĪ ÙĨØ§
Ùħ Ø¹
Úĳ Ø§
Ø¬ Ø±
ĠÙĨ Ø§Ú©
ĠÙĨ Øµ
ĠØ¨ ÛĮØ±
ĠØ³ÙĨØ¯ Ú¾
ĠØ¬ Ø§Ø¦Ø²
ĠÚ© Ø³
ĠÚĨÙĪÛģ Ø¯Ø±ÛĮ
ĠØ¨ ØºÛĮØ±
ÙĤ Ø±
Úĺ ÙĨ
ĠÙĪØ§Ù¾ Ø³
ĠØ§ÙĨØªØ¸Ø§Ùħ ÛĮÛģ
ĠÙħØª Ø§Ø«
ĠØŃ Ø±
ĠÚ©Ø§Ø± Ú©ÙĨ
ĠÙĨ Ø¦ÛĮ
ĠØ§Ø³ Ú©
ĠÙĪ Ø³
ĠØ± Ø§Ø¨Ø·
ĠÙĤØ± Ø¢ÙĨ
ĠØ³Ø§ÙĦ Ûģ
ĠØ§ÙĨØªÛģ Ø§Ø¦ÛĮ
ĠØ³ Ø§Øª
ĠØ¨Ø± Ø¢ÙħØ¯
ĠÙĦÚ¯ Ø§
ĠÚ©Ø§ÙħÛĮ Ø§Ø¨ÛĮ
Ġ Úº
âĢĺ âĢĺ
Ø± ÙĪÚº
ĠÙ¾Ûģ ÙĦÛĮ
Ø±ÙĪ Ø³
ÙĨ Ø§Ûģ
Ù¾ÙĨ ÚĪÛĮ
ĠØ§ÛĮ ÙĦ
Ø§Ø¤ Úº
ÙĪØ¨ ÛĮ
ĠÙ¾Ø±ÙĪ Ú¯Ø±Ø§Ùħ
ĠØ±ÛģÙĨ Ùħ
Ø¹ Øª
ĠØ³ Ú©ÛĮ
Ú¯ ÛĴ
Ø§ Ù¹
ĠØ§ÛĮ Ø³ÛĮ
ĠØ§Ø³ Ù¾
ĠØ®ÛĮØ§ÙĦ Ø§Øª
ĠØ³Ø±Ø¨Ø± Ø§Ûģ
ĠØ¬ÙĨ ÙĪØ±ÛĮ
ĠÚ©Øª Ø§Ø¨
ĠØ¢ ÙĨ
ĠØ¯ÙĪ Ø³Ø±ÛĮ
Øª ÙĦ
ĠØ§Ø· ÙĦØ§Ø¹
Ú© Ø³
ĠØ§ÛĮ ÚĨ
ĠØ¹ Ø±
ĠØ¨ Ø§ÙĪ
ĠÚĨ Ú©ÛĮ
Ùģ Ø§Ø¸
ĠÚĨ Ú©Ø§
ĠØ¬Ûģ Ø§Úº
Ø· Ø§ÙĨ
ĠØ³ ÙĨÚ¯
Ù¹Ø± Ø²
Ø§ÙĪÙĦ Ù¾ÙĨÚĪÛĮ
ĠØ± Ø§Øª
ÙĪ Ùģ
ÛĮÚ© Ø´ÙĨ
ĠÙħØ·Ø§ÙĦ Ø¨Ûģ
ØªÙħ Ø§Ùħ
ĠØ¨Ø± Ø§Ø¦ÛĴ
ĠØ¹ Ø°
ĠÙ¾ Ø®Øª
ÙĪ Ø«
ĠÚĨ Ú©ÛĴ
ĠÚ¯ Ø¦ÛĮÚº
ĠÙĪ Ø§Ø¶ØŃ
ÛĮÚ© Ø±
ĠØŃ Ø¯
Ùħ Ù¾
ĠØ³ Ø²Ø§
ĠÛĮ Ø¹ÙĨÛĮ
ĠÙģØ± Ø§ÛģÙħÛĮ
ĠØ³ Ù¹
ĠØ¸ Ø§ÛģØ±
ĠØ§ÙĨ Ù¹Ø±
Ø¬ ÙħØ§ÙĨ
ĠØ´ Ú©Ø§Ø±
ĠÙ¹ ÛĮÚ©Ø³
ĠÙ¾ Ø§ÙĨÛĮ
ĠØ§ ÚĨ
Ø³ ÙĪ
ĠÙĦÛĮ ÙĨÛĴ
ĠÙħ Ø§
ĠØ² Ø®
ĠÚ©Ø± ØªÛĮ
Ø§Ø¯ Ø±
Ø´ ÛĮØ¯
Ùħ ÙĪØ¯
ĠÙħÙĤ Ø¯
ĠÚ©Ø± Ø¯Ú¯ÛĮ
Ùģ Ø§Ø±
ĠØ¨ Ø§Ø²
ĠØ§ÛĮ ÚĪ
ĠØ³ Ù¹ÛĮ
ĠØ± Ø§Ûģ
ĠÙĨÚ© Ø§ÙĦ
Ù¾ÙĦ Ø²
ĠØ¢Ø¦ ÙĨØ¯Ûģ
ÚĨÚ¾ ÛĴ
ĠØ¯ÙĪØ± Ûģ
Ùħ ØŃ
ĠÙĦ Ø§Ø¦ÙĨ
ĠØ®ÙĪ Ø§Ûģ
ĠØ§ ÙĪÙĦ
ÙħÙĦ Ú©
Ø¨ ÛĴ
ĠÙħ Ø§ÙĦÛĮ
ĠØ¬ Ø§Ø¦ÛĮ
ĠØ§ÙĨØ¯ Ø§Ø²
ĠØ´ÛĮ Ø®
ÙĨÙ¹ Ø³
Ø ¤
ÛĮÚ© ÛĮ
Ú© Ø§Ø±ÙĪÚº
Ú¯ Ø§Ø±
ÛĮ ØŃ
ĠÛ ±Û
Ø¯ Ø§ÙĨ
ĠØ±ÙĪ ÚĪ
ĠÚ¯Ø±Ø¯ ÛĮ
ĠØ¨ÛģØª Ø±ÛĮÙĨ
ĠØµÙĪØ±Øª ØŃØ§ÙĦ
ÙĪ ÚĨ
ĠØ¯ Ø§Ø±ÛĮ
ÙĪ ÛĮÙĦ
ĠØ¨Ø§ÙĪ Ø¬ÙĪØ¯
Ø¨ ØŃ
ĠØ¨Úĳ Ø§
ĠÙģÛĮØµ ÙĦÛĴ
Ø« Ø±
ĠØ¯ Ø³Øª
ĠÙĨ Ø¨ÛĮ
ĠÙĨÙħ Ø§Ø¦
ĠÙ¾ÛĮ Øº
ÚĪÛĮ ÙĪ
Ø§ÙĦ ÙĦÛģ
ĠØ³ÛĮ Ø§Ø³Øª
2 0
Ùħ ÙĪÚº
ĠØ´ÛģØ±ÛĮ ÙĪÚº
ĠØªØ¹ ÛĮÙĨ
ĠØ° Ú©Ø±
ĠØ³Ú© ÙĪÙĦ
Ø´ Ø§ÙĪØ±
ĠØ³Ú© ÛĮÚº
ĠÙ¾ Ø§ÙĦÛĮ
Øµ ÙĦ
Ø§Ø± ÚĪ
Ø° Ø§
ĠÙħÙĤ Ø±
ĠÚ©ÙħÛĮ Ø´ÙĨ
Ø§Ø¯ Ø±ÛĮ
ĠØ§Ø® Øª
ÙĪÙĦÛĮ Ø§Øª
Ú¾ ÙĪÚº
ĠÙĤ ØªÙĦ
Ġ1 4
ĠØ³ÙĦØ³ ÙĦÛĴ
Ø³ Ø§
Ø§Ùģ ÛĮ
ĠØ¨ ÙĪ
Ġ Ú¾
Ø§Ø¦ ÙĪÙĨ
ĠÚ©Ø§ÙĨ ÙģØ±ÙĨØ³
Øº Ø§ÙĨ
ĠØº ÙĦ
ĠÙħØª ØŃ
ĠØ² Ø±
Ø§Ø¨ Ø±
ĠÙĨ Ú¯Ø±
ĠØ¨ Ø¹Ø¶
Ġ2 5
ĠÛĮÛģ ÛĮ
Ø§ÙĨ Ø³
ÚĨ ÛĴ
ĠØ¹Ø° Ø§Ø¨
ĠÙħØ³ Ø¦
ĠÙ¾ ÙĨØ¬Ø§Ø¨
ĠØ¹ Ø±Ø¨
ĠÙħÙĨØª ÙĤÙĦ
ĠÙħÙĤØµ Ø¯
ĠÙħØ±Ú© Ø²ÛĮ
Ġ1 3
ÙĤ ÛĮØ¯
ĠÙħÛĮ Ø±ÛĮ
Ù¹ ÛĴ
ĠØ®Ø§Øª ÙĪÙĨ
ĠÙĨÙĪ Ù¹Ø³
ĠÙ¾Úĳ Ú¾
ĠÙĪ ÙĤ
ĠÚ© Ø¨Ú¾ÛĮ
ĠØ³ÙĦØ³ ÙĦÛģ
ĠÚ©Ùħ Ù¾
Ø® ÛĮ
ÙĪØ§Ùħ ÛĮ
ĠÚĨØ§Ûģ ØªÛĴ
ÙĨÙ¹ Ø±
ĠØ¨ÚĨ ÛĴ
ĠØ¬ Ø§Ùħ
Ø±ÛĮ Ø¯
Ø® Ø¨
. .
ĠØ¨Ø¬ Ø§
Ûģ ÛĮ
ĠØ¨Ø± Ø³
ĠØªØŃ ÙģØ¸
Ø§Ø¦ Ø¨
ĠÙ¹ÛĮ Ø³Ù¹
Ø§Ø² Øª
Ø¬ Ø¯
ĠÙĤÛĮÙħ Øª
ĠÚĨ ÙĨØ¯
ÙħÛĮ Ø´Ûģ
ĠØ®Ø§Ø± Ø¬Ûģ
ĠÙħØªØ¹ÙĦÙĤ Ûģ
Ú© ÙĪØ±Ûģ
ÚĨ Ø±
ĠÚ©Ø´ ÙħÛĮØ±ÛĮ
Ø§Øª Ø§
ĠØ¯ ÙĪØ¨
Û Ķ
ÙĨ Øª
ĠØŃ ÙĤÛĮ
Ú¯ Ø±ÛĮ
Ø§ØŃ Ø¨
Ø§Ø¦ Ø³
ĠÛģ Ø§Ø¦ÛĮ
ĠÙħÙĨØ¹ÙĤ Ø¯
ĠØ· Ø§ÙĦØ¨
ĠØµÙĪØ¨ ÛĴ
ĠØ±Ûģ ÛĮÚº
ĠØŃØ³ ÙĨ
ĠâĢĻ âĢĻ
ÙħØ§ ÛĮÛģ
Ø³ ÙĪØ³
ĠØ§Ø¬ Ø§Ø²Øª
ĠØ¹ Ø§Ø¦Ø¯
ÙĪ Ø´
Ø² Ø¯
ĠÙħØŃ ÙħÙĪØ¯
ĠÛĮ Ø§Ø¯
ÙĤ Ûģ
ĠØ§ ÙĤØª
ĠÙ¾Ø§ÙĦÛĮ Ø³ÛĮ
ĠÙħ ÙĦÛĮ
ÙĦ Øª
ĠØ¨ÛĮÙĨ Ú©
ĠØ§Ùħ ÙĪØ±
ĠØ¨ ÙĦØ§
Ø± Ø³
ĠÙħØ± Ø§Ø¯
ĠØ¨Ú¾ Ø§Ø±ØªÛĮ
Ù¾Ø§Ú© Ø³ØªØ§ÙĨ
ĠØ± Ø§Ø³Øª
Øª Ø§Ú©Ûģ
Ø® ÙĦØ§Ùģ
ĠØ±Ú©Ú¾ ØªÛĴ
ĠØ¹Ûģ Ø¯
ĠÛģ ÙħÛĮØ´Ûģ
Ø³ Ø§Ø¨
ĠÙĪÛģ Ø§Úº
Ù¹ Ûģ
ĠÙĤØ§Ø¨ ÙĦ
ĠÙĨ Ùģ
ĠØ§ÙĤ Ø¨Ø§ÙĦ
Ø· ÛĮ
ĠØ²Ø® ÙħÛĮ
Ø¢ Ù¾
ĠÙ¾ÙĪØ± Ø§
Ø¹ ÙĦÛĮ
Ø³Ù¹ Ø±ÛĮ
Úĳ Ú©
ĠØ¯Ú¾ Ùħ
Ġ3 0
ĠØ¨Ú¾ Ø§Ø±Øª
ĠÚ©Ø± Ø¯Ûģ
ĠÚ©ÙħÙ¾ ÙĨÛĮ
ĠÙĨ Ú©ÙĦ
ĠÙĪØ² Ø§Ø±Øª
Øª Ø§ÙĨ
Ø¨ ÛĮØ±
ĠÚ¯Ú¾ ÙĨÙ¹
ĠØ¢Ú¯ ÛĴ
ĠÚ© ÙĪØ±Ù¹
ĠÚ© Ø§Ø±ÛĮ
ĠÙħØ¸ Ø§Ûģ
ĠÙ¾Ø®Øª ÙĪÙĨ
ÙħØ¨ ÙĦÛĮ
Ù¾ Ú¾Ø±
ĠØ§ÙĦØ² Ø§Ùħ
ĠÛģÙĦ Ø§Ú©
ĠÙĤ Ø±Ø¨
ĠÚ©Ûģ ØªÛĴ
ÙĪÙĦ ÙĨÚ¯
ĠØ¨Ú¾ Ø§Ø¦ÛĮ
Ø¯ÛĮ ÙĦÛĮ
ĠØ±ÛĮ ÙĦÛĮ
ĠÙħÙĤ Ø§Ùħ
Ø¹ Ø§ÙĦ
ĠØ§ÙĨ ÙĪÚº
ÙĤ Ø¨ÙĦ
ĠØ¬ Ø±
ĠØ§Ø³ Ù¹
Ù¾ ÙĪÙĦÛĮ
Ø¯ ÙĪØ³
ĠØªØŃÙĤÛĮÙĤ Ø§Øª
ĠØ³Ø± ÙħØ§ÛĮÛģ
ĠÙĨÙħ Ø§Ø²
ĠØ¨ÛĮ Ù¹Ú¾
ÛĮØ¯ Ø±
ĠØªÙħÛģ Ø§Ø±ÛĴ
ĠØŃ ÙĦÙĤ
ĠÙĪ Ø±Ú©
ĠÙģØ±ÙĪ Øº
ĠØ¯ÛĮ ØªØ§
ĠØ³Ûģ ÙĪÙĦÛĮØ§Øª
ĠØ¯ÙĪØ¨ Ø§Ø±Ûģ
² Û
ĠÙĨØªÛĮ Ø¬ÛĴ
ÚĨ Ûģ
ÙĪÛĮ ÚĺÙĨ
ĠØ¨ Ø§
ĠÚ©ÙĦ ÙĪ
ĠâĢ ľ
Ú© Úĳ
ĠØ³Ø§Ùħ ÙĨØ§
Ġ ÛĮÚ©
ĠØ¨Ø¬ ÛĴ
ĠØ§Ùħ Ø§Ùħ
ĠÙħÙĤ Ø§ÙħÛĮ
Ø§ÙĤ Øª
ĠØ¨ Ø±ÙĪ
Ø¯ Ø¯
Ø° Ø±Ø§Ø¦Ø¹
ĠØª ÙĦ
Ø¨ÙĦ Ú©Ûģ
ĠØ¢ ØµÙģ
Ùħ ÛĴ
ÙĪ Ø²ÛĮØ´ÙĨ
Ù¹ ÙĨÚ¯
Ø§ÙĨ Ø¯
Ø§Ø¬ ÙĦØ§Ø³
Ù¹ ÙĦ
ĠÙħÙĨØµÙĪØ¨ Ûģ
ÙĪ Ø§Ø¦ÛĮ
ÚĨÚ¾ Ø§
ĠØªØ¨ Ø¯ÛĮÙĦÛĮ
ĠÙħÙĦØ§Ø² ÙħÛĮÙĨ
ĠØ¢Ø² Ø§Ø¯ÛĮ
ÙģØª Ûģ
ĠÙħÙĤØ§Ø¨ ÙĦÛĴ
Ø§Øµ Ø±
ĠØ¹ Ø·
ĠØªÙĪ Ø¬Ûģ
ÛĮØ± Ûģ
ĠØ¯ Ø´
ĠØ¢ ÙģÛĮØ³Ø±
1 8
ĠÙģ ÙĪØ±Ø³
ĠÙħÙĤØ¯ ÙħÛģ
ĠØµ Ø§ØŃØ¨
ĠØªØ¹ÙĦÙĤ Ø§Øª
ĠØ¨ Ú©
ĠÙ¹ ÙĪ
ĠØ¯ Ø¨
ĠØ§Ùģ ØºØ§ÙĨ
ĠØ³ Øª
ĠØ¬Ø³ Ùħ
ĠÙĨÙħØ§Ø¦ ÙĨØ¯
ĠÙĨÛĮ Ø´ÙĨÙĦ
ĠÙģ ÙĪÙĨ
ÙģÙĪ Ø¸
ĠÚ©ÛĮ ÙĪÙĨÚ©Ûģ
ĠØ Ł
ĠÚ¯Ø±ÙĪ Ù¾
ĠÙģ Ø§Ø¦
Ø±ÛĮ Øª
ĠØ¨ Ø³
ĠØ§ ÙĨÛĴ
ĠØ®ÛĮ Ø¨Ø±
ĠÙĪ ÙĨ
Ø²ÛĮ Ø²
Ġ1 8
ĠØ¯Ø§Ø® ÙĦÛģ
ĠÙħÙĨØµÙĪØ¨ ÛĴ
Ø§ÙĦ Øª
Ùħ ÙĤ
ĠÙħØ¹Ø§Ùħ ÙĦÛĴ
ĠØªÙĨ Ø¸ÛĮÙħ
Ø¦ ÙĨ
ĠØ² ÙĪØ±
ĠØ® Ø§ÙĦ
ĠÙħØŃ ÙģÙĪØ¸
ĠØ¯Ø§Ø® ÙĦ
ĠØ¯ÛĮÙĨ Ø§
ĠØ§ØŃ Ú©
ĠÙģÛĮ Ø³
ĠÙħØ³ÙĦÙħØ§ÙĨ ÙĪÚº
ĠÙ¾Ø§Ø¨ ÙĨØ¯ÛĮ
ĠÙħ ÙĨØ§
ĠÙħ ÙĪÙĦ
ĠØ® Ø§Øµ
ĠÙĦ Ø§ÛģÙĪØ±
ĠØ¨Ú¾ÛĮ Ø¬
ĠØ¨ÙĦ ÙĪÚĨ
ĠÚ©ÛĮ ÙĪÚº
ĠÙĤ Ø±ÛĮ
ĠØ¹ ÙĨ
ĠÙĤ Ø§Ø¦Ø¯
ĠÙħÙĦ ÛĴ
ÙĪ Ø³ÛĮ
ĠØ¬ÛĮ Ø³ÛĴ
Ø¨ ÙĪØª
Ø¯ÙĪØ³ Ø±ÛĮ
Ø§ØŃ Øª
ĠØ§Ø³ÙĦØ§Ùħ ÛĮ
ÙĪØ± ÙĪÚº
ĠÙ¾Ø®ØªÙĪÙĨ Ø®ÙĪ
ĠÙ¾ÛĮ Ù¾ÙĦØ²
ÙĪ Ù¹ÛĮ
Ø¬Ûģ Ø§Úº
ĠÙħ ÛĮØ§Úº
ĠØª Ø±Ø¨
ĠÙģØ±ÙĪ Ø®Øª
ĠØ§Ø¨ ÙĨ
ĠØ¢ ÙĦ
Ù¾ Ø§Ø±Ù¹ÛĮ
Ù¾ÙĪÙĦÛĮ Ø³
ĠÙ¾ Ú¾ÛĮ
Ø§Ø¦ ÙĪÚº
Ø§Ø¦ ÙĪ
Ø³ Ú©
ĠØ¬ Ø±Ùħ
ĠÙħØ¹ÙĦÙĪÙħ Ø§Øª
ĠØ§Ø³ ÙħØ¨ÙĦÛĮ
ĠÙħÙĪ Ù¹Ø±
Ø¨ Ø§Ø²
ĠÙħÙĪØ¬ÙĪØ¯ Ûģ
ĠÚ© ÙĪØ±
ĠÙĪ ÙĪ
Ú¯ Øª
Ù¹ Ø±ÙĪ
ĠÙ¾Ø±ÛĮ Ø³
ĠÙĨØ´ Ø§ÙĨÛģ
Ø¬ÙĨ Ø³ÛĮ
ĠÚĨ ÛĮÙĨ
ĠØ³ Ø±ÙĪØ³
Ø¨ Ø§Ø±
ÙĨØ¯ Ø±
ĠÙģ Ù¹
ĠØªÙĤ Ø³ÛĮÙħ
ĠØ´ÛĮ Ø¦Ø±
ĠØ§ÙĨ Ø¹ÙĤ
Ġ1 6
Ø® Ø±
ĠÚ¯ ÙĪØ±ÙĨ
ĠØŃØ§ÙĦ Øª
Ø± Ø§Ø¦ÛĮ
ĠØ³ ÙĪØ±
ĠÙ¾ ÙĦØ§ÙĨ
ĠØ§ØŃØª Ø³Ø§Ø¨
ÚĪ ÙĦ
ĠØ´ Ø§ÙĨ
ĠÙħØ® Ø§ÙĦ
Ùħ Ø²
ĠØ¬Ø§Ø¦Ø² Ûģ
Ø¹ Ø§Ùħ
ĠØ¢Ø® Ø±ÛĮ
ĠØ¢Ú¯ Ø§Ûģ
ĠØ§ÙĨØ¹ÙĤ Ø§Ø¯
ÙħÛĮ ÙĦ
ĠØµ ÙĦØ§ØŃ
ĠÙħÙĪ Øª
Ø§Ø¦ ÛĮÚ©
ĠØ¬Ø§ ÙĪ
ÙĦÛĮ ÙħÛĮ
ĠØ¨ ÛĮÙħ
Ø¬ Ø²
Ø¹Ø¯ Ø¯
ĠØ³ÛĮÚ© ÛĮ
ĠØ® ÙĪØ¨
ĠØ´Ø¹ Ø¨Ûģ
ĠØ´ Ú©Ø±
Ø¯ ÛĮÙĦ
ĠÙĪØ§ÙĤ Ø¹Ûģ
Ġ201 9
ĠÙĤØ¨ ÙĪÙĦ
ĠØ³ ÛĮÙĦ
ĠØ³Ø§Ø¦ ÛĮÚ©ÙĦ
ĠÚ©ÛĮ Ø®ÙĦØ§Ùģ
ĠÛģÙħ Ø±Ø§Ûģ
ĠÚ©ÛĮ ÙĪ
Ù¹ Ú©
ĠÙħ Øº
ĠØ´ Ú©Ø§
ĠØ¯ÙĪ Ø³Øª
ĠØµØŃ ÛĮØŃ
ÙĦÛĮ ÙĦ
Øµ ÙĪÙĦ
Ø Į
Ú©ÛĮ Ø´ÙĨ
ĠØ§ÙĨØ¬ Ø§Ùħ
ĠÙĤ ÛĮØ¯
Ú© Ùħ
ĠØ¯ Ø³
ĠØ§ÙĨØªØ® Ø§Ø¨ÛĮ
ĠÙħÙĦ ÙĪØ«
ĠÙĪ Ø·
ĠØ° Ø±Ø§Ø¦Ø¹
ĠØ§ÛĮ Ø´ÙĨ
ĠÙħØ§Ø± Ú©ÛĮÙ¹
ĠØŃ ÛĮ
Ø´ Ú©
ĠØ³ÛĮÚ©ÛĮ ÙĪØ±Ù¹ÛĮ
ĠØ±ÙĪ Ø§Úº
ÛĮÙĨ Ø§
ĠÙĪ Ø§
ĠÚĪ ÙĪÛĮÚĺÙĨ
Ø« Ø§Ø±
ĠØ³ Ø±Ø¯Ø§Ø±
Ûģ ÙĪÚº
ĠØ§ÙħØ±ÛĮ Ú©Ø§
ĠØ´Ú© Ø³Øª
ĠØ³ÙĪ Ø´ÙĦ
Ø² Ø§Ø¯
ĠØŃÙħ ÙĦÛĴ
ĠØ±ÛĮ Ø§Ø³Øª
Ġ !
ĠÙģ ÙĨÚĪ
ĠÙħØ¶ Ø¨ÙĪ
ĠØº ÙĦØ§Ùħ
ĠØ® Ø²
ĠØ¨ Ø´
ĠÙħÙħ Ø¨Ø±
Ø¦ÛĮ ÛĴ
ĠØªØ¹ ÙĦÛĮÙħÛĮ
ĠÙģÛĮØµ ÙĦ
ĠØ´ Ø±ÛĮÚ©
Ø³Ù¹Ø± Ú©Ù¹
ĠÙ¹ Ø±
Ú© ÛĮØ§
ĠØ³ Ø§
Ø¹ Ø§Øª
Ø¯ÛĮ ÙĤ
ĠÙĨÙĤ Øµ
ĠÙħÙĤØ§Ø¨ ÙĦÛģ
ĠØ´ Ùģ
ĠØªÙģ ØªÛĮ
ÚĪ ÙĨÚ¯
ĠØ§Ø¨ Ú¾ÛĮ
Ú¯ Ø±Ø¯
Ø± Ú©Ûģ
ĠØ§Ø¹ ØªØ±
ÙĨÚ¯ ÛĮ
ĠØ± ÛĮÚ©
ĠÙħØª Ø¹Ø¯Ø¯
ĠØ¨ÙĨ Ø§Ø¦ÛĴ
ĠØµ ÙĨ
ĠÙĨ Ø§Ø²
ĠØµ Ø§Ùģ
ĠÙ¾ ÙĦ
ÙĪ Ø§Ø²
Ø§Ø¦ Ø¬
ĠØ¯ÛĮÚ©Ú¾ Ø§
Ù¾ ÙĪØ±
Ø§ÙĦ Ûģ
ĠÚ¯ Ø°
ĠØ³ Ø§Ø²
Ø§Ø± Ù¹
ĠØŃØ§ÙĦ Ø§Øª
ĠÙħ Ø§ØŃ
ĠÙģÙĪ Ø¬ÛĮ
ĠØ¬ÙħØ§Ø¹Øª ÙĪÚº
1 9
ĠØ¹ ÙĪØ±Øª
ĠØªÛĮ Ø²
ĠØ¨ÙĨÛĮ Ø§Ø¯ÛĮ
ĠÙĨ Øª
ĠØ³ÛĮÙĨ Ø¦Ø±
ĠÙħ Ø±ÛĮ
ÙĨ Ø§Ú©
ĠØªØ¨ Ø¯ÛĮÙĦ
ĠØ®Ø§ÙĨ Ø¯Ø§ÙĨ
ĠØ§Ùħ Ø±
ĠÙ¾ÛĮØº Ø§Ùħ
ĠØ§Ø®Ø¨ Ø§Ø±
Ø§Ø¯ Ø«
ĠÙħØ±Øª Ø¨Ûģ
ĠØ§Øª Ú¾
Ø³ Ûģ
Ø³ ÛĮÙĨ
ĠØ®Ø¯ ÙħØª
ĠÙ¾ÙĪØ± ÛĴ
ĠØ³Ø± Ú¯Ø±
ĠØ±Ûģ ÙĨÛĴ
ÙĤ ÛĮÙĨ
ĠØ±ÙĪØ² Ûģ
´ Û
ĠØ´ Ø§Ùħ
ĠØ§ ÙģØª
ĠØ§ÙĦ Ø§ÙĤ
ĠÙĨØ´ Ø§ÙĨ
ĠØ§Ù¾ ÙĪØ²ÛĮØ´ÙĨ
ĠÙĪ ÙĦ
Ġ1 7
ĠØ® Ø¯Ø§
ĠÙħÙĨØ¸ ÙĪØ±
ĠØ§ÙĦ Ø±ØŃ
ĠØ§ÙħÛĮ Ø¯
ĠÚĨ ÛĮØª
ĠÙĨÙĤØµ Ø§ÙĨ
ÙĦ Ø²
ĠØ§Øª ØŃ
ÙĦ ÛĮÚ©ÙĨ
ĠÚĨØ§Ûģ Ø¦ÛĴ
ĠÙģÙĪ Ø¬
Ø§Ø¯ Øª
1 0
Ø§ÙĨ Ú¯
ĠØ¬ ÛĮØª
ĠØ®ÙĪØ§Ûģ Ø´
ĠØ§ÙĦØŃ Ø¯ÛĮØ«
ĠØ¹ÙĦØ§ÙĤ Ûģ
ĠØµ Ø§Ø±Ùģ
ĠØ³ ÙĦØ§Ùħ
ĠØ¬ ÛĴ
ĠÚ©Ø§Ø± ÙĪØ§Ø¦ÛĮ
ĠØ§ ÙħØ¯
ĠØ§Ø³Ù¾ ØªØ§ÙĦ
ĠØµØ¯ Ø§Ø±Øª
Ùģ ØªÛĴ
ĠØ¬Ø§ÙĪ ÛĮØ¯
ĠÚ© Ø§Ø´Øª
ĠØªØ± Ø¬ÙħØ§ÙĨ
ĠØºÙĦ Ø·
ĠØ´ ÙĪ
ĠÙģØ§Ø¦ Ø¯Ûģ
ÙĪØ¯ Ú¾
ĠØ¶ÙĦ Ø¹ÛĮ
ĠØ¹Ùħ ÙĦÛĮ
ĠØª Ø§Ø¬
ĠÙħØ° Ûģ
ĠÙħØ³Ø¦ ÙĦÛģ
ÙĨÛĮ Ø´ÙĨÙĦ
ĠØ³ ÛĮÙĨÛĮ
ĠØª Ø§
ĠØ¨ Ø±ÛĮ
ĠØ§ÙĦØ§ÙĤ ÙĪØ§ÙħÛĮ
ĠØ¨ÛģØª Ø±ÛĮ
ĠØ¨ Ø±Ø¯
ĠØ± Ø§ÙĪÙĦÙ¾ÙĨÚĪÛĮ
Ġ2 4
Ø¦ Ù¹Ûģ
ĠØ± Ú©ÙĨ
ÙĦÛĮ Ûģ
ĠÙħØ° Ú©ÙĪØ±Ûģ
ÛĮ Ø§Ø¡
ĠÙħÙĨØª Ø®Ø¨
ÙĪ ÛĴ
Ù¾ Ûģ
ĠØ® Ø±ÛĮØ¯
ĠÛģ ÛĮÙĦ
ĠØ® Ø¯ÙħØ§Øª
ĠÙħØ¬ ÙħÙĪ
ĠÙģ Ø§Ø¦Ø±
ĠØ¢ Ø¯
ĠØ§ØªÚ¾ Ø§Ø±Ù¹ÛĮ
ĠÙħÙĦ ÛĮÙĨ
ÙĨØ¯ ÙĨ
ÙĪ ÛĮØ±
ĠØ¹ ÙĦ
ĠÙħÙĨØ¸ ÙĪØ±ÛĮ
ĠÙħÙĪ Ø³ÛĮ
ĠÙħ ÙĦØ§
ĠØªØ± Ø¬ÛĮ
ĠØ¯ Ø±ÛĮ
ĠØªØ±ÙĤÛĮ Ø§ØªÛĮ
ĠØ¹Ø¨ Ø§Ø³
ĠØ¹Ø± Øµ
ĠØ¯Ø¹ Ø§
ÙĨÙ¹Ø± ÙĪÙĦ
Ø®Øµ ÙĪØµ
ĠØŃ ÛĮØ¯Ø±
ĠØ® ÙĪØ±
ĠØª Ø§Ø²Ûģ
ĠØŃ ÙħØ§
³ Û
2 2
Ø§ÙĨ ÚĪ
Øµ Ø±
ĠÙħÛĮ Ù¹Ø±
ĠÚ©Ú¾ÙĦØ§ ÚĳÛĮÙĪÚº
ĠÙħ Ø±ØŃ
ĠØ§Ø± Ø´
ÙĪÙħ ÙĨ
Øª Ø§ÛģÙħ
ØŃ Ø¶
ĠØ¯ÛĮ ÛĴ
ĠÚ©Ûģ ÛĮÚº
ĠÛģ ÙģØªÛĴ
ĠØ± ÙĨÚ¯
ĠØª ÙģØµÛĮÙĦØ§Øª
Ø³Ù¹ Ùħ
ĠÚ©Ø± ÛĮÙħ
ĠØ¨ Ø§Ø¯
ĠØªØ±Ø¬ÛĮ ØŃ
ĠÚĪ Ø³Ù¹Ø±Ú©Ù¹
ĠØ· Ø¨ÛĮ
ÙħØ± Ø§ÙĨ
ĠØ§Ù¾ ÛĮÙĦ
Ûģ ÛĮÚº
ĠØ¨ Ø²
Øµ ÙĪØ±
Ø± Ø§Ø¬
ĠØ±Ø§Ø¨Ø· Ûģ
ĠÚĪ Ú¾
ĠØµ Ø¨ØŃ
ĠØ³ ÙģØ±
Ø¶ ÙĪÚº
ĠÙĪ Ú©Ù¹
ĠÙħ ÙĨØ¯
Ø¹ ÙĦ
Ġ .
Ù¾ Ø´Ø§ÙĪØ±
Ø±ÛĮ Ù¹Ø±ÛĮ
ĠÚ¯ ÙĨØ§Ûģ
Ø« ÛĮØª
ĠØª Ø³
ĠØ¢Ø¦ ÛĮÚº
Ø¬ Ø³Ù¹
ĠØ¬ÙĨ ÙĪØ¨ÛĮ
ĠÙħØ¶Ø¨ÙĪ Ø·
ĠØ¶Ø± ÙĪØ±
ĠØµÙĦØ§ØŃ ÛĮØª
ĠÙħÙĤØ± Ø±
ĠØ¯Ùģ Ø§Ø¹
ĠØ±Ú© Ú¾ÛĮ
Ø§ÙĨÛĮ Ûģ
ĠÚ¯Ø² Ø§Ø±
ĠØ³Ùħ Ø§Ø¹Øª
ĠØ´Ø§Ûģ Ø¯
ĠÙĪ Ø¹Ø¯
Ø° Ûģ
Ø§ÙĨ Øª
ĠØ§ØŃØª Ø¬
ÙĤ Ùģ
ĠÙĪØ± Ø²ÛĮ
ĠØ§Ø³ Ùħ
ĠØ±Ú©Ú¾ ÛĴ
ĠÙ¾ÛĮØ¯ Ø§ÙĪ
ĠÙħØ´Øª ÙħÙĦ
ĠØŃÙħØ§ ÛĮØª
Ø¬ Ùħ
ĠÚ¯ Ø±ÛĮ
ĠÙħØ¸Ø§Ûģ Ø±Ûģ
Ġ5 0
ĠØ³Ø¹ ÛĮØ¯
ĠÙĦ Ø§ÙĨÛĴ
ĠØ¬ Ø¯ÛĮØ¯
ĠÙħØ³Øª ÙĤØ¨ÙĦ
ÙħÛĮ ÙĪÚº
ĠØ§Ø·ÙĦØ§Ø¹ Ø§Øª
ĠÚ¯ ÙĪÙĦ
ĠÙĨØª Ø§Ø¦Ø¬
ĠÙħØ¹Ø§Ùħ ÙĦÛģ
ĠÚ© ÙĨÙ¹Ø±ÙĪÙĦ
Ø² Ûģ
ĠÙħØ´Øª Ø±Ú©Ûģ
ÙĪØ³ Ùģ
ĠØ¹ ÙĦØ§Ùħ
ĠØ§ÙĨ Ú©Ø§Ø±
ĠÙĤ ÙĪØª
ĠÙħØ´Ú©ÙĦ Ø§Øª
Ø§Ùģ Øª
ĠÚĨ ÛĮÙħ
ĠÙĦ ÛĮÙĨÚĪ
ÙģØª Ø±
ĠØ§ÛĮ Ø¦Ø±
ĠØ§Ø³Ú© ÙĪÙĦ
ĠÙħÙĤ Ø¯ÙħØ§Øª
ÙĨ Ùħ
Ġ /
ĠÙħØ§Ûģ Ø±ÛĮÙĨ
ĠØ§ÙĨØªØ®Ø§Ø¨ Ø§Øª
ĠÚ©Ú¾ÛĮ ÙĦ
Ø´ ÛĮØ§
1 3
ĠØ¨ ÙĪÙĦ
ĠÙħÙĪÙĦ Ø§ÙĨØ§
ĠØ³Ûģ ÙĪÙĦØª
ĠÙĦÛĮ ØªÛĴ
ĠØ± ÙģØª
ĠÙħØ¹ Ùħ
Ù Ķ
ĠÙħØªØŃ Ø¯Ûģ
1 5
ĠÙħ ÙĨÛĮ
ĠÚĨ ÛĮÚ©
ØŃ ÙĤ
ĠØ¨ÙĦ ÙĨØ¯
ÛĮÚ© Ù¹
ĠØ±ÙĪ Ø´
ĠÙħÙĤ Ø§ÙħØ§Øª
ĠØ§ÚĨ Ú¾ÛĮ
ĠØ¹Ø§ÙĦ Ùħ
1 2
Ø§ÙħÙĦ Ø§Øª
Ùģ Ø§ÙĤ
ĠÙĨ ÛĮÚ©
Ġ20 0
ĠÙģ ÙĨ
ĠØª Ø¨Ø§Ø¯
Ù¹ ÙĨÛĴ
ĠØ¯ Ùħ
ĠÙħÙĨ Ûģ
Ø¶ ÛĮ
ĠÙĨØ§Ú© Ø§Ùħ
ĠÙħØªØ§Ø« Ø±
ÙħÛĮ ÚĪ
ĠØ³ÛĮ Ø±ÛĮØ²
ĠÚĨ ÛĮÙĨÛĮ
Ø¶ ÙĦ
ĠØ§Ùħ Ú©Ø§ÙĨ
ĠÚ¯Ø±ÙģØª Ø§Ø±ÛĮ
ĠÚ©Ú¾ÙĦØ§ ÚĳÛĮ
ĠØ¢ ÙĪØ§Ø²
ĠØ§Ø³ Ø±Ø§Ø¦ÛĮ
Ú©Ø´ ÙħÛĮØ±
ĠÙĪØ· ÙĨ
ĠØ¯Ø´ ÙħÙĨ
ĠØ¨ÙĨØ¯ ÛĮ
ĠÚ©Ùħ ÙĨÙ¹Ø³
ĠØ§Ø¯Ø§Ú© Ø§Ø±Ûģ
ĠÙħØ¹ ÙĨÛĮ
ĠØ· ÛĮ
ĠÙħØŃ Ø¨Øª
ĠÙĨ Ø¬ÛĮ
ĠÙħØ¬ÙħÙĪ Ø¹ÛĮ
ĠØ´ Ø§Ø¯ÛĮ
1 1
ĠØ¹ Ø¨Ø§Ø¯
ĠØ§ÙĨØªØ¸ Ø§ÙħØ§Øª
ĠÙĨÛĮ ÚĨÛĴ
ĠØ®ÙĪ Ø§Ø¬Ûģ
ĠÙħØ¨ Ø§Ø±Ú©
ĠÙħØ¹ Ø§ÙħÙĦØ§Øª
Ġ 0
ĠÙĦÚ¯ ÛĴ
3 0
ĠÙħÙĨØµÙĪØ¨ ÙĪÚº
ĠÙ¾ ÙĪÙĦÙĨÚ¯
Ø¦ ÛĮØ±
Ø´ Ø±
ĠØªÙħÛģ ÛĮÚº
ĠÚ©Ú¾ Ø§ÙĨÛĴ
ĠÙģ Ø§Ø¦ÙĨ
ĠÙĪ Ú©ÛĮÙĦ
Ø§Ûģ ÙĪÚº
ĠÚ©Ø§ÙĦ Ø¬
ĠØ§ÙĦ Ùħ
ĠØ³Ø¹ ÙĪØ¯ÛĮ
ĠØªÙĦ Ø§Ø´
ĠØ· ÙĦ
ĠØ´ Ù¾
ĠØ³Ùħ Ø§Ø¬ÛĮ
ĠØªØ´ Ú©ÛĮÙĦ
ĠØªÙģØªÛĮ Ø´
ĠØµÙģ Ø§Ø¦ÛĮ
ĠÚ©ÙĦ Ø¨
Ø§ÙĨ Ú©
Ø§Ùħ Ûģ
ĠØ¹ Ø¯
ĠÙħ ÛĮØ¯
Ø¹ ÙĪØ§Ùħ
ÙĪÙĨ Ù¹
ĠØ¯ÙĨ ÙĪÚº
ĠÙ¾Ø§Ø± ÙĦÛĮÙħ
ÙĪÙħ ØªÛĮ
ĠØ³ÙĪ ÚĨ
ĠÚ© ÛĮÚº
ĠØ¬ Ø°
ĠÛģÛĮ ÚĪ
ĠÙĪÙģ Ø¯
ĠÙĨ Ø«Ø§Ø±
âĢ ľ
ĠÛĮ ÙĪØ³Ùģ
Ø§ Úĳ
ĠØ¨ Ø·
ĠØ¯Ø§Ø± Ø§ÙĦ
Ú¾ Ùħ
ĠØ§Ûģ ØªÙħØ§Ùħ
ĠØŃ ÙģØ§Ø¸
ĠÙĪÛģ ÛĮ
ĠÙģ ÙĪØ±
Ġ1 00
ĠØªØ¹ÛĮÙĨ Ø§Øª
ĠØªØ´ Ø¯Ø¯
ĠØ§Ø¶Ø§Ùģ ÛĴ
1 4
ØªÙħ Ø§Ø¯
Øµ ÛĮ
ĠØ´Ûģ Ø¨Ø§Ø²
ĠÙħØ° ÙħØª
2 5
ÛĮØ± Ø§ÙĨ
ĠÙĪØ³ Ø§Ø¦ÙĦ
ĠØ§ÙĦ ÛĮÚ©Ø´ÙĨ
ĠÙĨ Ø§Ùģ
ĠØ· Ø§ÙĤØª
ĠØ¯ ÙģØªØ±
ĠÛģÙħ Ø§Ø±Ø§
ÛĮØ¯ Ûģ
ĠÚ¯Ø² Ø±
ÙħØŃ ÙħØ¯
ĠØ§ÛĮ ÚĪÛĮ
ÙĪÙ¹ ÛĴ
ĠØ¯ Ø§Ø¦Ø±
ĠØ¨ Ø§Øº
ØŃÚ© Ø§Ùħ
ĠØ³ÛĮÚ© Ø±ÛĮÙ¹Ø±ÛĮ
ĠØ®ÙĪ Ùģ
ĠØ§ÙĦ Ú¯
ĠÙ¾ ÙĪØ±Ù¹
ĠØ¨Ø± Ø§Ø¯Ø±ÛĮ
ĠÙħØ¹Ø§Ø´ ÛĮ
ĠÚ©Ø± Ú©Ù¹
ĠØ¹Ø§Ùħ Ø±
ĠÙ¾Úĳ ÛĴ
Ø¯ Ø¹
Ġ) -
ĠØ®Ø§Øª ÙħÛģ
ĠÙĨ ÙĪØ±
ĠØ§Ûģ ÙħÛĮØª
ÙĦÛģ Ø°Ø§
ĠØŃ Ø¯ÛĮØ«
ĠØ¹ Ø¸ÛĮÙħ
ĠØ§ÙĦ Ø¹
ĠØ³Ø¨ Ø¨
Ø§Ø¨ ÙĦ
ĠØµØ§Ø±Ùģ ÛĮÙĨ
ĠØ§Ùħ ÛĮØ±
ĠØ´ ÛĮØ±
ĠØ®Ø± ÚĨ
ĠØ´ Ø¯Ûģ
ĠØ¯Ø¹ ÙĪØª
Ø§Ùħ Ø±ÛĮ
ĠØ¬ Ø¯ÙĪ
ĠØŃÙĤÛĮ ÙĤØª
ĠØ¨ÛĮÙħ Ø§Ø±ÛĮ
ĠÙ¾ÛĮ ÚĨÚ¾ÛĴ
ĠÙħØ¹ Ø±ÙĪÙģ
ĠØŃØµ ÙĪÙĦ
ĠÚ©Ûģ Ûģ
ĠÙ¾ Ø§
ĠØ§Ø¹ ØªÙħØ§Ø¯
Ø¨ ÙĪÚº
ĠØ¨ Ø§Ø²ÛĮ
ĠØ® ÛĮØ±
ĠÛ ²Û
ĠÚ¯Ú¾Ø± ÙĪÚº
ĠÙħ ÛĮÙĦ
ĠØ§ØŃ Ø³
ĠÙĪØ§ÙĤØ¹ Ø§Øª
ĠØ·Ø±ÛĮÙĤ Ûģ
ĠØ±Ú©Ú¾ ÛĮÚº
Ø¶ ÛĴ
ĠÙħÛĮÚĪ ÛĮÚ©ÙĦ
ĠÙĪ ÙĪÙ¹
ĠØ§ÙħÛĮØ¯ÙĪ Ø§Ø±ÙĪÚº
ĠØ·Ø±ÛĮÙĤ ÛĴ
ĠØ¨Ø® Ø´
ĠÚ¯Ø° Ø´ØªÛģ
ÛĮÙĨ Ú©
ĠØ§Ø¨ Øª
ØŃØ¶ Ø±Øª
ĠÛģ Ø§Ø±
ĠÙ¹ Ø±ÛĮÙĨ
ĠØº ÙĪØ±
ĠØ¨ Ø§ÙĤÛĮ
Ø§ÙĪ Ø²
Ø° ÛĮ
ĠÙħØª ÙĪ
Ø§Ûģ ÙĦ
ĠÙħØ³Øª Ø±Ø¯
ĠØ±ÙĪ Ø§ÛĮØª
ĠØ¬Ø§ÙĨ Ø§
ĠØ§Ø¯Ø§Ú© Ø§Ø±
ĠØ³ ÙĪÙĦ
ĠÙħÙĦ ÙĨÛĴ
ĠÙ¾Ø±ÙĪ ÙģÛĮØ³Ø±
ĠØªØµ Ø¯ÛĮÙĤ
ĠØŃÚ© ÙħØª
Ù¾ ÙĪ
ĠØ§ÙĦØŃ ÙĤ
ĠÙģØ§Ø± ÙĪÙĤ
ĠØ±ÙĪØ´ ÙĨÛĮ
1 6
ĠØµÙĪØ¨ Ûģ
ĠØ§ÛĮ ÙĪØ§ÙĨ
ÙĦÛĮ Ùģ
ĠÚ¯Ú¾ÙĨÙ¹ ÛĴ
ĠØŃ Ø§Ø¯Ø«
Ø³Ù¹ ÙĨÙ¹
Ø§Ùģ Ø¸
ĠØªÙĪ Úĳ
ĠÙ¹ Ø±Ø§ÙĨ
Ø§ ÙĪÛĮØ²
1 7
ĠØ¢ÙĨ Ú©Ú¾
ĠØ¨ Ø±ÛĮÙģ
ĠØ§ÙĦ Ø¯ÛĮÙĨ
ĠØ¹ Ø²ÛĮØ²
ĠØ¨ÙĨ ÙĨÛĴ
ĠØ±Ø¶ Ø§
ĠØ³Ø§Øª Ú¾ÛĮ
ĠÚĨØ§Ûģ ØªØ§
ĠÚ©Ø± Ù¾
Ø±ÛĮ Ø³
Ø±Ø¨ ÛĮ
ĠÙĦ Ø§Ø¦ÛĮ
ĠØ¬ Ø¬
ĠÛģØ¯Ø§ ÛĮØ§Øª
ĠÙģØ§Ø¦ÙĨ ÙĦ
Ø§Ø¦ Ø´ÛĮ
ĠØ¢Ø³ ÙħØ§ÙĨ
ØºÛĮØ± Ûģ
ĠÙĨ Ø§Ø¦Ø¨
ĠÙĦÚĳ Ú©ÛĮ
ĠØ§Ø¯ Ø§Ø¦ÛĮ
Ø³Ù¹ Ø±ÛĮÙĦ
ĠÙĨ Ø³
ĠØ¨ÙĨ Ø§Ø¦ÛĮÚº
Ø³Øª Ûģ
Ø¬Ûģ Ø¯
ĠÚĪØ§ÙĦ Ø±
ĠÙĪ ØŃ
Ú¾ ÛĴ
Ø§ÙĨ Ú¾ÙĪÚº
ÙĤØ± Ø§Ø±
ĠÙħØ³ Ø§Ùģ
Ùħ ÙĨÛĮ
ĠØ§Øµ ÙĦ
ĠÙħÛĮ Ø²
ĠØ§ÙĪ Ù¾Ø±
ĠØ¢ Ø¨
Ø§Ø³ Ø¨
ÙĨÚ¯ ÙĦ
ĠØ± ÛĮÙħ
ĠÙħØ§ÙĦ Ú©
Ø³Ø± ÛĴ
ĠØ® ÙĪÙĨ
ĠØ§ÛĮØ³ ÙĪØ³ÛĮ
ĠØ´Ùħ Ø§Ø±
Ùħ ÙĪÙĨ
ĠØ±ÛĮÚ© Ø§Ø±ÚĪ
ĠÙĪÛĮ Ø¨
ÙħØ§ÙĨ Øª
ĠØªÙĤØ±ÛĮØ¨ Ø§
ĠÙ¾Ø®ØªÙĪÙĨØ®ÙĪ Ø§
ÙģÛĮ ÙĤ
ĠÙħØ³ÙĦ Ø³ÙĦ
ĠØŃÛĮ Ø«ÛĮØª
ĠØ´ ÙĨ
ÙĦÛĮ Ù¹
Ø² Ø§Ø²
ÙĦ Ø³
Ġ2 2
Ø³ÛĮ Ø¹
ÙĪÙĦÛĮ Øª
ĠØ¸ ÙĦÙħ
ĠÙħØ¹ÛĮ Ø´Øª
ĠÙĨ Ø§ÙĤ
ĠÙĨ Ø³ÙĦ
ĠØ³Ú©ÛĮ ÙĪØ±Ù¹ÛĮ
ĠØ¨Ú¾ Ø§Ø±ÛĮ
ĠØ· ÛĴ
ĠØ§Ø¨ ÙĪ
ĠÙĨØ§Ùħ ÛĮ
ĠØ¯ Ø§Ø¯
ĠØŃ Ø§Ø¶
Ø¯ Ø§Ø¦ÛĮ
ĠØ¬ ÙħÛģ
ĠÙ¾ÛĮØ¯Ø§ÙĪ Ø§Ø±
Øª ÙĤ
Ø¯ Øª
ĠÙħØ§ ÚĪÙĦ
ĠÙħØŃ ÙĨØª
Ø§Ú© ÛĮÙĨ
ĠØ¬Ø¯ÙĪ Ø¬ÛģØ¯
ĠÙĨØ§Ø² ÙĦ
ĠÛģØ§ØªÚ¾ ÙĪÚº
ĠÚ©ÛĮ ÙħÙ¾
ĠÙĦÚ©Ú¾ Ø§
ĠØªØ±Ø¨ ÛĮØª
ĠÙĤ Ø·
ĠØªØ¹ ÙĦÛĮÙħ
ĠØ§ Ø±Ú©
Ø§Ø¤ ÙĨ
ĠØ¬ ÛĮÙĦ
ÛĮÙĨ Ø¦Ø±
ĠÙħÛģ ÙħØ§ÙĨ
ĠØ¨ÙĨ Ø§Ø¦ÛĮ
ĠÙħØ®Ø§ÙĦ Ùģ
ĠÙĦÚ¯ Ø§ÙĨÛĴ
ĠÙ¾Ûģ ÙĦØ§
ĠØ§Ø ¦
ĠØ¯Ø¹ ÙĪÛĮ
ĠÙĤØ¨ Ø¶Ûģ
ĠÙĪÛĮ ÚĪÛĮÙĪ
ĠØ¨Ø· ÙĪØ±
ĠØªÙĨ ÙĤÛĮØ¯
ĠØ± Ø§Ø¬Ûģ
ĠØ¢Ùģ Ø³
ĠØ§ÛģÙĦ Ú©Ø§Ø±ÙĪÚº
ÛĮÙĨ Ú¯ÛĴ
ĠØ±ÙĪ ØŃ
Ø§Ú© ÛĴ
Ø§ÙĦ Ùħ
ĠÙħØ¹ Ø§ÛģØ¯
ĠØ´ Ø±ØŃ
ĠÙħÛĮØ¯ Ø§ÙĨ
ĠØ·ÙĦØ¨ Ø§Ø¡
ĠÙĦ Ø§Ø¦
ĠØ¹ Ø¯Ùħ
Ø·Ø§ÙĨ ÙĪÛĮ
ĠØ¯ Ø¦ÛĮÛĴ
ĠØ§Ø±Ú© Ø§ÙĨ
ĠÚ©Ù¾ ØªØ§ÙĨ
ĠØ° Ûģ
ĠÙĨ Ø¬
ĠØ§ÛģÙĦ Ú©Ø§Ø±
ĠØ¯ÛĮÚ©Ú¾ ÙĨÛĴ
ĠÙģ Ø±ÛĮ
ĠÚ©Ø§Ø± ÙĪØ¨
ĠØ§ØªØŃ Ø§Ø¯
Ø¨ ÙĪÙĦ
Ø§Øª Ø°Ûģ
Ø®ÛĮ Ø§ÙĦ
ÙħÛĮÚĪ ÛĮØ§
ÙĨÚ¯ ÛĴ
ĠØªØ¬ Ø§ÙĪØ²
Ù¾ÛĮ Ø´
ĠØ§Ø¯Ø§Ø¦ÛĮ Ú¯ÛĮ
ĠÙħØ¹ Ø§ÙĪÙĨ
ĠØ§Ø¶ ÙĦØ§Ø¹
2 4
ĠØ± Ø´ÛĮØ¯
ĠÚ©Ø± ÙĨÛĮ
ĠÙħÙģ Ø§Ø¯
Ø§Ø¬ Ø¯
Ø· ÙĦ
ĠÚĨ ÙĦØ§
ĠÙħÙĪ ÙĤÙģ
ĠØ§ÙħØ¯ Ø§Ø¯
Ú¯ ÙĪØ¯
ÛĮ Ø¹ÙĨÛĮ
ĠØ¹Ø¨Ø§Ø¯ Øª
ĠÙħØ³ Ø¬Ø¯
Ø¨ Ø§Øª
ĠØ²Ø¨ Ø§ÙĨ
ĠØ¯Ø± Ø³Øª
ĠØ¨Ø±ÛĮÙģ ÙĨÚ¯
Øª Ø§ØŃ
Ø´ Ø§Ûģ
ĠÙĦÛĮ ÚĪØ±
ĠØ§ØŃÚ© Ø§ÙħØ§Øª
ĠÙ¹Ú¾ ÛĮÚ©
ĠØ¯ÙĪØ± ÛĴ
ĠØª Ûģ
Ġ \
Ú©Ø´ Ø§Ùģ
ĠØ³Ø§Ø¦ Ù¹
ĠÙĦÚ¯ Ø§Ø¦ÛĴ
ÙĪ ÙħÛĮ
ĠØ§Ø³ Ø³Ù¹ÙĨÙ¹
ĠÙĤÛĮØ§Ùħ Øª
Ø³ Ù¹ÛĮ
ĠÙĪ ÛĮÚº
ĠØ³Ø§Ø¦ ÙĨØ³
ĠÙĪ Ø¶
ĠØªØ¨ Ø§Ûģ
ĠÙĪØ§ÙĦ Ø¯
ĠÙĪ ØºÛĮØ±Ûģ
ÙĪÛĮ Ù¹
ĠÙģØ§Ø± Ùħ
ĠÙ¾ Ø³
2 7
Ø±ÛĮ Ûģ
ĠØ¨Ø±Ø¯ Ø§Ø´Øª
ĠØ§Ø® ØªØ±
Ø§Ù¾ ÙĨÛĴ
Ùģ ÙĤ
ĠÚ¯Ø§ ÚĳÛĮÙĪÚº
ÚĨ Ø³Ù¾
ĠØ¹ Ø±Ùģ
Ø² ÙĨ
Ø´ ÙĪÚº
ĠÙĤØ±Ø¨ Ø§ÙĨÛĮ
ĠØ¯ÛģØ´Øª Ú¯Ø±Ø¯
ĠØ§ ÙĦÛĮ
ĠØ±Ûģ ØªÛĴ
ĠØ¢Ø® Ø±Øª
ĠØ· Ø¨
ĠÛģ Ù¹
ÛĮÙĨ Ø¬
ĠØ§Ø® Ø±Ø§Ø¬
ĠØ§ÙĨ Ú©Ø´Ø§Ùģ
ĠÚ¯Ø±Ø¯ ÙĪÚº
ĠÙĨØ´ Ø³Øª
ĠÚ©Ø´ÙħÛĮØ±ÛĮ ÙĪÚº
ĠØ¬Ø§Ø¦ÛĮ Ú¯Ø§
Ø¨ÙĦ Ú©
ĠØªØŃ ØµÛĮÙĦ
ĠÙħØŃ Ø±
Ø§Ø¨ ÛĮÙĨÛģ
ĠÚ©Ø§Ø±Ú©ÙĨ ÙĪÚº
ĠØ®Ø² Ø§ÙĨÛģ
ĠØ§Ø®Øª ÙĦØ§Ùģ
ĠØ³ Ø¬
ĠØ³Ù¾ Ø±ÛĮÙħ
Ø§Ø± Ø´
ĠØŃÚ© ÙĪÙħØªÛĮ
ĠÙģØ§Ø¦Ø± ÙĨÚ¯
ĠØ¢ ØªÛĴ
ĠØ¯ÙĪØ³Ø± Ø§
ĠØ´Ø¹ Ø¨ÛĴ
ĠØŃ Ø¬
Øª ÙħÛĮ
ĠØ±ÛĮ ÙģØ±ÙĨØ³
Ø§Ø± ÙĤ
ĠÚ©Ú¾ ÙĪÙĦ
ĠØ§Ø³Ù¹ÛĮ Ø´ÙĨ
Ø° ÛĮØ±
ĠÚ©Ø± ÙĨ
Ø¨ ÙĪØ¯
ĠÙĪØ§ÙĦ Ø¯ÛĮÙĨ
Ġ4 0
ĠØ³ Ø³Ù¹Ùħ
ĠØ§Ø± Ø§Ú©ÛĮÙĨ
ĠØ²ÙĨØ¯ Ûģ
Ø¢ Ø¬
Ú©ÙĪ Ø¦Ù¹Ûģ
ĠÙħØ« Ø§ÙĦ
ĠÙģÙĪØ±Ø³ Ø²
ĠØ³ Ù¾Ø±
ĠÛĮÙĪÙĨ ÛĮÙĨ
ĠØ¹ ÛĮ
ĠØ³ ÚĳÚ©
ĠØ§ÙĨÙ¹Ø± ÙĨÛĮØ´ÙĨÙĦ
Ø§Ø¤ Ø³
ĠÙ¾ÛģÙĨÚĨ Ø§
Ø± Ø§Ø¡
ĠÚ©Ø§ ÙģØ±
ÚĪ Ø²
Ú©ÛĮ ÙĪ
ĠÙ¹ Ú©Ù¹
ĠØ³ÙĪ Ø§
Øµ Ø§Ø¯ÛĮ
2 6
ĠØ¯Ú¾ ÙĪ
Ø§Ø °
ĠÙ¹ÛĮÙħ ÙĪÚº
ÛģØ± ÛĴ
ĠÙħØ¹ÛĮ Ø§Ø±
ĠØµ Ø¯ÛĮ
Ø³ Ø·
ĠØ³Ø§Ùħ Ø§ÙĨ
ĠØ¨ÛĮ Ù¹ÛĴ
Ø´ Ø§ÙĨ
ĠØ§Ø³ Ø§ØªØ°Ûģ
ĠØ§ÙĨØª ÙĤ
Ø² Ùħ
ĠØ¢ ØªØ§
ĠÙĨ ÙħØ§
ĠØ§Ø®Øª Øª
ĠÙ¾ÛĮÙ¾ÙĦØ² Ù¾Ø§Ø±Ù¹ÛĮ
2 8
ĠØ®ÙĪ Ø´ÛĮ
ÛģØ± Ø³Øª
ĠÚĨ ÛĮÙĦ
ĠØ³Ø± Ø§Ûģ
ĠØ®Ø§ÙĦ Ø¯
ĠØ§ÛĮ Ø¬ÙĨØ³ÛĮ
ĠØŃÙħ ÙĦÛģ
ĠÙħØ°Ûģ Ø¨ÛĮ
ĠÙ¹ ÛĮÚ©
ĠØ®Ø§Øª ÙħÛĴ
ĠØ¨ Ù¹
ĠØ§Ù¹Ú¾ Ø§
Ø±Ø§Ûģ ÛĮÙħ
ĠØ³Ø±Ø¨Ø± Ø§ÛģÛĮ
ĠØ¹Ø² Øª
ĠØ¯ Ø³ØªÛĮ
Ø³ Ø¨
ĠØ³ÙĦ ÙħØ§ÙĨ
ĠÙħØ§ØŃ ÙĪÙĦ
ĠÛģÛĮÙĦ ØªÚ¾
2 9
ĠÙĤ ÙĦ
ĠØªÛĮ Ø§Ø±ÛĮ
ĠØ¯Ø± Ø¢ÙħØ¯
ĠØ¹Ø· Ø§
Ú¾ ÛĮÚº
ĠÙĦ Ø¨
ĠÙģÛĮ ÚĪ
Ø« ÙħØ§ÙĨ
âĢĻ âĢĻ
ĠÙĨÛģ Ø§ÛĮØª
Ûģ Ø±ÛĮ
ĠÚĨ Ø§ÙĨ
ĠØ¢ ÛĮØ§Øª
ĠØŃ Ø§Ø¬ÛĮ
âĢ Ŀ
ĠØ¬ÙĨ Øª
ĠØ´ Ú©ÙĦ
ĠØ§ÙĪ ÙĪØ±
ĠØ¯ÙĦ ÚĨØ³Ù¾
Ø§ Ú¯
ĠÛĮ ÙĪÙħ
Ø¯ Ùģ
ĠØ²Ø± Ø§Ø¹Øª
° Û
Ø®ÙĪ Ø§Ûģ
ĠØ³ÛĮÚ© ÙĪØ±Ù¹ÛĮ
ĠÙģØ¶ ÙĦ
ÙĦ ÚĪ
Ø§ÙĤ Ø¹
ÙĤ Ø§Øª
ĠØ¨Ø§Øª ÛĮÚº
ĠØ§ÛĮ Ø¬ÙĪ
Ø¶ Ø§ÙĨ
ĠØ§Ùģ Ø³ÙĪØ³
2 3
Ø§ ÛĴ
Ú© Ù¹Ø±
ĠÙĦÙĪ Ù¹
ĠÙĨ ÛĮØ§
Ø¢ Ø¨Ø§Ø¯
ĠØ§ÙĤØ¯ Ø§Ùħ
ÙĨ ÙĪÚº
Ø¬ Ø³ÛĴ
ĠØ¢Ø± ÙħÛĮ
ĠØ§Øµ ÙĦØ§ØŃ
ĠØ´Ûģ ÛĮØ¯
ĠØ´ÙĨ Ø§Ø®
ĠÙĦ Ø§Ø´
ĠØ¯ ÛĮØ±
ĠÙħÙĦ Øª
ĠØªØµ ÙĪÛĮØ±
ĠÙĪ ÛĮÙĦ
ĠÙħ Ø¨Øª
Ûģ ÙĪØ±
ĠÙ¾Ú¾ÛĮ ÙĦ
ĠØ§Ø² ÛĮÚº
ĠÛģÙĪ ÙĨÛĮ
Ú¯Ø² Ø´ØªÛģ
ĠØ¨Ø§ÙĦ Ú©ÙĦ
ÛĮÙĨ Ø¯
ĠØ§ÛĮÚĪ ÙĪ
ĠØ§Ø¹ Ø²Ø§Ø²
ĠØ¯ Ú¾Ø±
ĠØ¹Ø¨ Ø§Ø³ÛĮ
Ø±ÛĮ Ø±
Ø±ÛĮ Ø¯ÛĮ
Ù¹ÛĮ Ùģ
ĠÙħØµ ÙĨÙĪ
ĠØ§ÙĤØª Ø¯Ø§Ø±
ĠØ³ÛĮ Ùģ
ĠØ§ÛĮÚĪÛĮ Ø´ÙĨÙĦ
ĠÙĦ Ø§Ø²
Ú© Ø³ÛĮ
Ø§ÙĦ ÙĪ
ĠØ¨Ø¯ ÙĦ
ĠØ¨ Ø§ÙĤ
ĠÚĪ ÛĮÙħ
ĠÙħ ÙĨÙ¹
ĠÚ©Ø± ÛĮ
ĠØ±Ú© ÙĨÛĮ
ĠØ¯Ø± Ø¬Ûģ
ĠØ±ÛĮ Ù¹
ĠØ§Ø¯ Ø§Ø±Ûģ
ĠØ±Ûģ Ø§Ø¦Ø´ÛĮ
ĠØ§ÙĦ ÙģØ§Ø¸
Ø§Ùģ ÛĮÙĪÚº
ÙĪÙĨ Ú¯
ĠØªØ¨Ø§Ø¯ ÙĦÛģ
ĠÚ©ÛĮ Ø³ÛĴ
ĠÚĨÛĮÙĦ ÙĨØ¬
ĠØ¬Ø± Ø§Ø¦Ùħ
ĠØ¨Ø± ÙĤØ±Ø§Ø±
ĠØ§Ø¨ Ø±Ø§ÛģÛĮÙħ
Ùģ Ûģ
ĠÙĪØ§ÙĤ Ø¹ÛĴ
ĠÚ©ÛĮ ÙĨ
ĠÙ Ĵ
ÙĨÚ¯ Ø²
Ø¬ Ø§Ø²
Ù ´
ĠØ¨Ø± Ø§Ø¨Ø±
ĠÚĨ ÙĪØ±ÛĮ
ĠÚ©Ø± Ø§Ø¦ÛĮ
ĠÙ¾ÙĪ Ø³Ù¹
ĠØ³ÛĮÙĨ Ù¹Ø±
Ġ201 7
Ø§ÙĤ Ø¨
ĠØ¨ÛĮ Ù¹ÛĮ
ĠÚĨÚ¾ Ù¾
ĠÙ¾ÛģÙĨÚĨ Ø§ÙĨÛĴ
ĠÙģ ØªØŃ
ĠØ§ÙĨØ¬ ÛĮÙĨØ¦Ø±
ĠØ² Ùħ
Ø±ÛĮ Ø§
ĠÙħØ¶ ÙħÙĪÙĨ
Ø³ ÛĮØ±
ĠØ³ Ø§ÙĨ
ĠØ¹Ø² Ùħ
Ġ2 3
ĠØ§ÛĮÚ© Ø´ÙĨ
ĠØ¨ Ø§Ù¾
ĠØ¢Ø¨Ø§Ø¯ ÛĮ
Ú¯ÙĪØ¯ Ú¾Ø§
ĠØ´Ø§ÙĨ Ø¯Ø§Ø±
ĠØ§ÙĦØ² Ø§ÙħØ§Øª
ĠÛĮ ÙĪØ±
ĠÙħØŃØ± ÙĪÙħ
ĠÙħ Ø§Úº
µ Û
ĠÙĦ Ûģ
Ġ2 7
ĠØ§ÙĤØª ØµØ§Ø¯ÛĮ
ĠÙ¾ÛĮ Ø³ÛĴ
ĠØ¢ Ù¹Ú¾
ĠØ® Ø§Ùħ
ĠÙ¾ Ø¨ÙĦÚ©
ĠÙĤ Ø¯
ĠÙħØ¹Ø§Ø´ Ø±ÛĴ
ĠÙħØ« Ø¨Øª
Ø¯ ÛĮÛģ
ĠÚ©ÙĪ Ûģ
ØŃ Ø§ÙĦÛĮ
ĠØ· ÙĪÛĮÙĦ
ĠÙĪ Ø§Ø¦Ø³
.. ..
Ø² ÙĦ
ĠØ§ÙĨØ³ Ø¯Ø§Ø¯
Ú¯ ÙĨ
Ø§Ø¦ ÙĪØ³
Ø® Ø·
ĠÚ© Ø«
ĠØ¨ ÙĤ
ĠÙħØ¨Øª ÙĦØ§
ĠØ® Ø§ÙĨÛģ
ĠÙ¾ ÙĪØ¯
ĠØŃ ÛĮØ§Øª
ĠØ§ÙĦ ÙĨ
ĠØ§ÙģØª ØªØ§ØŃ
ĠÙħØ¹Ø§ÛģØ¯ ÛĴ
ĠÙħ Ø¬Ø¨
ĠØ§ÙĨ Ø§Ø¦ÛĮ
ĠØ³ Ù¾ÙĪØ±Ù¹
ĠÙĪÙĦ Ø¯
ĠØ±ÛĮ Ø³
ĠØ´Ø¹ Ø¨ÙĪÚº
ĠØ± Ùħ
ĠØªØ¬ Ø±Ø¨
Ġ2 6
ĠÙ¾Ûģ ÙĨ
ÛĮÛģ Ø§Úº
ĠØ¨Ø® Ø§Ø±ÛĮ
ĠØ°Ø±ÛĮ Ø¹Ûģ
ĠÚ© Ø§Øº
ÛĮ ÙĪ
ĠÙĦ ÙĨØ¯ÙĨ
ĠØ§ Ú©Ø±
ĠÚ©Ø§Ø± ÙĪÚº
ĠØ¨Ú¾ Ù¹ÙĪ
ĠØ§ÙĨ Ú¯ÙĦ
Ø§ÙĨ ÛĮÙĨ
Ø§Ø³ Ú©
ĠØ§ ÚĨÚ¾Ø§
Ġ ]
Øµ ÙĪØ±Øª
ÙħÙĦÚ© Øª
ĠÚĨ ÙĦÛĴ
ĠØ¬ Ø¹ÙĦÛĮ
ĠØªÛĮ Ø²ÛĮ
Ú¯ Ø§Ûģ
ĠÙ¾ÛģÙĨÚĨ ÛĴ
ĠÙĤÙĪ Ø§ÙĨÛĮÙĨ
ĠÛģ ÙĨØ¯
ĠÙħÙĪ Ø§ÙĤØ¹
ĠÙĨØ¹ ÙħØª
Ø¹ ÙĪØ¯
ĠØ¨ ÙĨÛĴ
ĠÙ¾ ÙĨ
Ø§Ø¹ Ø¯Ûģ
ĠØ±Ú©Ú¾ ØªØ§
Ø§ ÛĮÙħ
ĠÙĪ Ø±ÙĦ
ĠØ ¡
ĠÙĨ Ø§Ø±
ĠØ¸ ÙģØ±
ĠÙħØ¯ Øª
ĠØ« Ø¨ÙĪØª
ĠÙĪØ±ÙĦ ÚĪ
ĠÚ© Ø§Ø¨ÛĮÙĨÛģ
Ġ3 5
ĠØ± Ø§Ø³
ĠØ§ÛĮØ¬ÙĪ Ú©ÛĮØ´ÙĨ
ĠÚ©ÙħÙ¾ÙĨÛĮ ÙĪÚº
ĠØ¬ Øª
ĠÙĤ Ø¯Ùħ
ĠØ® ÙĦ
ĠÙħØ§Ø± ÚĨ
ÛĮÙĨ ÙĪÚº
Ø§Ø³ Ù¹
0 9
ĠÙĤØ§Ø¨ ÙĪ
ĠÙĨÛĮ ÙĪ
ĠÙ¾Úĳ Ø§
ĠÚĪ ÛĴ
ĠÙĤÛĮÙħ ØªÙĪÚº
ĠØ§Øª ÙģØ§ÙĤ
ÙĪØ§ÙĦ Ûģ
0 7
ĠÙĦ Ø§Ø¦ÛĴ
Ø±ÛĮ ØŃ
ĠØªØ´ ÙĪÛĮ
ĠØ¢Ø¯ ÙħÛĮ
ĠØ§ÙĦ ÙĤ
ĠØŃ Ø§ÙħÙĦ
ĠØ¨ÛĮØ± ÙĪÙĨ
ĠÚĨ Ùħ
ĠØ´ÛģØ± ÙĪÚº
ĠØ³ÙĦØ§Ùħ ØªÛĮ
ĠØ§ÛĮ Ú¯Ø²
ĠÙ¾ Ø§Ø¦ÛĮ
ĠÙħÛģ Ø±Ø¨
ĠØ¢Ø® Ø±
ÚĨÛĮ Ùģ
ĠØŃ ØªÙħÛĮ
ĠØ§Ùħ Øª
ĠØ§Ùħ ØªØŃ
ĠØ¢ ØªÛĮ
ĠÙĨÚ¯Ø± Ø§ÙĨÛĮ
Ø° Ø§Øª
ĠØ³Ø§ÙĦ Ø§ÙĨÛģ
ĠÙ¾ÛĮØ´ Ûģ
ĠÙģ ÙĦØ§ØŃ
ĠÚ©Ø§Ùħ ÙĪÚº
Úĳ ÙĪÚº
ĠØ¹ Ø«ÙħØ§ÙĨ
ĠÚ©Ú¾ ÚĳÛĴ
Ø±Ø¯ Ø§Ø±ÛĮ
Ø¯ ÙĦ
ĠØ¹Ùħ Ø§Ø±Øª
ĠÙħ Ø§Ø¶ÛĮ
ĠÙ¾Ø§Ø± Ú©
ĠØªÙģ ØµÛĮ
Ġ2 8
ĠÚ©Ùħ Ø²
ÙĪØ±ÙĨ Ø§Ùħ
ĠÚ© ÙģØ±
ĠØ¹Ø¨Ø¯Ø§ÙĦ ÙĦÛģ
ĠØ²ÛĮØ§Ø¯ ØªÛĮ
ĠØ§Ø®ØªØª Ø§Ùħ
Ø³ ÙħÛĮ
ĠØ§Ø±Ø´ Ø§Ø¯
ĠØ´Ûģ Ø¯
ĠØ¨ Ùħ
ĠØ¨ÛĮ ÙĪÛĮ
Ø¨ÙĪ Ø¶Ûģ
ĠÙħØ´ Ø§ÙĪØ±
ĠÙģÙĨÚĪ Ø²
ĠØ¶ ÙħØ§ÙĨØª
ĠØ³Ùģ Ø§Ø±Ø´
Ø± Ø§ÙĪÙĦÙ¾ÙĨÚĪÛĮ
ĠÙħØ¬ ÛĮØ¯
ĠØ³ ÙĨØ§
Ø§ÙĦ ØŃ
ĠØ³Ø§ÙĦ ÙĪÚº
ĠØ¦ ÛĮ
ĠØ³ ÙĪÙĨ
ĠØ±ØŃ ÙħØª
ĠØµØŃ Ø§ÙģÛĮÙĪÚº
Ø¹ ÙħØ±Ø§ÙĨ
Ø§ÙĨÛģ ÛĮÚº
ĠÙĦ ÙģØ¸
ĠÙĨØªÛĮ Ø¬Ûģ
ĠÙ¾Ø± ÙĪÛĮØ²
ĠÚ©Ø§Ø±Ú©ÙĨ Ø§ÙĨ
Øª Ú¾ÛĮ
Ûģ Ø§
ĠØ¹ÙħÙĦ Ø¯Ø±
ĠØªØ¬ ÙĪÛĮØ²
ĠØ¹ÙĨ Ø§ØµØ±
¶ Û
ĠØŃÙģØ§Ø¸ Øª
ĠØªØ¬Ø§ÙĪØ² Ø§Øª
ĠÙ¾ÙĪ Ø²ÛĮØ´ÙĨ
ĠÛģ ÙĨÚ¯
Ù¹Ø± Ú©
ĠØ³Ø±Ú¯Ø± ÙħÛĮÙĪÚº
ÙĪ Ø·
ĠØ¨ÛĮ Ú¯
ĠØ¹ÙĦØ§Ùħ Ûģ
ĠÚ©Ø± Ø§Ùħ
Ø±Ú© Øª
ĠÙĤ Øµ
ĠÛģÙĪ Ú©Ø±
ĠØ´Ûģ Ø²Ø§Ø¯
Ø¨ Ú¾Ø±
ĠØ¹ ÙĤÛĮØ¯
ĠØ§Ø¹ ÙħØ§ÙĦ
ĠØ¯ Ø±ÙĪ
ĠØ±ÙĪÚ© ÙĨÛĴ
ĠØ³ÙĪØ± Ûĥ
Ø¯ ÙĪÙĨÙĪÚº
ĠÙħØŃ Ø³ÙĪØ³
ĠØ³ÛĮÙĨÛĮ Ù¹Ø±
ĠØ®Ø± Ø§Ø¨
0 8
ĠØ· Ø§ÛģØ±
Ġ\ &
0 3
0 5
ÙĪ ÛĮÚº
ĠØ¯Ø± Ø®Øª
ĠÙ¾ ÙĨØ§Ûģ
ĠÙħ Ø¬Ú¾
Ø® Ø¨Ø±
ĠÙ¾Ø§Ø¨ ÙĨØ¯
ĠØ§ÙĨ ÛĮ
ĠØ¨ØŃ ÙĤ
ÚĪ Ø§Ú©Ù¹Ø±
ĠØ§Ú© Ø¨Ø±
ĠÙĪÙĪ ÚĪ
ĠØ´Ùģ Ø§Ùģ
ĠØ¨ Ø§Ø¨
ĠØ¹ÛģØ¯ ÛĴ
0 4
ĠØªØ¬ Ø§Ø±ØªÛĮ
ĠØ¨ Ø§ÛģÙħÛĮ
ĠÙĨ Ø±
ĠÚ¯Ø± Ø§Ùħ
ĠØª Ø±Ú©
ÚĪ Ø§
ĠØŃÚ© ÙħØ±
ĠØ¢Ø¦ ÛĮÙĨ
ĠÙģØ± Ø§Ø±
ĠÙħØ® ÙĦ
ĠØ³Ùģ ÛĮØ±
ÚĪÛĮ Ø´ÙĨ
ĠÙħØ§ÙĨ Ú¯
ĠØ¨ÙĨÛĮØ§Ø¯ ÙĪÚº
Ùħ Ø¨Ø±
ĠØ± ÙĪÙħ
ÙĪ Ø§Ø¬
ĠØŃ ÙĪØµ
ÙĪØ±ÙĨØ§Ùħ ÙĨÙ¹
ĠØ¯ ÛĮØ¯
ĠØ¬Ùħ Ø¹Ûģ
ĠÙħØ¨ ÛĮÙĨÛģ
ĠØ§Ø¹ Ø¬Ø§Ø²
Ġ2 1
ÙĪ Ø¹
ĠØ¶ ÙħÙĨ
0 2
Ø§Ø¦ Ø¶
ĠÙĦ Ø§ÛĮØ§
ĠØ³Ø± ØŃ
ĠÙ¾ Øª
ĠÙħ ÙĪÙħÙĨ
ĠÚ©Ø± ÙĪÚº
ĠØ§Ø« Ø±
ĠÙģÙĪ ÚĪ
ÙĪÛģ Ø±
ĠØ¬ Ø²
ÙĨ Ø§Ùħ
Ø® Ø§ÙĨ
ĠÙĨØ§Ùģ Ø°
ĠØ·Ø§ÙĦØ¨ Ø§Øª
Ø¬ Ø§Ùħ
ĠÚ©ÛĮ Ù¾
Ġ '
ĠØ± Ø§Ø¬
ĠÙħ ÙħÙĦÚ©Øª
ĠÙħÛĮØ± Ø§
ĠÙħ Ø±ÛĮÙħ
ĠØ§Ø¹ØªØ± Ø§Ø¶
Ù¹ Ú¾ÛĮ
ĠØ§Ø³ Ú©ÛĮ
Ø¹ Ø¨
ĠØ§Ø¨Øª Ø¯Ø§Ø¦ÛĮ
ĠØ±Ø§Ø³Øª Ûģ
ĠØ· Ø§Ø±ÙĤ
ĠÙħØ· ÙĦØ¨
ĠÙħØ±Ú© Ø²
ĠÚ©Ø§Ø± ÚĪ
ĠØ§Ø² Ø§Úº
ĠØ¢Ú¯ Ø§ÛģÛĮ
ĠØ´Ùħ Ø§ÙĦÛĮ
ĠØ´Ú©Ø§ ÛĮØ§Øª
ĠØ·ÙĦ Ø¨Ûģ
ĠØªØ¬ Ø§Ø±Øª
ĠÙħØ±ÛĮ Ø¶ÙĪÚº
ĠØªÙģØµÛĮ ÙĦÛĮ
ĠÙħØµ Ø±ÙĪÙģ
ĠØŃ Ø§ÙģØ¸
ĠØ³ Ø±Ùģ
ĠÚ©Ø± Ø§
ĠØ¬ÙĨ ÛģÛĮÚº
ÙĦÛĮ ÙĪ
ĠØ§Ú© Ø«Ø±
ĠÙħÙĤ Ø¯Ø§Ø±
ØªÙĤ Ø±ÛĮØ¨
ĠÙĪØ¹Ø¯ Ûģ
ĠØ¨Ø¬ ÙĦÛĮ
ĠØ³ ÙĦÛĮÙħ
ĠÛģÙĪ ÙĨÚ¯ÛĴ
ĠÚĨÚ¾ Ø§Ù¾
ĠÙĨØ§Ùħ Ø²Ø¯
ĠØ´ Ø¯Øª
Ø¨ Ø¹Ø¯
ĠØ¨ÙĨ Ø§ÙĨØ§
ĠØ¯Ø§Ø±Ø§ÙĦ ØŃÚ©ÙĪÙħØª
Ø§Ø· Ø±
ĠØ´Ûģ Ø§Ø¯Øª
Ø§ÙĪ ÛĮØ±
Ø³ Ú©ÛĴ
ĠÙĦÚ¯ Ø§ÛĮØ§
ĠÙħØ¬Ø¨ ÙĪØ±
ĠÚ¯ ÙĨØ¯
ĠØªÚ© ÙħÛĮÙĦ
Ø§ØŃ Ø¯
ĠØ¬ Ø§Úº
ĠØ§ÙĨ Ú©ÙĪ
ĠÙĪ ØµÙĪÙĦ
ĠÙħØ¬ Ø±Ùħ
ĠÙģ ÛģØ±Ø³Øª
ĠÚĨ ÙĪÚ©
ĠØ¹ÙħÙĦØ¯Ø± Ø¢ÙħØ¯
ĠØ¬Ø³ ÛĴ
ĠÙģØ± Ø§Ø¦Ø¶
ĠÙ¹ Ø±Ùħ
ĠÚĨ ÚĳÚ¾
Ø¯ Ø§ÙĨÙĪÚº
Ø´ ÙĪØ±
ĠØ§ÙĨ Ø³Ù¾
Ø² Ø§Ø¯Ûģ
0 6
Ø§Ø¦ ÛĮØ§Úº
ĠÚ©ÙĪ ÚĨ
ĠÚ©ÛĮØ³ Ø§ØªÚ¾
Ø³ Ø§Ø¦
ĠØ³ Ø§Ø²ÛĮ
ĠØ§ÙĨÚĪ Ø³Ù¹Ø±ÛĮ
Ø§Ø¨Ø· Ûģ
ĠØªÙħÛģ Ø§Ø±ÛĮ
ĠÛģØ² Ø§Ø±ÙĪÚº
ĠÙĨ Ø²Ø¯
ĠÛģ Ø§Ø¤Ø³
Øª Ø¨
ĠØ³ÙĪ Ø§Ø±
ĠØµØŃ Ø§ÙģÛĮ
ĠØ± Ø®
ÙĦØ§ ÛĮØ§
ĠÙħØŃ Ø¶
ĠØ±Ùħ Ø¶Ø§ÙĨ
Ø± Ø§Ø±
ĠØ¬Ú¾ ÙĪÙ¹
Ø§Ûģ Ø¯Ûģ
ĠÙħÙĨØ¹ÙĤ Ø¯Ûģ
ĠÙ¹ Ø±ÛĮ
ĠØ§Ø´ ÛĮØ§Ø¡
ÙħØ² ÛĮØ¯
Ø±Ø¯ ÛĮ
ĠØ¬Ùħ ÙĪÚº
ĠÚ© ÙħØ§ÙĨ
ĠÛ ³Û
ĠÙĪØ§Ø± Ø¯
ĠÙģ ÛĮÙĦ
Ø¯ Ú¾
ĠØ° Ø§ØªÛĮ
ÙģÛĮ ØµÙĦ
ĠØª ÛĴ
ÙĦ ÙĪØ¨
Ø§ÙħØ±ÛĮ Ú©ÛĮ
Ø§Ùħ ÙĨ
Ú¯ Ø§ÙĨ
ĠÙģÙĦ Ø³Ø·
ØªØ± Ø¬ÙħØ§ÙĨ
0 1
Ø³ Ø§Ø¨ÙĤ
Ø§Ûģ Ø±ÛĮÙĨ
ĠØ´Ùħ ÙĪÙĦÛĮØª
ĠØ±Ø§Ø¨Ø· ÛĴ
ĠÛĮ Ø§Ø³
ĠÙħÙĤ Ø¯Ùħ
Ùħ Ø§Ø±
· Û
ĠØ¬Ûģ Ø§Ø²
ĠÙĨÙħ Ø§Ø¦Ø´
ĠÙ¾ Ú©
ĠÙ¾ Ú©Úĳ
ĠØ¯ Ø§ÙĨ
ĠØªØµ Ø§ÙĪÛĮØ±
ĠØŃØ± Ø§Ùħ
ĠÙĪ Ø¬
ĠØª Ø®
ĠØ±ÙĪØ² Ú¯Ø§Ø±
Ø² Ø®
2 1
ØªÙħ Ø§Ø¹
ĠØ¯Ø± Ù¾ÛĮØ´
ĠØªÙģ Ø³ÛĮØ±
ĠÙħØ´ Ø±Ú©
ĠØ¨ØŃ Ø«
ÙĪØ§ÙĦ ÛĴ
ĠØ¨ ÛĮÙĦ
ĠØ®Ø· Ø±Ûģ
Ø¨ Ø§ÙĨ
ĠØ³ ÛĮÙħ
Ø¢ Ø¦ÛĮ
ĠÙħØ³ Ø¹ÙĪØ¯
ĠØŃÙĤÛĮ ÙĤÛĮ
Ø± Ø§Ùģ
ĠØ®Ø± Ø§Ø¬
ĠÚĨ ÙĪ
ĠØªØ³ ÙĦÛĮÙħ
ĠØ¢ Ø³Ù¹Ø±ÛĮÙĦ
Ú© Ø±ÛĮ
ĠØ³Ú© Ø§
ĠØ§Ø³Øª ØŃÚ©Ø§Ùħ
ĠÚĨÚ¾ ÙĪÙ¹ÛĴ
Ø§Ø¦ Ù¹
Ùģ ÛĮÛģ
ĠØ±Ù¾ÙĪØ±Ù¹ Ø³
ĠØ®Ø· ÛĴ
Ø± Ø§Ø²
Ø³Ù¾ ÙĪØ±Ù¹
Ø³ Ø§ÙĦ
ĠÙĨÛĮ ÙĪØ²
Ùħ Ø´
ĠÙĨ Ø§Ø¸
ĠØ§ÙĨ Ú©ÛĴ
ĠÚ©ÙĪ Ø§Ø±
ĠØ§Ø¹ Øª
ĠÙĨÙħØ§ ÛĮØ§Úº
ĠÙħÙĨØ¸ Ø±
ĠØ¢ Ø¤
ĠØ¢Ø³ Ø§ÙĨ
ÚĨ Ø§Ø±
ĠØ¢Ùģ Ø±ÛĮØ¯ÛĮ
ĠÙħÙħØ¨Ø± Ø§ÙĨ
ĠØ±Ûģ Ø§Ø¦Ø´
ĠØ±ÙĪ Ø´ÙĨ
Ùħ Ø³ÙĦÙħ
ĠØ¹ Ø¸
ĠÙĤØ±ÛĮ Ø´ÛĮ
ĠÙĪØ§ Ù¹Ø±
Ø³ÙĨØ¯ Ú¾
ÛģØ§Ø± Ø§
ĠÙ¹Ø±Ùħ Ù¾
ĠÚ© ÙĦØ§Ùħ
ÙĪ Ù¹Ø±
ĠÙ¾Ø§Ø±ÙĦÛĮÙħ Ø§ÙĨÛĮ
ĠØ® Ø§Ø·Ø±
ĠÙĨØ¬ Ø§Øª
ĠØ¨Ø± Ø·Ø§ÙĨÙĪÛĮ
ĠØ§Ø« Ø±Ø§Øª
ĠØµÙĨ Ø¹Øª
ØŃ Øª
Ø§Ø¹ ÛĮÙĦ
ÛĮÙħ ÙĨ
ĠÙħØ¨ ÙĨÛĮ
ØµÙĪØ¨ Ø§Ø¦ÛĮ
ĠØ± ÛĮÙĨØ¬
ĠÛģ Ø§Úº
Ú©ÙĪ Ù¹
ĠÛģ ÙģØªÛģ
ĠØªÙĪ ÙĤØ¹
Ø§Ú© Ø±
ĠØŃØ± Ø§Ø³Øª
ĠÙħØªØ¹ Ø§Ø±Ùģ
ĠÚ¯ Ø§Ûģ
ĠÙħÙĪ Ø¨
ĠØ§ÙĦØ±ØŃ ÙħÙĨ
ĠØ§Ø³Øª ÙĤ
ĠØ± Ø§ÙĨØ§
ĠØ±Ø§Ø³ ØªÛĴ
ĠØ¨ÚĳÚ¾ Ø§ÙĨÛĴ
ĠØ§Ø« Ø§Ø«
ĠÙģØ± ÙĤ
ĠÛģ Ø±ÛĮ
ĠÙģ Ú©Ø±
Ø± Ø¶
Ø± Ù¾ÙĪØ±Ù¹
ĠÚ©Ø± Ø¯
ĠØ®ÙĪØ´ ØŃØ§ÙĦÛĮ
ĠÙĦ ÙĨ
ÚĨ Ø§
ĠØ§ÙĨ Ú¾ÛĮÚº
ÙħÛĮ Ùħ
ĠÙ¹ÛĮÙħ ÛĮÚº
Ù¾ ÙħÙĨÙ¹
Ú©Ø§ ÙĪÙ¹
ĠØ¹ÙĦÙħ Ø§Ø¡
Ø¨ ÙĨ
ĠÙħØµÙĨÙĪ Ø¹Ø§Øª
Ù¾ÙĪ Ø§Ø¦ÙĨÙ¹
Ø² Ø¦ÛĮ
Ø§Øª Ø±
ĠÚĨÛĮØ² ÙĪÚº
Ø¹Ø¯ Ø§ÙĦØª
Ø§Ø´ ÛĮ
ĠÚ©Ø§Ø±ÙĪØ¨ Ø§Ø±ÛĮ
ĠÙħØ´Ø§ÙĪØ± Øª
ĠÚ©Ûģ ÛĮ
ĠÙ¾ Ø§Ø¦ÛĴ
Ø¬ÙĨ ÛģÙĪÚº
ĠÚ©Ù¾ ÙĪØ±
ĠØ¯Ú©Ú¾ Ø§Ø¦ÛĮ
Ùģ Ø³
Ùħ Ø¸
ĠÙħÙĨ Ø§Ø³Ø¨
ĠØ¯Ûģ Ø§ÙĨÛĮ
ĠØ§Ø¬ ØªÙħØ§Ø¹
ĠÙħØ¨Ø§Ø±Ú© Ø¨Ø§Ø¯
ĠÙ¾ Ø´Ø§ÙĪØ±
ÙĨÙĪ Ø§Ø²
Ġ2 9
Ø² Ø¯Ú¯ÛĮ
ĠØ± ÙĪÙĨ
ĠØ¹Ûģ Ø¯ÛĮØ¯
ĠØ³ÙĨÚ¯ Ú¾
ĠØ§ÙĨ ÙĪØ±
ĠÙħÙĨØ§ Ùģ
ĠÙ¾ÛĮ ÙĨÛĴ
ĠØ§Ø³Ùħ Ø§Ø¹ÛĮÙĦ
ĠØ§Ù¹Ú¾ Ø§Ø¦ÛĴ
ĠÚĪØ± Ø§Ø¦ÛĮ
ĠØ±ÙĪ Ø§ÛĮ
ĠÙĦ ÛĮÙĨØ§
¸ Û
Ù¾ ÙĪØ±ÛĮ
ĠÙ¾ ØªÛģ
ĠØ§ ÛĮØ±
ÙģØ± Øª
ĠÙħØªØ§Ø« Ø±Ûģ
ĠÚ¯Ø§ ÚĳÛĮ
Ùħ ØŃÚ©
ĠØ¬Ø§Ùħ Ø¹
ĠØ¯ÛĮÚ©Ú¾ ØªÛĴ
ĠØ´Ø®Øµ ÛĮØ§Øª
ĠØ¹Ø±Øµ Ûģ
ĠÛĮ ÙĪÚº
ĠØ§ÛĮÚ¯Ø² ÛĮÚ©
Ġ7 0
ĠÙģ Ø±Ø¯
ĠØŃØ§ÙĦ ÛĮÛģ
ĠÙħ Ø§ÙĨÛĮ
ĠØªÙĨ Ø§Ø²
Ø§Ø³ ÛĴ
ĠØ±ÛĮÙĦÛĮ Ø²
ĠØ³ ÙĪØ¯
ĠØ§ ÚĨÚ¾ÛĴ
ÙħØ¨ Ø¦ÛĮ
ĠÙ¾ ÛĮÙĨ
ĠØ§ÙĨÛģÙĪÚº ÙĨÛĴ
Ø¹ ÙĦÙĪÙħ
ĠØ¨Ø§Ø± Ø´
ĠØ§Ø´ Ø±Ùģ
ĠØ§Ø±Ø¯ÙĪ Ù¾ÙĪØ§Ø¦ÙĨÙ¹
Øµ Ø¨
Ø§Ú© ÙĪ
Ø§Ùħ Ø§
ĠÚ©Ûģ ÙĨÛĴ
ĠØŃ ÙħÙĦ
Øª ÙĨ
ĠØ§ Ú©ÛĮ
ĠØ³ ÙĨÛĮ
ÙĨÚ¯ Ø±
ĠØ²Ø¨ Ø±Ø¯
ÙĨÛģ ÛĮÚº
ĠØ³ÙĨ Ø¨Ú¾
ĠÙħÛģØ±Ø¨ Ø§ÙĨÛĮ
ĠØ±ÙĪ Ø§ÙĨÛģ
Ø§Ø±Ù¹ ÙħÙĨÙ¹
ĠÙħÙĪØ¨ Ø§Ø¦ÙĦ
ĠÚĪ Ø§Ø±
ĠØ¬Ø§ÙĨ ØªÛĴ
ĠØª ÛĮØ±
ĠÙģ ØµÙĦ
ĠØ¨Ø±ÙĪ ÙĤØª
Ø¬ÛĮ Ø³ÛĴ
ĠØ¨Ø¯ Ú¾
ĠÙĨÙħØ§Ø¦ÙĨØ¯ ÙĪÚº
ĠØ´Ø± Ø§Ø¨
ÙĪØ± ÙĪ
ĠØ¯ ÙĪØ¯Ú¾
ĠÚ©Ú¾ ÙĦ
ĠØ®Ø· Ø±
ĠÙĤØ¨ Ø¶ÛĴ
ĠØ³ÙħØ¬Ú¾ ØªÛĴ
ĠØ¨Ø§ÙĤ Ø§Ø¹Ø¯Ûģ
Ø§ ÚĪ
ĠÙħØ§ÙĦ ÛĮØª
Ø¯ Ø§Ø±ÛĮ
ĠØ¯ÙĦ Ø§Ø¦ÙĦ
ĠØ±ÙģØª Ø§Ø±
Ø¬Ø³Ù¹ Ø³
ĠÙĪ ÙĦÛĮ
ĠØ§ØŃØªØ¬ Ø§Ø¬
ĠØµØ¯ÛĮ ÙĤÛĮ
ĠÚ©Ø« ÛĮØ±
ĠØ¢ Ø±Ûģ
Ø§Ø¦ÛĮ ÙĪÚº
ĠÙħØ¹Ùħ ÙĪÙĦÛĮ
Ø¨Ú¾ Ø§Ø±ØªÛĮ
Ø¢ Ø±
Ùħ ÙħØ¨Ø¦ÛĮ
ĠØ§ÙħØªØŃ Ø§ÙĨ
Ù¾ Ø±ÙĪ
ĠØ¨Ø± Ø·
ĠØ³ÛĮÚ© Ù¹Ø±
ĠÙħÙĪ Ø³ÙħÛĮ
ĠÚ¯ Ø±ÛĮÙĨ
ĠÙ¾Ø±ÙĪ Ø§Ø²
ĠÛģÙĪ Ø¦ÛĮÚº
Ġ6 0
ĠØ§Øª Ø±
ÛĮÙĨ Ú¯
ĠØ¯ÛĮ ØªÛĮ
ĠÚĪÛĮ ÙĪÙ¹ÛĮ
ĠÙĨØ²Ø¯ ÛĮÚ©
Ø§Ø¦ÙĨ Ûģ
ĠÙħÙĪØ¬ÙĪØ¯ Ú¯ÛĮ
ĠÙĪØ§Ù¾ Ø³ÛĮ
ĠÙħÛĮÚĨ Ø²
ĠØŃØ¯ ÙĪØ¯
ĠØªØ¹ Ø±ÛĮÙģ
ĠØ¹Ø±Øµ ÛĴ
ĠÚ©Ø§Øº Ø°Ø§Øª
ÙĪ Ø§ÙĦÛĮ
ĠØ§ÚĨ Ø§ÙĨÚ©
ĠÙĪØ§Ø±Ø¯ Ø§Øª
ĠØ¢ Ûģ
Ø§Ø³ Ùħ
ĠÙħØ¹ Ø·ÙĦ
ĠÙħØ±Øª Ø¨
ĠÙħÙĪ Ø«Ø±
ĠØ¨ØŃ Ø§ÙĦÛĮ
ĠÙħØ´ ÛĮØ±
ĠØ§Ú© Ø§Ø¤
ĠØ²Ø± Ø¹ÛĮ
ĠØ¨ØŃ Ø±Ø§ÙĨ
ĠØ§Ú¯ ÙĦÛĴ
ĠØ§Ø³ Ø¯
ĠÚ¯Ø±ÛĮ ÚĪ
ĠÙĨ Ø§ØµØ±
ĠÚ¯ÙĪØ±ÙĨ ÙħÙĨÙ¹
ĠØŃ ÙĦÙģ
Ø¬Ø³ Ù¹Ø±
ĠØ±ÙĪØ² Ø§ÙĨÛģ
ĠÙĦÙĪ ÚĪ
ĠØ§ÙĦ ÛģÛĮ
Ûģ ÙħÛĮÚº
ĠØ®ÙĪ Ø§Ø¨
ĠÚ¯ÛĮ Ø³
ĠØªÚ© ÙĦÛĮÙģ
ĠÙģØ¶ Ø§Ø¦ÛĮ
ĠØ§ÙĨ Ú¾ÙĪÚº
ÚĳÚ¾ ÛĴ
Ġ "
ĠØ§ÙĨ Ø¹Ø§Ùħ
ĠÛĮ Ø§Ø±
ĠØ§Ø³Ø±Ø§Ø¦ÛĮ ÙĦ
Ø³Ù¾ ÙĦ
Ø¬ ÙĨÚ¯
ĠÙĪ Ø§Ø¨
ĠØ³ÛĮ Ù¹
ĠÚ©Ø± Ø§ÛĮØ§
ĠØ² Ø±Ø¯Ø§Ø±ÛĮ
ĠÚĨÙĦ ÙĨÛĴ
Ø³ÙĦ Ø±
ĠØ§ÙĪÙĦ Ø§Ø¯
ÙĪÛĮ Ø§Øª
ĠÚ©Ú¾ Ø§ÙĨØ§
ĠØªØ§Ø±ÛĮØ® ÛĮ
ĠÙĤ Ø¨Ø±
ĠÙħØ² Ø¯
Ø· ÙģÛĮ
ĠÙ¾Ø± Ø§Ø¬
ĠÙħÙĪ ØµÙĪÙĦ
ĠÙģØ±Ùħ Ø§Ø¦ÛĮ
ĠÚĨØ§Ûģ ÛĴ
Ø§Ø¦ Ø±ÛĮ
ĠÙħÙĤ Ø¨ÙĪØ¶Ûģ
ĠØªØŃ Ø³ÛĮÙĨ
ĠÙ¾ Ø§ÛĮØ§
ĠÚ©ÙĪ Ù¹
ÙĨÛĮ Ø¨
ĠØµ Ø¨Ø±
ÙħØŃÚ© ÙħÛģ
ĠØ´Ú©Ø§ ÛĮØª
ĠØ±ÛģÙĨÙħ Ø§Ø¤Úº
Ø¹ ÙĪÙĨ
ĠÛĮØ§ ÙģØªÛģ
ĠØ§ÛĮ ÙĪÙĨÙ¹
ĠÚ©Ø± ÛĮÙĨÚ¯ÛĴ
ĠØ§ØŃ Ø³ÙĨ
ĠØŃØ³ Ø§Ø¨
ÛĮÙĨ Ø³
ĠØ¨ÛĮ Ø³
ĠØ¨ØŃ Ø§ÙĦ
ĠØ³ Ø§Ø±ÛĮ
ĠÙħØŃÚ© ÙħÙĪÚº
ĠÚĨ ÙĪØª
ĠØ± ÛĮÙĦ
ĠÚ©Ú¾ÛĮ ÙĦÛĴ
ĠØ¯ÙĦÚĨØ³Ù¾ ÛĮ
ĠØ±Ûģ ØªØ§
ĠÙĨ Ø¨ÙĪØª
ĠÚĪ Ú¯Ø±ÛĮ
ĠØ¨ÙĦÙĪÚĨ Ø³ØªØ§ÙĨ
ĠØµÙĪØ¨ ÙĪÚº
ĠØ¹ÙĦ Ø§Ø¬
ÙĤØ± Ø¢ÙĨ
ĠØ³ Ø±ÛĮ
ĠØ§Ø³ ÙĦÙħ
ĠØ§ÙĦ Ø±
ĠÙĦ ÛĮÚ©Ø±
ĠØ³Ø±Ø§Ûģ Ø§
ĠØ¨ÚĨ Ø§ÙĨÛĴ
ĠØªÛĮ Ø³Ø±ÛĴ
ĠÙ¾ Ø§ÙĪØ±
ÚĪ ÛĴ
ĠÙ¾Ø± Ø§Ø¦ÛĮ
ĠØ±Ú©Ú¾ ÙĨØ§
ĠØ§ÙĨ Ù¹Ø±ÙĪ
ĠØ§ÛĮ Ù¾
ĠÙ¾ ÛĮÚ©
ĠØŃÙĦÙĤ ÙĪÚº
ĠÙ¾ÙĪØ§Ø¦ÙĨÙ¹ Ø³
ĠÚ¯ ÙĨ
ĠØ§Ø¹ØªØ± Ø§Ùģ
ĠÚ© ÙĦÛĮ
ĠÙĤ ÙĪÙĦ
ĠÙħÙĦØª ÙĪÛĮ
ĠØ±ÛĮÙĨØ¬ Ø±Ø²
ĠÙħ Ø®ØµÙĪØµ
ĠÙ¾Ø§Ú©Ø³ØªØ§ÙĨÛĮ ÙĪÚº
ĠØ§ÙĨ Ú©ÛĮ
ĠÙģØ±Ùħ Ø§ØªÛĴ
ĠØ§ÙĦØ±ØŃ ÙħØ§ÙĨ
ĠÙĪ Ø§ØŃØ¯
ĠÙģ Ø®Ø±
ĠØ¨ÙĪ Ø¬Ú¾
ĠØº Ùģ
ĠØ® Ø§ÙĦÛĮ
ĠÙĤØ±Ø¨ Ø§ÙĨ
ÙĪÙģ Ø§ÙĤÛĮ
Ø¨ Ø±Ø¯Ø§Ø±
ĠØ¯ ÙĦÛĮÙĦ
Ø§Ú© ÛĮ
ĠØ³Ùħ ÙĨØ¯Ø±
ĠØŃÙĪØµ ÙĦÛģ
ÚĪ ÛĮÙħ
ĠÛģÙĨØ¯ ÙĪ
ØŃÚ© Ùħ
Ø§Ø® ÛĮØ±
Ú© Ø´ÙĨ
¹ Û
ĠØ±ÛģÙĨÙħ Ø§Ø¦ÙĪÚº
Ø¸ Ø±
ĠÙħØª ÙĨ
ĠØ¨ÙĦ Ø¯ÛĮÛģ
ĠØ¯ ÙĪÙĦØª
ĠØ¬ÛĮ Ø³Ø§
Ø§Ø¨ ÛĮÙĨ
ĠØ¨Ø§Ø² Ø§Ø±
ÙĨ ÙĨÚ¯
ĠØ® ÙģÛĮÛģ
Øª ÛĮÚº
ĠØ¹Ùħ ÙĦÛĴ
ĠØ¨Ú¾ÛĮØ¬ Ø§
ĠÙģ Ø±ÛĮÙĤ
Ø¹ ÛĮØª
ĠÙ¾ ÚĨÚ¾
ĠÙ¾Ú¾ ÙĦ
ĠÙħØ´ ÛģÙĪØ±
ĠØ³Ú© Ú¾Ø±
ĠÙħÛģ Ø§Ø¬
ĠÙ¾ Ø§ÙĨÛĴ
ĠØ± Ú©Ø§ÙĪÙ¹
ĠØ´Ø±Ú© Ø§Ø¡
ĠØ¯Ú¾Ùħ Ø§Ú©ÛĴ
ÙĨ Ø§Ø¡
Ùħ ÛĮØ§Úº
ĠÙĨÚ¯Ø± Ø§ÙĨ
ĠÛĮÙĪÙĨ Ù¹
ĠÛ ´Û
ĠØ² ÛĮ
ĠØµÙĨ Ø¹
ĠØ¬ Ø§ÙĨÛĮ
ĠÛģ Ø¯Ùģ
ØŃ Ø§ÙĨ
ĠÙ¾Ûģ ÚĨ
Ġ4 5
ĠÚ©Ø± Ø§Ø¦ÛĴ
ĠØ³ Ø²
ÙĦ Ú©
Ø§Ø¯ ÙĤ
Ø§ÙĨ Ú©Ûģ
ĠØ³Ø§Ø² Ø´
ĠØ§Ø´ Øª
ĠØ§ÛĮÚ© Ø³
ĠØ§Øµ ÙĪÙĦ
ĠÙħ Ú©Ûģ
ĠØ³ÚĳÚ© ÙĪÚº
ĠØ¨ÛĮÙ¹Ú¾ ÛĴ
ÙĨ ÛĮØ§
ĠØ± Ø¬Ø³Ù¹Ø±
ĠØ´ ÙĪÛģØ±
ĠÙĪ ÛĴ
ĠØ§Ûģ ÙĦÛĮÛģ
ĠØ§ÙĤ ÙĪØ§Ùħ
Ø³ ÙħÛĮØª
ĠÙħÙĨ ÚĪÛĮ
ĠØ¹Ø¯Ø§ÙĦ ØªÛĮ
Ø§Ø¤ ÙĨÚĪ
ĠØ± Ø´
ĠØ§Ø¨ ÙĦ
ĠÙģÙĦØ³Ø· ÛĮÙĨÛĮ
ĠÙ¾ÙĪ ÚĨÚ¾Ø§
ĠÚ©ÙĪØ± ÛĮØ§
ĠØ¯ Ø§Ø¦
Ġ ï
ĠØ§ØŃÚ© Ø§Ùħ
ĠØ§Ø¯ ÙĪÛĮØ§Øª
ĠÚ¯ÙĪ Ø´Øª
ĠÙĦØ§Ú©Ú¾ ÙĪÚº
ÚĪ ÙĪÙĦ
ĠØ§ÙĦ Ø¨
ĠÙħØ³ÙĦ ØŃ
ĠØ§ Úĳ
ĠÚ¯ Ø±Ùħ
ĠØªÙĨ Ø®ÙĪØ§Ûģ
ĠØªØµ ÙĪØ±
ĠÚ¯ ÙħØ±
ĠÙħ ÙĨÚ¯ÙĦ
ĠØ¨Ø§ÙĦ Ø§
ĠØŃÙĦÙĤ ÛĴ
Ø´ Ø§Ø¡
ĠÙ¾Ø± Ø³Øª
ĠØ¯ Ø±Ø¯
ĠØ§Ú©Ø± Ùħ
ĠØ§ÙģØºØ§ÙĨ Ø³ØªØ§ÙĨ
Ø§Ø¯ Ùħ
ĠØ§Ø¦ ÛĮØ±
ĠØ´ Ø§
ĠØ³Ùģ Ø§Ø±Øª
Ø§ÙĦ ÛĴ
ĠØ¨ÚĨ ÛĮ
ĠØ§Øª ÙĨÛĮ
ĠØª Ø§ØŃ
Ø¬ ÙĦ
ĠÙĤØ±ÛĮ Ø¨ÛĮ
Ø¬ ÙħÙĨÙ¹
Ø¨ Ù¹
ĠÙģÙĪ Ø§Ø¯
ĠØ§Ùħ ØªÛĮ
ĠØ§Ø³ØªÙĤ Ø¨Ø§ÙĦ
ĠÚ©Ú¾ÛĮ ÙĦØ§
Ø§Ø¦ÛĮ ÚĪ
ĠÛģ Ø§Ø¦ÙĪØ³
ĠØ¨Ø± Ø§Ûģ
ĠÛģ ØªÚ¾ÛĮ
Ø° Ø±
ĠØªÚ¾ Ø§Ùħ
ĠØ§ØŃØªØ¬ Ø§Ø¬ÛĮ
ĠØ§Ø®Ø±Ø§Ø¬ Ø§Øª
ĠØ¯ ÛĮÙĨÛĮ
ĠÚ©ÙħÛĮ ÙĪÙĨ
ĠÚ©Ø§ÙĦ ÙĪÙĨÛĮ
ĠØ¯ Ú©Ø§ÙĨ
ĠØ´ Ø§ÛģØ±
ĠØ§ÛĮ ÙħØ±
ĠÙħØ´ Ø±
Ùħ Ø°
ĠØ±Ú©Ú¾ ØªÛĮ
ĠÙ¾ÙĪ ÚĨÚ¾
Ø§ÙĦÛĮ Ø³
ĠÚ©Ø±ÙĪ Ø§ÙĨÛĴ
ĠÙĨØ§Ø¸ Ùħ
ÙĪØ§Ø± ÚĪ
ĠØ§ÙĪ ÙĤØ§Øª
ĠØ¯ÙĦ ÙĪÚº
ĠØ§ÙĨØ³Ù¾ Ú©Ù¹Ø±
ĠØ´ ÙĪÚ©
Ùģ ÛĴ
ĠÚ¯ÙĦ Ú¯Øª
ĠØ§ÙĦ ÙĦ
ĠØ®Ø·Ø± ÙĨØ§Ú©
ĠØ¯Ùģ Ø¹Ûģ
ĠØªÙĤ Ø§Ø¶
ĠØ§Ùģ ÙĪØ§Ø¬
ĠÙ¾ Ø´Øª
ĠÙĪ Ø§Ùħ
Ø§Ø¦ ÙĦÛĮ
ĠÚ©Ùħ Ø§ÙĦ
ĠØŃÙĪØ§ÙĦ Ûģ
ÛĮØ± Øª
ĠØ¢ Ú©Ø±
Ø±ÛĮ ÙĪÚº
: -
ĠÙĨØ§Ùħ Ø²Ø¯Ú¯ÛĮ
Ø® Ø§Ø±
ĠÙ¹ ÛĮÚ©ÙĨ
ĠØ®ÙĪØ± Ø§Ú©
ĠØ³ÛĮ Ø´ÙĨ
ĠÙħØ¹ Ø°
ĠØ¬ÙħÛģ ÙĪØ±ÛĮ
ĠØ® Ø§ÙĨÛĴ
ĠÚ©ÙħØ² ÙĪØ±
ĠØ¨ÙĦ Øª
Ø§Ø¨ Ûģ
ĠØ° Ø®
Ù¾ÛĮ Ø´ÙĦ
ĠØµ ÙĪ
Ø¨ Ø§
ĠØ§Ø´ Ø§Ø±Ûģ
ĠÙĨ Ø¯
ØªØ± Ø§Ùħ
Ùħ Ú¯Ø±
ĠÙħÙĪ Ø¶
ĠÚ©Ø±Ù¾ Ø´ÙĨ
ĠÙħÙĦÚ© ÙĪÚº
ĠÚ©ÛĮ ÙħØ±
ĠÚĨÛĮØ² ÛĮÚº
Ù¾ Ø§Ø±Ù¹ÙħÙĨÙ¹
ÙĪØª Ú¾
ĠÚĨ Ú©
ĠÙĨÚ© Ø§ØŃ
ĠØ³ÙĨÚ¯ ÛĮÙĨ
ĠØ³Ú©ÙĪÙĦ ÙĪÚº
ĠØ¬ÙĨ ÛģÙĪÚº
ĠØ² ÙĪÙĨ
ĠØ§ÙĦ ÛĮÚ©
Ø§Ûģ ÙĦÛĮ
ĠØ³Ûģ ÛĮÙĦ
ĠØ³Ø±ØŃ Ø¯
ĠØªØ´ÙĪÛĮ Ø´
Ø´ Ø§
ĠÙĦ Ø§ÙĨ
ĠÙĦ Ú¯ÛĮ
ĠØ§ÙĨÚ©ÙĪ Ø§Ø¦Ø±ÛĮ
ĠØ±ÛĮØ³ Ú©ÛĮÙĪ
Ø¹ÛĮ Ø¨
ĠÙħ Ø§Ø¨ÛĮÙĨ
ĠÛģ ÛĮØ±
Ø§ÙĨ Ø³ÛĮ
Øµ Ø¯Ø±
Ø§Ø¦ÛĮÚ© ÙĪØ±Ù¹
ĠØ° ÛĮ
ĠØ§ÙĨÚ¯ÙĦ ÛĮÙĨÚĪ
ĠØ¨ÙĦØª Ø³ØªØ§ÙĨ
ÙĪ Ú©ÛĮÙ¹
ĠÙģ Ø¹Ø§ÙĦ
Ùħ Ø§ÛģØ±ÛĮÙĨ
ĠÙ¹ Ø§Ø¦ÙĪÙĨ
ĠØ¨ÛĮ Ø´Ú©
ĠÙĪÛĮ Ø³Ù¹
ĠÚ¯ ÙĦÛĮ
ĠØ§ÙĨØªÙĤ Ø§ÙĦ
ĠØ¢Ø¤ Ù¹
ĠØ¨ÚĨ Ûģ
ĠØ¯Ø³Øª Ø§ÙĪÛĮØ²
ĠÙģØ± Ø¶
ĠØ¨ ÛĮÚ©
ÙĪÛĮÙĦ Ù¾ÙħÙĨÙ¹
ĠØ¨Ø² ÙĨØ³
ĠØ§ÙĨ ÙĨÚ¯Ø²
Ø³Ø± Ø§
ĠØ§Øª ÙĪØ§Ø±
Ø¨Øª Ûģ
ĠÙĨØ§Ùħ Ø¹ÙĦÙĪÙħ
ÚĨÛĮ Ø¦Ø±
ĠÚ© ÙģØ§Ø±
ĠÙħØ®ÙĦ ÙĪÙĤ
ĠØ¨ Ø§Ø±Ûģ
Ø¹ ÙĦÙħ
ÙĪØ¯Ú¾ Ø±ÛĮ
ĠÙħØ³Ø¦ ÙĦÛĴ
Ùģ Ø±ÙĪ
ĠÙĨ ÛĮÙĦ
ĠØ¨ Ø§ÙĦÛĮ
ØŃ ÛĮØ¯
ĠØ§Ø¨ÙĦ Ø§Øº
Ø¬ Ø§
ĠØ¨ ÙĨÚ¯
ĠÚĨØ§ÙĨ Ø³ÙĦØ±
Ø¨ Ø§Ø¨
ĠØ¬ÙħØ¹ Ø±Ø§Øª
ĠØ¬Ø³Ùħ Ø§ÙĨÛĮ
ĠÚ©ÙĪØ´Ø´ ÙĪÚº
ĠØ§Øª ÙĨØ§
ĠÙĪØ§ÙĦ Ø¯Ûģ
ĠØ§ÛĮÚ© Ù¹
ĠØ§Ù¹Ú¾ Ø§ÙĨÛĴ
Ú©ÛĮ ÙĦØ¦ÛĴ
Ø§Ø¦ ÙĤ
ĠØ§Ø³Ø±Ø§Ø¦ÛĮ ÙĦÛĮ
ÙĪØ¯ Ûģ
ĠØª Ø§Ø®ÛĮØ±
ĠØ§Ú© Ø«
ĠÙħØ´ ÛĮÙĨ
ĠÙħØ· ÙĦÙĪØ¨
ĠÚ© ÙĨÙ¹
Ø´Øª Ø±
ĠØ¨ ÛĮØª
ĠØ« ÙĤ
ĠØŃØ¶ ÙĪØ±
ĠØªÙĪ Ø³ÛĮØ¹
Ù¾ Ø³
ĠØ³ÙĨ ÙĨ
ĠØ³Ø±Ùģ Ø±Ø§Ø²
ĠÚĨ ÙĨ
ĠØ¹ÙĦÛĮ ØŃ
Ø§ÙĦÙĪ Ø¬ÛĮ
ĠÛ ±
ĠÙĪ Ø§Ø¬
ĠØ¯Ø³ØªÛĮ Ø§Ø¨
ĠØ§ØŃØ³ Ø§ÙĨ
ÙĨ Ø±
ÛĮÛģ ÛĮ
Ġ3 1
Ø§Ø¦ Ùģ
ĠØ³Ø§Ø¨ÙĤ Ûģ
ĠÚ©ÛĮÙ¾ Ù¹ÙĨ
ĠØ³ Ø®
ØŃ Ø§ÙĤ
ĠÙ¾ Ø°ÛĮØ±
ĠØ§Ø®ØªÛĮØ§Ø± Ø§Øª
ÛĮØ¯ Ú¯ÛĮ
ĠØ§ÛĮÚ¯Ø²ÛĮÚ© Ù¹ÙĪ
ÚĪÛĮ Ø²
ĠØ´ Ø¨
ĠÚĨØ§Ûģ ØªÛĮ
ĠØ³ÛĮ Ø§ØŃ
ĠØ³Ù¹ Ø§Ùģ
ĠÙĪØ¶ Ø§ØŃØª
ĠÙħØ±Ø¯ ÙĪÚº
ÙĪØ³ Ú©
ÙħÛĮ Ø´ÙĨ
ĠÙħÙĨ Ø³ÙĪ
Ø¨ÛĮ Ø§Ø¡
ĠØ¬ÙĦ ÙĪØ³
ĠØ³ÙĨØ¨Ú¾ Ø§ÙĦ
ĠØ¹ Ø§Ø±Ùģ
Ø§ÙĦØ¨ Ø§Øª
ĠØ¨ Ø§Ø¨Ø±
ĠØ§Ø¶Ø§Ùģ ÛĮ
ĠØ§ØŃØ³ Ø§Ø³
ĠÙħ ÙģØª
Ø¯Ûģ ÛĮ
ĠØ§ÙĨØªØ¸ Ø§Ø±
ĠØ§ÙħØ±ÛĮ Ú©Ûģ
ĠØª ÛĮÙĦ
ĠÙĤØ¯Ø± Øª
ĠÙħØ¸ Ø§ÛģØ±
ĠÛģ Ø§ÙĦ
ĠÚ© ÚĨ
ĠÙħ Ø§ÛĮ
Ù¹ ÛĮÙĨ
ÙĨÚ¯ Ù¹ÙĨ
Ø§Ø±Ú© Ø³
ĠØª ÙģØµÛĮÙĦ
ÙĦ Ø§Øª
ĠØ¹Ø¨ Ø¯
ĠØ¹ ÙĤ
ÙħØª Ø§Ø²
ĠÚ¯ÙĪØ±ÙĨ Ø±
ĠØ¬ÙĨ Ø³ÛĮ
ĠØ³ Ú©Ú¾
ĠØ§ÛĮ Ø¬
ÚĪ Ù¹
ĠÚĪØ§ÙĦ Ø§
ĠÚ©ÛģØ§ Úº
ĠÙĦ ØŃ
ÙĦÛĮ ÙħØ§ÙĨ
ĠÙħØ¹ÛĮ Ø§Ø±ÛĮ
ĠÚ¯ÙĪ Ø§Ûģ
Øª Ø¹
ĠØ¯Ùħ Ø§Øº
ÙĤ ÙĪÙħÛĮ
Ø§Ø¦ÙĨ Ø§Øª
Ùħ Ø³
Ġ201 6
ĠÙħØ¬ ÙĦØ³
ĠØ« Ø§ÙĤØ¨
ĠØ®ÙĪØ¨ ØµÙĪØ±Øª
ĠØ¨ÚĳÚ¾ Ø§
Ø§ ÙĪÛĮ
ĠØ§Ø º
ĠØ± Ø¬
ĠØ¯ Ø§Ø±ÙĪÚº
ĠÙħØ± Ø¶
ĠØ® Ø³
ĠØ§Ø® ÙĦØ§ÙĤ
ĠØ³ ÛĮØ§
ĠØ³Ù¾ ÛĮÚ©Ø±
ĠØ¹ ÛĮØ¯
ĠØ§ÙĨÙ¹Ø±ÙĪ ÛĮÙĪ
ÛĮÚ© Ø§
ĠÙĨØ¹ ÛĮÙħ
Ûģ ÛĴ
ĠØ§Ùģ Ø¶ÙĦ
ĠØ² ÛĮÙĨ
Ú¯ÙĪ Ø§Ø±
ĠØªÛĮÙĨ ÙĪÚº
Ø³ Ø¹
ĠÚ©ÛĮ ÙĪØ³Ú©
ÙĪÙĨÛĮ ÙĪ
ĠØ¨ Ø§Ø¦ÛĮ
ĠØ´ÙĨØ§Ø® Øª
Ù¹ ÙĪÚº
Ø¯ Ø³
ĠØ§ÙħØ± Ø§Ø¶
ÚĨ Ú©ÛĴ
ĠÙħØ¹ Ø§Ùģ
ĠØ¹ Ø§Ø¨
Ø¯ ÙĪØ¯
ĠØ¯ÛģØ´ØªÚ¯Ø±Ø¯ ÛĮ
ĠØ¢ Ùħ
ĠÙĪ Ø³ÛĮÙħ
ĠÙħÛģ Ø±
ĠØ³ÙĪ ÙĨÛĴ
ĠÙ¾ÛģÙĨÚĨ ÙĨÛĴ
ĠØ§ÙĨØ³ Ø§ÙĨÙĪÚº
ĠÙħÙĤ Ø¨ÙĪÙĦ
ĠÙħØ³Ø§Ùģ Ø±
ĠÙħØ¹Ø§ÙĪÙĨ Øª
Ø³ Ú©ÙĪ
Ø±ÛĮ Ø±ÛĮ
ĠÙĨØ§ÙĤ Ø§Ø¨ÙĦ
Ø´ ÛĮÙĨ
ĠØ§Ø³ ÙĦ
ĠÙħØ¹ Ø§ÛģØ¯Ûģ
Ø³ ÛĮØ¯
ĠÙħÙĨ ÙģÛĮ
ĠÙħØ· Ø¨ÙĪ
ĠØµ Ø§Ø¯ÙĤ
ĠØ§Ø °
ĠØ±ÛĮÙħ Ø§Ø±Ú©Ø³
ĠÛĮÛģ ÙĪØ¯
ĠÙĨØ¹ Ø±ÛĴ
ÚĪ Ù¾Ù¹ÛĮ
ĠØ³ ÚĨ
ĠÙĨ ÙĤÙĦ
ĠÚ©Ú¾ ÚĳØ§
ĠÙĤÛĮÙħ ØªÛĮ
Ø³ Ø§Ùħ
ĠØ´ÛĮ ÚĪÙĪÙĦ
ĠØ§Ù¹Ú¾ Ø§ÛĮØ§
ĠÙħØµ Ø·ÙģÛĮ
ĠÙ¾ ÚĨ
ĠÙħ Ø´ÙĨ
ĠØ¨Ú¾ Ø¬ÙĪ
ĠÙħÛģ ÛĮØ§
ĠØ³Ø§ÙĨ ØŃÛģ
ĠÚĨÙĦ Ø§ÙĨÛĴ
Ø§Ø¦ Ø´Ûģ
ĠÙ¾Ûģ ÙĦÙĪ
ĠÚ© Ø§Ø¦ÙĨØ§Øª
ĠØ¹Ùħ ÙĦÛģ
3 1
ĠØ± Ø§Ø´
ĠØ¨Ø± Øª
ÛģÙħ Ø§Ø±ÛĴ
ĠØ§Ø³Ù¾ ÛĮÚ©Ø±
ĠØ§ØµÙĦØ§ØŃ Ø§Øª
Ø§ÛĮ Ø³ÛĴ
Ø´ Ø§ÙĨÛĮ
ĠØ§ØŃ ØªØ±Ø§Ùħ
ĠÙħØ·Ø¨ÙĪ Ø¹Ûģ
ĠØ³ÙĪ Ø³Ø§Ø¦
ĠÙģÛĮÚĪ Ø±ÛĮØ´ÙĨ
Ø§Ø± Ø§Øª
ĠÙħØ¸ ÙģØ±
ĠØªÙĨØ¸ÛĮÙħ ÙĪÚº
ĠÚ©ÛĮÙĨ Ø³Ø±
ĠØ¢Ø²Ø§Ø¯ Ú©Ø´ÙħÛĮØ±
ĠÙĦ Ú©
Ø§ÙĨØ¯ ÙĦÛĮ
ĠÙģ ÛĮÚ©
ĠÙħ Ø¤
Ø§Ø¬ Ø§Ø¦Ø²
ĠÙħØ®Øª Øµ
ĠØ³ÙĪØ± Ø¬
ĠØ´Ø®Øµ ÛĮØª
ĠÙĪØ± Ø«
ĠØ¬ Ø§Ø±
Ø§ÛĮ Ø³
ĠØ§ÙĨ Ø§
ĠØ¢ÙĨÚ©Ú¾ ÙĪÚº
ĠØŃØ³ Ø§Ø³
ĠØ§Ùģ Ø²
ĠÙħØ±ØŃ ÙĦÛĴ
ĠÙ¹ Ø§Ø¤ÙĨ
ĠÙħ ÚĨ
ĠÙĨÛĮ Ù¹
ĠÚ©Ø±ÙĪ Ø§
Ù¹Ø±ÛĮ Ù¹
ĠØªÛĮ Ø³Ø±ÛĮ
ĠÙ¹ Ú©Ø±
Ù Į
ĠØ§ÛĮÚ© Úĳ
ĠÙģÛĮÙĦ ÚĪ
ĠØ§ÙĨ Ø¹
ĠØ§ÛĮÚĪÙĪ ÙĪÚ©ÛĮÙ¹
ĠÙģÙĦÙħ ÙĪÚº
ĠÙĪ Ø§Ø¦ÛĮ
ĠØŃØµ ÛĴ
ĠØ³ÙĪØ³Ø§Ø¦ Ù¹ÛĮ
ĠÙĪØ² ÙĨ
ĠÚ©Ú¾ ÙĪ
ĠØ§ÙĨØªÛģ Ø§
ĠÙ¹ ÙĪØ±ÙĨØ§ÙħÙĨÙ¹
ÙĪ Ø´ÙĨ
ĠÛģ Ø§Ø´
ĠÙĪ Øµ
ĠØ§ÙĦ Ø®
Ø§Ùħ Øª
ĠÙħØŃ Ø¨
ĠÙĪ ÚĪ
ĠØ³Ø§ ÚĳÚ¾ÛĴ
Ú¯ ÙĪÚº
ĠØ± ÙģÛĮÙĤ
ĠÙħÙĤØ± Ø±Ûģ
ĠÙħØ³Øª ÙĤÙĦ
ĠØ¬Ø§Ø¦ÛĮ Ø¯Ø§Ø¯
Ø§ ÛĮÙĨ
ĠØ¬Ø§ÙĨ ØªØ§
ĠÚ©ÙĪØ§Ø± Ù¹Ø±
ĠØ°Ûģ ÙĨÛĮ
ĠÙħØ¯ ÛĮÙĨÛģ
ĠØ° Ø§Øª
ĠØŃØ§Ø¯Ø« ÛĴ
ĠØ§Ø± Ø§Ø¯Ûģ
ĠØ¬Ú¾ Ú¯
ĠØ³ÙĦ Ø·Ø§ÙĨ
ĠØ³ Ø§Ø±ÛĴ
Ø§Ø´ ÙĨÚ¯Ù¹ÙĨ
ĠØ§ÙĨØ³Ø§ÙĨÛĮ Øª
ĠØº ÙĨÛĮ
ĠÙģ Ûģ
ĠØ¢Ù¾ Ø³
ĠÚ¯ ÛĮÙĦ
ĠÙħØ®Ø§ÙĦ ÙģØª
ĠØ¨Ø¯ ÙĪÙĦØª
ĠØ· Ø±Ø²
ĠÙģØ±Ùħ Ø§Ø¦ÛĴ
ĠØ±ØŃ Ùħ
ĠØ·ÛĮ Ø§Ø±ÛĴ
ĠØ¬Ø§Ùħ Ø¹Ûģ
Ùħ ÙĪÙĦ
Ø±ÛĮÙģ Ú©
ĠØ§ÙĪÙĦ ÛĮÙĨ
ĠØ§Ø¨ ÛĮ
Ø§Ø² ÛĴ
ĠØ±Ø³ Ø§Úº
ĠØ¹Ø±Ùģ Ø§ÙĨ
Ø±Ú© Ø§Ø±ÛĮ
ĠÙ¾Ûģ Ø§Úĳ
ĠâĢĺ âĢĺ
Ú©Úĳ ÙĪÚº
ĠÛģØ³Ù¾ØªØ§ÙĦ ÙĪÚº
ĠÚ¯Ø±ÙĪ Ûģ
Ġ8 0
ĠØ¨ Ú¯
ĠØ¨ÙĦ Ø§Ú©
Ø§Ùħ Ø¯
ĠØªØ§Ø¬ Ø±
ĠØº Ø±ÛĮØ¨
ĠÙ¾ÛĮ Ùħ
Ø¢ Ø¦
ĠØ§Ùħ ÛĮÙĨ
Ù¹Ø± ÙĨÚ¯
ĠØ±ÛĮ Ø¬ÙĨ
ĠØ´ÛģØ¯ Ø§Ø¡
ĠÙĦÚ¯ ØªØ§
ĠØ¢Ø± Ù¹
ĠØ³Ø§ØªÚ¾ÛĮ ÙĪÚº
ĠÚ© Ù¹
ĠØ§Ø± Ø§Ø¶ÛĮ
ĠÙģØ± ÙĪØ±ÛĮ
ĠØ¬Ø§ÙĨ ÙĪØ±ÙĪÚº
ĠØ¨Ø§Øª ÙĪÚº
· º
ĠØµÙĦØ§ØŃÛĮØª ÙĪÚº
ĠØ± Ø¯
ĠØŃØ§Ø¶ Ø±
ĠØµÙģ Ø¯Ø±
Ø§ØŃ ÙħØ¯
ĠÙĦÛĮ Ù¹Ø±
ĠØ´ Ø±ÛĮ
ĠØ¬Ø§ Ù¾
ĠØ² ÙħØ§ÙĨ
ĠØ¬ÛĮ Ø³ÛĮ
ĠÙĨØ´Ø§ÙĨ Ø¯ÛģÛĮ
ĠØ¯ÙĪ Ø²Ø®
ĠÚ© Ø´ÛĮ
ÙĪØ²ÛĮØ± Ø§Ø¹Ø¸Ùħ
ĠØ¨ Ø§Ú©
ĠÙ¹ ÛĮÙĨ
ĠØ§Øª Ø§Ø±
ĠØ§ÛĮ Ø¬ÙĨ
ĠÙ¾Ø±Ø§Ø¬ ÛĮÚ©Ù¹
Ø¨ ÙĦÛĮÙĪ
ĠØ³Ø± Ú¯ÙĪØ¯Ú¾Ø§
ĠÚ©Ùħ Ø±
ĠØ§Ø±Ø´ Ø¯
Ø¯Ø¹ Ø§
ĠÙħÛĮ Ù¹ÙĨÚ¯
ĠÙĤØ¨ Ø§Ø¦ÙĦÛĮ
ĠÙħ ÙħØªØ§Ø²
ĠÙ¾ÚĳÚ¾ ÛĮÚº
ĠØ¹ Ø§Ø¯
ĠØ´ÙĪÚ© Øª
Ù¾Ûģ ÙĨÚĨ
ĠÙħÙĤ ÛĮÙħ
Ø±Ø¨ Øª
ĠÚ©ÙĪØ´Ø´ ÛĮÚº
ĠÙħØ¸Ø§Ûģ Ø±ÛĮÙĨ
ĠØ§ ÙĪÙĨ
ĠØ° ÙĪØ§ÙĦ
ĠÙħ Ø§Ùģ
ĠØ¨ Ø§Ø·
ĠØ¨ ÙĦÛĴ
ĠØ³ÙĨ Ø¬
ĠÙĪØ§Ø¨ Ø³ØªÛģ
ĠØ´ Ø¹ÛĮØ¨
ĠØ§ÙĪ Ø²
ĠØ¯Ø³Øª Ø®Ø·
ĠØ§Ø¬ Ø§Ú¯Ø±
ĠÚĪ ÛĮØ±Ûģ
ĠØª Ø§Ø¨
ĠØ§ÙĪ Ù¾ÙĨ
ĠØ¢Ø³Ù¹Ø±ÛĮÙĦ ÛĮØ§
Ø¹Ø¯ Ùħ
Ġ19 9
ĠØ³ Ø±ÙĪ
ĠØªÙĪ Ø¨Ûģ
Ù¾ ÛĮØ±
ĠØ±ÛĮÙ¹ Ø§Ø¦Ø±
ĠØ§Ú©Ø« Ø±ÛĮØª
ĠÙħØ± Ø§Ú©
ĠØ§ Ù¹
ĠÙĨØ¸ Ø±ÛĮ
ĠÙĪØ² Ø±Ø§Ø¡
ĠØ§Ø±Ø¨ ÙĪÚº
ĠÙĦ Ùħ
ÙħØ° Ú©ÙĪØ±Ûģ
ĠÙħØ³Ø§Ùģ Ø±ÙĪÚº
Ø³ ÛĮÚ©
Ù¾Ø§Ú© Ø³ØªØ§ÙĨÛĮ
Ù¾ ÙĨØ¬Ø§Ø¨
Ù¹Ø±ÙĪ ÙĦÛĮÙħ
ĠÙ¾Ø±Ø§Ø¦ÛĮ ÙĪÛĮÙ¹
Ù¹ ÚĪ
ĠØ§Ø³ ØŃØ§ÙĤ
ĠÙħ Ø±Ø²
ĠØ± Ø´ØªÛģ
ĠØ¶ ÙħÙĨÛĮ
ĠØªØ§ØŃ Ø§ÙĦ
ÙĨÚĪ Ø§
ĠÙĤ ÙħØ±
ÛģÙĪ ÙĨÛĴ
Ø¬ Ø§ÙĨ
Øº Ø±
ĠÙħÛĮ Ø³Ø±
ĠÛĮÚ© Ùħ
Ø´ ÛģØ±
ĠÚ©ÙĦ Ø§Ø³
ĠØ® Ø´Ú©
ÙĪÛģ Ø§Úº
ĠÚ©Ú¾ ÙĦÛĮ
Ú©Ø± ÙĨÛĴ
5 0
ĠØŃØ¶ Ø±Ø§Øª
ĠØ¹ÙĪØ±Øª ÙĪÚº
ÙģÛĮ Ø¸
ĠØ§ÛĮØ± Ø§ÙĨÛĮ
Ø² ÙħÛĮÙĨ
Ø¯Ø± Ø®ÙĪØ§Ø³Øª
ĠØ±Ûģ ØªÛĮ
ĠØ¢Ø¦ ÛĮÙĨÛĮ
ĠØ±ÛĮÙĦÛĮ Ùģ
ĠØ§ÛĮÙħØ± Ø¬ÙĨØ³ÛĮ
ĠÚ¯ ÛĮÙħ
ĠÚ©Ø±ÙĪ Ø§Ø¦ÛĮ
ĠÙħØ´ Ø±Ùģ
Ø§Ù¾ ÙĨÛĮ
Ø¬ Ø±Ø§ÙĨ
ĠØŃÙħÙĦ ÙĪÚº
Ú¾ÛĮ Ø±
ĠØ¶Ø±ÙĪØ±ÛĮ Ø§Øª
ĠÙħØ´Ø±Ú© ÛĮÙĨ
ĠÚĪØ§ÙĦ ÙĨÛĴ
ĠÛ ²
ĠØ³ÙĨ Ø§Ø¦ÛĮ
ĠÙħØ¹ Ø§Ø¦ÙĨÛģ
Ù¾ Ø§
ĠÙĦÛĮ Ú¯ÛĮ
ĠÙĪ Ø³ÛĮØ¹
ĠØ¬ÙĦ Ø³ÛĴ
Ġ201 3
ĠØ¬Ø§Ø¦ÛĮ Ú¯ÛĮ
Øª Ø´
ĠÙħØ´ ÙĪØ±Ûģ
ĠØªÙħ ÛģØ§Ø±Ø§
ĠØ¬ÙĪ Ø´
ĠÙĦØŃ Ø§Ø¸
Úĳ Ûģ
ĠØ±ÛģÙĨÙħ Ø§Ø¡
ĠØ¹ÛĮ Ø³ÛĮ
ĠØŃ Ø±ÛĮØª
Ø§Ø¯ Ø§Ú©
ĠØ¨Ø±Ø· Ø§ÙĨÛĮÛģ
ĠÙħØ¹Ùħ ÙĪÙĦ
ĠÙģØ± ÙħØ§ÙĨ
ĠØº Ø°
ĠØ±Ø³ Ø§Ø¦ÛĮ
Ú©ÙĪ Ø¦ÛĮ
ĠÙħÛģ ÛĮ
ĠØ§ÙħØªÛĮ Ø§Ø²
Ø§ØŃ ÙĦ
ĠÙ¾Úĳ ØªØ§
ĠÙħÙĪ Ø§Ø¯
ĠÙĨ Ø§Ø¬Ø§Ø¦Ø²
ĠØ§ÙĦ Ùģ
ĠÙ¹ ÙĨ
ĠÙĨØµ Ø¨
Ù¹ ÛĮØ§Úº
ĠØ¨ Øº
ĠØ§ÛĮ ÙĪØ§Ø±ÚĪ
ĠØ§ÙĨ ÙĤÙĦ
ĠÙĦØ§ Ú¯Øª
ĠØŃ Ø±Ú©Øª
ĠÙĨÙĪ Ù¹ÛĮÙģ
ĠÙ¾Ø±ÛĮ Ø´Ø§ÙĨ
Ø² ÙħØ§ÙĨ
ĠØ¨ÛĮÙħØ§Ø±ÛĮ ÙĪÚº
Ġ *
ĠÙģ ÛĮÙħ
ĠÚ¯ Ø§Ø±ÚĪ
ĠØ§Ø¹ ÙĦØ§Ùħ
ĠØ³Ù¾ÙĪØ±Ù¹ Ø³
ĠÙĨÙĪ Ø¹ÛĮØª
ĠÙħÛĮØ± Ù¹
ĠÙħÚ© Ø§ÙĨ
ĠÙ¾ Ø§ÙĨ
| "
ĠÙĨØ¯ ÛĮÙħ
ĠØ³Ø±ÙĪØ³ Ø²
ĠÚ©ÛĮØ³ Ø²
Øª Ø±ÛĮÙĨ
ĠØ¨ ÙĪØ±
Ú©ÛĮ ÙĪÚº
Ø§Ø¯ ÙĪ
ĠØŃÚ©ÙħØ± Ø§ÙĨÙĪÚº
ĠÙĦÚ©Ú¾ ØªÛĴ
ĠØ¯ÙĪØ³Ø± ÙĪÚº
ĠØ¨ÚĨ Ø§
ĠÙ¾ Ú©Ø§Ø±
ĠØ³Ø¨ Ø²
ĠØ¹Ø¯Ø§ÙĦ ØªÙĪÚº
ĠÙħØ³Øª ØŃÚ©Ùħ
ÙĨ Ø§ÙĨ
ĠÙ¹ÛĮ ÙĦÛĮ
Ġ3 6
ĠÙħØ¹ Øµ
ÛĮ ØªÛĮ
ÙĦ ÙĨØ¯ÙĨ
ĠÙħØ³Øª ØŃÙĤ
Ø§Øµ Ø¯
ĠÚ¯ ÙĨØ¬
ĠÚĨ Ø§ÙĨØ¯
ĠÙĨØ³ Ø¨Øª
ĠØ§ÛĮÙĨ Ù¹ÛĮ
ĠÙģÙĪØ± Ùħ
ĠÙħ Ù¹ÛĮ
Ø±ÙĪ ÛĮ
ĠÙħØ§ÙĦ Ú©Ø§ÙĨ
00 0
ĠØ§ÙĨ Ø¨ÛĮØ§Ø¡
ĠØ¨ÙĨ Ø§ØªÛĴ
Ø§Ú© Ø±Ø§Øª
ĠØ¯Ûģ ÙĦÛĮ
Ø³ ÙĪÚº
ĠØ³ÙĪØ§ÙĦ Ø§Øª
ĠØ§Ø¹Øª Ø¨Ø§Ø±
ĠÚĨ ÙĪØ¯Ú¾Ø±ÛĮ
ĠÙħØ§Ùģ ÛĮØ§
ÙĪÙĨ Ø³Ù¾ÙĦ
âĢĺ ÛĶ
ĠØ¨ Ø§Ø¬
ĠØ¹ÙĤÛĮØ¯ Øª
Ú© ÙĪØ±
Ø·ÛĮ Ùģ
ĠØ³Ø® ØªÛĮ
ĠÙħÙĨØ³ÙĪ Ø®
ĠÙ¾Ø± ÙĪØ±
ĠÚ© Ùģ
ĠØ¢ ÙĨØ§
Ø¬Ø±Ø§ÙĨ ÙĪØ§ÙĦÛģ
âĢ Į
ØªØ§ ÙĤ
ĠÙĦÚ¯ ÙĨÛĴ
ĠÙħÛĮ Ø¦Ø±
Ù¾ÛĮ Ù¾ÙĦØ²
Ø§ÙĨ Ø¬Ø§Ùħ
ĠØª ÙĨÚ¯
ĠÙ¾Ø§Ø±ÙĦÛĮÙħ ÙĨÙ¹
ĠÙħÙģØ§Ø¯ Ø§Øª
ÙĨØ¯ ÙĪÚº
ĠØ¯Ú¾ Ø§ÙĨØ¯ÙĦÛĮ
ĠØ¨Ø´ ÛĮØ±
Ø³ Ø§ÙĨÛĮ
ÙĦØ§ ÙĤÛĮ
ĠÙĪÙģ Ø§ÙĤ
ĠØ§ ÛĮØ±Ø§ÙĨ
ĠØ¹ Ø§Ø¦Ø´Ûģ
ĠØ²Ø¨Ø±Ø¯ Ø³Øª
ĠÙ¹ ÙĪÙ¹
ÙģÙĤ Ø§Ø±
ĠØ¨ÙĦ Ø§ÙĦ
ĠÙħØ¯ Ø§Ø®
ĠØ¨Ú¾Ø± ØªÛĮ
ĠÙħØªÙĪ ÙģÛĮ
ĠÙħ Ø§Ø±ÛĴ
ĠØ¨ØŃ Ø±ÛĮÛģ
ĠØµ Ø§ÙĦØŃ
ĠÙħØ¹ Ø§ÙģÛĮ
ÙħÛĮ Ø²
ĠÚ©Ø§Ø± Ù¾ÙĪØ±ÛĮ
ĠØŃÙĦÙĤ Ûģ
ĠÙĦ Ø§Ø¦ÛĮÚº
ĠØ² Ø§ÛģØ¯
ĠØº Ùħ
ĠØ¢Ù¾ Ø±ÛĮ
ĠÙĦÚ¯ Ø§Ø¦ÛĮ
Ø¬Ø³Ù¹ Ø±ÛĮØ´ÙĨ
ĠÛģ Ø¬
ĠÙħØŃ Ø¯ÙĪØ¯
ĠØ¯Ø± Ø¬ÙĨ
ĠØ´ Ø§Ø¦Ø¹
ĠÛģ Ø§Ø¦ÛĮÚ©ÙĪØ±Ù¹
ĠØªØ¹ÛĮÙĨ Ø§ØªÛĮ
ĠÚ©Ø§ÙģØ± ÙĪÚº
ĠØ§Ø¹ ÙĪØ§ÙĨ
ĠØ²Ø®ÙħÛĮ ÙĪÚº
ĠÙħØ±Ø² Ø§
ĠÙ¾Ø± ÙĨØ³
ĠØ³ÛĮ Ø§ÙĦ
ĠØ¨Ûģ ÙĨ
ĠØ¬ ÙħÛĮÙĦ
ĠØ³ Ø¹Ø¯
ĠÙĪ Ø§Ø³
ÙĪÙĨ ÙĦÚĪ
ĠÚĪØ§Ú©Ù¹Ø± Ø²
Ø¯ ÙĨÛĮØ§
ĠØªØ± ÙħÛĮÙħ
ĠØ³Ø± Ø§ÙĨØ¬Ø§Ùħ
ĠÚĨ Ø±
ĠØ¬Ûģ Ø§Ø¯
ĠÚĪ ÙĪÛĮÙĦÙ¾ÙħÙĨÙ¹
ĠÙĨÙħ Ù¹ÙĨÛĴ
ĠØ§Ø¹ Ø¯Ø§Ø¯
ĠÙĪÙĤ Ø§Ø±
ĠÚ¯Ú¾ÙĨÙ¹ ÙĪÚº
Ùħ Ø¬Ú¾ÛĴ
ĠØ¹Ø¯ ÙĦÛĮÛģ
ĠÙħØ¯Ø§Ø® ÙĦØª
ĠÙħÙħÚ©ÙĨ Ûģ
ĠØ§ÛĮÚ© Ø³Ù¾
ĠØ´ÛĮ Ø·Ø§ÙĨ
ÚĪ ÙĪ
Ø§Ø¦ ÙħÛģ
ĠÚ©Ø§Ø±Ø±ÙĪØ§Ø¦ÛĮ ÙĪÚº
Ø® ÙĦ
ĠØ§Ø³Ù¹ÛĮ Ù¹
Øª Ú©
ĠÚĨÛĮÙħ Ù¾
ÙĪ Ø§Ø¨
ĠÚĪ Ø¨ÙĦÛĮÙĪ
ĠØ¯Ûģ ÛĮ
ĠÙ¾ Ø§ÙĦ
ĠÚ¯ ÛĮÙĨØ¯
ĠÙħØ®Ø§ÙĦÙģ ÛĮÙĨ
ĠÙ¾ ÙĪÙĦ
Ø´ Ùħ
Ø¹ ÙĪØ§ÙħÛĮ
Ù¹ÛĮ Ø´ÙĨ
ÙģÛĮ Ø¦Ø±
ĠØ´Ø¹ ÙĪØ±
ĠØ¬ÙħÛģ ÙĪØ±
ĠÙĪØ¬ ÙĪÛģ
ĠÛģÙĨÚ¯ Ø§ÙħÛĮ
ĠÙĤØ¯Ø± ØªÛĮ
ĠÙħ Ú©Ø±
ĠØ¹ Ø³Ú©
ĠÙ¾Ø± ÚĨ
Ø±ÛĮÙĨ Ûģ
ĠÙħÙĪ Ø³Ùħ
- -
ĠÙģÛĮÙħ ÙĦÛĮ
ĠÙħØ±ÛĮ Ø¶
ØŃ ÛĮ
ÚĪÛĮ Ù¹
ĠÙ¾Ø±ÛĮ Ø´Ø§ÙĨÛĮ
ĠÙ¾ÛĮØº ÙħØ¨Ø±
Ø§Ø± Ø«
ĠÙħØ±ØŃ ÙĪÙħ
ĠØ§ÙĨ ÙģØ±
ĠÙģØ± Ø¹ÙĪÙĨ
ĠÙĤ ØµÙĪØ±
ĠØŃØ§Ø¶ Ø±ÛĮ
ĠÚĪÛĮ Ù¾Ø§Ø±Ù¹ÙħÙĨÙ¹
ĠØªÙĪ ØŃÛĮØ¯
ĠØŃÙĤ Ø§Ø¦ÙĤ
ĠØ³ÛĮÙĨ Ú©ÚĳÙĪÚº
ĠØ´ ÙĪØ±
Ġ ÛĴ
ĠØ§ÙĦ Ø·
ĠØ¨ÛĮØ± ÙĪØª
Ùģ ÙĦÙħ
Ġ9 0
ĠÙħÙĤØ¯Ùħ ÛĴ
Ġ201 5
ÙħÙĦ Ø²Ùħ
Ø¯ Ø§Ø±ÙĪÚº
ĠØŃÚ©ÙĪÙħØª ÙĪÚº
ĠØ¨Ø± Ø§
ÙĪÛĮ Ø§Ø±Ú©
ĠØªØ¬ Ø§ÙĪÛĮØ²
ĠÙģÛĮÚ© Ù¹Ø±ÛĮ
ĠÚ©Ø±ÙĪÚĳ ÙĪÚº
ĠÙ¾Ú¾ ÙĪÙĦ
ĠÚĨ ÙĪÙĨÚ©Ûģ
ĠØ§ÙĨØªØ¸ Ø§ÙħÛĮ
ĠÙ¾ ÙĦØ§
ĠÙħÙĦ ØªÛĮ
ĠØªÙĤ Ø±
Ø¨ ÛĮÙĨ
ĠØŃ ÛĮØ±Ø§ÙĨ
ĠØ¨ÙĨØ¯ ÙĪÚº
ĠÚ©Ú¾ÛĮÙĦ ÙĨÛĴ
ÙħÛĮ Ø¯
ĠÙ¾ ÙĦÛĮÙ¹
ĠØ§ÙĨ Ú¯
Ø¨ ÙĨØ¯
ÛģÙħ Ø§Ø±ÛĮ
ĠÚĨØ§ÛģÛĮ Ø¦ÛĴ
ÙħÛĮÙĨ Ø§ÙĨ
ĠÚ©ÛĮ Ùħ
ĠÙ¹Ø±ÛĮÙĨ ÙĨÚ¯
ÙĨ Ú©
ĠÙ¹ Ø±ÛĮÙģÚ©
ÙĪØ±ÛĮ Ø¬
Ú©ÙĦ Ø§Ø¡
ĠØ¨ Ø§Ø±ÛĮ
ĠÙħÛĮÙĨ Ø¬ÙħÙĨÙ¹
Ø¢ Ø®Ø±
ĠÙĨØ§ÙĤ Øµ
ĠÚ© Ø¨
ĠÙĨÙĪ ÛĮØ¯
Ø§Ùħ ÛĮØ¯
Ùģ ÙĦ
ĠÚ©Ø§ Ù¹
ĠÚ©Ø±ÙĪ Ø§ÛĮØ§
ĠØ¨ Ø§ÙĨ
ĠØ¨Ú¾ Ø§Ú¯
Ø¬ ÙħÛģ
Ø§Ø±ÛĮ ÙĪÚº
ĠØ± Ø²
Ø¨ Ø¦ÛĮ
ĠØ¹ Ø¯Ø¯
ĠØ¯Ø³ØªØ§ÙĪÛĮØ² Ø§Øª
ĠØ§Ø³Øª Ø¯Ø¹Ø§
Ø´Øª ÙĪÚº
ĠÙħÛģÛĮ ÙĨÛĴ
ĠØ±Ûģ Ø§Ø¦ÛĮ
Ø³ÙĦ Ú©
ĠØ±Ûģ ÙĨØ§
Ù¾Ûģ ÙĦÛĴ
ĠØ¯Ùģ Ø§ØªØ±
ØªÛĮ Ø¨
ĠØ¶ Ø§Ø¨Ø·Ûģ
ĠØ¨ÛĮØ§ÙĨ Ø§Øª
ĠØ§ÙĨØ³ Ù¹ÛĮ
ĠØ¨ÛĮÙĨ ÚĨ
ĠØ± Ø¬Ø³Ù¹Ø±ÛĮØ´ÙĨ
Ø¤ Úº
ÙĦÛĮ ÛĴ
ĠÚĨ ÛģØ±ÛĴ
Ġ3 3
ĠÙħ Ø§Ø³
20 18
ĠÙ¾ÙĪØ¯ ÛĴ
Ġ [
ĠØ®Ø±ÛĮØ¯ Ø§Ø±ÛĮ
ĠØ¢Ø¦ ÙĦ
ĠØ´ Ø¬
ĠØ±ÛĮ ÙĪÙĨÛĮÙĪ
Ù¹ÛĮ Ùħ
ĠØ± Ø¬ÙĪ
ĠØ³Ù¹ÛĮ Ø´ÙĨ
ĠÛģ Úĳ
ĠÙĨ Ø¨
ĠØ¨ÛĮ Ù¹ÙĨÚ¯
ĠØŃØ± Ø§Ø±Øª
ĠØ§Ø· Ø§Ø¹Øª
ĠØªØ¬Ø±Ø¨ Ûģ
Ø¨ÛĮ Ø¨
ĠÚĨ Ø±Ø³
ĠØ¹ÙĦØ§ÙĤ Ø§Ø¦ÛĮ
Ø³Ø± ÚĨ
ĠØ³Ø¨ Ø²ÛĮ
ĠÙħÙĨ Ø³ÙĦÚ©
ĠÙĦ Ø³Ù¹
ĠÙħ ÙĨÚ¯
Ú©ÙĪ Ûĥ
ĠØ§ÙģØª Ø®Ø§Ø±
ĠØ¯ÙĪ Úĳ
ĠØ¢Ø¦ ÙĪÙ¹
Ø§Ø« Ø±
ĠÚ©Ø§ ÙĪØ´
Ġ3 4
ĠØºÙģ ÙĦØª
ĠÚ©ÙħÛĮÙĪÙĨ Ù¹ÛĮ
ĠØ³ÙĨ ÙĨÛĴ
ĠØŃÚ© ÙħØ±Ø§ÙĨ
ĠÙħØ² Ø§ØŃ
ĠØ³ ÙĨÙ¹Ø±
ÙĨØ¯ Ø±Ûģ
ĠÙħØ±Ø§Ú© Ø²
ØŃ Øµ
Ø¹ ÙĦØ§ÙĪÛģ
Ø¨ Ø·
ĠØ¶ Ø§Ø¦Ø¹
Ø¨Ú¾ Ø§Ø±Øª
ĠØŃ ÙģÛĮØ¸
Ø² Ø±
ĠÙħØ¹ Ø¬Ø²
ĠÙĨ Ø°Ø±
ĠØ¯Ø¨ Ø¦ÛĮ
ĠØ¬Ûģ ÙĨÙħ
ĠØ¯ Ø§Ø¹
ĠÚ©Ú¾ ÙĦÛĴ
ĠÙ¹ Ø§Ø¦Ùħ
ĠÙħØ°Ûģ Ø¨
ĠÙ¾ÛģÙĨÚĨ Ø§ÛĮØ§
ĠÚ©Ø§ÙĦ Ø¹Ø¯Ùħ
ĠØ¨Ø§Ø¯ Ø´Ø§Ûģ
ĠÙģ ÙĤ
ĠØ¯Ø±ÛĮ Ø§ÙģØª
ĠØ§ÙĨØ¯ Ø§Ø²Ûģ
ĠØ§Ø³Ú© ÙĪØ±
ĠÙħØŃ Øª
Ø¯Ø¹ ÙħÙĦ
ĠÙĦÛĮØ§ ÙĤØª
ĠØ¨Ú¾ Ù¹ÛĮ
ĠÚ¯ÙĨØ¯ Ùħ
ĠØ§ÙĦØŃ Ø³ÙĨ
Ú©ÛĮ Ø³
ĠØ´ÛĮ ÚĪÙĨÚ¯
ÙĪ Ø§Ø´ÙĨÚ¯Ù¹ÙĨ
ĠÚĨ Ø§Ø¦ÛĴ
ÚĨØ§Ø± Ø¬
Ø§Ø¦ÙĪÙĨ ÚĪ
ĠØ¨Ú¾ ÙĪÙĦ
Ù¹Ø± ÙĪÙĦ
ĠÚ© Ø§Ø´
ĠØ± Ø¯Ø¹ÙħÙĦ
Ġ ,
ĠØªÙĤ Ø±ÛĮØ±
ĠØ§Ø· ÙħÛĮÙĨØ§ÙĨ
ĠÙħÙĨØ§Ùģ Ø¹
Ø±Ø³ Ø§Úº
ĠÙĨÙħØ§Ø¦ÙĨØ¯ Ú¯ÛĮ
ĠÚ©Ûģ ØªØ§
ĠØ¹ Ø§Ø±
ĠØ§Ø® ÙĦØ§ÙĤÛĮ
ÙģØ§Ø± Ùħ
ĠÙ¾Ø®ØªÙĪÙĨØ®ÙĪ Ø§Ûģ
Ú©ÛĮ Ùħ
ĠÙĦ Ø§ÙĦ
ĠÛ µÛ
ÙĤ Ø§ÙĨ
ĠÙĨØ´Ø³Øª ÙĪÚº
ĠÙ¾Øª Ú¾Ø±
Ø® Ø§ÙĦ
ØªØŃ Ø±ÛĮÚ©
Ġ3 7
ĠØ§ÙĦ Ø§
ĠÙħØº Ø±Ø¨ÛĮ
ĠÚ©Ø§ Ù¾
ĠÙħØ¹ Ø¨ÙĪØ¯
ĠÛĮÙĪÙĨ Ø³
ĠØ¢ Ø¯Ùħ
ĠÙħÛĮ ÙĪÙĨØ³Ù¾ÙĦ
ĠÙĪØ³ Ø·ÛĮ
ĠØ¹ÛģØ¯ÛĮØ¯ Ø§Ø±
ĠÙĨÚ©Ø§ÙĦ ÙĨÛĴ
Ø¸ Ø§Ùħ
ĠÚĨ Ø§Ø±ÙĪÚº
ĠÙħÛĮ Ú¯Ø§
ÙĪØ³ Ø·
Ùħ Ø¬
ĠÙģØ± Ø´
ĠØ³Ø± ÙĪØ±
Ø§ÙĨÚ¯ ÛĮØ±
ĠÙģ Ø§Øª
ĠÙ¹ Ø§Ù¾
ĠÙ¾ÛĮ Ù¹
ĠØ±ÙĪ ÛĮÛģ
ÛĮ ÛĴ
ĠØ³ÙħØ¬Ú¾ Ø§
ĠØ¶ ÛĮØ§Ø¡
ĠØ¢ ÙģØª
ĠØ¹Ø§Ø¨ Ø¯
ĠØ¬ Ø§Ø¤
ĠÚ¯ÛĮ Ø§Ø±Ûģ
ĠØ¯ ÙĦÛĮ
ĠØ±ÙĪ Ø³ÛĮ
ĠØ¨Ø¯ Ø¹
ĠÙĦ Ø§Ù¾
ĠØ¯Ø¨ Ø§Ø¤
Ø§ØŃ ÙĤÛĮÙĨ
ĠØ¢Ø² Ùħ
ĠÙħÙĤ Ø§ØµØ¯
ĠØªØ§Ø¬ Ø±ÙĪÚº
ĠØ²Ùħ Ø§ÙĨÛģ
ĠØ¯ÙĪ Ø³ØªÛĮ
ĠØ¹ ÙĤÙĦ
ĠÚ©Ø±Ù¾ Ù¹
ĠÚ©Ú¾ ÚĳÛĮ
ĠÙħÛģØ§Ø¬ Ø±ÛĮÙĨ
ĠØ§ÙĨØ¹ Ø§ÙħØ§Øª
ĠØ¨Øª Ø§Ø¦ÛĮ
Ø§Ø³ ØªÛĮ
Ùģ Ø±ÛĮ
ĠØ³Ø± ÚĨ
ĠÙ¹Ø±Ø§ÙĨ Ø³Ù¾ÙĪØ±Ù¹
ĠÚĨ Ø§ÙĦ
ĠÙĨØ± Ø®
ĠÚĪÛĮ Ù¹Ø§
ĠÙĪ Ø¬ÙĪØ¯
ĠØ¬Ø§ÙĨ ÙĪØ±
ĠÚĨ Ûģ
ĠØ§ÙĨÛģ ÛĮ
ĠØ§Ø´ ØªÛģ
ĠØºÙĦ Ø·ÛĮ
ĠÙĤ Ø§Ø¯Ø±
Ú© ÚĨÚ¾
ĠÙħÙĤ Øª
Ù¹Ú¾ Ø§
ĠØª Ø§Ø±
ĠÚ©Ùħ Ù¾ÛĮ
ÚĪØ± ÙĨÚ¯
ĠÚ©ÛĮ Ùģ
ĠØ¢Ú¯ Ø¦ÛĮ
ĠÛģ ÙħØ¯
ĠØ¨Ø±ÙĪ Ø¦ÛĴ
ĠØŃÙĦ Ø§ÙĦ
Ø¬Ûģ ØªÛĮ
ĠÙ¾ ÚĳÛĮ
ĠØ³ Ù¾ÙĦ
Ġ3 8
ĠØ¯ÛĮÚ©Ú¾ ÛĮÚº
ĠÙħÙĤØµ ÙĪØ¯
ĠØ³ ÙħÛĮ
ĠØ³Ú© ÙĨÛģ
Ø§Ùģ Ø±
ĠØ¯Ø±ÙĪ Ø§Ø²ÛĴ
ĠØ®Ø· Ø±ÛĴ
Ú©ÙĪ Ú©
ĠÙħÛĮ Ø¬Ø±
ĠØ¨Ø±Ø¢ÙħØ¯ Ø§Øª
ĠØ¨ÛĮ Ø´ØªØ±
Ø§ÙĨ Ú©Ø§
ÚĪ ÛĮÙĨ
ĠØ±ÛĮÙ¹Ø§Ø¦Ø± ÚĪ
ĠÙĤØ±Ø¨Ø§ÙĨ ÛĮØ§Úº
ĠØ±Ø¬ÙĪ Ø¹
ÙĨ Ø¦ÛĮ
ÙĨÛĮ Ù¹
ĠÚ¯ Ø±ÛĮØ²
ĠØ¹ Ø´
Ø§Ø¸ Ø±
ÙħÙĦ Ø²ÙħØ§ÙĨ
Ø· Ø±
ĠÙħØ´ ØªØ§ÙĤ
Ġ ÛĮÚ©Ø³
ĠÙĪ Ú©ÙĦØ§Ø¡
ĠØ¨Ûģ Ø¨ÙĪØ¯
Ø° ÛĮØ¨
ÙĪØ± Ø§Øª
ĠØ¨ÙĦ Ø¯ÛĮ
ĠÙĨÙħØ§Ø¦ÙĨØ¯ ÛĴ
ĠØ³Ùģ ÛĮØ¯
ĠÚĪ Ø§Ú©ÙĪ
ĠÙħØ§ÙĨÛĮ Ù¹Ø±ÙĨÚ¯
ĠÙħØ° Ø§Ú©Ø±Ø§Øª
ĠØ¯ÙģØ§Ø¹ ÛĮ
ĠØªÙĤØ±ÛĮØ¨ Ø§Øª
ĠØ¬ Ø§Ø¯ÙĪ
ĠØ¢ÙĦ ÙĪØ¯
ĠÙħ Ø§ÛģØ±
ĠÙħÙģ ØªÛĮ
Ûģ ÛĮÙĨ
ĠØ³ÛĮÙħ ÛĮÙĨ
ĠØ´ Ø±Ùħ
ĠÚ©Ø§Ø´Øª Ú©Ø§Ø±ÙĪÚº
ĠÙ¾ÛĮÙħ Ø§ÙĨÛĴ
Ø§ØŃ ÙĤ
ĠÛģØ§Ø± ÙĪÙĨ
ĠÚ©Ú¾ Ø§
ĠØ§Ùħ Ø¬Ø¯
ĠØ§ÙĦ Øª
ĠØ¨ÛĮ ÙĪØ±ÙĪ
ĠØ³ÙĨ Øª
ĠÙ¾Ø± ÙĪÙ¹
ĠÙĪÚ©Ù¹ ÙĪÚº
ĠÙĪÙĪ Ù¹Ø±Ø²
ĠØ§ÙĦ Ûģ
ĠØ¯ÛĮ ÙĪØ§Ø±
ÙĨÙĪ Ø§ÙĨÛĮ
ĠØ§Ø³ÙĦ ØŃÛģ
Ù ĵ
ĠØ±ÙĪ Ú©Ø§
Øµ Ø±Ùģ
ÚĨ ÙĪÛģ
ĠØ¬ÙĨ Ø§Ø²Ûģ
ĠØ§ÙĤ ÙĦÛĮ
ĠÙ¾ÛĮ Ø³Ûģ
ĠØ±Ø§Ø´ Ø¯
ĠØª Ø¯
Ù¹ÛĮ ÙĦÛĮ
ĠÙħØªÙĪ ÙĤØ¹
ĠØª Ø±Ø¯
ĠÙĤ Ø§Øª
ÙĪØ± Ø²
ĠØ§Ø¸ ÛģØ±
ĠÙ¾ÚĨ Ø§Ø³
Ø¬ Ø¦ÛĴ
ĠØ³ÙĦ ÙĪÚ©
ĠØ®ÛĮ Ø²
ĠØº Ø±Ø¨Øª
ĠÚ©ÙĪ Ø¦Ù¹Ûģ
ĠØ¨Ø±ÙĪ Ø²
ĠÚ©Ø§Ø±Ù¾ÙĪØ±ÛĮ Ø´ÙĨ
ĠÚ©Ø± ÚĨÚ©ÛĴ
ĠÛģÙĪ Ø³Ú©ÛĴ
ĠØ¬ÙĨÚ¯ ÙĦØ§Øª
ĠØ¨Ø± Ûģ
ĠØ®Ø¯ Ø´Ûģ
ĠÚ©Ú¾ÛĮ ÙĦÙĪÚº
ĠØ¬Ø§ÙĨ ÙĪÚº
ĠØ³ÛĮÙħÛĮÙĨ Ø§Ø±
ĠØ§ÙĨ Ú¯ÛĮ
ĠØ±ÛĮ Ú¯
Ø§Ùģ Ø³Ø±
ĠØµÙĨØ¹ ØªÛĮ
ĠÛ±Û ´Û
ĠØ§ÛĮ Ø´ÛĮ
ĠÚĪÛĮ Ø²
ĠØ¨ÚĳÚ¾ ØªÛĮ
ĠÙ¹ÙĪ Ø¦
ĠÚĨÚ¾ Ù¹ÛĮ
ĠÚ©Ûģ Ø§ÙĨÛĮ
Ø§Ø¯ ÛĮØª
Ø´ÛĮ Ø®
ĠÙħØ¯ Ø§ØŃ
ĠØ« Ø§ÙĨÛĮ
ĠØ§ÙĨ Øµ
Ġ3 2
ĠÙĦØ§ÙĨ ÚĪØ±ÙĨÚ¯
ĠØ³ÛĮÙĨ Ù¹
ĠÙħØ±Ø¯ Ø§ÙĨ
ĠÙ¾ ÙĨØ¯Ø±Ûģ
ĠØªÙĪ ÛģÛĮÙĨ
Ø¨ Ø¹Ø¶
ĠØ¬ Ø´ÙĨ
ĠÙħØªØ§Ø« Ø±ÛĮÙĨ
ÚĳÚ© Ø§ÙĨÛģ
ĠÙħÙģ ÛĮØ¯
ĠØ¨ÙĦØ§ ÙĪÙĦ
Ú© ÙħÛĮ
Ø¢ Ø²Ø§Ø¯
ĠÙĦÙĪ Ø§ØŃÙĤÛĮÙĨ
ĠÚĨÛĮÚ© ÙĨÚ¯
ĠØ¹ Ø§Øµ
ĠØ¹ ÙħØ¯
ĠÙĤ Ø§Ø¶ÛĮ
ÙĪ Ø¹Ûģ
Ùħ ÙĦØ§ÙĤØ§Øª
Ø¯Ø§Ø± ØªÛĮ
ĠØº Ø§ÙĦØ¨
ĠÙħ ÙĪÙĨ
ĠØ¯ ÙĪÚº
ĠØ¬ÙĨ Ø³
ĠØ³ÛĮ Ø§ØŃØª
ĠØ¢ ÙĪØ±
Ø±ÛĮÚ© Ù¹
ĠÙĪØŃ ÛĮ
Ø¨ ÛĮÛģ
ĠØ¢Ø±Ûģ ÛĮ
Ø¹Ø§ÙĦ ÙħÛĮ
ĠÙĨÙģ Ø³
ĠÙĤØ± Ø¶
ĠÙĦØ§Ø² ÙħÛĮ
ĠØ¨ Ø§ÙĨÛĮ
ĠØ¬ÙĨÚ¯ ÛĮ
ĠØ±ÛģÙĨÙħ Ø§Ø¦ÛĮ
Ø± Ø§Ùħ
ĠÙħØ¬ Ø§ÛģØ¯
Ø¹Ø¨ Ø¯Ø§ÙĦ
ĠÙħØ¹Øµ ÙĪÙħ
ÙĦ Ø§Ø¦ÛĮ
Ø¹ Ùħ
ÙĨÛĮ Ø²
ĠÙĤØ³Ùħ ØªÛĮ
Ø§Ø¦Ø³ ÙĨØ³
ĠÙ¹Ú¾ Ú©
ĠØ¨Ø² Ø±
Ø§ÛĮ Ùģ
ĠÙĨ ÛĮÙĨØ¯
ĠØ®Ø² Ø§ÙĨÛĴ
Ø§Ø¯ ÛĮØ§
ĠØ¨ÚĨ ÙĨÛĴ
ĠÙħÙĨ Ø²ÙĦ
ĠÙħ Ø§Øª
ÚĪ ÙĨ
ÙħÙĪ Ø¬ÙĪØ¯
Ø¶ Ø±
ĠÚĪÛĮ ÙĪ
ĠÙħ ÚĨÚ¾
ĠÙ¾ Ø³Øª
ĠØ®Ø¨Ø± Ø±Ø³Ø§Úº
ĠÙ¹ Ø§Ø±
ĠÙĤ Ø§Ø³Ùħ
ĠØªØ± Ú©ÛĮ
ĠÚ©ÙħØ§ÙĨ ÚĪØ±
ĠÙħÙĪØ³ÙħÛĮ Ø§Øª
ĠÙ¾ÛĮØ¯ Ø§Ø¦Ø´
Ø® Ø§ÙĨÛģ
Ø³Ø± Ú¯ÙĪØ¯Ú¾Ø§
ĠØ¬ Úĳ
ĠÙħØ´ Ø±ÙĪ
ĠÚĪ ÙĪ
ĠÙĤØ± Ø¶ÙĪÚº
Ø² Ø¨
Ú© ÛĮØ§Úº
ĠÚĨÚ¾ ÙĪÙ¹ÛĮ
ĠØ³Øª Ú¾Ø±
ĠØ§Ú¯Ø± ÚĨÛģ
Ú© Ø¨
ĠÚ¯ ÙĪÙĦÛĮ
ĠÛĮÙĪØ± Ù¾ÛĮ
ĠÙħÙĪØ¶ ÙĪØ¹
Ø§Ú© Øª
ĠÛģÙĦØ§Ú© Øª
ĠØ± ÙĨ
ĠØ´ Ø§Ø¹
Ø§ÙĪ Øª
ĠØº Ø±Ø¶
ĠØ¨Ø¯ ÙĦÛģ
ĠÙĤØ±Ø¨Ø§ÙĨÛĮ ÙĪÚº
Ġ: -
ĠÙĨÚ©Ø§ÙĦ Ø§
ĠØ¨ÛĮ ÚĨ
ĠÚĪ ÛĮÙĦ
Ø· Ûģ
Ø±Ú© Ø§Ø±
ĠÙĪÙģ Ø§Øª
ĠØ±Ø³ Ø§ÙĦØª
Ø¬ÛĮ Ø³Ø§
ĠØ´ Ø§Ø¦
ĠÙĪØ±Ú© Ø±Ø²
ĠØ¨ÛĮØ± ÙĪÙĨÛĮ
ĠÙĨÙĪ Ø§ØŃ
Ùģ Ø±Ø¯
Ø´ ÙĪ
Ú¯ Ø§Ø±ÛĮ
ÙħØ¸ ÙģØ±
ĠÙ¾ÚĨÚ¾ ÙĦÛĴ
ĠØ¨ÛĮ Ø¬
Ú¯ ÛĮØ§
ĠØŃ Ø¨ÛĮØ¨
ĠÙĦ Ø§ØªÛĴ
ĠÚ¯ Ø§Ùħ
ĠØ´ÙĪ Ø§ÛģØ¯
ĠØ§ÙĤ Ø³Ø§Ùħ
ĠØ¯ ÙĦØ§ÛĮØ§
ÙĨØ§ ÚĨÛģ
ĠØ¹Ø³Ú© Ø±ÛĮ
.... ....
ĠÙĨ Ø²
ĠÚ¯ÙĪ Ø§Ø¯Ø±
ĠÙĨÛĮÙĪ Ø²ÛĮ
ØµÙĪØ¨ ÛĴ
ĠÙĪØ¬ÙĪÛģ Ø§Øª
ĠØ§Ù¾ ÙĨ
ĠØ´ÙĨØ§Ø® ØªÛĮ
ĠØŃØ§Ø¯Ø« Ø§Øª
ÙĪÚ© Ø±ÛĮ
ĠØ´Ø±ÛĮ Ø¹Øª
ĠÚ©Ø± Ùħ
ĠÙĦ ÛģØ±
ĠØ® Ø§Ú©
ĠÙĨÙĪ Ú©Ø±ÛĮ
ĠØ¬Ø° Ø¨Ûģ
ĠØ³Ù¾ÙĦ Ø§Ø¦ÛĮ
ĠØ® Ø¨Ø±Ø¯Ø§Ø±
ĠÙģØ±Ùħ Ø§ØªØ§
ĠÚĨÛĮÙħ Ø¨Ø±
ĠÙ¾Ø±ÙĨØ³ Ù¾ÙĦ
ĠØ· ÙĦØ§ÙĤ
ÙħÛģ Ùħ
Ġ4 8
Ú© Ø§Ø±ÛĮ
ĠÚ¯ ÙĦÙĪ
ĠØ¨ Ø±Ùģ
ĠØ¢Ø³ Ø§ÙĨÛĮ
ĠÙħÛĮØ² Ø§Ø¦ÙĦ
Ø®ÛĮ Ø¨Ø±
ĠØ¨ÛĮ Ù¹Ø§
ĠØŃ Ø§Ø±Ø«
ĠÙĪÚ©Ù¹ ÛĮÚº
Ø´ ÛĴ
ĠØ¸ Ø§ÙĦÙħ
ĠÙĦÛĮ Ø¦ÛĴ
ĠâĢľ ÛĶ
Ø§ÙĦ Ø§
ĠÚĪØ§Ú©Ù¹Ø± ÙĪÚº
ĠØªØ±Ø¯ ÛĮØ¯
ĠØ§Ø³ Ú©ÙĪ
ĠØ¨ÚĳÚ¾ ÙĨÛĴ
ĠÙĨ Ø°ÛĮØ±
ĠÙħÙĨ Ø¹
ĠØ±ÛĮ Ø³Ø±ÚĨ
ĠÚĪ ÙĪÙĨÙĦÚĪ
ĠÚĨØ§Ø± Ø¬
ĠÙ¹ Ø±Ú©
ĠØ² ÛĮØ¯
ĠÙĦÚĳ Ø§Ø¦ÛĮ
ĠØ§ØªØŃ Ø§Ø¯ÛĮ
ĠØ±ÙĪ Ø³
ĠØ± ÙĪÙĦ
ĠØµØŃ Ø§Ø¨Ûģ
ĠÚĨØ§Ûģ ÛĮÚº
ĠØ§Ø³ØªØ¹ ÙģÛĮ
Ø¶ Ùħ
ĠØ¨ Ø§ÙĨØ¯
ÛĮÚ© Ùħ
ĠØ²Ø¨ ÛĮØ±
ĠÚ©Ùħ Ù¾ÙĦ
ĠÙĤ ÙĪÙĨ
ĠØ¯ÛĮ ÙĪ
ĠÙħØ¸ Ø§ÙĦÙħ
ĠØ§ Ù´
ĠÙģ Ø·
ĠÛ ³
ÚĪÛĮ Ø´ÙĦ
ÙħØ§ ÛĮØ§
ĠÙ¾Ø§ÙĦÛĮØ³ÛĮ ÙĪÚº
ĠØ§ ÙħØ§ÙĨ
ĠØ¹ÙĦÛĮØŃ Ø¯Ûģ
ĠÙħ Ø³ÛĮ
ĠØ´Ø§ ÛĮØ¯
ĠÙħ Ø¯Ø§Ø±
ĠÛ ¶Û
ĠÙħ ÛĮÙħÙĨ
ÙĪÛĮ Ù¹Ø±
ĠØ¨Ú¾Ø§Ø¦ÛĮ ÙĪÚº
ĠØ³ ÛĮÚ©ÙĨ
ĠØ³ÙĪ Ø¦
ØªØŃ ÙĤÛĮÙĤ
ĠÛģØ§Ø´ ÙħÛĮ
ĠØ§ÙģØ² Ø§Ø¦ÛĮ
ĠÚĨÚ¾Ø§Ù¾ Ûģ
Ø³Ø¹ ÙĪØ¯ÛĮ
ĠØ§ÙĨ ÚĨØ§Ø±Ø¬
ĠØ² ÙĦØ²
ĠÙħÛĮ Ú¯
ĠÛģ Ø§
Ø² Ø²
ĠØ¢Ø± Ø§Ùħ
ĠØªØŃÙģØ¸ Ø§Øª
ĠÚĨÚ¾ ÙĪÙ¹
ĠÚĪÛĮ ÚĳÚ¾
ĠØ³Ø±ÙĪ ÛĴ
ĠÙħ ÙĪØ±
ĠÙ¹ Ú©
ĠÙĦÛĮ ØªØ§
ĠØ®Ø¨Ø± ÛĮÚº
ĠÙ¾Ø³ ÙħØ§ÙĨ
ĠØ¹Ø¸ ÙħÛĮ
ĠØ® Ù¹Ú©
Ùģ ÙĪÙĨ
Ø§ÛģÛĮ ÙĪØ§ÙĦ
Ø²ÛĮ Ø¨
Ø¬ÛĮ Ø¨
ÙĪÙħ ÙĨÙ¹
ĠÚ©Ø§Ø± Ø±ÙĪ
ĠÙħØ®Øª ØµØ±
ĠÙĨØ§Ùħ Ûģ
ĠØ¨Ø§ÙĦ Ø®ØµÙĪØµ
ĠÚ©Ùħ Ø§Ø±
ĠØ§Ø³Ú©ÛĮ Ùħ
ĠÛģÙĪ ÙĦ
ĠØ¨Ø¯ ØªØ±ÛĮÙĨ
ĠØ± Ø¹
ĠØ³ÛĮØ¯ ÙĨØ§
ĠØ®Ø· Ø±Ø§Øª
ĠÙģ Ø³
ĠØ®Ø§ÙĦ ÙĤ
Ù Ĺ
ÚĨÙĪÛģ Ø¯Ø±ÛĮ
ĠÙħÙĨ ØµØ¨
Ø§ÙĦ Ø±
ĠÙĦ Ø§Ø¦Ø³ÙĨØ³
ĠÚ©ÛĮ ÙĨÙ¹
ÛĮØ¯ Ø§Ø±
ĠØ¬Ûģ Ø§ÙĨÚ¯ÛĮØ±
ÛĮÚ©ÛĮ Ø´ÙĨ
ÙģØ§Ø± ÙħÛĮØ´ÙĨ
ĠØ¨ÙĨ ÙĪ
ĠÚ©Ø± Ø³Ú©ÛĴ
ĠÙĤÛĮØ¯ ÛĮÙĪÚº
ĠÙ¾ÙĦØ§ÙĨ Ù¹
ĠÙĨÙĪ Ø§Ø¨
ĠØ¨Ø§Ø· ÙĦ
ĠØ´Ûģ Ø±Øª
Ø±ÛĮÙĦ ÙĪ
Ġ201 4
ÛĮÙĨÛĮ Ù¹Ø±
Ø¬ ÙħØ¹
ĠÙħØ· Ø§ÙĦØ¨Ø§Øª
ĠÛĮÚ© Ø¬ÛģØªÛĮ
ĠØŃ Ø§ÙħØ¯
Ġ4 4
ÙĪØ³ Ûģ
Ø§ÙĦ ÛĮÚ©Ø´ÙĨ
ĠØ¯ÛĮÚ©Ú¾ ÙĨØ§
ÙħÛĮ Ûģ
ĠÙĪÛĮ Ø²
ĠØµ Ø¯Ø§Ø±ØªÛĮ
ĠØ§ÛĮ ÙĪØ¨
ĠØ§ÙħØ¯ Ø§Ø¯ÛĮ
ĠÙħØ° Ø§ÙĤ
ĠÙĤØ§Ø¨ Ø¶
ĠØ¨ Ø¯Ø±
ĠÙħÙĤØ§Ø¨ ÙĦÙĪÚº
ĠØ°ÙĪØ§ÙĦ ÙģÙĤØ§Ø±
ĠØ§Ø· Ø±Ø§Ùģ
ĠÚ¯ÙħØ± Ø§Ûģ
ĠØªØ¹ Ø¨ÛĮØ±
Ù¹Ú¾ ÛĴ
ĠÙħÛĮÚĨ ÙĪÚº
Ø§ ÚĳÛĮ
ĠØ³Ú©ÛĮ Ùħ
ĠÙĪ Ø§Ø¦
Ùħ Ø«
ĠÙĨØ§Ú© Ø§ÙħÛĮ
Øµ ØŃ
ĠÙģØ±Ø´ ØªÛĴ
ÙĨÛĮ Ùģ
Ùħ Ø®Øª
ĠØªØ¹ Ø²
ĠØ¬ÙħØ§Ø¹Øª ÛĮÚº
ĠØŃÙģØ§Ø¸ ØªÛĮ
ĠÙĪÛĮÙĦ ÙģÛĮØ¦Ø±
ĠÚ©Ø±Ø¯ ÛĴ
ĠØ¹Ø§Ùħ Ûģ
ĠÙħÙĨØ§ ÛĮØ§
Ùģ ÙĪØ±Ø³
ĠÚĪÛĮ Ùģ
ĠØ·ÙĦØ¨ Ø§
ĠÙħÙĦØ§Ø² ÙħØª
ĠØ³ ÙĦÛĮÙħØ§ÙĨ
ĠÙģÙĪØ± Ø§
ĠØªØŃÙĤÛĮÙĤ Ø§ØªÛĮ
ĠØ¬Ø§Ù¾ Ø§ÙĨ
Ġ5 5
ĠÙ¾Ú¾ ÛĮÙĨÚ©
Ø§ÙĦ ÙĪÚº
ĠØ¨ÛĮÚ¯ Ùħ
ĠØ´ Ø¨Ûģ
ĠÛģÚĳ ØªØ§ÙĦ
ĠÙģ Øª
ĠÚ¯ Ø§Ø±
ĠÚ¯ ÙĪÙĨ
ĠØªÚ¾ Ø±ÛĮ
ĠÙ¾ÛģÚĨ Ø§ÙĨ
ÙĦ Ø§Ø¦ÙĨ
ĠØ´ÙĪ Ú¯Ø±
ĠØ³ÛĮÙģ Ù¹ÛĮ
ĠÙħ Ø¹Ø¯
ĠÙģØ± Ø´ØªÙĪÚº
ÙĨÚĪ ÛĴ
ĠØ¨ Ø¹
Ø² Ø§Ø¯ÛĮ
Ġ |"
ĠÚ¯ÙĨØ§Ûģ ÙĪÚº
ĠÚ©Ø§Ùħ Ø±Ø§ÙĨ
ĠÚ¯ Ø±ÙĦ
Ø¶ÙĦ Ø¹
ĠÙ¾Ø± Ø³ØªÛĮ
ĠØº Øµ
ĠÛĮØ§Ø³ Ø±
Ú¯ Ù¹
ĠÙģ ÙĦØ§
ĠÚ© Ú¾Ø±
ĠØ±ÙĪØ§ÛĮ Ø§Øª
Ġ3 9
ĠÙĪÙĪÙ¹ ÙĪÚº
ĠØºØ° Ø§Ø¦ÛĮ
ĠÙħØªÙĨ Ø§Ø²
ĠØ¨ÛĮÙħ Ø§Ø±
ĠØ³ÛĮÙĨÛĮ Ù¹
ĠÙ¾ÛģÙĨ ÚĨÛĮ
ĠØªÛĮ Ø³Ø±Ø§
ĠØ³ÙģØ§Ø±Ø´ Ø§Øª
ĠÚĨÚ¾ ÛĮÙĨ
Ø³Ø±ÛĮ ÙĨÚ¯Ø±
ĠÙĦ Ø·ÛĮÙģ
ĠÙ¹ Ø§Ø¦
Ø§Ùģ Ù¹
ĠÚ¯Ø§Ùħ Ø²ÙĨ
ĠÙĤ Ø³
ĠÙħÙĦ ØªØ§
ĠØ¯ÙĪØ³Øª ÙĪÚº
Ø¯ Ø§Ùģ
ĠØ¯Ø§Ø± ÛĮØ§Úº
ĠØ¨Ø± ÛĴ
ĠÙħØŃØ¨ ÙĪØ¨
ĠÙ¹ÛĮÚ©ÙĨ Ø§ÙĦÙĪØ¬ÛĮ
ĠÚ¯ÛĮ Ø´ÙĨ
ĠØ´ Ø§ÙħÛĮ
ĠÙĦØ¨ Ø§Ø³
ÙĪ Ø§Úº
ĠÙĤÛĮ ØµØ±
Ġï ·º
ĠØ¨ Ø§Ø´
ĠÚĪ ÛĮÙĨ
ĠØ§Ú©Ø§Ø¤ ÙĨÙ¹
Ù¾ÛĮÙ¾ÙĦØ² Ù¾Ø§Ø±Ù¹ÛĮ
ĠÙĪ ÙĨÚ¯
ĠÙĨØµ ÛĮØŃ
ĠØ·Ø§ÙĦØ¨ Ø§ÙĨ
Ø§Ùħ ÙĪÚº
ĠØ³ Ù¾ÛĮØ´ÙĦ
) -
ĠØ§Ø³ Ú©ÛĴ
ĠÚ©ÛĮ Ø±ÛĮ
Ø³ÛĮ ÙĦ
ØªØ± ÙĤÛĮ
ĠØ¯ÛĮØ¯ ÛĮ
ĠØ±ÙĪØ§ÛĮ ØªÛĮ
ĠØ§Ø³ ÛĮÚ©ÛĮ
ĠØ¯Ø±Ø¬ÙĨ ÙĪÚº
ĠØ¬Ûģ ÙĦÙħ
ĠÙĪØ¹Ø¯ ÛĴ
ØªÛĮ Ø³
ĠØ±Ø§Ø³Øª ÙĪÚº
ĠÙĨ ÛĮØª
ĠÙħÛģ ÙĦØª
ĠÙĪ Ø§Ø¯ÛĮ
ĠÛģØ² Ø§Ø±Ûģ
ĠÙħØªØŃ Ø¯
Úĳ ÛĮØ§Úº
ĠÛģÛĮ ÙĦÛĮ
ØŃØ§ÙĦ Ø§ÙĨÚ©Ûģ
ĠÚ©ÙĪÛģ Ø§Ù¹
ĠÚ¯Ø± ÙĨÛĴ
Ø³ Ø§ÙĨ
ĠÚ©ÙħÙ¾ÛĮ ÙĪÙ¹Ø±
ĠÛĮÙĤÛĮÙĨ Ø§
ĠÚ©ÛĮ ÙĦÛĮÛĴ
ĠÙĪ ÛĮÙĨ
ĠØ¨Ú¾ÛĮ Ø¬ÛĴ
ĠØ¢Ø± Ú¯ÙĨ
ĠØªØ±Ø¨ ÛĮØªÛĮ
ĠØ¨ÙĦ ÚĪ
ĠÙħ ÛĮØª
ĠÙ¾ ÙĨØ¬
ĠØ§Ûģ Ø¯Ø§Ùģ
ĠÚ©Ø§Ø±Ø±ÙĪ Ø§Ø¦ÛĮØ§Úº
ĠØ² ÛĮØ¨
Ø§Ø¯ÛĮ Ø«
ĠØ®Ø§Ø± Ø¬
ÙĦ Ø±
ĠØ¢ÙĦ Ø§Øª
ĠØ³ ÙħØª
ĠØ±ØŃ ÛĮÙħ
Ø¯ ÛĮØ±
Ø§Ø¦ Ø²ÛĮØ´ÙĨ
ĠÙ¹Ú¾ ÛģØ±
ĠØ§ÛĮ ÙĪÙĨ
Ø§Ø· Ø¨
Ú¾ÛĮ ÙĦ
ĠØ§ÙĦ ÙħØ¹
ĠÚĪ Ø§ÙĦÛĮ
Ø¯ Ú¯Ø§Ø±
ĠÙĦ Ø§ÙĨØ§
ĠØ¢Ù¾Ø±ÛĮØ´ÙĨ Ø²
ÙĨØ¯ ÛĴ
ĠØ¬Ø§ÙĨ ÙĨÛĴ
ĠÙħØ¹ Ø§ÙĪ
ÛĮØ± ÛĴ
ÙĤ ÙĪÙħ
Ø¬ ÛĮÙĦ
ĠØ± Ø¦ÛĮ
ĠÙ¾ÛĮØ´ Ú©Ø´
ĠØ§Ø¹ÙĦØ§Ùħ ÛĮÛģ
Ø§ÙĦ Ø¨ØªÛģ
ĠÙ¹ Ø§Ø³Ú©
ĠØ§ÙĨ ÙģØ§Ø±ÙħÛĮØ´ÙĨ
ĠØ¨Ûģ Ø§Ø¯Ø±
ÙĪ Ø¶
ĠÙĨ Ø§Ù¾
ĠØ§ÙĨ ÚĪØ±
ĠØ±Ûģ ÙĪ
ĠØ³Øª Ø§Ø±
ĠØ§ÙĦ ÙĤØ±Ø¢ÙĨ
ĠÚ©Ø´ ØªÛĮ
Ø§ÙĦÛĮ Ùģ
ĠØ³ Ø±Ø¯
Ø¨ÛĮ Ø§ÙĨ
ĠØ¯Ø§Ø¹ Ø´
ÙĨÙĪ Ø¬ÙĪ
Ø· Ø±Ùģ
ĠÙĨÚ©ÙĦ ÙĨÛĴ
Ú¾ ÙĪ
ĠÙĨØ§ Ø§ÛģÙĦ
Ø¯Ûģ Ø´Øª
ĠØ« ÙĪØ§Ø¨
ĠØ³ÛĮØ§ Ûģ
ĠØª Ø³ÙĦ
ĠØ¢Ø¬ Ø§Ø¦ÛĴ
ĠØ®ÙĪØ§ÛģØ´ Ø§Øª
Ûģ ÙĪÙħ
ĠÚĨ ÙĪØ±
ÙĪÙĦÛĮ Ø§ØªÛĮ
ĠØ§Ø³Ù¹ Ø§Ùģ
ĠÙģØ±ÛĮÙĤ ÛĮÙĨ
ĠÙĨØ§ Ø§ÛģÙĦÛĮ
ĠØ¬Ø±Ùħ Ø§ÙĨÛĴ
ĠØ§Ú©ÛĮ ÚĪ
ĠÚ©ÙĪ Øª
ĠÙĨØ´ Ø§ÙĨÛĮ
ØŃ ÛĮØ¯Ø±
ĠÙģ ÙĦÛĮ
Ø· ÙĦØ¨
ĠØ§Ø¬ Ø±
ÙĨ ÙĦ
Øº ÛĮ
ĠÙħØ± Ø¶ÛĮ
ĠÙħØ§ÛĮ ÙĪØ³
Ø¨ Ø§ÙĨÛĮ
ĠØ´Ø± Ø·
ĠØ¢ÙĦÙĪØ¯ Ú¯ÛĮ
ĠØªØ® ÙĦÛĮ
ĠÙĨÙĪÙ¹ÛĮÙģ Ú©ÛĮØ´ÙĨ
ĠØ´ ÙģÛĮÙĤ
ĠØ§Ùħ Ø§Ø±Ø§Øª
ĠØ±ÛĮÙħ Ø§ÙĨÚĪ
ĠÙĦØ§Ø² Ùħ
ĠØ³Ø± Ù¹ÛĮÙģ
Ġ7 5
ĠØ§Ø®ØªÙĦØ§Ùģ Ø§Øª
ĠÙħØ³ ÙĨØ¯
Ø· Ø¨ÛĮ
Ù¾ Ø§Ø±
ĠØªÛĮØ§Ø± ÛĮØ§Úº
ÙĨ Ø¸Ø±
ÙħÛĮØ± ÛĴ
ĠÙħØº ÙģØ±Øª
ĠÚ©Ø± Ø§Ø¦Ùħ
ĠØ´Ø§ÛģØ± Ø§Ûģ
ĠØº Ø§Ø¦Ø¨
ĠÙĦØ§Ø¦ÛĮ ÙĪ
ĠØ¹ÙħØ¯ Ûģ
Ø¯Ø± ÛĮÚº
ĠØ§ÙĨ ÙĪ
Ø¸ Ûģ
ĠÚ¯Ø± ÚĪ
ĠÙħÙĦÛĮ Ø±
ĠÙĨØµÛĮØŃ Øª
ĠØ«ÙĤ Ø§ÙģØª
ĠØ¨Ø±Øª Ø±ÛĮ
ĠÙĦ Ø¹
ĠØ§ÛĮÚĪ ÙħÙĨ
ĠØ³ÛĮÚ©ÙĨ ÚĪ
ĠÙĤØ¯ ÛĮÙħ
ĠØº Ø§Ø²ÛĮ
ÙĪÙĨ ÚĪ
ĠÙħØ±ØŃ ÙĦÛģ
Ø±ÙĪ Ø²
ÙĤ ÙĦÛĮ
ĠÙĦ Øº
ĠØ¬ÙĪ ÚĪÛĮØ´ÙĦ
Ø¸ Ø§ÛģØ±
ĠØ§Øª ÙĨÛĴ
ĠÚ¯ ÛĮØ±
ĠØ®Ø± Ø§Ø¨ÛĮ
ÙĪØ² Ø§Ø±Øª
Ø§Ûģ ÛĴ
ĠØ§ÛĮ Ø´ÛĮØ§
ĠØ§Ø³Ù¹ Ø§Ø±
ĠÙħØªØŃ Ø±Ú©
ĠØ± Ø§ØŃ
ĠÙĤ Ø§Ø¯Ø±ÛĮ
ĠÙ¾Ø³ÙĨØ¯ ÛĮ
ĠÙĪ Ø§Ú©
ĠÙĪØ§Ø¬ Ø¨
ĠÙģÙĨ Ø§ÙĨØ³
ĠÙģ Ø§Øµ
Ġ4 3
ĠØ¬ Ø¨Ø±
ĠÙħÙĨ Ø´ÙĪØ±
ĠÙĨØ¸ Ø±ÛĮÛģ
ĠÚ©Ø± ÛĮÚ©
ĠÚ©ÙħØ± Ø´ÙĦ
ĠÚ¯ÙĨØ¬ Ø§Ø¦Ø´
Ø´ Ø§Ø±
ĠÚ¯Ú¾ Ø±ÛĮÙĦÙĪ
ĠØ¬Ø° Ø¨Ø§Øª
Ú¯ ÛĮØ±
ĠØ§Ùģ Ø±ÛĮÙĤ
ĠØ¬ ÙħØ§ÙĦ
Ø³Øª Ø§
ĠØ± Ø§Ø²
ĠØ´ Ø¨ÛĮØ±
Øª Ø§Ø¨
ØŃ ÙĤÛĮ
Ú¯Ø± Ûģ
Ġ ÛĮØ±
Ġ6 5
ĠÙĪ Ø¹
ĠØ¨ÙĦ ÛĮÚ©
ÛĮ Ø¨Øª
ĠØ§ÙĦØ· Ø§Ùģ
ĠØ§Ø´Øª ÛģØ§Ø±
ĠØ±ÛĮ Ø§Ø³ØªÛĮ
ĠØ¯ Ú©
ĠØ¬Ø§ÙĨ ÚĨ
Ø§ÙĤ Ø§ÙĨ
ĠÚĨØ§Ûģ Ø¦ÛĮÚº
ĠÚĪ ÙĪØ¨
ĠÙĨØ´ Ø±ÛĮ
ĠØ´ Ø§Ø¯
ĠØ¢ÙģØª Ø§Ø¨
ĠØ² Ú©ÙĪÛĥ
ĠØ¯Ø¹ ÙĪÛĴ
ĠÚĨÙħ Ú©
ĠØª Ø°
ĠØŃ ÙĪØ«
ĠØ¯ÙĪ Ù¾
ĠØ®Ø§Ùħ ÙĪØ´
ĠØ¨ÙĨ ÚĨ
ĠØ³Ùħ ÙĨØ¯
ĠØ§ÙĨ ÚĪÛĮØ²
ĠØ§ÙĨ ÙĪØ§Ø±
Ġ11 22
ĠØ¬Ø§Ø± ØŃ
ĠØ³ÛĮ ÙħÛĮ
Ø´ Ø§Ù¾
ĠØ® Ø±Ùħ
ĠØ§ØŃ Ø§Ø¯ÛĮØ«
ĠÚ© ÙĨÙĪ
ÙĨÚ¯ Ø§
ĠØ¢ ØªØ´
ÙĪÙĦ Ø±
ĠÙĨÙħØ§Ø¦ ÙĨØ¯Ûģ
Ø Ĳ
ĠÙ¾Ø±ÙĪØ± Ø¯Ú¯Ø§Ø±
ĠÚĨ Ø´
ĠÚ¯ Ú¾ÛĮ
ÙĪ ÚĳÛĮ
ĠØ¯Ø±Ø®ÙĪØ§Ø³Øª ÛĮÚº
ĠÙĨØµ ÛĮØ¨
ĠÙĤÙĪØª ÙĪÚº
ĠÙħØ´Ø± ÙĤÛĮ
ĠÙ¹ ÛĮÙĦ
ĠØ² ÛģØ±ÛĮ
ÙĪÙĨ Ø§
Ø¯ ÙĪØ±
ĠØ³ ÛĮØ±
ĠÚĨ ÙĦÛĮ
ĠØ§Ø¬ØªÙħØ§Ø¹ ÛĮ
Ú© ÙĪÚº
Ø§Ú© Ø§
ĠÙħØ§Ø± Ø§
ÙĪ Ø§ÙĤ
ĠØµ Ø¯ÛĮÙĤ
ĠÙĨÙĪ ØŃ
ĠØ§Ø³Ú©ÙĪÙĦ ÙĪÚº
ĠÚ©ÙĪØ± ÙĨÚ¯ÛĮ
ĠØ¢Ø³ÙħØ§ÙĨ ÙĪÚº
ĠØ¸ Ûģ
ĠØ§ÛĮ Ø¨Ù¹
ĠØ±ÛĮ Ù¹Ø±
Ø¨Ø± Ø·Ø§ÙĨÙĪÛĮ
ĠÙħÙĨ ÙĤ
ĠØ§Ú©Ø§Ø¤ ÙĨÙ¹Ø³
ĠÙĨ ÛĮÚ©ÛĮ
ĠÚĨ Ø¦ÛĮØ±
ĠØ¬ÛĮØª ÙĨÛĴ
ĠÙħÙĨ Ø§ÙĨÛĴ
ĠÙĦ ÛĮÚ©
ĠÙĨØµ ÛĮØ±
ĠØ¢ÙħØ¯ ÙĨ
ĠÙĨÙģ Ø§Ø°
ĠÙ¾Ø±ÚĨ Ùħ
ĠÚĨÛĮÙħÙ¾ Ø¦ÙĨ
Ú© Ø§Ùħ
ĠØ§ÛĮ Ø±ÛĮØ§
ĠØ§ÙĨ Ø´Ø§Ø¡
ĠØ¢ÙħØ¯ ÙĨÛĮ
Ø¹ Ø²ÛĮØ²
ĠØ¢Øº Ø§
ĠØ· ÛĮØ¨
ĠÚ©ÙĦ ÛĮÙĨ
ĠØ§ØŃ ØªÛĮ
ĠØªÚ¾ Ø±
ĠØ³Ø± Ø®
ĠÚĨÛĮÙĨ ÙĦ
ĠØ± Ø§
ĠØªÙĦØ§Ø´ ÛĮ
ÙģØ³ Ø§Ø±
Ø¯ ÛĴ
ĠØ±ÛĮ Ø²
ĠÙĦÛģ Ø°Ø§
ĠÙħØ§ÙĦÛĮ Ø§ØªÛĮ
ĠØ§ Ú©Ú¾
ĠØ´ ÛĮÙĦ
ĠÙģÛĮØµ ÙĦÙĪÚº
ĠÚ©Ø±ÙĨ ÙĦ
Ø¨ ÙĪØ±ÚĪ
ĠØ±ÛĮ ÚĪ
ĠÚ©ÛĮ ÙĦ
Ø§Ùģ ØªÛĮ
Ġ4 7
ĠÙ¾ÛĮØ± Ø§
ÚĨ ÛĮÙħ
ĠØªÛĮ Ø³
ĠØ®Ø¨Ø± ÙĪÚº
ĠØŃÙħ Ø²Ûģ
ĠÙħØ® Ø§Ø·Ø¨
ĠØ±Ø² ÙĤ
ĠØ°Ø® Ø§Ø¦Ø±
ĠÙħÛĮØ² Ø¨Ø§ÙĨ
Ù¹ÛĮ Ø¬
ĠÙĤ ÙĦÙħ
ĠÚ¯ Ø§Ø¤Úº
Ø £
ĠØ¬ Ø¹
ĠØ´Ø± Ø§Ú©Øª
ÙĨÛĮ Ø¯
ĠØ¹Ø¸ ÙħØª
ĠØ¯Ø± Ø§ÙĨÛĮ
Ġ4 6
ĠØ±ÛĮÙĦ ÙĪÛĴ
ĠØ¬Ú¾ ÙĪÙ¹ÛĴ
ĠØ¨Ø¯Ø¹ ÙĨÙĪØ§ÙĨÛĮ
Ø§Ø² Ø§Úº
ĠÛģÙĪ Ù¹ÙĦ
ĠÙħØ¹ Ø²Ø²
ĠØ§ÙĨÚ¯ÛĮ Ø²
ĠÙħØ¯Ø¯ Ú¯Ø§Ø±
ĠÛĮÚ©Ø³ Ø§Úº
ĠÙ¹ ÙĪÛĮÙ¹Ø±
ĠÙħÙĦ ØªÛĴ
Ù¾ ÛĴ
ÙħÙĦ ØªØ§ÙĨ
ĠØ¬ÙĪ Ø§ÙĨ
ĠØ§Ø³Øª ÙģØ³Ø§Ø±
ĠÙĨÚ© ÙĦÛĴ
ĠØ§ÛĮ Ù¹
Úĳ ÙĨÛĴ
ĠÙ¾Ø±ÙĪ Ùģ
ĠÛ ´
ĠØ³ Ø§Ø±Ø§
Ú© Ø²Ø¦ÛĮ
Ø¹ÙĤ ÙĪØ¨
Ø±ÛĮ Ø§Ø¶
ĠØ¯ÛĮÚ© Ø±
Øª Ùģ
Ø±ÙĪ Øª
ÙĦÙĪ Ú¯ÙĪÚº
ĠØ¢Ø¦ ÙĨØ¯
ĠØ® ÛĮÙĦ
ĠÚĪ Ø¨ÙĦ
ĠØ±Ø¬Ø³Ù¹Ø± ÚĪ
ĠÙ¹Ú¾ ÙĪØ³
ĠÙĨØ§Ùħ ÙĪØ±
ĠÙħÙĦØ§Ø² Ùħ
ĠÚ© ÙĪØ±Ø³
ĠØ§Øµ ØºØ±
ĠÙ¹ÛĮ ÙĪÙ¹
ĠÙ¾Ø± ÙģØ§Ø±Ùħ
ĠØ§Ú© Ø§Ø¦ÙĪÙĨ
Ø§ÙģØ³Ø± Ø§ÙĨ
ĠØ¯ Ø±Ú©Ø§Ø±
ĠÚ¯ÛĮÙĦ Ø§ÙĨÛĮ
Ø´Ûģ Ø±Ûģ
ĠØ¬ÙĦ Ø¯ÛĮ
ĠØ¹Ø¨Ø¯Ø§ÙĦ Ø±ØŃ
ĠÙħØ¸Ø§ÛģØ± ÛĴ
ĠØ¬ ÛĮÚ©
ĠÚ©Ø§Ø±ÙĪØ¨ Ø§Ø±
ĠØ§Ø´ØªÛģ Ø§Ø±ÛĮ
ĠØªÚ¾ Ø§ÙĨÛĴ
ĠØº Ø±
ĠÙħÙĨ ÛĮØ±
ĠØ¬ Ø§Ø³
ĠÙĤØ§Ø¦Ø¯ ÛĮÙĨ
ĠØ¨Ûģ Ø§ÙĪÙĦ
Ø³ Ø±Ú©Ø§Ø±ÛĮ
ØŃ Ø§ØµÙĦ
ĠÙĨ Ø§Ø¯
ĠØ¢ÙĨÚ©Ú¾ ÛĮÚº
ĠØ§ÙħØªØŃØ§ÙĨ Ø§Øª
ĠÚ©Ø±ÙĨ Ø³ÛĮ
ĠØªØŃ Ø±ÛĮØ±ÛĮ
Ġ19 7
ĠØ§ÙĨÙ¹Ø± ÙĨÛĮÙ¹
ĠÙ¹Ø§Ø± Ú¯Ù¹
ĠÚĨ Ø§ÙĦÛĮØ³
ĠØ¨Ø§Ø¬ ÙĪÛģ
ĠÙ¹ÙĪ Ø¦ÙĨ
ĠÛģØªÚ¾ÛĮ Ø§Ø±
ĠÙĪØ§Ø±Ø¯Ø§Øª ÙĪÚº
Ú©ÙħÛĮ Ù¹ÛĮ
ĠÚ©Ø± Ø³
ĠÚ© ÙĨÚ¯
ĠÛģÙĪ Ùħ
ÙĦÛĮ Øª
ĠØ¨Øª Ø§Ø¦ÛĮÚº
Ø´ Ú©Ø±
Ø®ÙĪ Ø§ØªÛĮÙĨ
ĠØ§ÙĦ Øµ
ĠÙħÙģ ÛģÙĪÙħ
ĠØ³Ø± Ø§Ø¬
ĠÙħÙĨ ÙģØ±Ø¯
ĠØŃ ÛĮØ±Øª
ĠØ· ÙĪÙģ
ĠÚ©ÙĪØ´ Ø§Úº
ĠØ³ Ø§Ø¬Ø¯
Ø¨Ø± ÙĪ
ĠÙĨ ÙģØ±Øª
ĠÚĨÛĮÙħ Ûģ
ĠÙħÙĨØª ÙĤÙĦÛĮ
ĠÙĨÚ¯Ø± Ø§Úº
ĠØ¨Ø±Ø³ ÙĪÚº
ĠØ³Ø± Ø²ÙħÛĮÙĨ
ĠØ¹Ûģ Ø¯Ûģ
ĠØ¯Ú¾Ø± ÙĨÛĴ
ĠÙħÙĨ ØµÙĪØ±
ĠÙĪ ÙĦØ§
ĠØ¨ Ø³ØªÛĮ
ĠÚ©ÙĪ ÙĦ
ĠØŃ Ø¨
Ùħ Ú©
Ø¨Ûģ Øª
ĠØ§ÙĦ Ú©
Ø³ÙĦ ÙħØ§ÙĨ
Ø³Ø± Øª
Ø§Ùħ ÛĴ
ĠÚ©ÙĦ ÚĨØ±
ĠØ¹Ø§Ø± Ø¶ÛĮ
ĠÙħØŃ ÙĦ
ĠÙħÙĤØª ÙĪÙĦ
ĠØ´Ø§Ø¦ ÙĤÛĮÙĨ
Ġ P
ĠØ§Ø³Øª Ùģ
Ø¨Ø§Ø¯ ÙĦ
Ø¦ ÛĮÙĨ
ĠÙħ ÛĮÚ©
ĠÙĦÚĳÚ©ÛĮ ÙĪÚº
ĠÙĪØµ ÙĪÙĦÛĮ
Ú¯ Ú¾
ĠÚ©Ø§Ø´Øª Ú©Ø§Ø±
ĠØ§ØŃØªÛĮ Ø§Ø·
ĠÙĦ Ø§ØŃÙĤ
Ø¹ Ú©Ø³
ĠØªØ±Ø¬ÛĮØŃ Ø§Øª
Ġ A
ĠÙ¾ÛĮØ± ÙĪÛĮ
ĠØ³Ø¬ Ø§Ø¯
ĠÚ©ÙħÙ¾ÙĦ ÛĮÚ©Ø³
ĠØŃ Ø²Ø¨
ĠÚ©Ø±ÙĪ Ø§Ø¦ÛĴ
ĠØ¨Ø§Ø± Ø´ÙĪÚº
ĠÙĨØ§Ùħ ÙĪÚº
Ø² Ø§Ø±
Ġ ÛĮÙĨ
ĠÛ ·Û
ĠÙ¾Ø±ÙĪ Ø¬
ĠÙ¾Ø§Ø³ Ù¾ÙĪØ±Ù¹
ĠÙ¾Ø± Ø§Ù¾
ĠÚ©Ø§ÙĦ Ø¬Ø²
ĠØ¹Ø± Ø¶
ĠÙĨÙĪØ§Ø² Ø§
ĠÙĪØ±Ú© Ø´Ø§Ù¾
ÙĪ Ø´ÛĮ
ĠÙĦÛĮ Ø³
ĠÚ©Ùħ Ø±ÛĴ
Ø´ÛĮ Ø¦Ø±
ĠØ³ ÙĪÙħ
Ø§Ø±ÛĮ Ûģ
Ø´ Ø§Øª
ĠØ®ÙĪØ± Ø´ÛĮØ¯
Ø¶ Ø¨
ÙĦÙĤ Ûģ
ĠØ§ÙĨÙĤÙĦ Ø§Ø¨
Ø¦ ÙĪÚº
ÙĦÛĮ ÙĪÚº
ĠØ¹ Ø§Ø¯Øª
ÛĮ Ø²
ĠÙħØ®Øª Ø§Ø±
ĠØ¨ÛĮÙĦ Ù¹
ĠÙħØµ Ø±
ĠÙĨÙĤ Ø§Ø¨
Ø¨ ØªØ§
ĠØ§ÙĨ ÙĪÛĮ
ĠØŃ Ú©ÛĮÙħ
ĠÙĪØ§Ø¦ Ø±ÙĦ
ĠÚ¯ÙĪ Ø¬Ø±Ø§ÙĨÙĪØ§ÙĦÛģ
ÚĨ ÛĮÙĨ
ĠØ¯ÛĮÚ© Ú¾ÛĮ
ĠØ³Ùģ Ø§Ø±ØªÛĮ
ÙĪÙĨÛĮ ÙĪØ±Ø³Ù¹ÛĮ
ĠØ¨ Ø§Ø¤
ĠÙħ Ø§Ø¦ÛĮÚ©
ÙĤ ÛĴ
ĠÚ¯ÙĪÙĦ ÛĮØ§Úº
ĠÙħØµ ÛĮØ¨Øª
ĠØ¨Ø¬ Ù¹
ĠØªØ¹Ø² ÛĮØª
ĠØ§ØµÙĪÙĦ ÙĪÚº
ĠÙĦ ÛĮÙĨ
ĠÚ©Ù¾ Ø§Ø³
ĠØ³Ù¾ Ø±Ø¯
ĠØ´ Ú©ÛĮÙĦ
ĠØº Ø°Ø§
ĠÚ©Ù¾ ÚĳÛĴ
ĠÙħØ§ØŃ ÙĪÙĦÛĮØ§ØªÛĮ
ĠÙĪØ± ÙĨÛģ
Ø§ÙĨÛģ ÙĪ
Ø¯ Ø¨Ø¦ÛĮ
ĠØ¬Ú¾ Ù¹
ĠÚ©ÙĦÙĪ Ú¯Ø±Ø§Ùħ
Ù¾ÙĨ ÛĮØ§Úº
Ø¬ Ø§Ø±ÛĮ
Ġ19 8
ĠÚ¯ ÛģØ±
ĠÙĪØ§Ø± Ø«
ĠØ´ ÙĪÙĤ
ĠØ§ÙĨØ¯ Ú¾ÛĮ
ĠÙ¹ÙĪØ¦ÙĨ Ù¹ÛĮ
ĠÛĮØ§Ø³ ÛĮÙĨ
ĠØ®ØµÙĪØµ Ø§
Ø¨ ÙĦØ§
ØŃ Ø§Ø¯Ø«
Úĳ Ú¾ÛĮ
ĠØ§ ÙĪØ³Ø·
ĠÙħØŃ Ø³ÙĨ
ĠÚĪØ± Ø§ÙħÛģ
ĠÙħÙĪ ÛĮ
ĠØ¯Ø± Ø§Ø²
ĠÙĨ Ø§Ø®
ĠÛģÛĮØ± ÙĪ
ĠØ±Ø¬ ØŃØ§ÙĨ
ĠÛĮ Ø¹ÙĤÙĪØ¨
ĠÚĨÚ¾Ø§Ù¾ ÛĴ
ĠØ§ Ù¹Ú©
ĠÙ¾ ØªØ§
ĠØ¢Ø± ÚĪØ±
ĠÚ©Ø§Ù¾ Ù¹Ø±
ĠØ¯ÛĮÚ©Ú¾ ÛĴ
ĠÙ¾Ø³Øª ÙĪÙĦ
ĠØªØ± Ø¬ÙħÛģ
ĠØ³Ø² Ø§Ø¦ÛĴ
ĠØ¨Ø± Ø¹Ú©Ø³
ĠØ¬Øª ÙĨÛĮ
ĠÙħØ³ÛĮ ØŃ
Ø³ ÙĨÚ¯
Ø³ÛĮ Ø§Ø³ÛĮ
ĠÚ©ÛĮÙħÙ¾ Ø³
ĠÚĨÚ¾ÙĪÚĳ ÙĨÛĴ
ĠÚĨÛĮÙĦÙĨØ¬ Ø²
Ø§Ø¯Ø§Ú© Ø§Ø±Ûģ
ĠÙģØ¶ Ø§
Ø§Ø¦ Ù¹Ø³
ĠÚ¯ Ø§Ø¦ÙĪÚº
ĠØ§ÛĮØ¬ÙĨ ÚĪÛĴ
ĠØ¹Ø§Øµ Ùħ
ĠÙħÙĤØ¯ Ø³
ĠÙĨÙĪØ§ØŃ ÛĮ
ĠÛĮ ÙĪØªÚ¾
Ø§Ùħ ÛĮÙĨ
ĠÙħ Ø±Ø¨
ĠØŃØµ ÙĪÚº
ĠÙ¾ÚĳÚ¾ ÙĨÛĴ
ĠÛģØ¬ Ø±Øª
Øµ ÛĮØ¨
ĠÙħÙĦ ÛĮÚº
Ø§Ûģ ØªÙħØ§Ùħ
ĠØ³Ú© ÙĪØ±
ĠÙģÙĦØ§ØŃ ÛĮ
ĠÙ¾Ø³ÙĨØ¯ ÙĪÚº
ĠØ® Ø§
ÙħÙĤ Ø§ÙħÛĮ
ĠÚ¯ ÚĳÚ¾
ÚĨ ÙĨØ§ÚĨÛģ
ĠØ¹Ø§Ø¯ ÙĦ
ÙĪÙħ Ø§
ĠØ³ÙĨØ¬ ÛĮØ¯Ûģ
ĠØ´ Ø§Ù¾
ĠÙħÙĨÛĮ Ø¬Ø±
Ù¹Ø±Ú© ÚĨØ±
Ø§Ùģ ØºØ§ÙĨ
Ø¯ÙĪ Ø³Ø±ÛĴ
ÙĦ Ø§Ú©
ĠÙĪ Ù¹
ĠØ¯Ø± ÛģÙħ
Ø³ Ø±Ø¯Ø§Ø±
Ù¾ Ù¹
ĠÙħØ´ Ú©ÙĪÚ©
ĠØ¹ Ø±ÙĪ
ĠØ§Ø³Øª Øº
Ø¬ÙĨ Ø±ÙĦ
ĠØ§Ø³ Ø§Úº
ĠØ§Ø± Ø³Ø§ÙĦ
ĠÙĦÛĮ Ø¨Ø±
ĠÙģÙĪØ¬ÛĮ ÙĪÚº
ĠÙĤØ± Ø¶ÛĴ
ĠÙģÙĪ Ø§Ø¦Ø¯
ĠÙĪ Ø§Ø¦Ø±
Ú© Ø§ÙĦ
ÙĨØ¯ Ú¯Ø§ÙĨ
ĠÙĦÚ¯ Ø§Ø¦ÛĮÚº
Ø§Ø ¢
ĠÙ¾ Ø§Ùħ
ĠÙģ Ø¹ÙĦ
ĠØ¨ÙĨ ØªØ§
Ø§Ø² ÙħÛĮÙĨ
ĠÚĪØ§ÙĦ Ø±Ø²
ĠØ§Ø¯Ø§Ú© Ø§Ø±ÛĮ
ĠØ¨Ø± Ø§ÙĨÚĨ
ĠÙ¹Ø± Ø§Ø¦ÙĦ
ÙħÛĮÙĨ Ûģ
ĠØ³Ú© ÙĪÙĨ
ĠØ§ÙĦ Ø³
ĠØªÙĨ ÙĪÛĮØ±
Ø§Ø³ Ù¾
Ù ĸ
ÙĤ Ø±ÛĮØ¨
ĠØ¨ÙĨ ØªÛĮ
Ùģ ÙĪØ±
ĠØŃØ§ÙĦ Ø§ÙĨÚ©Ûģ
Ø´Ûģ Ø¨Ø§Ø²
ØŃÙĤÛĮ ÙĤØª
ĠØ¯Ø§Ø¦ Ø±Ûģ
ĠÙĦÛĮ Ùģ
ĠØ¨ ÙĪØª
ÙĨÙĪ Ø§ÙĨ
ĠØµ ÙĦ
ÛĮÙĨ Ù¹
ĠØªØ±Ø¬ÛĮØŃ ÛĮ
ĠÛģÙĪ Ø§Ø¦ÛĮ
ĠØ§Ø³ØªÙģ Ø§Ø¯Ûģ
Ø§ÙĨ ØµØ§Ùģ
ĠÚĨÚ¾ Øª
Ø§Ú© ÙĨÚĪ
ĠØ¯Ø±ÛĮ Ø§Ø¦ÛĴ
ĠÙĪ Ø±Ø²
ĠØ¬ÙħÛģÙĪØ± ÛĮØª
ÙģÛĮ Ø¹
Ġ S
ĠØª Ø§Ø¦ÛĮ
ĠØª ÙĦØ§
ĠØ³Ø¬ Ø¯Ûģ
Ġ6 3
ØŃ Ø±
ĠÙħØ§Ûģ ÛĮ
ĠÙħØª Ø¨Ø§Ø¯ÙĦ
ĠØ¬Ø° Ø¨ÛĴ
ĠØ¢Ø±Ûģ Ø§
ĠØªØ¹ÙħÛĮØ± Ø§Øª
ĠØ¬ÛĮÙĦ ÙĪÚº
ĠÚ©Ø§ Ú©Úĳ
Ø±ÛĮ Ø§Úº
ĠÙħØ²Ø¯ ÙĪØ±
ÙĨ Ø§Ø¯
ĠÙħÙĦ ØŃ
ĠÙĨ ØµÙģ
ĠÙģÛĮ Ø¶
ĠØ¨Ú¾ Ú¯Øª
ÙĤØ§ÙĨ ÙĪÙĨ
ĠØ®Ø§ÙĨ Ø¯Ø§ÙĨÙĪÚº
ĠÙħØ³ Ø§Ø¬Ø¯
ĠÚĪØ§ÙĦ ÛĴ
Ġ5 00
ĠØªØ± ØªÛĮØ¨
ĠÚ¯ ÙĨØ§
ĠÙĦØ§ ÚĳÚ©Ø§ÙĨÛģ
ĠÙħØ±Øª Ø¶ÛĮ
Ġ) ØĮ
ĠØ° Ø±Ø§
ĠØ¯Ú©Ú¾ Ø§ÙĨÛĴ
ĠÚĪÙĪÛĮÚĺÙĨ ÙĦ
ĠØ·ÛĮ Ø§Ø±Ûģ
ĠÙ¹ÛĮÚ© Ø³Ù¹
ĠØ±ØŃ ÙħØ§ÙĨ
ĠÙĨ Ø³ÛĮÙħ
ĠØ¢Ø±Ù¹ ÛĮÚ©ÙĦ
ĠØ® Ø§ÙĤØ§ÙĨ
ĠØ¹ Ø¨Ø±
ĠÚ©Ø³ Ø§ÙĨÙĪÚº
ĠÙģØ§Ø± Øº
ĠÙħØ´ ÙĤ
ĠØªÙģØªÛĮ Ø´ÛĮ
ÙĪÙĨ ÙĦ
ĠØ³ÛĮØ§ÙĦ Ú©ÙĪÙ¹
ĠÙ¾Ø± Ø¯Ûģ
ĠØ´Ùħ Ø§Ø±ÛĮ
ĠÚ©Ùħ Ù¾ÙĨÛĮØ§Úº
ĠØ§ÙĦ Ø´
ĠØ¨ ÚĨÚ¾
ĠÙħ ÙħÙĨ
Ø¨ Ø±ÛĮ
ĠÙħØ²Ø¯ ÙĪØ±ÙĪÚº
Ú¯ Ø°
Ġ6 2
ĠØ³ Ø§Ø¦ÙĨ
ĠØ² Ø¯Ûģ
ĠØ°Ûģ ÙĨ
ÙĪÙ¹ ÙĪ
ĠÙĤÙĪÙĨ ØµÙĦ
ĠÙĨØ¸ ÛĮØ±
ĠØªÛĮØ± ÛĴ
ĠÙĪØ§Ùħ Ø§ÙĨ
ÚĨ ÙĪÚº
Ø¨ÙĦ ÙĪÚĨ
Ø·Ø±Ùģ Ûģ
ĠØª ÙĦÛĴ
Ùģ ÛĮØ¯
ĠØ¶ Ø¨Ø·
Ġ6 4
ĠÛ ¸Û
ĠØ±Ø§ØŃ ÛĮÙĦ
ĠÙĦ ÙĤ
ĠÛĮ ØªÛĮ
ÛĮ ÙĤ
ĠØ¨Ø¯ ÙĨ
ĠØ®ÙĪØ± Ø¯
ĠÚ© ÚĳÛĮ
ĠÙ¾ ÙĦÛĮ
Ø³Ù¾ Ø±ÛĮÙħ
ĠØ¨ØŃ Ø±ÛĮ
ĠØ¨Ø´ Ø§Ø±Øª
ĠÙħÙĪÛĮ Ø´ÛĮ
ĠØ³Ø±Ú¯Ø± ÙħÛĮØ§Úº
ĠÙħØ¶ Ø±
ĠØ³ ÙĨÙ¹
ĠØŃ ÙĨÛĮÙģ
Ø§Ø¹ Ø¯
ĠØ®ÙĪ Ø§ÙĨÛĮ
ĠØ§ÛĮ Ø§Ø²
ĠÙħØ§Ûģ Ø§ÙĨÛģ
ĠØ¯Ø±ÛĮ Ø§
ĠØŃ Ø§ÙħÛĮ
âĢ ¤
ĠÚ©Ø§ÙĪØ´ ÙĪÚº
ĠØ± Ø§Ø¶ÛĮ
ĠÚ©Ûģ ÛĴ
ĠÙħÛģ Ø§Ø±Øª
ĠØ¯ÛĮØ¯ ÛĮØ§
ÙĨÛĮ ÙĪÛĮØ§Ø±Ú©
ĠÚ© Ø§Ø³Ù¹
ĠØµ ÙģØª
ĠØ§Ø´ ØªØ±
Ø« ÙĪÙħ
ĠÙĨÙģ Ø±ÛĮ
ĠÙ¾ Ø§Ø¦ÙĦ
ĠÙħØ·ÙĦÙĪØ¨ Ûģ
Ġ4 2
ĠØ±Ø¶ ÙĪØ§ÙĨ
ĠÚĪÛĮØ² Ø§Ø¦ÙĨ
ÙħÙĪØ¬ÙĪØ¯ Ûģ
ĠØ§ ÙĪÙĨÙ¹
ĠÚ¯ ÛģØ±ÛĴ
ØŃ Ø³ÙĨ
ĠØ¯ÛĮ Ø´
ĠØŃ Ø¬Ùħ
Ø¹ ÙĪ
ĠØª ÛĮÙħ
Ø§Ø± ÙĨÛĮ
ĠØ¯ÙĪÙ¾ ÛģØ±
ĠØ® ÙĦÛĮÙĦ
Ø§Ø¦ÙĪÙĨ ÚĪÛĮØ´ÙĨ
Ġ3 00
ĠÚĪÛĮÙģ ÙĨØ³
ĠØ§Ø¬ Ø±Ø§Ø¡
ĠÙħØ¯ ÙĨØ¸Ø±
ĠØ¬ Ø¬Ø²
Ø¹ Ø¨Ûģ
Ø±ÙĪ Ø§Úº
Ù¹ÛĮ ÙĦ
ĠØ¯Ú©Ú¾ Ø§ÛĮØ§
Ġ5 3
ĠÚ¯Ø± ÙħÛĮ
ĠØ¯ÛĮ Ûģ
Ø² ÛĮÛģ
Ù¹ ÙĪØ±ÙĨØ§ÙħÙĨÙ¹
ĠÙĤØ¨Ø± Ø³ØªØ§ÙĨ
ĠØ§Ø³ Ù¹Ø±ÛĮÙ¹
ĠÙħØ° Ú©ÙĪØ±
ĠÙĤ Ø§Ùģ
ĠÙħØŃÚ© ÙħÛĴ
ĠØ§Ú©ÛĮÚĪ ÙħÛĮ
ĠÚ¯ÙĨ ØªÛĮ
ĠØ³Ø± Ø¬
ĠØ° ÛĮÙĦ
ĠØ±Ø³ÙĪÙĦ ÙĪÚº
ĠØ´ Ø§ÙĨÛģ
ĠØ¨ÙĨØ¯ ÛĴ
ĠØ§Ùģ Ø·
ĠÚĨØ¦ÛĮØ± ÙħÛĮÙĨ
ÙĪ Ø§Ø¡
ĠÙĦØ§Ø¦ ØŃÛģ
ĠÚ¯ÛĮÙħ Ø²
Ø´ÙĨ Ø²
ĠØ±ÛĮ Ø§Ø¶
ÙĨØ¯ Ú¯ÛĮ
ĠÙ¹Ø±ÛĮ ÚĪ
ĠÙĨ ÙģÛĮ
ĠÚ©Ú¾ Ø§Ø¯
Ù¾ Ú¾
ĠØ³ÛĮÙĨÙ¹Ø± ÙĦ
ĠÙĨØ§Ø± Ø§Ø¶
ĠÙħØ´Ø± ÙĤ
ĠØ±ÛĮÚ¯ ÙĪÙĦÛĮ
Ø³ÛĮÚ© Ø±Ù¹Ø±ÛĮ
ĠÙ¾Ø§ÙĨ Ø§ÙħØ§
ĠÙģ Ø§Ø³Ù¹
ĠÙģ Ø§
ĠØ² Ø¯
Ú© ÙĪÙĨ
ĠØ³ Ø§ÙĨØ³
ĠÚ¯ ÙĦÛĴ
Ø´ ÛĮØ±
Ø¦ ÙĦ
ĠÙģ Ø§Ø·
ĠÙħØ´ÛĮÙĨ Ø±ÛĮ
ĠÚ© Ø¨ÛĮØ±
ĠÙħÙĦ ØªØ§ÙĨ
ĠØ²ÙĦØ² ÙĦÛĴ
ĠÙħØ§ÙĨ ÙĨÛĴ
ĠÚ©Ø± Ø§Ø¦ÛĮÚº
Ù¾ Ø§ÙĦ
ÙĪØ¨ Ú©Ø±
ĠØ³ÛĮØ§ØŃ ÙĪÚº
ĠØ¯Ø± Ø¬ÛĴ
ĠØ§ÙĨØ¬ÛĮÙĨØ¦Ø± ÙĨÚ¯
ĠÙĦÛĮ ÙĪÙĦ
ĠÙĦ ÙĦ
ĠÙħÙĪ Úĳ
ĠØ¨Ø§ÙĦ ÙĪÚº
ĠØ¯Ú¾Ùħ Ø§Ú©Ûģ
ĠØ´Ø§Ûģ ÛĮÙĨ
Ø¹ Ø±Ø¨
ĠØ¯ÛģØ´ØªÚ¯Ø±Ø¯ ÙĪÚº
Ø§Ø¦ ÛĮØ±
ĠØªØŃ Ø±ÛĮØ±
Ùħ Ú©ÙĨ
ĠÙħÛĮ ÙĪØ²
ĠØ§ÙĪÙĪØ± Ø²
ĠÙħØ¯Ø§ØŃ ÙĪÚº
ÙĨ Ø¹
Ø§Ø¨ Ú¾ÛĮ
ĠØ§Ù¹Ú¾ Ø§Ø¦ÛĮÚº
ÚĨ Ø±Ø²
ĠØªØµ Ø§Ø¯Ùħ
ĠÙħØ±Ø¯ Ûģ
ĠÙ¾ÙĪØ¯ ÙĪÚº
ĠÙĤ Ø§Ø¦ÙħÛģ
ĠÙĦØ§Ù¾ ØªÛģ
Ø¹ ÙģÛĮ
ĠØ±ÛĮØ¬ÙĨ ÙĦ
ĠØ²ÛĮØ± Ø§ÛģØªÙħØ§Ùħ
Ø¢Ø¦ ÙĨØ¯Ûģ
ĠÙĦÙĨ Ú©Ø§
Ġ I
ĠØ§ Ø±Øª
Ùħ Ø¦ÙĨ
ĠØŃ ÙħÛĮØ¯
ĠØ¨ÙĦ ÚĪÙĨÚ¯
ĠÙħØ± Ø§ØŃÙĦ
ĠØ± Ùģ
ĠØ´Ø± ÙħØ§
ĠÚ©Ø± Ú©
Ø§Ø³ Ø¯
Øª ÛĮÙĨ
Ø¢ ÙģÛĮØ³Ø±
ĠÙħÙĦØ§ÙĤØ§Øª ÛĮÚº
ĠØ¨Ø§Ø² Ø§Ø±ÙĪÚº
ĠØŃØµ Øµ
ĠØ¯Ú©Ú¾ Ø§
Ø· Ùģ
ÙĪÙĨ Ø¯
ĠØŃÚ©ÙħØ± Ø§ÙĨÛĮ
ĠØ³ÛĮÚ© Ú¾
ÙĪÙ¹ ÙĨÚ¯
ĠØ§ÙĦ ØªÙĪ
ĠØ¨Ø§Ø± ÚĪØ±
ĠÚ¯ÙĪ Ø§ÛģÛĮ
ĠÙĪ Ú©
âĢ ¦
ĠØ§ÙģØªØªØ§ØŃ ÛĮ
ĠÚ©ÙħØ§ÙĨ ÚĪ
Ø§ÛĮ ÙĪÚº
ĠÙ¹ ÙĪÛĮÙ¹
ĠÙħØ± ÙħØª
ĠÙ¾Ø±ÙĪ ÚĪ
ĠØ±ÛĮÙ¹Ø± ÙĨÙĨÚ¯
ĠÚ¯ ÛģØ±ÛĮ
Ø´ Ø§ÛģØ¯
ĠØªÙĨ Ø®ÙĪ
Ø³Ûģ Ø±Ûģ
ĠÙ¾ÙĪØ± Ûģ
ĠØ¬Ùħ ÙĦÛģ
ĠØ« ÙĨØ§Ø¡
ĠØ§ÙĨ Ù¹ÛĮÙĦÛĮ
ĠÚ©ÛĮ Ø±
ĠÙħ ÙĪØ¯ÛĮ
ĠØ§ÙĨÛĮ Ø³
ÙĨ Ø¬ÛĮ
Ø®ÙĪ Ø§Ø¬Ûģ
ĠØ¨Ø± Ø§Ø¦ÛĮ
ĠØ³Ø±Ø¨Ø±Ø§Ûģ Ø§ÙĨ
ĠÙħØ¸ ÛģØ±
ĠÙĨÛĮ Ø²
ĠÙģØ± Ø§ÙĨØ³
ĠÙĦÚĳ Ú©ÛĴ
ĠØ¢ Ø¨ÛĮ
ĠØ³Ø±Ú© ÙĦ
ĠØ¨ ÙĦÛĮ
ĠÙĦÙĪ Ú©ÙĦ
ĠØªØ¹ÙĦÛĮÙħ Ø§Øª
ÙĪ Ø§Ø±ÛĮ
ĠÚĨÙĪØª Ú¾ÛĴ
ĠØ® ÙĦØ§
ĠÙĨÙĤ Ø¯ÛĮ
ĠÙĨ Ø§ÙĨ
ĠØ¬ÙĨ Ùħ
Ùħ Ù¹
ÙĪÚĳ Ø§
ĠÙ¾ Ù¹Ø±ÙĪÙĦ
Ġ4 9
Ġ5 4
Ø³Ú© Ú¾Ø±
Ú¯ ÙĪØ±ÙĨ
ØªØ± Ø§ÙĦ
ĠØ§ÙĦÙĨ Ø§Ø³
Ùħ Ø³Øª
Ġ5 6
ÙĨ Ø¨ÛĮ
Ø§Ø¯ ÛĴ
ĠØ¨ÙĦØ§ ÛĮØ§
Ùģ ÙĨ
Ø´ Ø§Ùħ
ĠÙĤ Ø§Ø±ÛĮ
ĠØ¬ ÙĪÙĨÛĮ
ĠÛģÙ¹ Ø§ÙĨÛĴ
ĠÙĦØ¹ ÙĨØª
ĠØŃØ³ Ø¨
Ø¶Ùħ Ø§Ùħ
ĠØ§Ø³Ù¹ÛĮØ´ÙĨ Ø²
ĠÙĨÙģ Ø¹
ĠÙģÛĮ Ø§Ø¶
ĠÙĦÚ©Ú¾ ÛĴ
ĠÙħØ¹Ø° ÙĪØ±
Ø§Ø´ ÙĤ
ĠÙĤ ÙĦØ¨
ĠØ§Ø¨ ÙĪØ¨Ú©Ø±
ĠÚĨÙħ ÚĨ
ÙħØ¸ÙģØ± Ø¢Ø¨Ø§Ø¯
ĠÙħÙĨ Ø¸Ùħ
ĠØ¨ÙĦ ÛĮÙĨ
Ø§Ø¨ ÙĪ
ĠÚ©Øª ÙĨÛĮ
ĠÛģ ØªÚ¾
Ú© Ø±Ú©
ĠØ³ÛĮ Ø²ÙĨ
ĠØªÙĨ ØµÛĮØ¨
ĠÙ¹ Ø±ÛĮÙĦ
ĠÙħØ± ÙĨÛĴ
ĠØ² ÛģØ±
ÛĮÙĦ ÛĮÙĨ
Ù¾ Ø±ÛĮØ³
Ø³Ù¹ ÙĦ
Ø§ÛĮ Ø³Ø§
ĠØ¨Øª Ø§ØªÛĴ
Ø§Ø¯ Ú¾Ø±
ĠÚ© Ø§Ø³
ĠÙĪÙģ ÙĪØ¯
ĠÙ¹ÛĮÚ© Ø³ÛĮ
ĠÙĨ ÚĨ
Ú¯Ø² Ø§Ø±
ĠØ§ÙĦ ÙħÙĤ
Ø³ ÙĪÙĦ
Ùģ ÙĤÛģ
ÚĨ ÛĮÙĨÛĮ
ĠØ§ÙĨ Ú©Ø§
Ø§Ø´ Ø§
ĠÙ¹Ø±Ø§ÙĨ Ø³
ĠÙĦØ¨ ÛĮÚ©
ĠØªÙģ Ø±ÛĮØŃ
ĠØ¹ÛģØ¯ÛĮØ¯ Ø§Ø±ÙĪÚº
Ø¨ Ø¯
ĠÙ¾ÛĮ Ø§Ø±
ĠØ¨Ø§Øº ÛĮÙĪÚº
ĠØ³Ø±Ø§Ûģ ØªÛĴ
ĠØ¢ Ø¦Ø±
Ø´ÛĮ Ø§Øª
ĠØ§Ø² Ø§ÙĦÛģ
ĠØªÙĦØ§ ÙĪØª
ĠØ¢ ÙĨÛĮ
ĠÙħØ± ÚĨ
ĠØ¨ÛĮÙĨÚ© ÙĪÚº
ĠÚĨÙĦ Ø§Ø¦ÛĮ
ĠØ¨Ø± Ø¨Ø§Ø¯
Ġ6 6
ĠÙ¾Ø´Øª ÙĪÙĨ
ĠØªØ®ÙĦÛĮ ÙĤ
Ø§Ø¹ Ø§Øª
ĠØªØ¬ Ø²ÛĮÛģ
ĠÙ¾Ú¾ ÙĦÙĪÚº
ĠØŃ Ø±ÛĮÙģ
ĠØ§Ø³ÛĮÚ©ÛĮ ÙĪÙ¹Ø±
ÙĪ Ø§Øª
ĠØ³ ÙĪØ±Øª
Ø´ÙĨ Ø§Ú©
ĠÚ¯Ø²Ø± ÙĨÛĴ
Ú¯ Ø§ÛģÙĪÚº
ĠØ®ÙĪØ´ Ú¯ÙĪØ§Ø±
Ø§ÙħØ±ÛĮ Ú©Ø§
ĠØ§ÙħÚ©Ø§ÙĨ Ø§Øª
ĠØ§Øµ ØŃ
ÙħÙĨ Øª
ĠØ®Ø³ Ø§Ø±Ûģ
ĠÙ¾ Ù¹Ø±ÙĪÙĦÛĮÙħ
ĠØ¨Ú¾ Ú¯
ĠÙĪØ§ÙĤ Ø¹ÛĮ
ĠØ¨ Ø§Ø¦ÛĮÚ©
Ø§Ø±Øª Ú¾
Ú¯ÙĦ ÙĨÚ¯
ĠÙħØ· ÙħØ¦ÙĨ
ĠÙĪÙĪ Ù¹Ø±
ĠÛģ ÚĪÛĮ
ĠÙĦ ÛĮÚ©Ø³
ĠØ§ÙĨÚĪ ÛĮÚ©Ø³
ĠÙħØ´Øª Ø¨Ûģ
ĠØ²ÙħÛĮÙĨ ÙĪÚº
ĠØ¨Ø±ÛĮ Ú¯ÛĮ
ĠØ³ÙħÙĨØ¯ Ø±ÛĮ
ĠØªØ´ Ø±ÛĮØŃ
ĠØ¹Ø¨Ø± Øª
ĠØ¹ÛģØ¯ÛĮØ¯Ø§Ø± Ø§ÙĨ
ÛĮ ÙĪÙĨÛĮÙĪØ±Ø³Ù¹ÛĮ
Ú¯ Ú¾Ø±
ĠÙ¾Ø±ÛĮ Ø´Ø±
ÙĪÛģ ÛĮ
ĠÛģÙħØ¯ Ø±Ø¯ÛĮ
ĠÚ© ÚĨÛģ
ĠÙĨØ¹ÙħØª ÙĪÚº
Ø§Ø¦ Ù¾
ĠØ¨Ø¯ ÙĦÛĴ
ĠÚĨØ§ÙĦ Ø§ÙĨ
Ø¯ Ø§Ø¡
Ù¹ Ùħ
ĠØŃ ØªÛĮ
ĠÙħØº ÙĦ
ĠØ§Ø«Ø§Ø« ÙĪÚº
ĠÙħÙĦ Ú©Ø±
Ø§Ø¦ ÛĮÙĨÚ¯ÛĴ
Ø¬ Ø§ÙĨÛĴ
Ú¯Ø±ÛĮ Ù¹
ĠÙ¾Ø± Ø´ÛĮØ¦Ø±
ĠÙĪÙĤ ÙĪØ¹Ûģ
ĠØ¯Ø± Ø³
ĠØ±ÙĪ Ø§Ø¨Ø·
Ø§Ø±Ûģ ÛĴ
ÚĪ Ø§Ø¦
ĠÙħØ¹Ø§Ø´ Ø±Ûģ
ĠØ®Ø¯ Ø´Ø§Øª
ĠÚ©ÛĮ Ø¦ÛĴ
ĠØªØ¨ Øµ
ĠÚ¯Ø±ÙĦ Ø²
ĠØ§ÙĦÛĮ ÙĪÙĨ
Ø§Ø² ÙĨ
âĢĺâĢĺ ÛĶ
Ù¹ÛĮÙĨ ÙĨÙ¹
ĠØ¨ Øµ
ĠØ¢ ÚĪÙ¹
ĠØ® ÙĦÛĮ
ĠÛģ Ù¹Ø§
ĠØ§Ø« ÙĨØ§Ø¡
ĠÙħØ²Ø§ØŃ ÙħØª
ĠØ¸ ÛģÙĪØ±
ĠØ®Ø§Ùħ ÙĪØ´ÛĮ
ĠØ±ÙĪØŃ Ø§ÙĨÛĮ
ĠÙĨ Ú¯Ø§Ûģ
Ø® Ø§Øµ
ĠØ§Ø· ÙĦØ§ÙĤ
ĠØ³Ø±Ú¯Ø± Ùħ
Ø§ÙĨØª Ø®
ĠØ³ ØªØ±
ĠØ¨Ø§ÙĨØ¯ Ú¾
ĠÚ©Ú¾ ÙĪØ³Ûģ
ĠØ§Ø´ØªØ± Ø§Ú©
ĠÛģÙĪ Ø´
ĠØ¨ÙĨØ¯ Ø±
ĠØ¬Ûģ Ø§ÙĨ
ĠÚ©Øª ÙĨÛĴ
ĠØ´Ø§Ûģ ÛĮ
ĠØ§ÙĦÛĮÚ© Ù¹Ø±
ĠØ¯Ú¾ÙĪ Ú©Ûģ
Ø§Ø³Øª Ûģ
ĠØª Ø§Ø«Ø±
Øµ ØŃØª
Ø¨ÛĮ ØŃ
Ø² Ø§Ø¡
Øº Ûģ
ĠØªØ³ÙĦ Ø³ÙĦ
ĠÙ¾Ú¾ Ø§ÙĨØ³ÛĮ
ĠÚ©ÙĪØª Ø§ÛģÛĮ
ĠÚ¯ÛĮ Ù¹
Ø± Ø§Ø¦ÛĴ
ĠÛģÙħ Øª
ĠØ³ÙħØ¬Ú¾ ØªØ§
ĠØ¨Ú¾ÛĮØ¬ ÙĨÛĴ
ĠØ³ÛĮÚ©Ø±Ù¹Ø±ÛĮ Ù¹
ĠØ§ÙĦÛĮÚ© Ù¹Ø±Ú©
ĠØ³ÙħØ¬Ú¾ ÙĨÛĴ
ĠÙ¹Ø± Ø§ÙģÛĮ
ÙĪØ± Ø§
ĠØµ Ø±
Ø±ÛĮ Ø¹Ûģ
ĠØ³Ø§ÙĦ Ú¯Ø±Ûģ
ĠØ³Ûģ ÙĪÙĦ
Ø§Ùģ ÙĦ
ĠØ±Ú©Ú¾ ÙĪ
ĠØ¹ Ø¬ÛĮØ¨
ĠÙģ Ø§ÙĦ
ĠØ³Ù¹ Ø§Ú©
ĠÙĪØ§Ø± ÚĪ
ĠØ¯Ø± Ø§ØµÙĦ
ĠØªØ´ÙĪÛĮ Ø´ÙĨØ§Ú©
ĠÚĪ Ø³Ù¾
ĠÙģØ³ Ø§Ø¯
ĠØ¨ÚĳÚ¾ ØªÛĴ
ĠØµÙģ Ø§Øª
ĠØ¹ÙĦØ§Ùħ Øª
Ġ5 7
ĠØ§ÙĨØ¯Ø± Ø§Ø¬
ĠÙĨØ¹ Ø´
Ø§ÙĨØª Ø¸Ø§Ùħ
ĠØ¹ÙħØ§Ø±Øª ÙĪÚº
ĠØªÙĨØ§Ø² Ø¹Ûģ
Ú¯Ø° Ø´ØªÛģ
ĠØ¹ ÙĨØ¯
ÛĮÙĨÚĪ ÙĦ
ĠÛģØªÚ¾ÛĮ Ø§Ø±ÙĪÚº
Ø¨ Ø§ÙĦÛĮ
ĠÙħØ§Ø³ Ù¹Ø±
ÙĪ ÙĨÛĴ
ĠØ¨ ÙĪÙĦÛĮ
ĠØ¯Ú¾Ùħ Ú©ÛĮØ§Úº
ÙĪ Ø§ÙĨÛĮ
ĠØ¯Ú¾ ÙĨØ¯
ĠØ² ÙĦ
ĠÛģ ÙģØª
Ùģ Ø§
ĠÙģ Ø§Ø¦ÙĪÙĨÚĪÛĮØ´ÙĨ
ĠØ¢ÛĮØª ÙĪÚº
Ø Ĵ
ĠÙħÙĪ ÙĪÙħÙĨÙ¹
ĠØ¬Øª ÙĨØ§
ĠØªØŃ ÙĪÛĮÙĦ
ĠÚ©Ú¾ÙĪÙĦ ÙĨÛĴ
ÙĪ Ú©ÛĮ
ĠÚ¯ÙħØ± Ø§ÛģÛĮ
ÙĪÙĨ Ú©
ÙģÙĪ ÚĪ
ĠØ§Ø´ ÛĮØ§
Ø§ÙĨ Ù¹Ø±
ĠØ¢ÙĨ ØŃØ¶Ø±Øª
ĠÚ©ÛĮØ±ÛĮ Ø¦Ø±
ĠØ¯Ø¹ ÙĪ
ĠØ¯Ø´ ÙħÙĨÛĮ
ĠÙ¾Ø§Ø±Ú© ÙĨÚ¯
Ù¾ ÙĪØ±Ûģ
ĠÙģÛĮ ÚĪØ±
ĠØ±Ø¹ Ø§ÛĮØª
ĠÙĦ ÙħØ¨
ĠØ¨ØŃ Ø±
ĠÚ©Ú¾ Ø§ØªÛĴ
ĠÚĪØ§ÙĦ ÛĮÚº
ĠØ¬ÙĪ Ø§Ø²
Ú¯ Ø±ÙĪ
ĠÚĨ Ú¾ÛĮ
Ú¯Ø± ÙģØª
Ø§Ø¹ ÛĮ
ĠØ±Ø§Ø¨Ø· ÙĪÚº
ĠÚ¯ Ø§ÙĨÛĴ
Ġ: ÛĶ
ĠØ³ÛĮÙĨ Ù¹ÛĮ
Ø³ÛĮ Ûģ
Ø§Ù¾ ÙĪØ²ÛĮØ´ÙĨ
Ù¾ÛĮ Ù¹
ĠÙħÚĨÚ¾ ÙĦÛĮ
Ø§Ø¨ Ø±ÛĮ
ĠØ§ÙĦ Ø¨ØªÛģ
ĠÙħØ¸ ÙĦÙĪÙħ
ĠØ§ÛĮ ÙĪÛĮ
ĠÙ¾Ø§ÙĨÚĨ ÙĪÛĮÚº
ĠØ³ Ø³ØªÛĮ
ĠÙħØ³Øª Ø¹ÙģÛĮ
Ø§ÙĨØ³ÛĮ Ø³ÛĮ
ĠÙĪØ±Ø« Ø§Ø¡
ĠÙħ Ø§Ø¦
ĠÙĤØ§Øª ÙĦ
ĠÙħØ² Ø§Ø±
ĠÙĪØ§ÙĤ Ùģ
ĠÚ©ØªØ§Ø¨ ÙĪÚº
ĠØ³ Ø±Ø¯ÛĮ
ĠÙĨØ¸Ø±ÛĮ Ø§ØªÛĮ
ÙģÙĪ Ø¬
Ù¾ÙĪØ±Ù¹ Ø³
ÙĪÚ© Ú¾Ø±
ĠØªØ¬Ø±Ø¨ Ø§Øª
Ø§ÙĦ ÛĮÚº
ÙĪÙĨ Ø³
ĠÚ©Ø´ ÛĮØ¯Ú¯ÛĮ
ĠØ¨ÙĨØ¯ Ûģ
ĠÚ©ÙĪ Ø§ÙĦÛĮÙģ
ĠÙĦÛĮ Ø¨
ÙĨ Ø§ÙħÛģ
Ø§Ùħ Ø§Ùħ
ĠØ³ Ø§ÛģÛĮÙĪØ§ÙĦ
ÙģØ± ÙħØ§ÛĮØ§
ĠØªØ³ ÙĦÛĮ
ĠØªÙĨØ®ÙĪ Ø§ÛģÙĪÚº
ĠÙħØº Ø±Ø¨
ĠØ¹ÙĤÛĮØ¯ Ûģ
ĠØ¨ Ø§Ø¦
ĠØ¯ ÙĦÛģ
ÚĨ ÙĪØ±ÛĮ
ĠÙ¾ÙĦØ§ÙĨ ÙĨÚ¯
ÛĮÚ© Ù¹Ø³
ĠÙĦÚĳ ÙĨÛĴ
ĠØ¯Ø§Ø± Ø§ÙĨ
Øª Ø¬
ĠØ§Ø«Ø§Ø« Ûģ
ĠÚ©Ø± Øª
Ø§Ù¾ ÛĴ
ĠØ´Ùģ ÙĤØª
ĠØ¹Ø±ÙĪ Ø¬
ĠØ¯ Ø§Ø¤
ĠØ¬ ÙĨÛĮØ¯
ĠØ¹Ø¯ ÙĦ
Ø± Ø§Ø¯
ĠØª Ø§Ú©
ĠÙĨÛģ ØªÛĴ
ĠÙħØ±Ú© ÙĪØ²
ĠØ°Ø® ÛĮØ±Ûģ
ĠÙ¾Ø± Ø³ÙĨ
ĠØ¨Ø±Ø¯ Ø§Ø±ÛĮ
ĠØ¬Ùħ Ø§ÙĦÛĮ
ĠÙĨØ§Ùħ ÛĴ
ĠØ§ Ú©Ø§
Ø¨ØªØ§ ÛĮØ§
ÙĪ Ø§ÙĨÛĴ
ĠÙħÛĮÙĨ ÚĪÛĮÙ¹
ĠØ± ÙĨØ¬
ĠÙģ ÙĪÙĦ
ĠÛģØ± Ø§
ĠÙĪÛĮ ÚĺÙĨ
ÙĪØ± ÛĴ
Ø± Ù¹ÛĮ
ĠØ¯Ø§Ø® ÙĦÛĴ
Ø¨ ÙĪÙĦÛĮØª
ĠØ®ÙĪØ¯ Ú©Ø´
ĠÙ¾Ø±ÙĪØ¬ ÛĮÚ©Ù¹
ÙĨ Ùģ
ĠÙħÙĨ ØµÙģ
ĠØ¯Ú© Ø§ÙĨÙĪÚº
ĠÙ¾ Ù¹
Ú©Ø± Ûģ
ÙħØ®Øª ÙĦÙģ
ÚĨ Ú©
Ø§ÙĦ Ù¹ÛĮ
Ú¾ ÙĨ
ĠØ³ÛģÙĪÙĦØª ÛĮÚº
ĠÙĪ Ø§ÙĨ
ĠØ¬ÙĪ Úĳ
ĠÚĪØ±Ø§Ø¦ÛĮ ÙĪÙĨÚ¯
ĠØ¢ ÙħÛĮØ²
ØµÙĪØ¨ Ûģ
Ø® Ø§Ø±ÛĮ
ĠØ§ÙĨØªÙĤ Ø§Ùħ
ĠØ§ÙĦÛĮ Ø§Ø³
Ø±Ø² Ø§ÙĤ
ĠØ§Ø³Ù¹ÛĮ ÚĪÛĮÙħ
ĠÙħÚ© ÛĮÙĨÙĪÚº
Ø¹ÙĦÙħ Ø§Ø¡
ĠØª Ø®Øª
ĠØ³Ø¨ ÛĮ
ĠÚ©ÛĮ ÚĨ
Ø§Ø¦Ø² Ø±
ĠØ¢Ø²Ùħ Ø§Ø¦Ø´
ĠÚ©ÙħØ´ÙĨ Ø±Ø²
ĠÙĦ Ø´Ú©Ø±
ĠÙ¹Ø§Ø¦ Ù¹ÙĦ
ĠØ¨ÙĦ ÙĨØ¯ÛĮ
Ø¨Ø§Ø± Ù¹Ø±ÛĮ
ÙħØ« ÙĦØ§
ĠÛ µ
ĠØ¨Ú¾ ÙĦØ§
Ù¾ Ø±Ø²
ĠØ§ÛĮ Ø´ÛĮÙĨ
Ø± ÙħØ§ÙĨ
ĠØ¨ÙĨ ÛĮÚº
ĠØ¶ ÙħÛĮØ±
ĠÚ¯Ø± Ø§ÙĨ
ĠÙħÙĤ Ø¨ÙĪÙĦÛĮØª
ĠÚ©Ú¾ÛĮ ÙĦÛĮ
ĠÙħØ±Øª Ú©Ø¨
Ùģ Ù¹
Ø· ÛĮÙĦ
Ø±Ùħ Ø§ÙĨÛĮ
ĠÙħÙĦÚ©ÛĮ Øª
ĠØ¹ÙĦÛĮÛģ Ùħ
ÙģÙĪ Ø¬ÛĮ
ĠØ¬ ÙĦØ§
ĠØ§ÙĦÙĤ Ø§Ø¯Ø±ÛĮ
ØµÙĪØ± ØªÛĮ
Ø² Øª
ĠÙ¹ÛĮÚ©Ø³Ù¹ Ø§Ø¦ÙĦ
ĠØ³ ÙĨÚĨ
ĠÚ©Ú¾ ÙĪÚ©Ú¾Ø±
ĠÙĦÚ¯ ÛĮÚº
ÛģÙħ Ø§Ø±Ø§
Ø¶ Ø¯Ø§Ø±
ĠØ·Ø¨ ÙĤÛĴ
ĠÛģÙĪ ÙĦÚĪ
ĠÙĤ Ø§ÙĦ
ĠØ§Ø³ Ù¾ÛĮØ´ÙĦ
ĠØ¹ Ú©Ø³
ĠÙħØª ÙģÙĤÛģ
ĠØ³ÛĮ ÙĪØ±ÛĮØ¬
ÙĤ ÛĮÙħ
Ø¬ÛĮ ÛĴ
ĠØ³ÛĮÚ© Ø´ÙĨ
Ø³ÛĮ Ø²
Ø° ÛĮÙĨ
ĠØ³Ù¹ Ø§Ø±
ĠØŃÙĪØ« ÛĮ
ĠÚ©ÙĦ Ø«ÙĪÙħ
Ø§Ø¦ Ø·
ĠØªÚ© ÙĨ
ĠÙħÙģ Ø³
ĠÚĨÙĦ ØªØ§
ĠÙĪØ¶ Ø¹
ĠÙ¹ÙĪØ¦ Ù¹Ø±
ĠÚ©Ø±ÛĮ Ú¯ÛĮ
Ø§Ûģ Ø±Ûģ
ĠÙĪØ§Ø¦Ø± Ø³
ĠÙħØ« Ø§ÙĦÛĮ
Øº ÛĮØ¨
Ġ5 9
ĠÚĨÙĦ ØªÛĴ
ĠÙ¾Ú¾ ÙĨØ³
ĠØ¹ ÙĪØ¶
ĠØ¨ÙĨ Ø§Ø¡
ĠÙ¾Ø§Ø¦ÛĮ Ø¯Ø§Ø±
ĠÚ¯ÙĦÙĪ Ú©Ø§Ø±
ĠØªØ¹ÙħÛĮØ± Ø§ØªÛĮ
ĠÙħÙĦ Ø§Ø¦ÛĮ
ĠÚ©Ø§Ùħ Ø±Ø³
ÙħØ± Ûģ
ĠØ £
ĠØªÙħ Ø§
ĠØ¯ÛĮ ÛģÛĮ
Ø±Ø³ ÙĪÙĦ
Ú© Ø±ÙĪ
ĠØ³Ø¨ ÙĤ
ĠÚ©ÙĪ Ø¦
ĠØ¬ÙĪ Ø§Ø¦ÙĨÙ¹
ĠÙħØŃ Ø±Ùħ
ÙĨÚĪ Ø±
ĠÙĤØ±ÛĮ Ø´
ĠÙģØ· Ø±Øª
Ø§Ø¨ ÙĨ
ĠÙĦÙĪ Ù¹ÙĨÛĴ
ĠÙħØ¹Ø° Ø±Øª
ĠØ³ÛģÙĪÙĦ ØªÙĪÚº
ĠÙ¾ Ø§Ø¤Úº
ĠØ§Ù¹Ú¾ Ø§Ø±Ûģ
ĠØ¢Ø¨ Ù¾
ĠÛģÙģØª ÙĪÚº
ĠÙĨØ§Ùģ Ø±ÙħØ§ÙĨÛĮ
ĠÙħØ§ÙĨ ØªÛĴ
ĠØ±Ø´ ÙĪØª
Ø¨ Ø³
ĠÙħØ¯Ø§Ø± Ø³
ĠÙĨÚ© Ø§ÙĦÛĮ
Ø¹ ÙĦØ§ÙĤ
Ø§ÙĪ Ø§Ù¹
ĠØ¨Ø±Ûģ ÙħÛĮ
ĠØ§ÙĨØ¯Ø± ÙĪÙĨÛĮ
ĠÙĨÙģ Ø³ÛĮ
Ø¬ ÙĪØ±
Ø¨ÙĦ Ø´
ĠØ§ÙĨØ¬ ÙħÙĨ
ĠØ´ÙģØ§Ùģ ÛĮØª
ĠØ¨ Ø§Ø³
ĠØ§Ø³ Ø±Ø§Ø±
ĠÙ¾Ø§Ø¨ÙĨØ¯ ÛĮÙĪÚº
ĠØ¬Ùħ Ø´ÛĮØ¯
ĠÚ¯Ø±Ø¯ Ø´
Ġ4 1
ĠÛģÛĮÚĪ Ú©ÙĪ
ĠÚ©Ø±ÙĪ Ø§Ø¦ÛĮÚº
ĠÙ¾Ú¾ÛĮÙĦ Ø§ÙĨÛĴ
ĠÚĪ Ø§Ø¤ÙĨ
ĠÙħÛģÙħØ§ÙĨ ÙĪÚº
ĠØ¨Ø²Ø± Ú¯
ĠÚĨ ÙĪØ¯Ûģ
ĠØ² Ø§Ø¦
ÙĨÛĮ ÙĪÙ¹
Ø§Øµ Ûģ
ĠÙĨØ´ Ø±
ÙĪÙĨ Ûģ
ĠØ¬Ú¯Ûģ ÙĪÚº
Ùħ ÙĨÚ¯ÙĦ
ĠØ§Ø¯ Ú¾Ø±
ĠØ¯Ø´ÙħÙĨ ÙĪÚº
ĠØ§Ø´ ÙģØ§ÙĤ
ĠØ§ÙĪ ÙĦÛĮ
ĠØ¨Ú¾ Ù¹
ĠÚ¯ÙĦ ÙĪÚ©
ĠÛģØ§Ø¦ÙĪØ³ ÙĨÚ¯
ĠØ¨ÙĪØª ÙĦ
Ø¬ÛĮ Ù¹ÙĦ
ĠÚ©ÛĮÙħØ± ÛĴ
ĠØ§Ù¹ Ø§Ø±ÙĨÛĮ
Ø§Ûģ Ù¹
ĠØªÙĤØ§Ø¶ Ø§
ĠÙħÛĮ Ø§ÙĨ
Ø®ÙĪ Ø´
Ø³ ÛĮÙĨÛĮÙ¹Ø±
ÙĪ ÙĤØª
ĠØ¹ ÛĮÙĨ
ÙģÛĮ Øµ
ĠÚ©ÛĮÙħ ÛĮÚ©ÙĦ
ĠØ·ÛĮ Ø§Ø±ÙĪÚº
ĠÚ¯ ÛĮÙĨÚ¯
ĠØ§Øº ÙĪØ§Ø¡
ÛģÙĪ Ú¯Ø¦ÛĴ
ĠØªÙĤ Ø¯ÛĮØ±
Ø¹ Ø§
ĠÙħØ³Øª ÙģÛĮØ¯
Ġ15 0
ĠÙħØ¸ÙģØ± Ø¢Ø¨Ø§Ø¯
ĠØ§ÛĮÚ©Ø³Ù¾ Ø±ÛĮØ³
Ûģ Ø§Ø¦ÙĪØ³
ĠÚ© Ø³Ù¹Ùħ
ĠÚĪØ±Ø§Ø¦ÛĮ ÙĪØ±
Ø³ Ø²
ĠÛ ¹Û
ĠÙħ ÙģØ±
ĠØ´Ø± Ø§Ø¦Ø·
ĠÙĪØ§ Ù¹Ø³
ĠÙħØ¬ Ø³Ù¹Ø±ÛĮ
ÙħØ¨ Ø§Ø±Ú©
ĠØ¨ÙĦØ¯ÛĮ Ø§Øª
ĠØ± ÛĮÙĨÚ©
Ú©Ùħ Ø´ÙĨ
ĠØ¯ÛĮÙĨ Ú¯ÛĴ
Ø¨ Ø¯Ú¾
ĠÙħØŃ Ø§Ø°
Ġ5 8
Ùħ ÙĨÚ¯
ĠÚ¯ Ø¬Ø±
ĠØ§ÙĦÙħÙĤ Ø¯Ø³
ĠØ³ ÛģØ§Ø±Ø§
ĠÚĨ Ø§ÙĪÙĦ
ĠØº ÛĮØ¨
Ø¨ÙĦÙĪÚĨ Ø³ØªØ§ÙĨ
ĠÙĨØ¹ Ø±Ûģ
ĠÙģ Øµ
Ø§ÙĨØªØ¸Ø§Ùħ ÛĮÛģ
ĠÙĨÛģ Ø±
ĠØ§ ÙħØ§ÙĨØª
ĠÙħØ¤ ÙĤÙģ
ĠØ· ÙĪ
ĠÚ©ÙĨ Ø§Ø±ÛĴ
ĠÙ¾ÛĮÚ© Ø¬
Ú© Ù¾
ĠØªØ¨ ÙĦÛĮ
ĠÙģØ±ÛĮ Ø¶Ûģ
ÚĪØ§Ø¦ Ø±ÛĮÚ©Ù¹Ø±
ĠØ®ÙĪØ¨ ØµÙĪØ±ØªÛĮ
ĠÙħÛĮÙ¹Ø± Ú©
ÙĪÙĨ Ø´ÙĨ
Ú©Ú¾ Ø§
ĠÙ¾ÛģÚĨ Ø§ÙĨÛĴ
ĠØ¨ Ø°
ĠÙĨ Ø¨Ú¾
Ø· Ø¹
Ø³ÙĪ ÛĮÚº
ĠØ§ ÙĪÛĮ
ĠÚ©Ø± ÙĦÛĴ
ÙħÛĮ Ù¹ÚĪ
ÙĪÛģ Ø±ÛĮ
ĠØªØ¨Ø§Ø¯ ÙĦÛĴ
ĠØ§Ø«Ø§Ø« ÛĴ
ØŃ Ø§Øª
ĠÙ¾ÛĮØ´ ÛĮ
ÙĤ Ø¨
Ø® ÙĪØ¯
Ø§ÛģÙĦ Ú©Ø§Ø±ÙĪÚº
ĠÚĪÛĮÙħ Ø²
ĠØ Ĳ
ĠØ§ÙĪØ± ÙĨÚ¯
ĠØªÚ© Ø°ÛĮØ¨
ĠÙĦ ÙĪØ¯
ĠØ§ÙĨ Ø³Ù¹
ĠÙ¾Ø§Ø± Ù¹ÙĨ
ÙĨÚĪ ÙĨÙ¹
ĠÙ¾Úĳ ØªØ§ÙĦ
Ġ12 0
ĠØ¯Ú¾Ùħ Ú©ÛĮ
Ġ ?
Ùħ Øµ
ÛĮÙĨ Ø²
ĠÙħÙĨØ§Ùģ ÙĤÛĮÙĨ
ĠÙħÛĮÚ¯ Ø§ÙĪØ§Ù¹
ÚĨ ÛĮÙĨØ¬
Ø§Ø« Ûģ
ĠØ³ÙĨØ§ ÛĮØ§
ĠØ¯Ø§Ø® ÙĦÛĮ
ĠÙģØ¶ ÛĮÙĦ
ĠØ§ÛĮÚĪÙĪ Ú©ÛĮÙ¹
ĠØ³ÙĪ Ø¦ÛĮ
ĠØ¯Ø±Ø®ÙĪØ§Ø³Øª ÙĪÚº
Ø§Ø³ Ø¨Øª
ĠØ·Ø¨ÛĮ Ø¹Øª
ĠÙ¾ÛĮØ¯Ø§ÙĪ Ø§Ø±ÛĮ
ĠØ¨ÛĮ Ø´
ĠÙĪ ÚĺÙĨ
ĠØ¯Ø¨ Ø§Ø¦ÙĪ
ÙģÙĪØ±Ø³ Ø²
ÙħÛĮ ÚĨ
ĠØªÙĤØ± Ø±ÛĮ
Ø¬ Ø±Ø§Øª
Úĳ Ù¾
ĠØ¢Ûģ ÙĨÚ¯ÛĮ
ĠØ¬Ú¾Ú¯ ÚĳØ§
ĠØ·Ø±Ùģ Ûģ
ĠÙħØ± Ø§Ø¹Ø§Øª
ĠØ® Ø±ÛĮ
ĠÚĨ Úĳ
ĠÙħÙĨØ§ ÙģÙĤ
ÙĨ Ù¹ÛĮ
ĠÙĪÛģ ÛĮÚº
ĠØ¨Ú¾ ÙĦØ§Ø¦ÛĮ
ĠÚ¯ÙĪ Ù¹Ú¾
ĠÚĪØ§Ø¦ ÙĪÙĨ
ĠØ®Ø±ÛĮØ¯ ÙĨÛĴ
ĠØ²Ùħ Ø§ÙĨÛĴ
Ø® Ø§Øª
ĠØ®Ø§ÙĦ Øµ
ĠØª ÙĪØ±Ø§Øª
Ġ5 2
ĠÙĦÛĮ Ø¨Ø§Ø±Ù¹Ø±ÛĮ
Ġ C
ĠÙģ Ø±ÛĮØ¯
Ø§Ø· Ùģ
ÙĪØ¨ÛĮ Ø³
Ø§Ø´ Ø¨Ûģ
Ú© ÙħÙ¾
ĠØ§ØŃ Ø¯
ĠÙħÙĨ Ø§Ø³Ø¨Øª
ĠÙħÛĮÙĨ Ú¯ÙĦ
ĠÙĨÙĤØµØ§ÙĨ Ø§Øª
ĠØ¹Ø¨Ø¯Ø§ÙĦ Ø¹Ø²ÛĮØ²
ĠØ³ØªÚ¾Ø± Ø§Ø¦ÛĮ
ĠÙĤÙĪÙħ ÙĪÚº
ĠØªØ¹ Ø·ÛĮÙĦ
Ġ ÛĮÚº
ĠØ³ ÚĨÛĴ
ĠØŃ Ø§Ø¬
ĠÙ¾ ÛĴ
ĠÙĨÙĪ Ø´ÛģØ±Ûģ
Ġ8 5
Ø±Ûģ ÛĴ
ĠØµØ¯ ÙĤÛģ
Ø¬Ùħ Ø¹Ûģ
ĠÙħØ¬Ø±Ùħ ÙĪÚº
ĠÚĨ Ú©Ø±
ĠÙħØ³ÙĦ ÙħÛģ
ĠØ¹ Øµ
ĠØ¬ÙĨ Ø§ØŃ
ĠÛĮÙĪØ± Ù¾
ĠÚ¯Ø±ÛĮÙĨ ÚĪ
ĠØ§ÛĮÚ©Ø³ Ø§Ø¦Ø²
ĠÙĨÛĮ Ø§Ø²ÛĮ
Ø¢Ø± ÙħÛĮ
ĠÙĨÙĪ Ù¹
Ú¯Ø±ÛĮ Ø³
Ø· Ø³
ĠÙħØŃ Ø±ÙĪ
ĠØ¨ Ø§Ø¶
ĠÚ©ÛĮ ÙĨÛĮ
Ø§Ø¶ØŃ ÛĮ
ĠØ¨ÙĨÚ¯ ÙĦÛģ
Ø§ÙĦ Ùģ
Ġ19 6
ĠØ³ÛĮØ§Ø³Øª Ø¯Ø§ÙĨ
ĠØ³ÙħÛĮ Ø¹
Øª Ø§Ø¬
ĠØªØ¨ Ø§ÛģÛĮ
ĠØªØ§Ø¦ÛĮ Ø¯
ĠØ³ Ø§Ø¯Ûģ
Ø§ÙĨ ÙĪÛĮ
ĠÙħØŃ ÙĦÛģ
Ø§ÙĪÙĨ Ø¯
ĠÙģÛĮÚĪ Ø±ÙĦ
ĠÚ¯ÙĪÙĦ ÚĪ
Ø´Ûģ Ø±ÛĮÙĪÚº
ÙĨ Ø¦ÛĴ
ÙĦ ÛĮÙĨÚĪ
ĠØ® Ø§Ø¯Ùħ
ĠÙħØ¹ Øª
ĠØ§ØŃ Ø§Ø·
ÚĪÛĮ Ø´ÙĨÙĦ
ĠØŃ Ø§Ú©
Ø§ÛĮ Ø³ÛĮ
ĠØ§Ø¹ Ø§Ø¯Ûģ
ĠØ¨Ú¾ ÙĪÚ©
Ø§ÙĨÚĨ Ûģ
ĠØ§ÙĨØµ Ø§Ø±ÛĮ
ÙĤ ØµÙĪØ±
ÙĪÙģ Ø¯
ĠØ³Ú©ÙĪÙĦ Ø²
ĠØ®Ø³ Ø§Ø±ÛĴ
ĠØ± Ú©ÙĪ
ĠØ§ ÙĪØ¨
ĠØ¯ÙĦ Ø§ÙĨÛĴ
ĠØ²ÛĮÙĨ Øª
ĠÙ¹ ÙĪØ±
ÚĪÛĮ Ø§Ø³
ØªØ± ÙħÛģ
ÙĪÚĳ ÛĴ
ĠØ«ÙĤ Ø§ÙģØªÛĮ
ĠØ¬ÙĪ ÚĳÛĴ
Ú¯Ø² ÛĮØ±
ĠÙħØ¹ ÙĨÙĪÚº
ĠÛģÙĪÙĨÛĮ ÙĪØ§ÙĦÛĴ
Ø¯ ÙĪÙħ
ÙĨ ÙħØ§
ĠØ¨ÛĮØ± Ø³Ù¹Ø±
ĠÙħØŃ ÛĮ
ĠÚĨÙĪ Ù¾
ÙĨØ³ ÙĪ
Ú¯ Ø¦ÛĮ
Ù¾ Ø±ÛĮ
ĠÛĮÙĪÙĨ Ù¹Ø³
ĠÚ¯Ø§ ÚĳÛĮØ§Úº
ĠÙ¾Ø±ÙĪÚĪ Ú©Ø´ÙĨ
ĠØ¨ÙĨØ¯ Ø´
ĠÙĪ ÛĮØ±
ĠÙģÙĦ ÙħÛĮÚº
ĠØ¯Ø§Ø±ÛĮ ÙĪÚº
ÙħÛĮØ± Ø§
ĠÙģØ§Ø· ÙħÛģ
ĠÙĪ Ø§Ø¬Ø¯
ĠÚĨÛģ Ø±Ûģ
ĠÙħØ¹Ø§ÙĪ Ø¶Ûģ
ĠØ¨ÙĨ ØªÛĴ
ĠØªÚ¾ Ø§ÙĨÙĪÚº
ĠØ²ÛĮÙĨ Ø¨
Ġ9 5
ĠÙ¾Ø± Ø§Ø¦Ùħ
Ø§Ûģ ÙĪ
ĠÙĨÙħ Ù¹
ĠØ® Ø§ÙĨÛĮ
ĠÙĨÙħ Ú©
ĠÙ¹ÛĮÙĨ Ú©Ø±
: ÛĶ
Ø± Ø§Ø¶
Ø§ØŃ Ø³ÙĨ
ĠØ¨ÚĨ ÛĮÙĪÚº
ĠØ³ÛĮØ§Ø³Øª Ø¯Ø§ÙĨÙĪÚº
ĠØ° Ø¨ØŃ
ĠÙħÚ© Ú¾ÛĮ
ĠØ¯ÛĮ Ø±ÛĮÙĨÛģ
Ø³Øª Ø§Ø®
ĠØº ÛĮ
ĠØ³Ø¨Ø²ÛĮ ÙĪÚº
ĠÛģÙĪÙĦÚĪ Ø±Ø²
ĠÙ¹ ÙĨÚĪ
Ù¹ÛĮ ÙĪ
ĠÙĨÙĤ ÙĪÛĮ
ĠØ¨Øª Ø§Ø¦ÛĴ
ĠÙ¾Ø±Ø§Ù¾ Ø±Ù¹ÛĮ
ĠØ¢ Ø«Ø§Ø±
ĠÚ©ÙħØ² ÙĪØ±ÛĮ
ĠØ²Ø¨Ø±Ø¯ Ø³ØªÛĮ
ĠÚ© ÙĨÚ¯Ø²
Øµ ÙĪ
ĠØ±ÙĤ ÙĪÙħ
ĠÙ¾ÛĮ ÚĨ
Øª Ú¾Ø§
ĠÙĪØŃ ÛĮØ¯
Ø§Ûģ Ø±ÛĮ
Ú¯ ÛĮØ§Úº
ĠÙ¾ÛģØ§Úĳ ÙĪÚº
Ø± Ø¬ÛĮ
ĠÙħ Ù¹
ĠÚ©ÛĮ Ù¹
ÛĮÚ© Ù¹Ø±
ĠØªÙĤØ§Ø¶ ÙĪÚº
ĠÚĪ Ø§ÙĨ
Ø² ÛĮØ±
ÙĤÛĮ ÙĤÛĮ
ĠØ¦ ÛĮÚº
ĠÚ©Øª Ø¨
ĠÙĪØ± Ø§ÙĨÛģ
ĠÙ¾Ø§Ø¨ÙĨØ¯ ÛĮØ§Úº
Ø¬ÙħØ¹ Ø±Ø§Øª
ĠÙħÙĨØª Ø¸Ø±
ĠÙĨØ¹ ÙħØ§ÙĨ
ĠÙĪÙĤ ÙģÛĴ
ĠØ´ ÙģÛĮØ¹
ĠØ³ÙĨØ¨Ú¾Ø§ÙĦ ÙĨÛĴ
ĠØª Ø§ÙĪ
ĠØ¸Ûģ ÛĮØ±
ĠØ·ÙĪÙģ Ø§ÙĨ
ĠØªÙĨ Ø¨ÛĮÛģ
ĠÙħØ° Ùħ
ĠÙĨØµ Ø±Øª
ĠÙģÙĦØ§ Úº
ÚĨ ÙĦ
Ù¹Ø± ÙĨ
ĠØ¬ÙĨÚ¯ Ø¬ÙĪ
Ø¨ÛĮ ÙĦÛģ
ĠÙħØ§ÙĨ Ú¯ÛĮ
ÛĮÙĨ Ø±
ĠÚ¯ Ø§Ø¦ÛĴ
ÙĪØª Ûģ
Ġ Úĺ
ĠÙ¾ÛĮ Ø²
Ú©Ø´ ÙħÛĮØ±ÛĮ
Ø¯ Ø§Ø´Øª
ĠÚĨ ØªØ±Ø§ÙĦ
ĠÙħØ§Ø± ÙĨÛĴ
ĠÙĪØ§Ø± ÙĨÙ¹
ĠØ¯ Ø§Ùħ
ĠØ±Ø¶ ÙĪÛĮ
ĠÙģÙĦØ³Ø·ÛĮÙĨÛĮ ÙĪÚº
ÚĨ ÙĨ
ĠÙĤÙĦ Ø¹Ûģ
ĠØ±ÙĪ Ûģ
ĠÚ¯ÙĪ ÛĮØ§
ĠÚ¯Ú¾ÙĨÙ¹ Ûģ
ĠØ§ÙĨÚ¯ÙĦ Ø´
ĠÙĨ Ø±Ø³
ÛĮÙĦ ÛĴ
ÚĪÛĮØ§Ø³ Ø±ÙĪØ³
ĠØ´ ÙĪÙ¹ÙĨÚ¯
ĠØ¨Ø§Ø¶ Ø§Ø¨Ø·Ûģ
e r
ÚĪÛĮ ÙĪØ²
ĠÙĨØ§ Ú¯Ø²ÛĮØ±
Ø³ Ùģ
ĠÚĪÛĮ Ø¬ÛĮÙ¹ÙĦ
ÙĪ Ø¬
Úĳ ÙĪ
ĠØ± Ø§Ø¦ÛĮ
Ùħ Ø§Ø¶ÛĮ
ĠØ¹ ÙĨØ§
ĠØ¢Ûģ Ø³ØªÛģ
ĠÙħØ±Ø¨ ÙĪØ·
ĠÚĨ Ø§
ĠÙħÙĦ Ù¹Ø±ÛĮ
ĠØ¬Øª ÙĨÛĴ
ĠÙħÛĮØ± Ù¾ÙĪØ±
ĠÙĤÛĮÙħØª ÛĮÚº
ĠØ¯ÛĮÚ©Ú¾ ÙĪ
ĠÙĦ Ù¹
ĠØªØ± Ùħ
Ø§Ø¨ÛĮ Ø·Ø³
ĠÙĨÛĮÙĦ Ùħ
ĠÚ©ÛĮ Ø§ÙĨÛĮ
ĠØ³ Ø§ØŃ
ĠØ¯ Ø§
ĠØ¹Ø±Ø¨ ÛĮ
ĠØ® Ø§ÙĪÙĨØ¯
Ø§ÙĦ Ø²
ĠØ¹ÙħØ± Ûģ
ĠÙĤØ· Ø±ÛĴ
ĠØª Ø§ÙĦ
ĠÙħØ§ØŃ ÙĪÙĦÛĮØ§Øª
ĠÚ©ÙĪÛģ ÙĦÛĮ
ĠØ¨ Ø³Øª
ĠÙ¾Ø±ÙģØ§Ø±Ùħ ÙĨØ³
ĠÛ±Û ³Û
Ø¹ Ø²Ùħ
Ø§Ú¯Ø± ÚĨÛģ
ĠÙħØ®ÙĦ Øµ
ĠÚĨÚ© ÙĪØ§ÙĦ
Ø¨ÙĦØ´ ÙħÙĨÙ¹
ĠØº Ø²
ÙĨØ³ Ù¹ÛĮ
ĠÚ¯ ÙĪØ¯
ĠØªØ± Ø³ÛĮÙĦ
ĠÛĮ ÙħÙĨ
ÙĤ Ø§Ø¦Ø¯
ĠÚ©Ûģ ÙĪ
ĠØ§Ø¯ Ø¨
Ø¢ Ùģ
Ø§Ø® ØªÛĮØ§Ø±
ÛĮØ± ÙĪØ²
ĠØ¯ Ø§Øº
ÚĨ ÙĨØ¯
ĠÚ©Øª ÙĨØ§
ĠÙģØ± ÙĨÙ¹
ÙĦØ§Ø³ Ù¹Ú©
ĠØªÛĮ Ø±ÛĮ
ÙĪ Ø§Ø³
ĠÚ©ÙĦ ÙħÛģ
Ø§Ø¨ ÙĪÛĴ
ĠØ¹Ø¨Ø¯Ø§ÙĦ ÙĤ
ĠÙħØªÙĨØ§Ø² Ø¹Ûģ
ĠØ·Ø¨ ÙĤÛģ
ĠÙĪØ³ Ø¹Øª
ĠØ¹ÛģØ¯ ÙĪÚº
ĠÛ ¶
ĠØ¬Ø§ÙĨØ¨ Ø¯Ø§Ø±
ÙħÙĤ Ø§Ø¨ÙĦ
ĠØ±ÙĪÙĨ ÙħØ§
ĠÙĨÙĪ Ø´
ĠÚĪØ± ØªÛĴ
Ø®Ø§Øª ÙĪÙĨ
Ø¯ Ú¾Ùħ
ĠØªÙĨ Ø§Ø¸Ø±
Ú¾ Ø§Ø±
ÛĮÚ© ÙĪ
ĠÚĨ ÙĪØ¨ÛĮØ³
ÙħØ¨ Ø§Ø¨ÙĪÛĴ
ĠØ³ Ú¯Ø±ÛĮÙ¹
ĠØ®ÙĪØ´ ØŃØ§ÙĦ
ÙĪÛģØ±ÛĮ Ø±Ûģ
ĠØ§ÙĨ Ø¶ÙħØ§Ùħ
ĠØ±ÙĪ ÛĮÛĴ
ĠØ±ÛĮ ÚĪÛĮÙĪ
ĠØ§ÙģØ³ÙĪØ³ ÙĨØ§Ú©
Ø§Ø¦ÙĦ ÚĪ
ĠØ§Ø¨ ÙĪÛģØ±ÛĮØ±Ûģ
ĠØ¹Ø¨Ø¯Ø§ÙĦ Øº
Ø§Ùħ ÛĮØ±
ÛĮÚ©ÙĦ Ù¹ÛĮ
ÛĮØ§Ø¯ Ûģ
ĠÙĪØ±Ø²ÛĮ ÙĪÚº
ĠØªØŃ ÙģÛģ
ĠØ¹Ø¨ ÙĪØ±
ĠØ« ÙħØ±
ĠØ¯ÛĮ Ø§ÙĨØª
ĠØ¶ ÛĮØ§
Ø§ÛĮ Ø¨Ù¹
ĠØ¢Ø± Ù¹Ø³
ĠÙħØ§Ø± Ø´ÙĦ
ØŃ Ùħ
Ø§ÙĦ ØŃÛģ
ĠØªÚ¾ Ø§ÙĨÛģ
ĠÙĪØ§Ø± Ø§ÙĨÛģ
ĠÚĨÙĪÛģ Ø§ÙĨ
ĠÙħÙĨ Ø´ÛĮØ§Øª
ÙĪ Ù¾
ĠØ¹ÙĦÛĮØŃ Ø¯Ú¯ÛĮ
ĠØªØ§Ú© ÛĮØ¯
ĠÙħÙģØ± ÙĪØ±
Û Ĺ
ĠØ± ÙĨØ¯
ĠØ§ÙĦØ¹ Ø²ÛĮØ²
ĠØ§ÛĮØ¬ ÙĨÙ¹
ĠØ§Ø³Øª Ø§Ø¯
Ø§Ø· ÙĦØ§Ø¹
ÙĪ Ø§Ø¨Ø·
ĠÚ©Ø± Ú©Ù¹Ø±
Ø¨Ø± Ú¯
ĠØ± Ø®Øµ
ĠÙ¾ÛĮ Ù¾Ø±
ĠØ¨ Ø¸Ø§ÛģØ±
ĠØ§Ú© Ù¹Ú¾ÛĴ
ĠÙħØ³ÙĦ Ø·
ĠØ¹Ø· ÛĮÛģ
ĠØ·Ø§ÙĤØª ÙĪØ±
ĠÚĨ Ù¾
ĠØ¨ ÙħØ¨
ĠÙĪÙ¹ Ø§ÙħÙĨ
ĠÙ¾ÙĪÙĦÛĮ ÙĪ
ĠØŃ Ø±Ùħ
Ø³Øª ÙĪØ±
i n
ØªÛĮ ÙĤ
ĠÙĨÚ© ÙĦØ§
ĠØ¯Ø±Ø®Øª ÙĪÚº
ÙħØ¹ Ø±ÙĪÙģ
ĠÚ¯ ÙħØ§ÙĨ
Ø¦Ø± Ø²
Ûģ Ø§Ø¦ÛĮ
ĠØ§ÙģØ±ÛĮÙĤ Ûģ
ĠØ§Ø³ Ø¨Ø§Ø¨
ĠÙģ Ø§Ø¦ÙĦ
ĠØ³Ú© ÙĨØ¯Ø±
ĠÙħÙģØ³ Ø±ÛĮÙĨ
Ú©Ûģ Ø§
ÙĪÛģ ÛĮÚº
ĠÙ¾Úĳ ÙĨÛĴ
ĠÙĦ Ø·Ùģ
ĠÚ©Ø§Ø´ Ùģ
ĠØ§ÙĨ ØŃØµ
ĠØ±ÙĪ Ù¹
ĠÙĦÛĮÙģ Ù¹ÛĮÙĨÙĨÙ¹
ĠØ§ÙĦ Ø§Ù¹
ĠÙĨØ¸ Ø±Ø¨
ÛĮ Ø«ÛĮØª
ĠÚ¯ÙĪ Ø¦ÛĮ
ĠØ¬ ÚĳÛĮ
ĠÚ©ÚĨÛģ Ø±ÛĮ
ĠØ± Ø¨ÛĮ
ĠÛĮÛģÙĪØ¯ ÛĮÙĪÚº
ĠØ¯ ÙĨÛĮ
ÙĪØ§ÙĦ ÙĪÚº
Ø± ØªÛĮ
ĠØ§ÙĨÚĪ ÙĪÙĨÛĮ
ĠØ§ÙģØ· Ø§Ø±
ĠØ±ÛĮ Ø³Ù¹
ÙĨØª Ø®Ø¨
ĠØ¹Ø· Ø§Ø¡
ĠØ±ÛĮÙģØ±ÙĨØ³ Ø²
ĠØ¨Øº Ø§ÙĪØª
ÙĪØ¨ ÙĦ
Ġ7 4
ĠÚĨÚ¾ÙĪÙ¹ Ø§
ĠØ§Ø´ ÛĮ
ĠØ¨ÛģØ§ÙĪÙĦ Ù¾ÙĪØ±
ĠØ³ÙĨØ¬ ÛĮØ¯Ú¯ÛĮ
ĠÚ¯Ø± Ø§Ø¤ÙĨÚĪ
ĠÚ©ÙĨ Ø§ÙĦ
ĠÙĪ Ø§Ø¦Ù¹
Ù¹ÛĮ ÙĪÙ¹
ĠØ´Ûģ Ø¯Ø§
ĠÙĨØ±Ø® ÙĪÚº
ĠØ§ØµØŃ Ø§Ø¨
ĠÙĪØ§Ø± ÙĨÙĨÚ¯
ĠØ§Ú©Ø± Ø§Ùħ
Ø± Ø§Ø¬Ûģ
ĠØ´Ûģ Ø²Ø§Ø¯Ûģ
ĠÙģØ§Øª ØŃÛģ
Ú© Ø¦ÛĮ
ĠÙĦ Ù¾ÛĮÙ¹
ĠÙħÙĨØµÙģ Ø§ÙĨÛģ
ĠÙ¾ Ù¹ÛĮ
ĠÙĦÙĪ Ù¹Ø§
ĠØ§Ù¹Ú¾ Ø§ØªÛĴ
ĠÙĦØ§Ø´ ÛĮÚº
ĠÚ©ÛĮÙģ ÛĮØª
ĠÙħ Ø§Ùħ
ĠØ§Ø¹ Ø¶
ĠØŃ ÙħØ¯
Ġ7 3
ĠØ±ÙĪ Ø¨
ĠØ´ Ø¬Ø±
Ġ7 1
ĠØ§Ø¬ ÙħÙĦ
Ġ201 2
ĠØ³Ø§Ø¦ÙĨØ³ Ø²
ÙĨ ÚĪÛĮ
ĠØ¨Ú¯ Ù¹ÛĮ
Ø§ÙĪ Ø§
ĠØ±Ø´ ØªÛĴ
ĠÙħÛģ ÛĮÙĨÙĪÚº
ĠØªØ±Ùħ Ø°ÛĮ
ÚĪ ÙĪÚº
ĠÚĪ Ú¾ÛĮØ±
ĠØ³Ø§Ø² Ø´ÙĪÚº
ĠØ§Ø¬ Ø²Ø§Ø¡
ĠØªØŃ ÙĤÛĮÙĤÛĮ
ĠØ§ÙĨÙĪÛĮ Ø³Ù¹ÛĮ
ĠØ§ÙĦØ¨ Ø®Ø§Ø±ÛĮ
Ùħ Ø±Ø¯
ĠØ§ÙĤÙĦÛĮ ØªÙĪÚº
ĠØ§ÙĪØ±ÙĨÚ¯ Ø²ÛĮØ¨
ĠØ³Ø±ØŃ Ø¯ÛĮ
ĠØ¨Ú¾ Ø§ÙĦ
ĠØ¯Ø§ÙĨ Ø´
ĠØ´Ø§Ø¹ Ø±
ĠØ¯Ø±Ø¢ÙħØ¯ Ø§Øª
ĠÙģØ¶Ø§Ø¦ÛĮ Ûģ
Ú¯Ø±ÙģØª Ø§Ø±
ĠØ® ÙĦÙĤ
ĠÚ¯Ú¾ ÚĳÛĮ
ĠØ¹Ø¯ ÙĨØ§ÙĨ
ĠÙ¾ÛĮÙĨ ÙĦ
ĠØ§ÛĮØ´ÛĮ Ø§Ø¦ÛĮ
ĠÚ©Ø§Ùħ ÙĦ
ĠÙĨØ´Ø§ÙĨ ÛĮØ§Úº
ÚĨÛĮ Ø³
ĠÚ© Ù¹Ú¾
Ù¾ Ø§ÙĨÚĨ
ĠØ¨ÚĨ Ø§Ø¦ÙĪ
ĠÙĤÙĪ Ø§Ø¹Ø¯
ĠØµÙĪ Ø§Ø¨ÛĮ
Ø§Ø¯ Ø§Ø±ÛĮ
ĠØ° ÙħÛĴ
ĠØ§ÙĨ ÚĨ
ĠØ§Ù¾ÙĨØ§ ÛĮØ§
Ġ13 2
ĠÙģ ÛĮÚ©ÙĦÙ¹ÛĮ
ĠÚĪ Ø§Ø¦ÛĮ
ĠØ¨Ø§Ø¦ÛĮÚ© Ø§Ù¹
ĠÙ¾Ø§Ø±Ù¹ÛĮ ÙĪÚº
ĠØ¨ Ø±Ú©Øª
ĠØ§Ø³Ù¹ÛĮ Ø¬
ĠØ¨Ø° Ø±ÛĮØ¹Ûģ
Ù¾ ÛĮØ¯
ĠØ¹Ø§ÙĦ ÛĮÛģ
Ø´ Ù¾
ĠÙħÙĪ Ø§ØµÙĦ
ĠØ³Ùħ Ø¬Ú¾ÛĴ
ĠØ¨Ø± Ø³ÛĮ
ÙĪØ§ÙĦ Ø§
Ø³Ù¹ Ú©
ĠØ®ÙĪØ´ Ø®Ø¨
ĠÚĪ ÙĪØ±
ĠÙĨÛĮ Ø§Ø²
Ġ7 8
Ú©ÙħØ´ÙĨ Ø±
ĠØ§Ú¯ ÙĦÛĮ
ĠØ§ÙĦØ± Ù¹
ĠÙĦÚ© Ú¾ÛĮ
ĠØ¶ ÛĮ
ÙĦÙĪ Ú¯
ÙĪØ· ÙĨ
ĠØ³ÙĪ Ø²
ĠØ¢ ÙģÛĮ
ĠØª Ø¯Ø§Ø±
ĠÚ¯ Ø³ØªØ§Ø®
ĠØ¢Ø¨Ù¾ Ø§Ø´ÛĮ
ĠÙ¹Ø± Ø³Ù¹
ĠÙĤØ³ ÙħØª
ĠÚĨØ§Ûģ Ø¦ÛĮÛĴ
ĠÙħÛĮØ² Ø¨Ø§ÙĨÛĮ
ĠØ§Ø³ Ù¾ÙĪØ±Ù¹Ø³
ĠØ¨ÙĪÙĦ ÙĨÛĴ
ĠÙħØµÙĨÙĪ Ø¹ÛĮ
ĠÙĤÛĮØ¯ ÛĮ
ĠÚ©ÙĦÛĮ Ø¯ÛĮ
Ø§ÛĮ ÚĪÛĮØ´ÙĨÙĦ
ĠØ§Ø¹ØªØ±Ø§Ø¶ Ø§Øª
ĠÛĮØªÛĮ Ùħ
Ġ7 7
ĠØ§Ø´Øª Ø¹Ø§ÙĦ
Ø¨ ÙĨØ¯ÛĮ
ĠØµ ÙģØ±
ĠØ¯Ø¹ Ø§Ø¦ÛĮÚº
ĠØ®ÙĦ Ø§Ø¦ÛĮ
Ø¹ ÙħØ±
ØŃ Ø³ÛĮÙĨ
ĠØª ÛĮØ±Ûģ
ĠÙĪ ÙĨÚĪ
ĠÙħØ¹ ÛĮÙĨ
ĠÙĨ Ú¯
ĠØ¢Ø¨ Ø§Ø¦ÛĮ
ĠØ³ÙħØ¬Ú¾ ÙĪØªÛģ
ĠØ¢Ø³ Ú©
ĠØ¬ÙħÙĪÚº ÙĪ
Ø° Ø¨
ĠØ±ÙĪØ² ÛĴ
ĠÙ¾ÛĮ Ù¹Ø±ÙĪÙĦÛĮÙħ
ĠÙģØ¶ÛĮÙĦ Øª
ĠÛ Ń
ĠÙĦÚ¯ Ø§ÙĨØ§
Ú©ÙħÙ¾ ÙĨÛĮ
Ú©Ø§ÙĨ ÙģØ±ÙĨØ³
Ø§Ø³ ÙħØ¨ÙĦÛĮ
ĠÙ¾ÛģÙĨÚĨ ÛĮÚº
ĠØ±ÛĮÙĨÚ© ÙĨÚ¯
ĠØ± Ø§Ø¤
ĠØ± Ø§ØŃØª
ĠØ¯Ûģ Ø§Ø¦ÛĮ
ÛģØ± Ø§ÙĨ
ĠÚ¯Ø²Ø§Ø± ÙĨÛĴ
ĠÙ¾ÙĦØ§ Ù¹
ĠÙħÙĨ Ø§Ø¸Ø±
Ø® ÛĮØ±
Ø³Ø± Ûģ
ĠÚ©ÙĪ Ø§ÙĦÙ¹ÛĮ
ÙĦ Úĳ
Ø¹ Ø§Ø±Ùģ
ĠÛģÛĮ Ø²
ĠÙ¾Ø³ÙĨØ¯ ÛĮØ¯Ûģ
Ø§ÙĦÛĮ ÙĪÚº
ĠØ¨Ú¾ Ø±ÙĪØ³
ĠÙ¾Úĳ Ú¾Ø§
Ø§ØŃØª Ø³Ø§Ø¨
ĠÙĪØ±Ø² Ø´
ĠÙģ Ø§Ø¦Ø²
ĠØ§Ø³Øª Ø¹Ø¯Ø§Ø¯
Ġ4 00
ĠØªÛĮØ§Ø±ÛĮ ÙĪÚº
ĠÙ¾Ø³ÙħØ§ÙĨ Ø¯Ûģ
ĠÙĪ ÛĮÙħÙĨ
Ġ6 7
ĠÚ©Ú¾ ÛĮÙĨ
ĠÙĦÚ¯ Ø§ØªÛĴ
ĠÙĪ Ùħ
ĠÙĨØµ Ø±
Ø² Ø§ÙĨÛģ
ĠÚ¯Ú¾ Ù¹
ĠÚĨÙĪØª Ú¾ÛĮ
ĠÙĪ Úº
Ø§Ø¦ ÙĨØ³
ĠÙħØ§Øª ØŃØª
Ø§Ø³ Ù¹Ø±Ú©ÚĨØ±
ÙħÙ¾ Ø¦ÙĨ
´ ¿
ĠØ¬ Ø¯
ĠØ§ÙĪØ± Ùħ
Ø¢ ØµÙģ
ĠØ¬Ø§ ÛĮØ§
Ø§ÙĨØ³ Ø§ÙĨ
ĠØ¯Ø§Ø¤ Ø¯
ĠÙħÙĨ Ø³
ĠÙĪØ§Ø¬ Ø¨Ø§Øª
Ú©Ø±Ú© Ù¹
ĠÙħØ« ÙĦØ§
ĠØºØµ Ûģ
ÙĤ Ø±Ûģ
ĠØ² Ø§Ø±
ĠØ³Ù¾Ø± ÙĨÙ¹
ĠÙģØ§Øª ØŃ
ĠÛģØ§Ø¤Ø³ ÙĨÚ¯
ĠÙ¾Ø§Ø¦ÙĦ Ù¹
ĠÚ©ÙĨ ÙĪÙĨØ´ÙĨ
ĠØ¬ Ø§ÛģÙĦÛĮ
ĠÙĨØ³ÙĦ ÙĪÚº
ÙĤ Ø§Ø±
ĠØ§ÙĨÙĤÙĦ Ø§Ø¨ÛĮ
ĠÛģÙĨØ¯ÙĪ Ø³ØªØ§ÙĨ
ĠÙ¾Ø®Øª Ûģ
ĠÙħØ§ÛĮ ÙĪØ³ÛĮ
Ø§Ø³ Ù¹ÛĮØ´ÙĨ
ĠØ§ÛĮØ¬ÙĨ ÚĪØ§
ĠÙģÙĨ Ú©Ø§Ø±ÙĪÚº
ĠÙĪ ÙħØ§
ĠØ±ÙĪ ÛĮ
ĠØ§ÙĨÙģØ± Ø§Ø¯ÛĮ
ĠÙĨ Ø±Ùħ
ĠÙħØ² Ø§Ø¬
Ø§ÛģØ¯ Ø§Ø±ÛĮ
ĠÙ¾ ÙħÙ¾
´ ¾
Ø³ ÙĪØ±
ĠÙħÙĦ ÙĨØ§
ÙħØª ØŃ
ĠÙģ Ø±ÛĮÙĨ
ĠØª Ø´Ûģ
ĠØ¹Ø¨Ø¯Ø§ÙĦ Ø±
ĠÚĨÚ¾ÙĪÚĳ Ø§
ĠÙħØŃ ØªØ±ÙħÛģ
ĠÙģØ± ÙĤÛģ
ĠØ¯ÛĮÛģ Ø§Øª
ĠØ¢ÙģÛĮØ³Ø± Ø²
ĠØ¨Ø§Ø¨ Ø§
ĠÙ¾ ÙĦÛĴ
ĠÙĦÛĮ ØªÛĮ
ĠØ¨Ø± Ø§Ø¯
o n
ĠÙħ ÙĨØ¯ÛĮ
ĠØ¹ ÙĦØ§
ĠÙħÙĨ Ø·
ĠØ¹ÙĪØ±Øª ÛĮÚº
ĠÙĨÙĤ Ø¯
ĠØ±ØŃ ÙħÙĨ
ÙĪØ§ ÚĪ
ĠØ§ÙĨÚĪ ÛĮÙĨ
ÚĪ ÙĪÛĮÚĺÙĨ
ĠØ®Ø· Ûģ
ĠÙĨ Ø§Ø³
Ø§ØµÙĦ Ø§ØŃ
ĠØ¨ÚĳÚ¾ ÛĴ
Ùħ ÙĨØ¯
ĠÙ¹ÛĮÚ©ÙĨ ÛĮÚ©ÙĦ
Ú© ÛĮÙĨ
ĠÙĦÛĮ ÙĪÛĮØ²
Ø§Ø¹ Ø¯Ú¯ÛĮ
ĠØ³Ø±Ú© Ø§Ø±
Ø±Ú© Ø§Øª
Ġ7 6
ĠÙ¾Ø§Ø±Ù¹ÙĨ Ø±
ĠØ®ÙĪØ´Ø®Ø¨ Ø±ÛĮ
Ø§ÙĦ ÛĮØ§
ĠØ§ÛģÙĦ Ø®Ø§ÙĨÛģ
ĠÚ©Ø§ÙĦ ÛĴ
ĠØ¯Ø±Ø¬ Ø§Øª
ĠÚ©Ø³ Ø§ÙĨ
Ø§ÙĨØ³ Ø§ÙĨÛĮ
ĠØ¯Ø±ÙĪ Ø§Ø²Ûģ
ĠÙģØ§Ø± ÙĪ
ĠÙĦØ§Ø¦ ÙĤ
ĠÚ¯Ø± Ø§
ĠØµÙĨØ¹ ØªÙĪÚº
ĠØ¬Ø¹ ÙģØ±
ĠØªÙĨ Ø§Ø³Ø¨
ĠØ³ÙĨ ØªÛĴ
ÙģØ± Ø§ÛģÙħ
ÙģÙĪ Ø§Ø¯
ĠÙĦ Ø§Øª
Ùģ ÙĨÚĪ
ĠØªØ° Ú©Ø±Ûģ
ĠÙĦÚ¯ ØªÛĮ
Ø« ÙĨÛĮ
ÙĪÚ© ÙĪÙĦ
ÙĪÙ¹ Ø³
ĠØ¯ Ø§ÙĨÙĪÚº
ĠÙħÙĨ Ú©Ø±
ĠØ¬ÙĦ Ø§ÙĦ
ĠØ§Ø³Ù¹ Ø§Ú©
ĠÚ¯Ø±ÙĪÙ¾ ÙĪÚº
ĠØ§Ø³Ùħ Ø§Ø±Ù¹
ĠØªÙĪÙĤØ¹ Ø§Øª
ĠÙ¹ Ø±ÛĮÚ©
Ġ5 1
ĠÙ¾Ú¾ÛĮ Ø±
ĠÛģ Ø§Ø¦Ø±
ĠÙ¾ Ø³Ù¹ÙĦ
ĠÙ¾ Ø§Ø¦ÛĮÚº
Øª ÙħÛģ
ĠÙĦ ÙħØŃ
ĠÙĦØ§Ø¦ÙĨ Ø²
ĠÚ¯Ú¾ Ø¨Ø±
ĠÙħÙĨØ³ ÙĪØ¨
ĠØµØ§ØŃØ¨ Ø²Ø§Ø¯Ûģ
ĠØ±ÛĮØ² Ø±ÙĪ
ĠÚ© ÙĦÙħ
Ġ9 9
ĠÛģÛĮÚĪÚ©ÙĪ Ø§Ø±
ĠÙĪ ÛĮÚ©Ø³
ĠØ³ÛĮ Ø²
ĠØ¯Ø³ØªÛĮ Ø§Ø¨ÛĮ
Ġ6 8
Ø¨Ø± Ø¢ÙħØ¯
ĠØ§ ÚĪÛĴ
Ú©ÛĮ Ù¾
ĠÚ© ÙĦÛĮÙħ
ĠØ·Ø±ÛĮÙĤ ÙĪÚº
ĠÙĤØ± Ø·Ø¨ÛĮ
ĠÚ©ÙħÛĮÙ¹ÛĮ ÙĪÚº
Ú¾ Ø§Ø¦ÛĮ
ĠÙħØ¹Ø¬Ø² Ûģ
ĠÙħ ÙĨØ¯Ø±
ĠØ¬ Ø§Ø¦ÛĮÙĨÚ¯ÛĴ
ĠÚĪ Ø§Ú©
ĠØ§Ø³Ù¹ÛĮ ÙĦ
ĠØ¬ÙĦÙĪØ³ ÙĪÚº
ĠØ¢ÙħØ¯ ÛĮØ¯
ÙħÙĪÙĦ Ø§ÙĨØ§
ĠÙĪØ² Ø±Ø§
ĠØ¨ ÙĪÚĳ
ĠÙĨ Ø§Ø´
ĠØ¬ Ø§ÙĦ
ĠØ³ÙĦ Ø·
ĠÙģÙĪÙĨ Ø²
ĠØ¹ÙĦ ÙĪÛĮ
ĠÚ©Ø§Ø± ÙĪ
ĠØªÙĨØ§Ø² Ø¹Ø§Øª
ĠÙ¹Ú© ÚĳÛĴ
ĠÙ¾ ÙĦØ§Ø³Ù¹Ú©
ĠÙĤØ¨ ÙĦÛģ
ĠÚĨ Ø§Ø±Ûģ
ĠÙħØ¹ Ûģ
Ù¹Ø³ ÙħÛĮÙĨ
ĠØ¹ Ø§Ø·Ùģ
Ù¾ ÛĮÚ©Ø§
ĠØ¶ Ø±Ø¨
ĠØ±ÙĪØ² Ú¯Ø§Ø±ÛĮ
ĠØ¨Ú¾Ø±ÙĪØ³ Ûģ
ĠÙħØª Ø±Ø§Ø¯
ĠØ§ÙĦØŃ Ø§ÙĦ
ĠÙ¾Ú¾ÛĮ ÙĦØ§
ĠÙĨØ² ÙĪÙĦ
ĠØ³Ú© ÙĪ
ĠØ³ Ù¹Ø±
ÙĪØ¨ Ûģ
ÙĤ ÙĤÛĮÙĨ
Ø§Ø¯Ø§Ú© Ø§Ø±
-- --
ĠØ¨Ø® ÙĪØ¨ÛĮ
ĠØ§Ø³Ú©ÙĪ Ø§ÚĪ
ĠØ§Ø³ Ú©Ø§
ĠØ§Ø¨ Ú¾Ø±
ĠÛģ Ø§ÙĦÛĮ
ÚĪÛĮ Ø§ÙĦÛģ
ĠØ¹ÙĨ ÙĤØ±ÛĮØ¨
ĠÙĦÚ¯ ØªÛĴ
ĠØµÙĪ ÙģÛĮ
ĠÚ© Ø¹Ø¨Ûģ
ÙĪØ± ÙĨÛģ
ĠØªÙĪ Ø§Ø²ÙĨ
ĠØ¨ Ø¬Ú¾
ĠØ¹ ØªÛĮÙĤ
ĠØ¨Ú¾ÛĮ Ø¬ÛĮ
ĠØ¯Ø± Ø¨Ø§Ø±
ĠØ§ÙĨ Ø±Ø¬ÛĮ
Ø±ÙĪ ÚĪ
ĠØ¹Ø¨Ø¯Ø§ÙĦ ØŃ
Ø³ ÙĪØ¯
ĠØ¯ Ø®ÙĦ
ĠØ¯Ú©Ú¾ Ø§Ø¦ÛĴ
ĠØªØ¨Ø¯ÛĮÙĦ ÛĮØ§Úº
ĠÙĪØ§Ø³ Ø§
ĠØ§ÙĤ Ø±Ø§Ø±
ĠØ³ Ø§ØŃÙĦ
ĠÙ¹ÛĮÙĦ ÙĨÙ¹
ĠØ³Ù¹ÛĮ Ù¹
ĠÚ© ÙĪØ±ÛĮ
ÙĦ Ø¹
ĠØ¬Ú¾ ÙĨÚ¯
ĠØ²Ø® ÙħÙĪÚº
ĠØµØ§ØŃØ¨ Ø²Ø§Ø¯ÛĮ
ĠØ§Ùģ ÙĪ
ĠÙ¾Ø±Ø§Ø¦Ùħ Ø±ÛĮ
ÙħØ¹ Ø§ÙĦ
ĠÙ¾Ú© ÚĳØ§
ĠØ¯Ø§Ø¦ ÙĪØ¯
ĠÚ©Ú¾ Ø¬ÙĪØ±
ĠØ§ÙĨØ¯ Ø§Ø²ÛĮ
Ø§ÛģÙĦ Ú©Ø§Ø±
ĠÙ¹Ø±Ø§ÙĨ Ø³Ù¾
ĠØ§ÙĦÙĨ Ø¨ÛĮ
ĠÙħØªØ±Ø§Ø¯ Ùģ
Ú¯Ø±ÛĮ Ø²ÛĮ
Ø¨Ú¾ ÙĪØ´ÙĨ
Ø¬ÙĦ Ø¯
ÛĮÚ© Ûģ
ĠÚ©ÛĮ ÙħÛĮ
ĠÙĨÛģ Ø§Ø¯
ĠÛĮÛģ ÙĪØ¯ÛĮ
ĠØª ÙĦÙģ
Ø§ÙĦ Ø§Ø¶ØŃÛĮ
ĠÚĪ Ú©ÛĮ
Ġ7 2
ÙĨ Ø§Ø³
ĠÙĪ Ø¨
ĠØ§ÛĮ Ø²
ĠØªÚ¾ ÙĪÚĳÛĮ
ĠØ¨ÛĮÙĨ Ø±Ø²
ĠÛģØ§ÙĦ ÛĮÙĨÚĪ
Ú© Ø¨Ú¾ÛĮ
ĠÙĨ ÙĨ
Ø§Ø¯ Ø§Ø±ÙĪÚº
ĠØ± Ø§Ø¤ÙĨÚĪ
ĠØ§Ûģ ÙĦÛĮ
ĠÙħØªÙĪ Ø¬Ûģ
ĠØ¢ ÙĦÙĪ
ĠØ¨ÛĮ Ù¹ÙĪÚº
ĠØ¯ÙĪ Ø·Ø±ÙģÛģ
ĠÙģ Ø§Ø¦ÛĮ
Ù¹ÛĮ ÙĪÚº
ĠØ´Ø§Ø¯ Ø§Ø¨
Ø¨ Ø§Ø¹
ĠÙħÛģÙħ ÙĨØ¯
ÙĪ ÛĮØª
ĠØ¹ Ø§Ø¬
ĠÚĨ ÙĪØ±ÙĪÚº
ĠÙĨÙĪ Ø´ÛĮ
ĠØ³ÛĮÙĨ ÙħØ§
ĠØ§ÙĨØŃØµ Ø§Ø±
Ø³Ù¹ÛĮ Ø¨ÙĦ
ĠÙģØ§ Ù¹Ø§
ĠØºØ±ÛĮØ¨ ÙĪÚº
ĠÙ¾Ú¾ÙĪÙĦ ÙĪÚº
Ø§Ø¯ Ú¯ÛĮ
ĠÙĪØ±Ú© ÙĨÚ¯
ĠØ¨Ø±Ø· Ø±Ùģ
ĠØ³ÙĨ Ûģ
ĠÙĤ Ø§Ø¦ÙĦ
Ø§ÛĮ Ø¦Ø±
ĠØ°ÛĮ Ø§Ø¨ÛĮØ·Ø³
ĠÚ©Ùħ Ø§
ĠØ´ÛģØ±ÛĮ Øª
ĠØ¬Ø° Ø¨
Ûģ Ø³Ù¾ØªØ§ÙĦ
Ù¹Ú¾ Ûģ
ĠØ¨Ø¯ÙĦ ÙĨÛĴ
Ú¯ ÙĦÛģ
ĠØ® Ø¶Ø¯Ø§Ø±
ĠØ¬Ùħ Ø§Ø¹
ĠØ¨ÚĳÚ¾ Ø§ÛĮØ§
ĠÙĦÙħ Ø¨ÛĮ
ĠÙĦÙħ ØŃÛģ
ĠÙħÛĮ Ø³
ÙĪÙĦ ÛĴ
ĠÙħØ§Ø± Ú©
ÙĪÙĨ ÙĪ
Ġ8 8
ĠØ§ÙĪÛĮ Ø³
Ø±Ûģ Ø§
ĠØ®Ø· ÙĪØ·
ĠØ§ÛĮÙħ Ø¨ÙĪÙĦ
ĠØªØ¨ÙĦÛĮ Øº
4 0
ĠØ³ Ø§ÙģÙ¹
ĠÙĦÙĪ Ø·
ĠÙħÛģ ÙĨÚ¯ÛĮ
ĠØ§Ú© ÙħÙĦ
ĠÚ©Ø§ÙĨ Ú¯Ø±ÛĮØ³
ĠÙ¾Ø±ÙĪÚ¯Ø±Ø§Ùħ Ø²
Ø´Ûģ Ø±ÛĮ
ÙĨÙĪ ÛĮØ±
ĠØ¨ØŃ ÛĮØ«ÛĮØª
ĠÙĨ Ø±ÛĮ
Ø§Ûģ Ø¨
ĠØ¨ÙĦ ÙĪ
ÙĦ ÙĨ
Ø§Ø³ Ø±
Ø´ Ø±ÛĮ
ĠÙĤ Ø§
ĠÚĪØ± ÙĪÙĨ
ĠØ³ ÙĪÛĮ
ÙĦÛĮ Ø³
ĠØ³Ùħ Ø±ÛĮ
ĠÚ©Ø±Ú© Ù¹Ø±Ø²
ĠÚĨ Ø§Ø¦
ĠØ¹ ÙĨÙĪØ§ÙĨ
ĠÙ¹ÛĮ Ø¨ÙĦ
ĠØ³Ø§Ø¦ÙĨØ³ Ø¯Ø§ÙĨÙĪÚº
ĠÚ©ÛĮ Ø¬Ø¦ÛĴ
Ø§Ø³ Ù¹ÛĮ
ĠØ³ Ø§Ø®
ĠØ´Ø± Ø¹ÛĮ
ĠØ¨Ø§Ø² ÙĪÚº
ĠØ®ÙĪÙģ ÙĨØ§Ú©
ĠØ²Ø§Ø¦ Ø±ÛĮÙĨ
ĠØ§Ø³ ÙĨØ§Ø¯
ĠÙħØ¶Ø¨ÙĪ Ø·ÛĮ
ĠÙģ Ø§Ø³
ĠÚĨÛĮÙĨ ÙĦØ²
ĠØªØ¯Ø§Ø± Ú©
a n
ĠÙ¾Ø± Ø¹Ø²Ùħ
Ø§Ø¶ ÙĦ
ĠØŃØ§Ø¯Ø« Ûģ
ĠØµÙĦ ØŃ
ĠØ§ÛĮ Ø§Ùħ
ĠÚ©Ø± ÙĦØ¦ÛĴ
ĠÙģ ÙĪÙ¹ÙĪ
Ġ201 1
ĠØ§Ú© ÙĨØ§Ùħ
Ø¯ ÛĮÚ©
ÚĪÛĮÙĪ Ø³Ø±
Ù¹ ÛĮÚ©Ø³
ÙĤ Øµ
ĠÚĪÛĮÙħ ÙĪÚ©Ø±ÛĮ
Ø· ÛĴ
ĠÚĪØ§Ø¦ Ø±ÛĮÚ©Ù¹
ĠØ§Ø³ÙħØ¨ÙĦÛĮ ÙĪÚº
ĠØ¶ Ø§Ø¨Ø·
ĠØªÙĤ ÙĪÛĮ
Ø§ÙĤ ÙĪØ§Ùħ
Ø¢ Ø¡
ĠØ§ÙĤ Ø¯Ø§Ø±
ĠÙħÙĤØ± Ø±ÛĮÙĨ
ĠØ³ÛĮÙĦ Ø²
ĠÙĨ Ø§Ø±ØªÚ¾
ĠØ§ ÚĳØ§
ĠÙĨØ´Ø±ÛĮ Ø§Øª
ØŃ ÛĴ
ĠØªØ¯ Ø¨ÛĮØ±
ĠØ³ Ø§Ú©
ĠØ´ ÙĤ
ĠØ§ÙĨØ¯Ø± ÙĪÙĨ
ĠÙħØ§ÙĨ Ø³ÛģØ±Ûģ
ĠØ¢Ø²Ø§Ø¯ Ø§ÙĨÛģ
ĠØ§Ú© Ù¹Ú¾Ø§
ÙĨÛĮ ÙĪ
Ø§Ùħ ÙĦÛģ
ĠØ§Ø³Ú© Ø±ÛĮÙĨ
ĠØ´Ø¬ Ø±Ú©Ø§Ø±ÛĮ
ĠØ§ÙĦ ÙħÙĨ
Ø¯Ø± ÙĨ
ĠÚĪÚ¾ Ø§Ø¦ÛĮ
ĠÙħ Ú©ÛĮ
ĠÚ©ÙĪØ§Ø± Ù¹Ø±Ø²
Ø¡ ÙħÛĮÚº
ĠØ§Ùħ ÙĦØ§Ú©
ĠÙĪÛĮ ÚĪÛĮÙĪØ²
ĠØµØ§ØŃØ¨ Ø²Ø§Ø¯
ĠØ¬Ú¾ÙĪÙ¹ Ø§
ĠØ§ÛĮÚ©Ø³ ÚĨÛĮÙĨØ¬
ĠØ±Ø®Øµ Øª
Ø§Ù¾ ÙĪØ±
ÙģØ§Ø± ÙĪÙĤ
ĠÚ¯ Ø¬Ø±Ø§Øª
ĠØ¨ÚĨ Øª
ĠÙ¾Úĳ ØªÛĮ
Ø³ Ø¯Ûģ
ĠØª Ø¬Ú¾
ĠØ¢ Ø³ÛĮÛģ
Ø¨ÛĮ Ø¬ÙĨÚ¯
ĠÙħØªØ¹ ÛĮÙĨ
ĠØ§ÙĨ Ø¬ÙĨ
ĠÚ¯Ø± Ø§Ø¦ÙĪÙĨÚĪ
ĠÙ¾ ÚĨÛĮØ³
ĠØ§ÙĨ Ø¯ÛĮ
ĠØ¬Ø§ÙĨ ÛĮÚº
ĠÙģØ± Ø§ÙĨØ³ÛĮØ³ÛĮ
ĠØ¸ Ø§ÛģØ±ÛĮ
ĠØ¨Ú¾ Ø±ÛĮ
ĠÙ¾Ø§Ø± ÙĦÛĮÙħØ§ÙĨ
ĠØ§ÙĨ Ùģ
ĠØ¨ÙĦ Ø§Ø´Ø¨Ûģ
ĠÚĨ Ø§Ú©
ĠÙħÙĪØ³ÙħÛĮ Ø§ØªÛĮ
ĠÙ¾ÙĪ ÛĮÙĦÛĮÙĨ
ĠÙĤØµ Ûģ
Ø¦ Ùħ
ĠØ¨ÛĮ Ù¹Ø³ÙħÛĮÙĨ
ĠØ¨ÚĨ ÙĨ
ĠØ§ÙĨ Ú©Ùħ
Ø¯ÙĪ Ø²
ĠØªÚ©ÙĨ ÛĮÚ©ÛĮ
2 00
ĠÙħØŃÚ© Ùħ
Ø¯ ÛĮØ§
Ø¨ Ø¹
Ø¢ ÛĮØª
ĠØ· Ø±
ĠØªØ³ Ø¨ÛĮØŃ
ÙĨÛĮ ÚĨØ±
Ø¨Ø± Ø§Ûģ
ĠÙħ Ø³Ø±Øª
ĠÙħØµ ÙĨÙģ
ĠØ§ÙĨØ¬ Ùħ
ĠØ¬Ø§Ø±ØŃ ÛĮØª
ĠØ³Ø§Ø¦ÙĨ Ø³ÛĮ
ĠØ§Ø´ÛĮ Ø§Ø¦ÛĴ
ĠÚ©Ø§Ø± ÙĨØ±
ĠÙħ Ø¯Ø±
ĠØµ ÛĮ
ĠÙħØ· Ø§ÙĦØ¨
ĠÙģÛģ ÛĮÙħ
ĠÙĨÙĪÙħ ÙĨØªØ®Ø¨
ĠÙ¾ÚĳÚ¾ ØªÛĴ
ĠØ§ÙĤÙĦÛĮ ØªÛĮ
ĠÚĪ ÙĪÛĮ
ĠØ±ÙĪ Ù¹ÛĮ
Ø§ÙħÛĮ ÙĪÚº
ĠØ§Ø¯Ø§Ú© Ø§Ø±ÙĪÚº
ĠØ±Ø¬Ø³Ù¹Ø± Ø§Ø±
ĠØ¨ÙĦØ¯ÛĮ Ø§ØªÛĮ
Ø³ÛĮ Ùģ
ĠÙĨÛĮ ÙĪÛĮØ§Ø±Ú©
Ø¬Ùħ Ø§Ø¹Øª
ĠÙ¾Ø±ÙĪÙ¹ ÙĪÚ©ÙĪÙĦ
Ø¬ Ø§ÙĪ
ĠÛģÙħ ÙĪØ§Ø±
ĠÚ©ÛĮÙħÛĮ Ø§Ø¦ÛĮ
Ø§ÙĦ ÙħÙĪÚº
Ø§Ùħ ÙĪØ´
ĠØ¨Ø§Ø² ÙĪ
ĠØ®ÙĪØ§Ûģ Ø§Úº
ĠØ±ÙģØª Ø§Ø±ÛĮ
ĠÙħÙĤØ§Ø¨ ÙĦ
ĠÙĪÙĤ Ø§Øµ
ĠÙħÙĪ Ù¹
ĠÚ¯ Ø§ÙĦÛģ
ÚĪ ÙĨÙ¹
ĠÚ©ÙĪ Ø¢Ø±
Ø®ÙĪ Ù¾ÙĪØ±Ûģ
ĠØªØ¨Øµ Ø±Ûģ
Ùħ Ø±Ú©
ĠØ³ÙĪ ÙĦÛģ
ĠØ¢Ø¬ Ø§Ø¦ÛĮÚº
ĠØ§Ù¹Ú¾ Ø§ÙĨØ§
Ġ D
ĠØ¬ÛĮÚ© Ø¨
Ø² Ø¯Ûģ
ĠØ¢Ø±Ú¯ÙĨ Ø§Ø¦Ø²ÛĮØ´ÙĨ
Ùħ Ø±ÛĮÙħ
ĠØŃÚ©ÙĪÙħØª ÛĮÚº
ĠÙģÙ¹ ÙĨØ³
ÙĪ Ø¬Ûģ
ĠÛģ ÙĨ
ĠØ¯ Ø§Ø¦ÛĮÚº
ĠØ¨Ú¾ Ø§
ĠØ´Ùģ Ø§Ø¹Øª
Ø§ ÛĮÙĨÚĪ
ĠØ¯Ùģ ÙĨ
Ø§Ø± Ø¶
Ø¸ ÛĮ
ĠØ§Øº ÙĪØ§
ĠÙħÙĦØ§Ø¦ÛĮ Ø´ÛĮØ§
ĠØªÙĪ ÙģÛĮÙĤ
ĠØ§Ùħ ÙĪØ§Øª
Ø¨ ÚĨÙĪÚº
ĠØ¢ ÚĨ
ĠØ¬Ø§Ùħ Ø¹Ø§Øª
ĠÙ¾Ø±ÙĪ ÙģÛĮ
ĠØ¨ÙĪ Ø§Ø¦Ø²
Ġ M
Øµ Ø§ØŃØ¨
ĠØ§Ø®Ø¨Ø§Ø± Ø§Øª
ĠÚ©Ø±ÙĨÛĮ ÙĪØ§ÙĦÛĴ
ĠØ³ÛĮØ§ØŃ ØªÛĮ
ĠÛ±Û´Û ±Û
Ø±ÙĪ Ø¨
Ú©Ø§ ÚĳÛģ
ĠØ¨ÚĨ Ø§Ø¤
ĠØ¨ÙĨØ¯ Ú¯ÛĮ
Ø±ÛĮ ÙĤÛĮ
ĠÙ¾Úĳ Ú¾ÛĮ
ĠØ§Ù¹Ú¾ Ø§Ø¦ÛĮ
ÚĨ Ø§Ûģ
ĠØ¨ÙĦ ÙĪØ±
Ø§ÛĮ Ø³ÙĪ
ĠØ³Ø¹ ÙĪØ¯
Ø± Ø§Ú©
Ø¬ÙĨ ÙĪØ¨ÛĮ
ĠÙħØ§Ø± Ù¹Ùħ
ĠØºÙģ ÙĪØ±
ĠÙģØ§Øµ ÙĦÛĴ
ÙĪØ§ÙĨ ÛĮÙĨ
ĠØª Ø²
ÚĪ Ø±Ø²
ĠØ¨ÙĨ ÙĨØ§
Ù¾ÛĮ Ú¯
ĠØ¨ÛĮÙ¹Ú¾ ÙĨÛĴ
ĠÛģØ§ ÙĪØ³
ĠÙħ Ø±ÙĪØª
ĠÙ¾Ø± Øª
ĠØ³ ÛĮØ±Øª
ÙħØ± Ø§Ø¯
ĠØ§ ÚĨÚ¾
ĠØªÙĨ ÛģØ§
ĠØ¬Ú¾ Ù¹ÙĦ
ĠØ¬Ú¾ ÙĪÙ¹ÛĮ
ĠÙĤØ· Ø±
ĠÙħØ¤ Ø«Ø±
Ø¨ ÙĪØ³
Ø® Ûģ
ĠÙħÛĮÙĨ Ø²
ĠØ¯Ø§Ø¯ ÙĪÚº
Ø¯ÛĮ Ú¯Ø±
ĠØªØ´ Ø±ÛĮÙģ
ï ·º
ĠÙ¾Ø± Ø³
ĠÙĦÙĪÚ¯ ÙĪ
ĠØ³Ø¨ Ø³
ĠØ¹Ø¨Ø¯Ø§ÙĦ Ø±Ø²Ø§ÙĤ
ĠÙĦÙĨ Ú©
Ø§ÙĨ Ø¬
ĠÚ©Ø§ Ù¾ÛĮ
Ġ8 7
ĠØ§ÚĨ Ú©Ø²Ø¦ÛĮ
ĠÛģ Ø¯
ĠØ´ÛģØ±ÛĮ Ø§Ø±
ĠÙĦØ§Ø¦ Ùģ
ĠØ§ÙĨ Ú¯Ø±ÛĮØ²ÛĮ
Ø§Ø¦Ø¯ ÛĮÙĨ
Ø¢Ù¾ Ø±ÛĮØ´ÙĨ
ĠÙħØ· Ø§
ĠÙħØ± Øº
ĠÙĨ Ú¯Ûģ
ĠØ¯ ÙĦØ§
ĠÛģÛĮÚº Ø§ÙĪØ±
ĠØ³ÙĨ Ø§ØªÛĴ
Ø¯ Ø§ÙĨÛĮ
ĠÙħÛģ ÛĮÙĨÛģ
Ù¾ÛĮ Ø¦ÙĨ
ĠÙħÛĮ Ù¹Ø±ÙĪ
ĠÙģ Ú©Ø³
ĠØ³ ØŃØ±
Ø§ÙĦ Ø¯ÛĮÙĨ
ÙħØª Ø§Ø«
ĠØ§ÙĨÚĪ Ø³Ù¹Ø±ÛĮÙĦ
ĠÙĪ Ø§Ø´
ĠÚĨ Ù¹
ĠØ¨Ø± ÙĤÛĮ
Ø¨ Ø§Ø±ÛĮ
ĠÙ¾ÙĪ ÚĨÚ¾ÛĴ
ĠØ§Ø³ÙĦØ§Ùħ ÛĮÛģ
ĠØ¨ÛĮ ÙĪ
ĠÙħØ³ ÙħØ§Ø±
ĠØ® Ø§Úº
ĠÚ¯Ú¾ ÙĪÙħ
ÙħÙĤ Ø¨ÙĪØ¶Ûģ
ĠØ® Ø³Ø±Ûģ
Ú© Ø§Ø¨
Ø§Ø¦ Ø±Ùħ
ĠÙ¾ÛĮ Ù¾Ø±Ø²
ĠÙģÛģ ÙħÛĮ
ĠÙħØ´Ø±ÙĪ Ø·
ÙĪ Ø§Ù¾
ĠØ« ÙĨØ§
ĠØ§ ÚĪÛĮØ§ÙĦÛģ
ĠØŃ Ø§
ĠØª Ø¯Ø±ÛĮ
Ġ6 9
ÛģÙĪ Ø¦ÛĴ
Ø´ÛĮØ¯ Ûģ
ĠØ¬Ø±Ùħ Ø§ÙĨÛģ
ĠÙģÛĮ ÚĨØ±
ĠÙħÙĪ Ø²
ĠØ³Ú©ÛĮ ÙħÙĪÚº
ĠØ§Ø³Ù¾ØªØ§ÙĦ ÙĪÚº
ĠÙħØ§ÙĨÚ¯ ÙĨÛĴ
ĠÙħÙĨÙĤ Ø·Ø¹
ĠØ± Ø§ÛģØ¯Ø§Ø±ÛĮ
ĠØªÚ¾ ÙĪÚĳØ§
Ø§Ø¤ÙĨ ÚĪÛĮØ´ÙĨ
ĠØ¢ ÙĨØ³ÙĪ
ÙĤ ÙĪØ§ÙĨÛĮÙĨ
ĠÚ¯ ÙĪØ±
ĠØ¹ Ø§Ø¯ÛĮ
ĠÙģ ÙĨÛĮ
ĠÙħØ§Ø±Ú©ÛĮÙ¹ ÙĪÚº
ĠÙ¾ Ø§Ø¦Ù¾
ĠØ¬ÙĦ Ø³Ûģ
ĠÚ©ÙĪÙ¹ ÙĦÛĮ
ĠØ³ Ø³Øª
ĠØ¯Ú©Ø§ÙĨ Ø¯Ø§Ø±ÙĪÚº
ĠÙħØ³Øª ÙĪÙĨÚ¯
ĠÙħÙĦØŃ ÙĤÛģ
ĠÙĦ ÙħÛĮÙ¹ÚĪ
Ø§Ø² Ùħ
ĠØ³ Ù¹Ø±ÛĮÙ¹
ÛĮØ± ÙĪÚº
ĠØ¨Ø±ÛĮÚ¯ÛĮ ÚĪ
ĠÙĨÙħØ§Ø¦ÙĨØ¯ Ú¯Ø§ÙĨ
ĠÚ©Ûģ ØªÛĮ
ĠÚĪÛĮ ÚĪ
ĠÛģÙħ Ûģ
Ø³ ØªÛĴ
ĠØ¢Ø¦ Ø³
ÚĪ ÙĨÛĮ
ĠÙĨØ§Ùħ ÙħÚ©ÙĨ
ĠØªÙĨØ§Ø² Ø¹
ĠØ³ÙĪ Ø§Ø±ÛĮ
Ø§Ù¾ Ø§
ĠØ¨Ø§Ú© Ø³
ĠÚ© Ø§Ø¬
ĠÚ©ÛĮ Ù¹ÛĮ
Ø¬ ÙĨÙ¹
Ø¨Ø¹Ø¯ Ø§Ø²Ø§Úº
ĠØŃ ÙĨ
ĠØ§Ø´ Ø¯
ĠÚĨ ÛĮØ±
ĠÙĤØ· Ø±ÛĮ
ÙħÙĤ Ø¯Ùħ
Ø§ÙĦ ØŃÙĤ
ĠØ§ÙĨØ³Ù¹ÛĮ Ù¹ÛĮÙĪÙ¹
ĠØ¨ Ø§Ø¦ÛĮÚº
ĠØ³Ú© ÙĪØ§ÚĪ
ĠØº Ø¶Ø¨
ĠØ§ÙĨÛģ ÙĪ
ĠØ¬Ú¾ Ú©
Ġ14 4
ĠØ§ÙĨ Ù¹Ø±ÛĮ
ĠØ¢Ø³Ù¹Ø±ÛĮÙĦ ÙĪÛĮ
ÙħÙĨ ØµÙĪØ¨ÛĴ
Ú©Ø§Ø± Ú©ÙĨ
ĠØ¨ÙĪ ÙĦØ§
ĠÚ©Ø« Ø±Øª
ĠØ´ Ø§Ø®
ĠÙħÙĦ Ø§ØŃ
Ø±ØŃ Ø§ÙĦ
ĠØ¯ÛĮÚ©Ú¾ ØªØ§
Ø¬Ø§ÙĪ ÛĮØ¯
\ &
ĠÚĨ Ø§Ø¯Ø±
Ù¹ ÛĮÚ©ÙĦ
ĠÚ¯ÙĦ Ø²Ø§Ø±
ĠØ¬ÙĪÙĨÛĮ Ø¦Ø±
Ø³Ùħ Ø§Ø¹Øª
Ø¯ÙĪØ± Ø§ÙĨ
ĠÙħØŃ Ø§ÙģØ¸
ĠÛ ·
Ġ201 0
ÙĦ Ø§ÙĨÛĴ
Ùħ Ø·ÙĦØ¨
ĠØªÙģ Ø±ÛĮÙĤ
ĠØ¹ÙĨØ¯ ÛĮÛģ
ĠØªØ¨Ø¯ÛĮÙĦÛĮ ÙĪÚº
Ø§ÛĮÙħ Ø§ÙĨ
ĠÙħØ¬Ø³Ù¹Ø±ÛĮ Ù¹
ĠØ¨ÛĮÙ¹Ú¾ Ø§
Ø§Ø¦Ø±Ùħ ÙĨÙ¹
ĠØ¨Ûģ Ø§Ø±
ĠÚ©Ø§ÙĦ Ø§
ĠÙħØ´ Ø§ÛģØ¯Ûģ
ĠØ²ÙĨØ¯Ú¯ÛĮ ÙĪÚº
Ø§Øº Ø¨
ĠØ§ ÙĪÙħ
ĠØ¯Ûģ Ø§Ø¦ÛĮÙĪÚº
ĠÙĤØ¨ Ø§Ø¦ÙĦ
Ġ B
ĠØ¹ÛĮ Ø³
ĠÙ¾Ú© ÚĳÛĴ
ĠØ¹ÙĤ Ø§Ø¦Ø¯
ĠÙ¾ÛĮØ´ Ø±ÙģØª
ĠÚ©Ú¾ÛĮÙĦ ØªÛĴ
ĠØ¨ÚĨ Ø§ÛĮØ§
ĠØ¨ ÛĮØ¯Ø§Ø±
ÛĮÙħ Ø²
ĠØ§Ø´ØªÛģØ§Ø± Ø§Øª
ĠÚĪØ± Ø§ÙħÛĴ
4 7
Ø¨ Ø±Ø¯
ĠØ¹ÙĦÙħ ÙĪÚº
ĠØ¨Ø§ ÚĪÛĮ
ĠÙģ ÙĤÛģ
ĠÙĦÙĨ Ú©ÙĨ
ĠØ¬ ØªÙĪ
Ûģ ÙĪØ§
ĠØ³Ø±Ù¹ÛĮÙģ Ú©ÛĮÙ¹
ĠØ§ÙĦ Ø§ÙĨ
ĠÙ¾ÙĪ Ø´ÛĮØ¯Ûģ
ĠÙģÙĦ ÙħÛĮ
ĠØ³Ø±Ùģ ÛģØ±Ø³Øª
ĠØ´Ø§ÛģØ± Ø§ÛģÙĪÚº
Ø§ÛĮØ³ÙĪ Ø³ÛĮ
ĠØ² ÙħØ¨Ø§Ø¨ÙĪÛĴ
Ø±ÛĮØ³ Ú©ÛĮÙĪ
ĠØ³ÚĨ Ø§Ø¦ÛĮ
ĠØ§Ú©Ø§Ø¦ÙĪÙĨ Ù¹Ø³
ĠØ¯Ø§Ùħ Ø§Ø¯
ĠÙħØ·Ø§ÙĦ Ø¹Ûģ
ĠØ³Ù¹ÛĮ ÚĪÛĮÙħ
ĠØ¯ÙħØ§Øº ÛĮ
ĠÛģ Ø§Ø¦ÛĴ
ĠÙ¾Ø± ÙĨÙ¹
ĠØ· Ø§ÙĤ
ĠÙ¾ÚĳÚ¾ ÛĴ
Ø¯ÙĦ Ø§ÙĦ
ĠØ§Ø¨ Ø§Øª
ĠÛĮØ§Ø¯ Ú¯Ø§Ø±
ĠÙħØ´ Øº
ĠØ¹Ø¨ ÙĪØ±ÛĮ
ĠÙħØ® Ø¯ÙĪÙħ
ĠÙħØ¹Ø§Ø´ Ø±ØªÛĮ
Ø¹Ø¯ Ø§ÙĦ
Ù¾Ûģ ÙĦÛĮ
ĠÙ¾Ø±ÙĪ Ù¾ÛĮÚ¯
ĠØªÙĨØ®ÙĪØ§Ûģ ÛĮÚº
ĠØª Ø¬Ú¾ÛĴ
ĠØ¸ Ø§ÙĦÙħÙĪÚº
ĠØ¢ Ø±Ø²
ĠÙħØµ Ø¯
ĠØ±Ú©Ø§ÙĪÙ¹ ÛĮÚº
ĠØ§ÛĮØ´ÛĮ Ø§Ø¡
ĠÚ¯ Ø§ÛģÙĪÚº
ÙħÙĦ Ú©ÛĮ
Ùħ Ø³ÙĦÙħØ§ÙĨ
ĠÙĨÙĤ Ø´
ĠØ¬Ø±Ùħ ÙĨÛĮ
ĠÙħØ¯ ÙħÙĤØ§Ø¨ÙĦ
ĠÛģÙĦØ§Ú© ØªÙĪÚº
Ùģ Ø§Ø¦ÙĨ
Ù¾ Ø§ÙĨÛĮ
Ø¬ Ø±Ø²
ĠÙĦ Ø§Ø¡
ĠØµ Ø§Ø¨Ø±
ĠØ¨Ú¾Ø¬ÙĪ Ø§
ĠÚ¯ Ø´Øª
ĠØ±Ú©ÙĨÛĮ Øª
ĠÙħ Ù¹Ú¾
Ù¾ Ú©ÙĪ
ĠØ² Ø¦ÛĮ
ĠØ§ÛĮÙħØ¨ÙĪÙĦ ÛĮÙĨØ³
Ùħ Ø±ÛĮ
ĠØ¯Ùģ Ø¹Ø§Øª
ĠØ¨Ø´ ÙħÙĪÙĦ
ĠØ´Ø¬ Ø§Ø¹Øª
ĠÚ©Ø§Ø± ÚĪØ²
ĠÚ©Ø§ Ù¹ÙĨÛĴ
Ø¢ Ø³Ù¹Ø±ÛĮÙĦ
ĠØ¨Ø¯ ÙĨØ§Ùħ
ĠØ¯ÙĦ Ø§Ø¦ÛĮ
Ø§Øº ÛĮ
ĠÚĨÚ¾ Úĳ
ĠÙ¾ÛĮØº Ø§ÙħØ§Øª
ĠÚĪÚ¾ ÙĪÙĨÚĪ
ĠØ§ÙĦ ÙħØ¨Ø§Ø±Ú©
ÙĪ ÙĪ
ĠÙħØ· ÙĦØ¹
ĠØ¹ Ú©
ĠØ±ÛĮ Ù¾
ĠØ§Ø³Øª ÙĪØ§Ø±
ĠØªØ¬Ø±Ø¨ ÛĴ
Ø§Ú© ÙĪÙ¹
Ø±ÛĮÙĦ ÙĪÛĴ
ĠØ¯Ø±ÛĮ Øº
Ø¯ ÙħØª
ÙĦÛĮÙģ Ûģ
ĠØ¬Ø§ÛģÙĦÛĮ Øª
ĠÙĨ ÛĮÙħ
Ø§Ø± ÛĮØ±
Øµ Ø§Ø±Ùģ
ĠÙĨØ´Ø³Øª ÛĮÚº
ĠØ¨ ØªÙĪÚº
ĠÙģØ§Ø±ÙĪ ÙĤÛĮ
ĠØ´Ùħ Ø³
ĠÙ¹Ø±Ø§ÙĨ Ø²
ĠÚ©Ø±ÛĮ ÚĪÙ¹
ĠÚ©ÙĦÛĮ Ø¦Ø±
Øª Ø¨Ûģ
Ø´ Ø±ÛĮÙģ
ĠØ¯ÛĮ Ø¬Ø¦ÛĴ
Ø§ÙĦ Ø³
ĠØ±ÙĤ Ø¨Ûģ
ĠØ¬Ú¾Ú¯ ÚĳÛĴ
ĠÙ¹ Ø§Ø¦ÛĮ
ÙĦÙĪ Ûĥ
ĠØªÛģ Ø°ÛĮØ¨
Ùħ ÙĤØ±
Ø³ Ø§ØªÚ¾
ĠÚ¯Ø±Ø¯ ÙĨ
ĠØ¨Ø§Ú© Ø³Ø±
ĠØ® Ø´
ĠÙħØ°Ùħ ÙĪÙħ
ĠÙħØŃØª Ø§Ø¬
ĠÚ¾ ÙĪ
ĠØ¹ÙĦØ§Ùħ Ø§Øª
ĠØªÙĪÚĳ ÙĨÛĴ
ĠÙ¾ÙĦØ§ÙĨ Ù¹Ø³
Ø¯ Ú¾ÛĮ
ĠØ§ÛĮ Ø´
ĠØ¹Ùħ Ø§Ø¦Ø¯ÛĮÙĨ
ÙĪ Ø®
ĠÙ¾Ú¾ Ù¹
Ú©ÛĮÙ¾ Ù¹ÙĨ
3 5
ĠÙ¾Ø§Ø³ Ø¯Ø§Ø±ÛĮ
ĠÛĮÙĪ Ø³ÛĮ
ĠØ³Ù¹ ÙĪØ±
ĠÙĦ Ø§Ø¦Ø¨
ĠÙĪ Ø§Ûģ
Ø§Ø¨ ÛĮØ±
Ø§Ú© ÙĪÚº
Ú©Ú¾ ÙĦØ§
ĠØ¬Ú¾ ÚĳÙ¾
ĠØ§ÙĨÚĪ ÛĴ
ĠØŃØ± ÙħØª
ĠØ§ÙĨÚ©Ø´Ø§Ùģ Ø§Øª
ĠÚĨØ§ÙĨ Ø¯ÛĮ
ĠØªÛĮÙħ ÙĪØ±
Ø¬ ÙħÙĪÚº
Ú¯ÙĦ Ú¯Øª
Ø¢Ø²Ø§Ø¯ Ú©Ø´ÙħÛĮØ±
ĠØ§Ø³Øª Ø¯ÙĦØ§ÙĦ
ÙĨ Ø§Ø¦ÛĮ
ĠÚĪÙĪ Ú¯Ø±
ĠØ± Ø§Ú©
ĠÙĨ Ú¯Ø§Ø±
ÙħÙĨ Ûģ
ĠÛĮÙĪÙĨÛĮÙĪØ±Ø³Ù¹ÛĮ ÙĪÚº
ÙģÙĪØ¬ÛĮ ÙĪÚº
Ù¹ÛĮ ÙĪÙĦ
ĠØ§Ùģ Ø±ÛĮÙĤÛĮ
ĠÚ¯ÙĪ Ú¯ÙĦ
ĠÙħØ¸Ø§ÛģØ± ÙĪÚº
Ø¨ Ø¬
ĠÙ¾Ø± Ø§Ø¦Ø³
ĠØ¨Ø§ÙĦ Ø§Ø¯
ĠÙ¾ÛĮØ± Ø³
ĠÚĨÙĦØ§ ÛĮØ§
ĠÙħ Ø¬ÙĪ
ĠØ³ Ø¯
ĠÙ¾Ûģ Ø§ÚĳÛĮ
ĠØ§ÛĮÙħ ÙĨØ³Ù¹ÛĮ
ĠÚĪØ§Ø¦Ø±ÛĮÚ©Ù¹Ø± Ø²
ĠØ¬Ø§Ù¾ Ø§ÙĨÛĮ
ĠÙ¾Ø±ÙĪ ÚĪÛĮÙĪØ³Ø±
Ú© ØªØ§Ø¨
ĠØ§Ø¯ Ø¨ÛĮ
ĠØ·Ø¨ ÙĤØ§Øª
ĠØ§ÙĨÚĪÙĪÙĨÛĮ Ø´ÛĮØ§
ĠØ¹ Ø§
ĠØ´ Ø§Ø±Ù¹
ĠÚĨ Ú©ÙĨ
ĠÚĪ Ù¾
ĠØ³Ø² Ø§Ø¦ÛĮÚº
Ùħ Ø§ÙĨÛĮ
ĠÙģØ±Ùħ Ø§Ø¦ÛĮÚº
Ġ m
ĠØ¶ ÙĪØ§Ø¨Ø·
ĠÙĨØµ Ø§Ø¨
ĠØ±Ø¶ Ø§Ú©
ĠÚ©ÙĪÙĨØ³ÙĦ Ø±
ĠÙģÛĮØ³ Ù¹ÛĮÙĪÙĦ
ĠÙĤÙĪØª ÛĮÚº
ĠØ§ÛĮØ¬ Ø§Ø¯
ĠÙģ Ø§Ø¤ÙĨÚĪÛĮØ´ÙĨ
ÙģØ±ÙĪ Ø´ÙĪÚº
ĠØ°ÛĮ Ø´Ø§ÙĨ
ĠØ§Ø³Ù¹ÛĮ Ø¨ÙĦØ´ÙħÙĨÙ¹
Ø¢ ÙĨÛĴ
ÚĨÛĮÙħ Ø¨Ø±
ĠÙ¾Ø±ÙĪÙģÛĮ Ø´ÙĨÙĦ
ĠÚ©Ùħ Ø§Ø¦ÛĮ
Ø±ÛĮ Ø§Ø³Øª
ØªØ± ØªÛĮØ¨
Ø³ÙĪ Ø´ÙĦ
ĠÚ©ØªØ§Ø¨ ÛĮÚº
ĠÙ¾ÚĨÚ¾ ÙĦÛĮ
ĠØ³ÛĮÙĦ Ø§Ø¨
ĠÙħÙĪØ§ØµÙĦ Ø§Øª
ĠÙħØ·Ø§ÙĦØ¨ ÛĴ
ĠÙħÛģ ÙĨÚ¯Ø§
ĠÙħÚ©Ø§ÙĨ Ø§Øª
ĠÙħ ÛĮÚ©Ø³
Ø¹ ÛĮØ¯
ĠØ¢Ù¾Ø±ÛĮ Ù¹ÙĨÚ¯
Ø¬ Øª
ĠØ¢ ÙĪÛĮØ²
ĠÚ©Ú¾ÛĮ Øª
ĠÙĨÙĪÙ¹Ø³ Ø²
Ø³Ø¹ ÛĮØ¯
ĠÙ¹Ø±ÛĮÙĦ Ø±
ĠØ¨ ÙĪØ±ÛĮ
Ø§Øª Ø¨
ĠÙĦØ§ Ú¯ÙĪ
ĠÛģÙĪ ÙĨÚ¯ÛĮ
Ø±Ø¯ Ûģ
ĠÙĪÛģ Ø§Ø¨
ĠÙĦÛĮ ÚĪÛĮ
ĠÙħØ¯ Ø¹ÙĪ
ÙħØ¸ Ø§ÛģØ±ÛĮÙĨ
ĠÙħÙĦ Ø¨ÙĪØ³
Ø§Ø±Ûģ ÛĮ
ĠØ§Øª Ø¨Ø§Ø¹
ĠØ¢ÙģÛĮØ³Ø± Ø§ÙĨ
ĠÚĪÛĮÙĪ ÚĪ
ĠÙ¹ Ø§Ø³
ĠÚ©ÙĪØ§ÙĦÛĮÙģ Ø§Ø¦ÛĮ
Ø±Ú© Ø±
ĠØ¯Ø§Ø¯ Ø§
ĠØ§ÙĪÙĪØ± Ø³ÛĮØ²
ĠÙħØ¹Ø¯ ÙĨÛĮ
Ġ' '
ĠÙħ Ø§Ø¬Ûģ
ĠØ¹Ùħ ÙĪÙħØ§
ĠØ¢ÙģÛĮ Ø´ÙĦ
ĠØ³ Ø§Ø¦ÙĦ
Ø§Ø¯ ÛĮÚº
Ø¨ÛĮ Ø´Ú©
Ø³Ø¨ Ø²
ĠØ³ÙĪÙħ Ø±ÙĪ
ĠÚĨÙĦ ÛĮÚº
ĠØªØ¯ Ø§Ø¨ÛĮØ±
ĠÚĨÚ¾Ù¾ Ø§
ÙĤ Ø§Ø¦Ùħ
ĠÙĪÙĤ Ùģ
ĠØ³ÚĳÚ© ÛĮÚº
ĠØ¨Ø² Ø¯Ø§Ø±
ÙĪ ÚĪ
ĠÙħ ÛĮÙħ
ĠÙĪØ§ÙĦ ÙĪ
Ú©Ø± ØªÛĴ
Ø³Ùħ Ø§Ø¬ÛĮ
ĠÙħØŃ Ø§Øµ
ĠØ¨Ú¾ ØªÛģ
ĠØ¬ Ø²Ø§
ĠØ§ÛĮ Ù¾ÙĦ
ĠØ³Ø¨Ø³ ÚĪÛĮ
ÙĨÚ¯ Ø±Ø§ÙĨ
ĠÙĦÚ©Ú¾ ÙĨÛĴ
ĠÙħÛģØ±Ø¨ Ø§ÙĨ
ĠØ¯ Ø¦ÛĴ
ĠÚ©ÙĦ Ø±
ĠÚ¯Ú¾ Ø³
ĠØ³Ø§Ø¦ Ø¨Ø±
Ø´ Ø±ÙĪØ¹
ØŃ Ø§ÙģØ¸
ĠØ¯Ø±ÙħÛĮ Ø§ÙĨÛĮ
ĠØŃØ§Ú© Ùħ
ĠÚ¯Ø° Ø±
ÙĪ Ø¸
ĠÙĨ Ø§Ø¯Ø±
a t
ĠÙĪ ÛĮÙħ
ĠØ¨ÛĮ ÙĪØ±
ĠÚ¯ÙĦ Ø´ÙĨ
ĠÙĨÚ©Ø§ÙĦ ÛĴ
ĠÚĪÛĮÙĪ Ø§Ø¦Ø³
ĠÙħØ« ÙĦ
Ø³Øª Ø§Ø±
ĠÚ©Ú¾Ø± Ø¨
ĠØ§Ø±Øª Ú©Ø§Ø¨
Ú© Ø§ÙħÛĮ
Ġ200 8
ĠÛģØ§Ø¦ÛĮ ÚĪ
ĠØ¹ ÙĦÙĪÙħ
ĠØªÙĦ Ø®
ĠØ§ÙĦÛĮÚ©Ù¹Ø± Ø§ÙĨÚ©
ĠÙĨØ¸ Ùħ
ĠØ¹ÙĦ ÙħÛĮ
ÙĦ ÙĨÚ¯
ĠÛģÛĮÙĦ ÙħÙ¹
ĠØªØ± Ø§Ùħ
ĠÙĨ Ø§Ø¨
Ø±ÙĪ Ù¹
ĠØ§ÙĨÙģØ± Ø§Ø³Ù¹Ø±Ú©ÚĨØ±
ĠØ¨ Ø§Ø®
ĠÚĨØ§ÙĨ ÚĪÛĮÙĪ
ĠØ²ÛĮ Ø§Ø±Øª
ĠÚ©ÙĦ ÛĮÙĨÚ©
ĠØ§ÙĦ Ø§Ø³ÙĦØ§Ùħ
Ø§Ø² ÙĪÚº
ĠÙģØµ ÙĦÙĪÚº
ĠÙĨÚ©ÙĦ ÛĮÚº
ĠÚ©ÙĨÙ¹ Ø±ÛĮÚ©Ù¹
ĠÙģØ± Ø§ÚĪ
Ġ8 4
ĠÙĤ Øª
ĠÚĨÚ¾ Ø§ÙĨ
ĠÙĨ Ø§ÙĦÙĪÚº
Ø§Ø¯ Ø§
ĠÙģÛĮ Ø´ÙĨ
ÙħØ§ Ù¹Ø±
ĠØ¹Ø² Ø§Ø¦Ùħ
ĠØ§ÙĪØ¨ Ø§ÙħØ§
ĠØ§Ø³Øª ØŃØµ
Ù¾Ø±ÙĪ ÙģÛĮØ³Ø±
ĠÙ¹Ú¾Ú© Ø§ÙĨÛĴ
ĠÚĨÛĮ Ø®
ĠØ§ÙĦ Ø§Ø¦ÙĨØ³
Ġ6 1
ĠØ®Ø§ÙĨ ÙĪÚº
Ø ĵ
ĠÛ±Û °Û
ĠØ¬ Ø±Ø§Øª
ĠØ§Ø¯ Ø±Ø§Ú©
ĠØ§Øµ ÙĦÛĮ
Ùħ Ø§Ø³
ĠØ¹ÙĨØ§ ÛĮØª
Ù¾ÙĨ Ø±
ĠÚ©Ø§Ø±ÙĪØ§Ø¦ÛĮ ÙĪÚº
ĠØ± Ú¯
ÙĪØ³ Ù¹ÛĮ
Ġ8 6
ĠÚ©ÛĮÙħØ± ÙĪÚº
ĠØ§ÛĮÚ© Ø³Ù¾ÙĪØ±Ù¹
ĠÙģØ± ÙĨÛĮÚĨØ±
ĠÙĪØ· Ø§ÙĦØ¨Ø§Øª
ĠØ³ÙĪÙĨ Ø§
Ú¯ÙĪØ±ÙĨ Ø±
ĠØ¯ Ú¾ÛĮ
ĠØ± Ø§ØºØ¨
ÙĦÛĮÙħ ÙĨÙ¹
ĠÚ©Ø§ÙĨ Ú¯
Ø¹Ø§Ùħ Ø±
ĠÚ© ÙĨØ¯
ĠØ³ ÚĨØ§
ÙĤ Ø§Ø¨
Ø¹ÛĮ Ùģ
ĠØ¨Ø§ÙĦØ§Ø¯ Ø³ØªÛĮ
ĠÙ¹ÛĮ ÙĪØ¨
ĠØ¯Ûģ Ø±
ĠÚ©Ø§Ø±ÙĪ Ø§Ø¦ÛĮØ§Úº
ĠÙĤ ÙĪÛĮ
ĠÙĦÛĮ Ù¾
ĠØ§ÛĮØ¦Ø± ÙĦØ§Ø¦ÙĨ
ĠØ±ÙĪÙĨ Ø¯
ĠÙĨ Ø§Ø¦ÙĨ
ĠÙ¾ Ø§ØªÛĴ
ÙĪØ± ÙĦÚĪ
ĠØ¨ÛĮ Ù¹Ø±ÛĮ
ĠÙĨØµ Ø§Ø±ÛĮ
ĠØ²ÛĮ ÙĪØ±Ø§Øª
ĠØ¯ÙĦÛģ ÙĨ
Ø¨ Ø§ØŃ
Ø±ÙĪ ØŃ
ĠØ§ÙĦØ¹Ø²ÛĮØ² ÛĮÛģ
9 9
ĠØ§ÙĦØŃ Ø±Ø§Ùħ
ĠØ¹Ø± Ø§ÙĤ
ĠØ¬Ø± ÙĨÙĦ
ĠØ¨Ûģ Ø§
ĠØ§ÙĦÙģ ÙĪØ±
ĠØ³ÙĨÙ¹ Ø±ÙĦ
ĠØ¯Ø¨ Ø§
ĠÚ¯ ÚĪ
ĠØ¨Ú¾ ÚĳÚ©
Øª Ø§ÙĦÛĮØ³
ĠÚ©ÛĮ Ø¦Ø±
ĠÛĮ Ø¯
ĠÙħØ¯ Ø¹ÛĮ
ÙĨÚĪ Ûģ
ĠØ§Ø° ÛĮØª
ĠÙħ Ø§Ø¯Ûģ
ĠÙĨ Øº
ĠÙģØ± Ø§ÙħÙĪØ´
ĠÚĨÙĪÙ¾ ÚĳØ§
ĠÚĪ ÙĪÙĦ
Ø¯Ø± Ûģ
ĠÙĤÙĦ Ø§Øª
ĠØ¨Ø±Ø§Ø¯ Ø±Ø§ÙĨ
ĠÙĪØ§ Ú¯Ø²Ø§Ø±
ĠØ¢ Úĳ
ĠÙģ ÛĮØ±ÙĪØ²
ĠÚ¯Ø± Ø¬
ĠÙ¾ÛĮ Ø§Ø²
Ú©Ú¾ ÛĴ
ĠØ´Ú© ÙĨÛĮ
ĠÙĦÙĪØ¯ Ú¾ÛĮ
ÚĪ ÛĮØ±Ûģ
ĠØ° ÙĦØª
ĠØªÙĤ Ø§Ø±ÛĮØ±
ĠØ§ÙĨØ¬ÛĮÙĨØ¦Ø± Ø²
ĠÙ¾ÙĨ Ø´ÙĨ
ĠØ¬ÙĪ Ø¦ÛĮ
ĠÙ¾Ø§Ú© ÛĮ
ĠØª Ø¶
ĠÙģ ØŃ
Ù¾Ø±ÙĪ Ú¯Ø±Ø§Ùħ
ĠØªØ¹ Ø§ÙĤØ¨
ĠØ²Ùħ ÛĮÙĨÛĮ
ĠØ³Ù¾Ø±ÙĨÙ¹ ÙĨÚĪÙĨÙ¹
ÙĨ Ø¸Ø§Ùħ
Ø§ÙĨ Ú¯ÛĮ
Ø±ÙĪ Ø´
Ø§ÙĨÚĪ Ø³Ù¹Ø±ÛĮ
ĠÛģØªÚ¾ Ú©ÙĨ
ĠÚ¯Ú¾ Úĳ
ĠÙ¾Ø±ÙĪÚ¯Ø±Ø§Ùħ ÙĪÚº
Ú¯ ÚĳÚ¾
ĠØ¨ Ú©Ø±
ÛĮ Ø§Ø¬
ĠØ¹Ø¨ ÛĮØ¯
ĠØ·Ø§ÙĦØ¨ Ø¹ÙĦÙħ
ĠØ§ÙħØªØŃ Ø§ÙĨÛĮ
ĠØºØµ ÛĴ
ĠÙħØ¹Ø¬Ø² Ø§Øª
Ø¬ Ú©
ĠÛĮ Ø³
ĠÙĨØ§ Ø§ÙĨØµØ§Ùģ
ĠØ¢ÙĪÛĮØ² Ø§Úº
ĠÚ©ÛĮ Ø´ÙĨ
ĠØ±ÛĮØ³Ù¹ ÙĪØ±
Ø¨ ÙĨÛĮ
ĠØ§ÙĦ ÙĨØ³
ĠØµØ¯ Ø§ÙĤØª
Ø§ÙĦÙģ Ø·Ø±
ĠÙĪ Ø§Ù¹
ÙĪÙĨ ÙĪØ´
ĠØ¯Ú¾Ø± ÙĨØ§
Ø§Ø¨ Ú¾
ĠÚĨ ÙħÙ¾Ø¦ÙĨ
ĠÚĪØ§ÙĦ ØªÛĴ
Ú¯ÙĪ Ø¬Ø±Ø§ÙĨÙĪØ§ÙĦÛģ
ĠØ®ÙĪØ¯ Ø§Ø±
Ø¶ÙĦ Ø¹ÛĮ
ĠÙħÛģØ§Ø¬ Ø±
Ø¨ ÙĦÛĮ
ÚĪ Ú¾
ĠØ±ÛĮØ§Ø³Øª ÙĪÚº
ĠØ³ÛĮÚ©ÙĨÚĪ Ø±ÛĮ
ĠØ³Øª Ø±Ûģ
ĠØ¨Ø³ ÛĮÚº
ĠØ¯Ú©Ø§ÙĨ ÛĮÚº
ĠØ³Ø·ØŃ ÛĮ
ĠÚ¯ Ùħ
Ø§Ø¦ÛĮ Ù¹ÚĪ
Ø§Ø¶ Ø¹
ÛĮ ÙĪÙħ
Ú© ÙĪÙĦ
ĠÛ ¸
Ø¹ ÙĦØ§Ùħ
ĠÚ¯ Ø¯
ĠØ¯ÙĪ Ø§
Ø¨ ÛĮÙĨÚ©
Ûģ Ø§Ø¤Ø³
ĠØ¬ÙĨÚ¯ ÙĦ
ÙĤÛĮ Ø¨
ĠÙħÙĪÙħÙĨ ÛĮÙĨ
ĠØ¨Ø§ÙĦ Ø¢Ø®Ø±
ĠÙ¾Ø± Ø§
ĠÛģÙĦ Ú©ÛĮ
ÚĪ Ø³Ù¹Ø±Ú©Ù¹
ĠØ¯Ø± ØŃÙĤÛĮÙĤØª
ĠÙ¾Úĳ ÛĮÚº
Ú¯Ø± Ø§
ĠØ¨ÙĨØ¯ ÙĪÙĤ
ĠØ² Ø±ÛĮ
ÙħØªØŃ Ø¯Ûģ
Ùģ Ú©Ø±
Ø§ÙĨ Ø´Ø§Ø¡
ĠÙħØ´ ÙĤØª
Ú¯ Ø§Ùħ
ĠØ¢ ÙĨØ¯
ĠØ´ ÙħØ§ÙĦ
ĠØ§ÛĮ Ø³Ù¹
ĠÙĪÛĮ Ø²Ø§
ĠÙ¹ Ø§ÙĪÙĨ
ÙħØ± ÙĦ
Ø¨Ø§Ø¯ ÙĦÛģ
ĠÙħÛģ ÙĨÚ¯ÛĴ
Ø¬ÙĪ Ú©Ûģ
ĠÙħØµ ÙĦ
ĠÚĨÚ¾Ù¾ Ø§ÙĨÛĴ
ĠØ¨Ø´ Ø±
ĠØ±ÛĮÚ© ÙĪØ±ÛĮ
ĠØ± Ø§ÙĨ
Ø§Ø¹ ÙĦÛĮ
ĠÙħÙĤ Ø¯Ø±
ĠÚ©Ø§ÙĨ Ø³Ù¹ÛĮØ¨ÙĦ
Ú¯Ø² ÛĮÙĨ
ĠØºÙĦ Ø¨Ûģ
ĠÙĨØ§Ø® ÙĪØ´
Ø§Ø³ Ú©ÛĴ
e n
ĠÚĪ Ø³
ĠØ¨ÙĦ Ø§Øª
ĠÛģØ¯Ø§ÛĮØª Ú©Ø§Ø±
Ø§Ø¨Øª Ø¯Ø§Ø¦ÛĮ
ĠÙĨØ§Ù¾ Ø³ÙĨØ¯
ĠÚĨØ´ ÙħÛģ
ĠØ¯ Øª
Ø¯ÛĮ ÙĨÛĴ
ĠØ³ÙĪØ¯ ÛĴ
Ġ9 7
ĠÙĨØ§Ø² Ú©
Ø¨ÙĨ Ø§ÙĨÛĴ
ĠØ§ÙĨØª Ø´Ø§Ø±
Ø³Ù¹ÛĮ Ø´ÙĨ
ĠØ§ØªØ± ÙĨÛĴ
ĠÙ¾ Ù¹Ú¾
Ø±ÙĪ Ø§
ĠÙĨØ´Ø±ÛĮ Ø§ØªÛĮ
Ø§Ùħ Ø±
ĠÚĨÙĦ ÙĨØ§
ĠÙħÙĨÛģ Ø§Ø¬
ĠØ´ Ø§Ø±
ÙĪÙĨ Ù¹ÛĮ
ĠØªØ±Ø§Ùħ ÛĮÙħ
ĠØªØ± ØºÛĮØ¨
ĠÚĨÙĦ ØªÛĮ
ĠØ³Ø§ÙĨ Ù¾
ĠÙĨØ´ Ûģ
ĠØ§ÛĮÙħØ§ÙĨ Ø¯Ø§Ø±ÛĮ
ĠÚĨÙĪØª Ú¾Ø§
ĠÙĤØ§Ùģ ÙĦÛĴ
ĠÙ¹ÛĮÚ©Ø³ÛĮ Ø´ÙĨ
ĠØ³ÙħØ¬Ú¾ ÙĪ
ĠÛģØ§Ø´ Ùħ
ĠÚ©Ú¾ Ø§Ø¦ÛĮ
Ø¯ÙĪ Ø³Ø±Ø§
ĠÚ©ÙĨ Ú©Ø´ÙĨ
Ø¦ ÙĨØ²
ĠØ§ÙĦ Ù¹
ĠØ° ÙĦÛĮÙĦ
ĠØ¨ÙĪØ±ÚĪ Ø²
ĠØ±ÙĪ Ø¦ÛĮ
ĠØ³Ùħ Ø§Ø±Ù¹
ĠØ± Ø§Ùħ
ĠÙĨØ§Ùħ ÙĪØ³
Ġ R
ĠÚ©Ø± Ø§ØªÛĴ
ĠÙģÙĦÛĮ Ú¯
ĠØ¹Ø¨Ø¯Ø§ÙĦØ±ØŃ ÙħÙĨ
ĠÙģ Ø§ÙĨ
Ø® ÙĪØ±
Ø´Ûģ ÛĮØ¯
ĠØ³ÙĪÚĨ Ø§
ĠØ´Ø§Ù¾ ÙĨÚ¯
ÛĮÙĨÛĮ Ø´ÙĨ
ĠÙĨØ¸Ø±ÛĮ Ø§Øª
ĠÙĪÛĮØ± Ø§Øª
ĠØ§ÙĦ Ø°ÛĮÙĨ
ĠØµØ§ØŃØ¨Ø²Ø§Ø¯ ÛĴ
ÙħÛĮ Ù¹
ĠØ² ÙĨØ§
ĠØªØ§Ø¨ Ø¹
Ø® Ø²Ø§ÙĨÛģ
ĠÙ¾Ø§ÙĦÛĮ Ø³
Ù¾ ÙĪÙĦ
ĠÙħÙĨ Ø§Ø¦ÛĮ
ĠØªÚ© Ø¨Ø±
ĠÚĪÛĮÙħ ÙĪÚº
Ġ L
ĠÛĮ Øª
ÙĦ Ù¹
Ø³Ù¹ Ø³
ĠÙģÙ¹ Ø¨Ø§ÙĦ
Ø§Ø·ÙĦØ§Ø¹ Ø§Øª
Ø§Ø¦ÛĮ ÚĪÙĨÚ¯
ĠÚ¯ Ú¾ÛĮØ±
ĠØ¯ Ø§ÙĦ
ĠØ¢Ø± Ø§Ø¦ÛĮ
ĠÙĨÚ© Ø§Øª
ÛĮÚ©ÛĮ Ø¬
ĠØŃ Ø§Ø¦ÙĦ
ĠØ±Ú© Ø´Ûģ
ĠØ± Ù¹
ĠÙ¹ÛĮ ÚĨØ±
ĠØ¨Ø§Ø²ÛĮ Ø§Ø¨
ĠØ³Ùģ Ø±ÛĮ
ĠØ¯Ø³ ØªÛĴ
ĠÙģÙĤ ÛĮØ±
ĠØ±ÙĨ Ø¨ÛĮØ±
ÙĪØ±ÛĮ Ù¹
ĠÙģØ± Ø³Ù¹
ĠÚ¯Ø±ÛĮ Ø¬
ĠÙħØª ÙģÙĤ
ĠØ¨Ø§Ø± ÙĪØ¯ÛĮ
ĠÙ¹ Ø§ÙĨÚ¯
ĠÙħØ¹Ø§ÛģØ¯ ÙĪÚº
ĠØ±ÛĮÚ¯ÙĪÙĦÛĮ Ù¹Ø±ÛĮ
ĠÚĨ ÙĨÛĮÙĪÙ¹
ĠØ¨Ø± Ø§ÙĨÚĪ
ĠØµØ¯ ÙĪØ±
ĠØ¯Ú¾Ùħ Ø§Ú©Ø§
ĠÙģØ§Øµ ÙĦÛģ
ĠÚ¯ÙĨØ¯ Ú¯ÛĮ
ĠÙĪÛĮ ÙĪ
ĠÙħØ² Ø§Ø±ÛĮ
ĠØ« Ùħ
ĠØ³Ø±Ø¬ Ø±ÛĮ
ÙĪØ´ Ú©Ø§
Ú©ÛĮ Ø®ÙĦØ§Ùģ
ÙħÛĮÙĨ Ø§Ø±
ĠØ¬ Ø¹ÙĦ
ÙĪ Ú¯
ÙĦÙĪ Ø§Ø±
ĠØŃÙĪØµ ÙĦÛĴ
Ø³Ø± Ø¨Ø±Ø§Ûģ
8 0
ĠØŃ ÛĮØ¯
ĠÙģ Ø§Ø¦Ø¯
ĠØ¨Ø§ÙĤ Ø§Ø¹Ø¯Ú¯ÛĮ
ÙĪÙĨ Ú¯Ø§
ĠÚĪ Ú©
ĠÛģ ÙĨØ³
ĠØ¨ Ø±Ø¯Ø§Ø±
Ø´ Ø±Ú©
ĠØ¨ÙĨ Ø§ØªØ§
ĠØ¶ Ø¹ÛĮÙģ
ĠÙ¾ÙĪ Ø³Ù¹Ø±
ĠÙħÙĨ ÙĪØ±Ûģ
Ø³Ù¹ ÙĨ
ÙģÛĮ Ø³
ĠÚ©ÙĦ Ø¨Ú¾ÙĪØ´ÙĨ
ĠØ±ÛĮ ØŃ
ĠØ±ÙĪÚ© ÙĨØ§
ĠØ¬ Ú¾ÛĮÙĦ
Ø§ÙĨÛĮ ÙĪÚº
ĠØ®Ø· Ø§
ĠØªÛģ Ûģ
ĠÙĪ ÙħÙĨ
ĠÙħØ± Ø§Ø³
ÙĪ Ø³ÛĮÙħ
ĠØ³ Ø§ÙĦÛĮ
ĠÙĪÛĮØ² ÛĴ
ĠØ±Ú©ÙĪ Ø¹
Ø¢ Ø®
Ø®Øª Ùħ
3 4
Ø§ÙĨ ÙĪØ§ÙĦÛģ
ĠØ² Ø§Ø¯
ĠÙĪØ² Ø±Ø§Ø¦ÛĴ
ĠØ¨ÚĳÚ¾ ØªØ§
ĠØ¬ Ú¯
Ù¾ Øª
Øº ÙĦ
ĠØ´Ø±Ú© Ø§
ĠÙĪØ¹Ø¯ ÙĪÚº
Ġ12 5
ĠÚ¯ÙĪØ±ÙĨ ÙĨØ³
ĠØ®ÙĪÙģ Ø²Ø¯Ûģ
Ġ N
ĠØ¨Ø¹Ø¯ Ø§Ø²Ø§Úº
ĠÙ¹ÙĪØ¦ Ù¹
ĠÙ¾ Ø§Ø¤
ĠØ® ÙĦÛĮÙģÛģ
ĠØ¢Ø± Ø§Ø³ØªÛģ
ĠÙģÙĨ Ú©Ø§Ø±
Ú© Ø§Ø¨ÛĮÙĨÛģ
Ø¹ Ø±
ĠÙħØ´ Ø§ÛģØ¯
ĠØ§Ø³ØªØº Ø§Ø«Ûģ
ÛĮÚ©ÛĮ ÙĪØ±Ù¹ÛĮ
Ø§ ÛĮÙĦ
ĠÙ¾ Ø§Ù¾
Ø³Ùħ Ø§ÙĨÛĮ
ØŃØ§Ø¯Ø« ÛĴ
ØŃ Ø¯
Ġ8 9
ĠØ¬ Ú¯Ø±
ĠÚ© Ø§ÙĦÛĮ
ÙĨ Ø§Ø²
ĠØªØ§Ø¬ Ø±Ø§ÙĨ
Øª Ø±Ú©
ĠÛģ Ø§Ø³
ÛĮØ± Ø§ÙĨÛĮ
ĠØ¨Ø± Ù¾Ø§
ĠØµØŃ Ø§ÙģØª
Ø³Ø§Ø¦ ÙĨØ³
ĠÙĨÛĮÙĦ Ø§ÙħÛĮ
ØŃ ÙħØ¯
Úĳ ÙĨ
ÚĪ Ø§ÙĦ
ĠÙĨØ¹ÙħØª ÛĮÚº
ĠØ± Ø§ÙĪÛĮ
ĠÙĨØ±ÛĮ ÙĨØ¯Ø±
ĠÙħÛĮÚĪ ÙĦ
ĠØ§ÙĨØ¯ Ú¾Ø§
ĠÚĪØ± Ú¯
Ø§Ø¹ Ø¸
Ûģ Ø§Úº
ĠÚ© Ø³Ø±
Ù¾Ø±ÙĪ ÛĮØ²
Ø§Ø± Ø¨
ĠÚ¯ÙĦÙĪÚ© Ø§Ø±Ûģ
ĠØ³Ø§ØŃ ÙĦÛĮ
Ø¹ÙĦØ§Ùħ Ûģ
Ġ25 0
ĠØ±ÛĮØ²Ø±ÙĪ Ø§Ø¦Ø±
ĠØ¯Ø³Øª Ø¨Ø±Ø¯Ø§Ø±
ĠØ®ÙĪØ§ÛģØ´ ÙħÙĨØ¯
ĠÚ¯ Ø§ÙĨØ§
ĠØ³Ø± ÙĨÚ¯
ÚĪÛĮÙĨ ÙĨØ³
ĠÙħÙĨÚĪÛĮ ÙĪÚº
ĠØ¨ ÙĪØ³
ĠØ§Ø³Ùħ Ú¯ÙĦÙĨÚ¯
Ø¹ ÙħØ§ÙĦ
Ø³ÛĮ Ø§Ø³Øª
ĠØªØ´ Ø®ÛĮ
ĠÙħÙħ Ø¨Ø¦ÛĮ
Ø§ÙĨ Ø²
Ø§Ø± Ø§ØªÛĮ
ĠÚĨÙĦ Ø§Ø¦ÛĮÚº
ĠØ²ÛĮØ± ÙĪ
Ø§Ø´Øª Ûģ
ĠÙħØªÙĨØ§Ø² Ø¹
Ø§ÙĨØªØ® Ø§Ø¨
Ù¾ ØªÙĨ
Ø¨ Ø±ÛĮØª
ĠØ³ÙĨ Ø¬Ø±
ĠÙħÙĨØ§ ÙģÛĮ
ĠØ¬ÛģØ§Ø² ÙĪÚº
ĠØ§ÙĨ Ø¯ÙĪØ²
Ġ9 6
ĠØ¨Ø´ Ø§ÙĨÛģ
ĠØ®ÙĪØ¯Ø§Ø± Ø§Ø¯ÛĮØª
ĠÙĦÛĮ ÙħÙĪÚº
ĠÚ¯Ø± Ø§Úº
ĠØ§ÙĦ ÙħØ¯
ĠÙħÙĨ ÙĪØ±
ĠÙ¾Ú¾ ÙĪÙ¹
Ø¨ÙĦØ§ ÙĪÙĦ
a l
ĠÙĪ ÙĦÛĮÙħ
ÚĪØ± ÙĨ
Ø§ÙĤØª Ø¯Ø§Ø±
ĠØ¢Ù¾ Ø´ÙĨ
ĠØ§Ø« ÙĨØ§
ÙħÛĮÚĪ ÛĮÚ©ÙĦ
Ø§Ø² ÛĮÙĦ
Ø§ÛĮ Ø§Ø¬
ĠÚ¯ Úĳ
Ø§ÙħØ±ÛĮ Ú©Ûģ
ĠÙħÙĪØ² ÙĪÚº
Ú¯ Ø³
Ø³ÛĮ Ø§ÙĦ
ĠØ¹ÙĦÙħ Ø§Ø¦ÛĴ
ĠØ°ÛĮ ÙĦÛĮ
ĠÙĨ Ø§Ø¦
ĠÙħÙĨ ØŃ
ĠØ§ÛĮÙ¹ ÙħÛĮ
Ù¾ Ø³ÙĨØ¯
ĠØ¶ Ùħ
ĠÚĪÛĮ ÙĦÛĮ
ĠÛĮ Ø§Ø¨ÛĮ
ĠÙ¹ ÛĮØ±
ÙģÛĮ ÚĪ
Ġ8 3
ĠØŃØ¬ Øª
Ġ F
ĠÙģÙĪ Ù¹ÛĮØ¬
ĠÙ¾Ø±Ø§Ø¬ ÛĮÚ©Ù¹Ø³
ĠØ¨ Ú¯Ø§
ĠÙĨ Ø§Ú©Ûģ
ÙħÙĦ Ø§Ø²ÙħÛĮÙĨ
ĠØ± ÙĨÙĪÛĮØ±
ĠØ³Ù¾Ø± ÛĴ
ĠØŃ Ø±Ø¨
ĠØ§Ø¹Ø¶ Ø§Ø¡
ĠÙĪÛĮÙħ ÙĨØ²
ĠÙĤØ¯ ÙħÛĮ
Ø§ÙģØ± Ø§Ø¯
ĠØ±ÙĤ Øµ
ĠÙĪ Ø§Úº
Ú¯ ÙĨØ§
ĠÙħØ³ Ú©Ø±
ĠØ³ÙĨ Ø¬ÛĴ
ĠØ§Ú©ÙĨØ§Ùħ Ú©
ĠØ±ÙĪ Ø¨Ø±ÙĪ
ĠØ¬ÙĪ Ø§Ø¯
Ù¾ÛĮ ÚĪ
ĠØ³ÙĨÚ¯ ÙĦØ²
ĠØ¢Ø¯ Ú¾Ø§
Ø¸ ÛĮØ±
ĠÚº ÙĨÛĴ
ĠÙħ ÚĪÙĦ
ĠÚ¯ ÚĨÚ¾
ĠÚĨ Ø§ÙĤ
ĠØªÚ¾ÛĮ Ù¹Ø±
ĠØ³Ù¾ Ø§ÛģÛĮ
ĠÙĪÛĮÚ©Ø³ ÛĮÙĨ
ĠÙħÙĪÙĤØ¹ Ûģ
ĠØ§ÙĨØªÙĤ Ø§ÙħÛĮ
ÙĪØ§ÙĤ Ø¹ÛĴ
ĠØ¨ ÙĪÙĦÙĨÚ¯
ĠÙĪ Ø§ÙĨÛĮ
ĠÙĪÙĤ ÙģÛģ
ĠØ¯ Ø§ÙħÙĨ
Ø¶ Ø§
ĠÙģÙĦ Ù¾
Ú© Ø±ÛĮØ§
ĠÙ¾ ÙĨÚĪ
ĠØªØ¹ Ø²ÛĮ
Ú©Ø± ÛĮÚº
ĠØ§ÛĮÙĨ Ú©Ø±
ÙħÙĤ Ø§Ø¨
ĠØªÛĮØ± Ø§
ÙĪØ± Ù¹Ø±Ø²
Ø±Ùħ Ø°ÛĮ
Ġï ´¿
Ú© ÙĪÛģ
ĠØ¨Ø§ÙĦ Ø§Ø¦ÛĮ
ĠØ·ÛĮ Ø¨Ûģ
ÙĪ Ø¦ÛĮ
ĠØ¬ ÛĮÙĨ
Ġ9 2
Øµ Ø¯
ĠÙħØ¹ Ø·
ĠØ´Ø§ÙĨ Ú¯ÙĦÛģ
ÚĨ ÙĨÚ¯
ĠØ³ ÙĨØ³
ĠÙĦ ÙĪÙĨ
ĠØ´ ÙħÛĮÙħ
ĠÚ©Ø§ÙħÛĮØ§Ø¨ÛĮ ÙĪÚº
°Û °Û
ĠØ§Ø¨Øª Ø¯Ø§Ø¡
ĠØ±ÛĮÙ¹ Ø§Ø¦Ø±ÙħÙĨÙ¹
ĠÙĦ Ø§ÙĨÚĨ
ĠÚĨØ§Ø± Ø³Ø¯Ûģ
Ġ0 1
Ø§Ø¯ Ø§Ø±
ĠØ§ØŃ ÙĪØ§ÙĦ
ĠØ³ ÙĨÛĴ
ĠÙħÚ©Ø± ÙħÛģ
7 0
ÙĤ Ø§Ùģ
ĠÙĦÛĮ Ø²
ĠÙĤØ§Øª ÙĦÙĪÚº
ÙĨ Ø§Ø±
ĠÙĨ ÙĪÙĨ
ĠÙ¾Ûģ Ø±
Ø§ÛĮ ÙĪØ§ÙĨ
ĠØ§ÙħÛĮØ¯ÙĪØ§Ø± Ø§ÙĨ
Ø³ ÙĨÛĮ
ĠØ¨ ØµÙĪØ±Øª
ÙħÛĮ Ø¦Ø±
ØªÛĮ ÙĪÚº
ĠÙħØŃ Ø³ÙĪØ¯
ĠØ³ÛĮ ÙĨÛĴ
Ù¾ÛĮØ¯ Ø§
ĠØ± Ø¬Ø¨
ØµØ§Ø±Ùģ ÛĮÙĨ
Ùħ Ø§ÙĦÛĮ
ĠØ¬ Ø¯Ø§
ĠÙ¾ÙĦ ÙĪØ§Ùħ
ĠØ¨Ø§Øº Ø§Øª
ĠÙĦØ§Ø´ ÙĪÚº
ĠØ³Ø§Ø²Ø´ ÛĮÚº
ĠØªØ´Ûģ ÛĮØ±
ĠØ³ÙĨØ¬Ø± Ø§ÙĨÛĮ
ĠØ³ Ù¹ÙĪ
ØŃ ÙĦ
ĠØ§ÙģØ³Ø± ÙĪÚº
ĠÙĤØ³ ÙħÛĮÚº
ĠÙĨÙĤ Ø·Ûģ
ĠÙĨÙħ Ù¹Ø§
ĠØªØ® ÙħÛĮÙĨÛģ
Ø§ÙĤ Ø¨Ø§ÙĦ
ĠÚ© Ø§ÙĨÙĪÚº
ĠÙģØ± ØŃØ§ÙĨ
ĠØ¬ÛĮ Ø¨
ĠØ¬ Ø§Ø¤Úº
ĠÛ ¹
Ø¬ Ø§Ù¾
ĠØ¨Ø§Ø´ ÙĨØ¯ÙĪÚº
ĠÚ©Ú¾ÛĮÙĨ ÚĨ
ĠØŃ Ø§ÙħÙĦÛģ
ĠÚ¯Ø§Ø±ÚĪ Ø²
ĠÚ©ÛĮÙħØ± Ûģ
ĠØ¨Ú¾Ø±ØªÛĮ ÙĪÚº
ÙĪ Ø§Ø¦Ø³
Ø² ÛĮØ§Ø¯Ûģ
Ø£ Øª
ï ´¾
ĠÙħ Ø§Ø¦ÙĨ
ĠØŃ ÙĪ
ĠØ¢ Ù¹ÙĪ
ĠÙĨÙģØ³ÛĮ Ø§ØªÛĮ
ĠÙĨÚ© Ø§Ø³ÛĮ
ĠÙ¾Ø§ÙĦÛĮØ³ ÛĮØ§Úº
Ø³ Ø§Øª
ĠØª Ø§Ø«
Ø§Ø¦ ÙĨÚ¯
ĠØ³Ø§ Ù¹Ú¾
ĠÙĤ Ø¹
ĠØ¹ÙĦÛĮ Ùħ
ĠÚ©ÛĮØ³ Ø§
Ø³ÙĨ Øª
ĠÙĦ ÙĦÛģ
ĠÚ©Ø§ÙĦ Ø²
ĠØ±Ø¨ÛĮ Ø¹
ĠØ¢Ùģ Ø§Øª
Ġ7 9
ĠØ¬ Ø±ÛĮØ±
ĠØ±Ø¦ÛĮ Ø³Ø§ÙĨÛĮ
Ø± Ø¬
Ø§ÙĦ Ø¨Ûģ
Ù¾ Ø´ÙĨ
ØŃ ØªÛĮ
ĠÙĨØ´ ÙĪ
ĠÙ¾ Ø±ÛĮÚ©
Ø³Øª Ú¯ÛĮ
ĠÙĪØ²ÛĮØ± Ø³ØªØ§ÙĨ
ĠÙħØ§Ø¦ÛĮÚ© Ø±ÙĪ
ĠØ§ÙĨØ¯ÛĮ Ø´Ûģ
ĠÙĪÛĮ Ø³ÛĴ
ĠÙħØµ Ø¨Ø§ØŃ
ĠØ±Ø¦ÛĮ Ø³
ĠÙħØŃÛĮ Ø·
ĠØ¬ÙĨ ÙĪØ¨
ĠØ¶ Ø¯
ĠØ¨Ú¾ ÙĪ
ĠÙ¾ÛģÙĨÚĨ Ø§Ø¦ÛĮÚº
ĠØ®ÙĦ Ø§ØµÛģ
ĠÙħØ§Ùħ ÙĪØ±
ĠØ¨ Ø±ÛĮÚ©
ĠØµ ÙĦÛģ
Ø±ÙĪ Ú©
ĠÚĪÛĮ Ù¹
ĠÙħØ± Ø¬
ĠÙħØ¨ Ø§ØŃ
Ø±ÛĮ Ù¹
ĠÙ¾Ø± ÙĪÙħ
ĠÛģ ÛĮÚ©
Ø§Ø¦ÛĮ ÙĦ
ĠØ§Ø®ØªØª Ø§ÙħÛĮ
ĠØ§Ø¹ÙĦØ§Ùħ ÛĮÛĴ
4 5
ĠÙĨÙħ ÙĪÙĨÛģ
ĠØ³Ø§Ø¦ÛĮÚ©ÙĦ ÙĪÚº
ĠÚ©ÙĪÚĨ Ø²
ĠÛģ ÙĨØ±
ĠØ³ Ø¯Ú¾
Ø¢ ÙĦ
ĠÙ¾Ú¾ ÙĨ
ĠØ³Ø§Øª ÙĪÛĮÚº
âĢľ -
Ú¯ÙĪ ÛĮØ§
ĠØ¨Øª Ø§ÙĨÛĴ
ÙĦ Ø§Ø¦ÛĴ
ĠÙĪ Ø«
ÚĨ ÙĪÙĨÚ©Ûģ
ĠØ´ÛĮ Ø®ÙĪÙ¾ÙĪØ±Ûģ
Úĺ Ø§Ø¯
ĠØ§Ú©Ø§Ø¦ÙĪÙĨ Ù¹
ÙĦ Ú¯
ĠÚ¯Ø² Ø±ÛĴ
ĠÙ¾Ø±ÛĮ Ø§ÙĨÚ©Ø§
ĠÙģ ÙĦÛĮÙ¹
ĠØŃÙħ Ø§Ø¯
ĠØºØ± ÙĤ
ĠÚ© ØªÛĴ
ĠÚĪ Ù¹
ÙħØª Ø¹
ĠØ¨Ø¯ Ø³ØªÙĪØ±
ĠØ§Ø³ØªØŃØµ Ø§ÙĦ
ÙĪ Ø¦ÙĦ
Ø¨ Ú©
ĠØ§ÛĮÙĨ ÚĪØ±
ĠØ§Ø³ØªØº ÙģØ§Ø±
ĠÙħ ÙħØ§ÙĨ
Ø§Ùģ Ûģ
ĠÙħØ¬ÙĪ Ø²Ûģ
ĠØ® Ø¶Ø±
ÙĤ ÙĪ
ĠÙ¾Ú¾ ÛĮÙĨ
ĠÚ¯Ú¾ Ø§Ù¹
Ø¯ Ú¾Ø±
Ø³ÛĮÙĨ Ø¦Ø±
ĠÙħØŃÚ©Ùħ Ø§ÙĨÛģ
ĠÙĨ Ø§Øµ
ĠØ§Ø±Ø¯ ÙĨ
ĠØ§ØŃØ§Ø· Ûģ
ĠÙĤ ÙĨØ¯
ĠØ§ÛĮÚĪ ÙħØ±ÙĦ
ĠØ¯Ú¾Ùħ Ø§Ú©ÙĪÚº
ĠÛģ ÛĮÙĨÚĪ
ĠØ¯Ú©Ú¾ Ø§Ø¦ÛĮÚº
ĠÙĨ Ø¬Ùħ
ĠÙħØ· ÙĦÙĤ
ĠÙĤØ¨ ÛĮÙĦÛĴ
ĠÙģØ± Ø§Ø²
ĠØ¨ Ø§ÙĨÚĪ
Ø§Ú¯Ø± Ø§Ùħ
ÙĪ ÛĮÛģ
ĠØ²ÙĦ ÙħÛĮ
ĠØ²Ø±ÛĮ Ø¹ÛĴ
Ø¨ Ø§Ú©ÙĪ
ĠØ± Ø³Ùħ
ĠÙħÙĦÚ©ÛĮ ÙĪÚº
ĠØ¢Ø¦Ø± ÙĦÛĮÙĨÚĪ
ĠÙĨÚ© ØªÛģ
ĠÙħÙħØ§ÙĨ Ø¹Øª
ĠØ¹ Ø§Ø´ÙĤ
Ġ9 3
ĠÙĪØ³ Ø·
ĠÛģÙĪÙĨÛĮ ÙĪØ§ÙĦÛĮ
Ú¯ ÙĪØ±
ĠØ§Ùģ Ø¹Ø§ÙĦ
Ġ9 8
ĠÙħÙĨØ¯ ÙĪØ¨
ĠÙĪÙĪÙ¹ ÙĨÚ¯
ĠØ´ Ø§Ú©Ø±
ĠÙģØ±Ùħ Ø§ÙĨÛĴ
Ġ p
ĠÙĪ Øª
ĠÚ©ÙĪ ÚĪ
ĠÙģ ÛģÙħ
ĠÙħÛģ Ø¯ÛĮ
ĠØ±Ø¨ Ø§ÙĨÛĮ
ĠØª Ø§Ø±Ú©
Ø§ÙĨ Ú¯ÙĦ
ĠØ¬ÙĨÚ¯ ÙĦÛĮ
ĠÙ¹Ú©Ø± Ø§
Ġ E
ĠØ¹ ÛĮØ§Ø¯Øª
ĠÙħØ¹ Ø§ÙĦ
ĠØ° ÙĦÚ©
ÙħØ± Ø§
ĠØ³Ø±Ú© Ø´ÛĮ
ĠÙ¹ÛĮÚ©Ø³ ÙĪÚº
ĠØ¬Ø§Ø±ØŃ Ø§ÙĨÛģ
ĠØ´ Ú¯
Ù¹ÛĮ Ø²
ĠÙĨØ± ÙħÛĮ
¿ ½
ÛģØ± Ø§
ÙĦÙĪ Ø¹
ĠØ¯ÛģÙĦÛĮ Ø²
ĠÚĪ Ø§
ĠØ§Ùħ Ù¾
Ø³ Ø§Ø²
ĠØ¨ Ø§Ø¢
ÙĤÛĮ ÙĪÙħ
ĠØ¯Ú¾ÙĪ Ù¾
ØŃØ§Ø¯Ø« Ø§Øª
ĠØ¬ÙĨ Ø§Ø¨
ĠØ¬ÙĦ Ø³ÙĪÚº
ĠÙħØ¬ Ø±ÙħØ§ÙĨ
ĠØ¨Ø§Ø± ÛĮÚ©
ĠØªØ¹Ø·ÛĮÙĦ Ø§Øª
ĠØ¨Ø± Ø³Ø±
ĠØ´Ø§Ø¹ Ø±ÛĮ
ĠØªØ´Ø®ÛĮ Øµ
ĠØ§ÙĨÚĪ ÛĮØ§
ĠÙģØª ÙĨÛģ
ĠØ¨ Ø³Ø±
ĠØ¬ÙĨ Ø§Øª
ÚĳÚ¾ Ø§Ø¦ÛĮ
Ø´ÙĪØ± ÙĨØ³
ĠÚĪØ§ÙĦ ÙĨØ§
ĠÙħ Ø±ÙĪÛĮ
Ø· Ø§Ø±ÙĤ
ĠØ§Ø± Ø¶
Ø¢ ÙģØ³
ĠÙħØ³ Ù¹Ø±
Ø´ Ùģ
ÙĪØ¨ Ø³Øª
ØŃÚ© ÙĪÙħØªÛĮ
ĠÙħÙĪÙĦ ÙĪÛĮ
ĠÙģÛĮÚĪ Ø±Ø²
Ûģ ÙĨ
ĠØ³ Ø§Ú©Ú¾
Ø° Ø®
ÙĴ Ùĵ
ĠØ³ÙĪ Ø§ØªÛĮ
ĠØ±Ø¶ Ø§Ùħ
ĠÙ¾Úĳ ÙĪØ³ÛĮ
ÙĨÙĪ Ø§
ĠÛ±Û ²Û
ÙĪØ§ÙĤ Ø¹Ûģ
ĠÙħ Ø±ÙĪ
ĠØ³ Ø§Ø¦Ø²
ĠØ¨ Ø§ÛģÙħ
ĠÙħÙĦØ§ØŃ Ø¸Ûģ
Ú© ØªØ¨
ĠØ§Ø±Ø¨ Ø§Ø¨
ĠÙħØ´ ÙĪØ±ÛĴ
ĠÙħØ´Øª Ø¹ÙĦ
ĠØ± Ø³ÛĮ
ĠØ¨ÛĮ ÚĪ
Ø§ØªÚ¾ Ø§
ĠØ§Ùģ Ø³
Ø¨ Ø§ÙĤÛĮ
ĠÙ¹ ÙħØ§Ù¹Ø±
ĠØ¬Ø§ Ú¯
ĠØ³Ø± Ø§Øº
ĠÙħØ¹Ø²Ø² ÛĮÙĨ
ĠØ§Ø¹ Ø´
ĠØ¬Ûģ Ø§ÙĦØª
ĠÙĪØ±Ø« Ûģ
Ø§Øª ÙĪØ§Ø±
Øµ Ø¨ØŃ
ÙĪÙĨ ÙħØ§
ĠØ§ÛĮ ÙĪ
ĠØ¬ÙħØ§Ø¹ ØªÛĮ
ĠØ§Ø¯ ÙĪØ§Ø±
Ø³Ù¹ Ø±ÛĮØ²
ĠÛĮÙĪÙĨ Ø§Ø¦ÛĮÙ¹ÚĪ
Ġ0 3
ĠÙħÚ© ÛĮÙĨ
ĠØ³Ø¹ Ø§Ø¯Øª
ÙĦ Ø§ÙĨÛĮÛģ
ĠÙĦ Ø§Ø¤
ĠØŃ Ø´Ø±
ĠØ§ÛĮ Ø±ÛĮ
ĠØªÙĤ ÙĪÛĮØª
ĠÛ±Û ±Û
ĠØ¨Ø§Ø¦ÛĮ ÙĪ
ĠÚ¯Ø±Ø§ÙĨ Ù¹
ĠÚ©Ú¾ Ø§Ø¦ÛĮÚº
ĠØ§Ø¬ ØªÙĨ
Ø´ ÙĤ
ĠÙĪØµ ÛĮØª
ĠÙĪØ§Ø³ Ø·ÛĴ
ĠØ¢ Ø±Øª
ĠÙħØŃ ÙģÙĦ
ĠØ³Ø§Ø¦ Ù¹Ø³
ĠÙħØ§ÙĨ Ú¯Ø§
ĠØ¯Ø³Øª ÙĪØ±
ĠÙħÙĪÙħÙĨ ÙĪÚº
Ø³ ÛĮÚ©ÛĮÙĪØ±Ù¹ÛĮ
Øº ÙĦØ§Ùħ
Ø¨ ÛĮØ§
ÙħØŃ ÙħÙĪØ¯
ĠØ¯Ø§ÙĨ ØªÙĪÚº
ĠÙħÙĨØ· ÙĤÛĮ
Ú¾ Ú©
ĠÙħØ¨ Ø´Ø±
ĠÙ¾Ø°ÛĮØ± Ø§Ø¦ÛĮ
ĠØ¨ Ø§ÙĪØ±
ĠÙĨ ÚĺØ§Ø¯
ĠØ§ÙĦ Ø¹Ø§ÙĦ
ĠØ§ÛĮÚĪÛĮ Ø´ÙĨ
ĠÙĪÛĮ ÙĦÛĮ
ĠØ¹Ø° Ø±
ĠÚ©ÙĪ Ù¹Ûģ
ĠÚĨ Ø§Ø±ÛĴ
ĠØ¬ÙĪ ÚĳÛĮ
ĠÚĨÙĪ Ú©ÛĮ
ĠÙ¾ÛĮ Ø³
ĠØ§Ø¨ Ø±
Ø§Ø® Ø±
Ø¯ ÙĨ
ĠØ³ Ø³ØªÛĴ
ĠÙħØ° ÛĮØ¯
ĠØ®ØµÙĪØµ ÛĮØ§Øª
ĠÚ¯ ÙĨÛĴ
ĠÛģÙĨÚ¯ ÙĪ
ÙħÚ© ÙħÙĦ
ĠÙ¾ÙĦÙĪØ§Ùħ Ûģ
ĠÛĮ Ø§Øª
ĠÙĨÛĮ Ø´ÙĨ
Ú© ÙĨÚ¯
ĠÙ¾ ÙĪÙĨ
ĠØ¨ÚĨ Ù¾ÙĨ
ĠØ¢Ø± ÚĪÛĮÙĨÙĨØ³
Ø§ØŃØª Ø¬
ĠÙĦÛģ Ø³ÙĨ
ĠÚĨ ÙĪÙĨ
ĠØªÙħ Ø§Ø´
ĠÛģÙĪÙĦ ÚĪØ±
Ú¯Ø±ÙĪ Ù¾
Ø® Ø´
ĠÙĦØ§Ø¦ Ù¹
Ú¯ Ø±ÛĮØ´ÙĨ
ĠÙ¾ ÚĪ
ĠØ¨Ø§Øº ÛĮ
ĠÙĦÙĪ Ù¹ÛĮ
ĠØ³ÙĦ ÛĮÚ©Ø´ÙĨ
ĠØªØ¬ Ø¯ÛĮØ¯
ĠØ¨Ø§Ø¯ ÙĦ
Ġ200 7
ÙĪ ÙĪØ§ÙĦ
6 0
ĠÚ© Ø³Ù¹
ĠÙ¹ ÛĮÙĨÚ©
ĠÛĮÙĪØ± ÙĪ
Ø§Ø¦ÛĮ Ù¹
Ø±ÛĮÚ© ÙĦ
ĠØ¨Ø§ÙĦ ØªØ±ØªÛĮØ¨
ĠØ§Ø¬ØªÙĨ Ø§Ø¨
Ú© Ú¾ÛĮ
Øª ÛĮØ§Úº
ĠØ¨Øª Ø§ÙĨØ§
ĠÙħ Ø±Ûģ
Ùģ ÛĮÙĨ
ĠØ¨Ûģ Ø§Ø¯Ø±ÛĮ
Ø· Ø§ÛģØ±
ĠÙģÛĮ Ø²
ĠØ§Ø¨ Ø±Ø§Ø±
ÙĦ ÛĮØ§
ĠÙ¾ÛĮ Ù¹Ø±
ĠÚ©Øª Ø±ÛĮÙĨÛģ
ĠØ²Ø® Ùħ
Ø³ ÙĦÛĮÙħ
ĠÙ¾Ø±ÙĪØ± Ø´
ĠÚ©ÙĪØ¢Ø± ÚĪ
Ù¾ ÙĪØª
ĠÙģ Ø´
Ø· Ø§ÙĨÛĮÛģ
ĠÚ¯ ÙħØ´
ÙĤ Ø§
ÙĨ ÙĪØ±
ĠØ¨ÙĨØ¯ ÙĪØ¨Ø³Øª
ĠÙģØ±ÙĪ Ø´ÙĪÚº
a r
Ø¯ÛĮØ¯ Ûģ
ĠÚ© ÙĨÚĪ
ĠØ® ÙĪØ±ÛĮ
ĠÙģ Ø±ÛĮÙħ
ÛĮØª ÙĪÙĨ
ĠÙ¾Ø±ÙĪ Ø§ÙĨ
ĠØ´Ø± Ù¹Ø³
Ġ19 5
Ø§ÙĨÙ¹Ø± ÙĨÛĮØ´ÙĨÙĦ
ĠØ¯ÙĨÛĮØ§ ÙĪÛĮ
Ø®ÙĪ Ø§
ĠØ¹Ø¨Ø¯Ø§ÙĦØ± Ø´ÛĮØ¯
ĠÙĪÙĤ ÙĪØ¹
Ġ8 1
ĠÛģÛĮ ÙĪÙħÙĨ
Ø±Ûģ ÛĮ
ĠØŃØ¬ Ø§Ø¬
Ø¹Ø¯Ø§ÙĦ ØªÛĮ
ĠØ± Ø§Ø¦Ù¹Ø³
ÙĦÙĤ ÛĮÙĨ
ĠØ§Ù¹Ú¾ ÛĴ
Ø¹ Ø§Ø¯
ÛĮØ± ÙĨ
ĠÙ¾ÙĪØ¯ Ø§
ĠÙĤÙĦÙħ Ø¨ÙĨØ¯
ĠÚĪÛĮÙħÙĪÚ©Ø±ÛĮ Ù¹Ú©
ĠØ¹ Ø¬
ĠÙ¾Ø§Ú©ÛĮ Ø²Ûģ
ĠÙħØ¬ Ø§ÙĦØ³
Ø³ÛĮØ§ÙĦ Ú©ÙĪÙ¹
Øµ ØºÛĮØ±
ĠØªØ¹ Ø¬Ø¨
Ø§Ûģ ÙħØª
ĠÙħ Ø§ÙĨØ§
ĠÙ¹ Ø±ÛĮÚ©Ù¹Ø±
ĠÙģÙĦØ³Ø· ÛĮÙĨ
ĠÛģÙĨÚ¯ Ø§ÙħÛģ
ĠØ¬ØªÙĪ Ø¦ÛĮ
ĠÙħØ¬ Ø§Ø²
ØŃØ¶ ÙĪØ±
ĠØ¶ÛĮ Ø§Ø¹
Ø¯Ú¾ ÙĨ
ĠÙ¾Ø³ÙħØ§ÙĨ Ø¯Ú¯ÛĮ
ĠÛģÛĮÚĪÚ©ÙĪØ§Ø± Ù¹Ø±
ĠÙ¾Ø±ÛĮ ÚĪ
ĠÙħÙĪÙĦ Ø§ÙĨ
ĠØ¯ÛĮ ÙĪÛĮ
ĠÚ©Ø§Ø± ÙĨØ§ÙħÛģ
ĠØ³ÙĪ Ø§Ø¦ÛĴ
Ġ200 9
ĠÙħØµ Ø§ÙĦØŃ
Ø¯Ú¾Ùħ Ø§Ú©ÛĴ
ĠÚ© Ù¹ÙĪ
ĠØ§ÙĦØ± Ø´ÛĮØ¯
ĠÚ©ÙĦÙħ Ø§Øª
Ø¨ ÙĨØ§
ĠØ³Øª Ø§Ø±ÙĪÚº
ĠØ ¥
ĠÙĪ Ø¨Ûģ
ÙĪÙĦ ÛĮÙĨ
ĠÙĦ Ø§Ø³
ĠØ§ÙĨ ÙĪØ´Ú©Ø§
ĠØ§ÛĮ Ø§ÙĨ
Ø§Ø³Ú© ØªÛĴ
Ø¬ Ú¾ÛĮ
ĠÙ¾ÛĮ Ø³Ù¹
ĠØ§ÙĨÚ¯ ÙĦÛĮ
ĠÙħ ÛĮÙĨÛĮ
ĠØ¬ÛĮ ØªÛĴ
ĠØ§Ø´ Ø§Ø¹Øª
Ø³ÙĦ Ø²
ĠÙĪÛĮ Ø²Ûģ
Ø§Ø« ÛĮÙħ
Ø³ Ø§ÛģÛĮÙĪØ§ÙĦ
ĠØ± ÛĮØª
ĠÙģØ± Ø´ØªÛģ
ÙħØ± Ø²
ĠØ¨Ú¾Ø± ÛĴ
Ø§Ø³ Ø±Ø§Ø¦ÛĮ
Ø§Ø¦ÛĮ Ûģ
ĠØ§ÙĦ Ø¬Ú¾
Ø±ÙĪ ÙĤÛģ
ĠØ¯Ø§Ø± ÙĦ
ĠØ¢Ùħ Ø§Ø¯Ûģ
Ø± Ú©Ú¾
Ø§Øª Ùħ
ÛĮØ± Ø§
ĠÙħØªÙĨ Ø¨Ûģ
ĠØ± Ø§Ø¦Ùģ
ĠÙĤØ± Ø¹Ûģ
ĠØ§Ù¹Ú¾ ÙĨÛĴ
ĠØ±Ø¬ Ø³Ù¹Ø±ÛĮ
ĠØ§ÙĦ ÙĪ
ØªØ¹ ÙĦÛĮÙħ
ĠØ§ÙĦØª Ø±ÙħØ°ÛĮ
Ø§Ø® Ø¨Ø§Ø±
ĠÙĨØ´ ÛĴ
ĠÙħØ± ØºÛĮ
Ø³Ú© ÙĪÙĨ
Ù¾ Ø§ÙĨ
ĠØ³Ú© Ø±ÛĮÙĨ
ĠÙħØ´Øº ÙĪÙĦ
ĠØ±Ø§Ûģ ÙĨÙħ
Ø§Ø¦ ÙĤÛģ
Ø±ÛĮ ÙĪ
ĠÙ¾ÛĮ Ø³ÙĪÚº
ÙĪØ§ÙĦ Ø¯ÛĮÙĨ
ĠÚ©Ø±ÛĮ Ú¯Ø§
ĠÙĦÚ© ÚĳÛĮ
ØªÙģ ØªÛĮ
ĠÚĨ Ø±Ø¨ÛĮ
ĠÙĨ Ø§Ø¦Ù¹
Ùģ ÛĮÙĦ
ĠÛĮ Ø¹
ĠØ³ÙĨ ÛĮÚº
ĠÙħØ° Ø§ÛģØ¨
ĠØ§ÙĪÙĦ ÙħÙ¾
ĠØ¨Ø§Ø¢ Ø³Ø§ÙĨÛĮ
ÙĪÛĮ ÙĦÛĮ
ĠÙħØµ Ø§Ø¦Ø¨
ĠÙĪØŃ Ø¯Øª
ĠØ§ÙĨ ÙĪØ³Ù¹ÛĮ
ĠØ¯ÙĪ Ú©Ø§ÙĨ
Ø³Ù¹ Ø±ÛĮØ´ÙĨ
ĠØ¨ÙħØ¨ Ø§Ø±ÛĮ
ÙĨ Ø¨ÙĪÙĦ
ĠØ¯ ÙĪÙħ
ĠÙģ Ø§Ø¶ÙĦ
Øµ Ø§ÙĦ
ĠÙ¾ÛĮØ¯ ÙĦ
ĠØ¨Ø§ÙĦ Ø§ØªØ±
ĠÛģÛĮÙĦ Ù¾
ĠØ«ÙħØ± Ø§Øª
ĠÙĦØ§Ø¦Ø¨ Ø±ÛĮØ±ÛĮ
ĠÚ©ÛĮ Ú©
Ø§Ù¹ Ú©
ĠÙĪØ±Ú© Ø³
ĠØ± Ø§Ø¦ÙĪÙĨÚĪ
ĠÙĦ Ø¹ÙĦ
ĠØ¢ ÙĪ
ĠØ³Ø¨Ø² ÛĮØ§Úº
ĠÚ©Ø± ÙĦÙĪ
ĠÚ¯ÙĪ ÙĦÛģ
ĠÚĨ ÚĨØ§
ĠØ¯ÙĪØ± Ø§ÙĨÛĮÛģ
ĠØ¬Ûģ Ø¯
ĠØ¨ÙĨÚ¯ Ø´
Ø®Ø§ÙĦ Ø¯
ØªØŃ ØµÛĮÙĦ
ÛĮØ± ÙĪ
ĠÙħÛĮÙĦ ÛĴ
ĠØ±Ú©Ø§ÙĪÙ¹ ÙĪÚº
Ú©ÙĪÙĨ Ø³ÙĦ
ĠØ³ÛĮÚ©Ú¾ ÙĨÛĴ
ĠØ¹Ú©Ø³ Ø¨ÙĨØ¯ÛĮ
ĠÙģÙĦ Ø§Ø¦Ù¹
ÙħØ¬ ÛĮØ¯
ĠÙħØ³ Ø§ÙĪÛĮ
Ø§Ø± Ø³
ĠØŃ ÙģØ¸
ĠÙĨÙħ ÙĪ
ĠÛģ Ø§Ø±Ù¹
ĠØ²ÛĮØ¯ ÛĮ
ÙĪ ÙĦÛģ
ĠÚ¯ Ø±Ûģ
Ġ8 2
ĠØ¨Ø§Ø® Ø¨Ø±
ÙĤ Ø·
ĠÙħÙĦ Ú©Ûģ
ĠÙ¾Ú¾ ÙĪÚĳ
ĠÙģ ÙĪØª
ĠÚĪ Ø§ÙĨØ³
ĠÙħÙĦ Ø§Ú©ÙĨÚĪ
ĠØ¶ Ø§ÙħÙĨ
ĠÛģÙĦ Ø§ÙĦ
Ø³Ú© ÙĪÙĦ
ĠÚ¯ÙĦÛĮ ÙĪÚº
ĠØªØ¹Ø²ÛĮ ØªÛĮ
ĠØ¢ ÙĦÛģ
ĠØ§ÛĮÚĪÙħÙĨ Ø³Ù¹Ø±ÛĮ
ĠØª ÙĦÙĤÛĮÙĨ
ĠØ´ ÙĨÚ¯
ĠØ§Ø¯ Ø±ÛĮØ³
ĠØ¶Ø± Ø±
ĠØ³Ø§ ÛĮÛģ
ĠØ¯Ø§Ø¦ ÙħÛĮ
ÙĪØ±ÙĨ ÛĮØ§
ĠÙ¾ ÛĮÚ©ÛĮØ¬
ĠØ²Ø¨ Ø§ÙĨÛĮ
ĠØ´Ø±Ùħ ÙĨØ¯Ûģ
ĠØ¨ÛĮÙĪØ± ÙĪÚ©Ø±ÛĮ
Ġ9 1
ĠÚ©ÚĨ Ø±Ø§
ĠØ¢ Ú©Ø³ÛĮ
Ú©Ø§Ø± Ø§
Ø±ÛĮØ¯ ÛĴ
o r
ÙĦ Ø§Øµ
Ø§Ø¯ Ø§Ø±ÛĴ
ĠØ³Ø± ÛĴ
ĠÚĨÚ¾ÙĪÚĳ ÛĮÚº
ĠØ§ÙĨÚĪ Ø³Ù¹Ø±ÛĮØ²
ĠØªÛģ ÙĪØ§Ø±
ĠÙħØµ Ø±ÛĮ
Ø¸ ÙħÛĮÙĨ
ĠÙĨÛĮ ÙĪÙĦ
ĠØ§Ùģ Ø§Ø¯ÛĮØª
ØŃ Ø¨
ĠØ¬ Ø§Ø¨Ø±
ĠÙĪ ÛĮÚ©
ĠØ± Ø§ÙĪÙĦ
ĠØ¬Ø§ÙĨÛĮ ÙĪØ§ÙĦÛĮ
w w
ĠØ§ÙĨ Ø´ÙĪØ±ÙĨØ³
ĠØ§Ø¬ØªÙħØ§Ø¹ Ø§Øª
ĠÙħÛĮÙĪØ² Ú©
ĠØ§ÙĤ ÙĪØ§ÙĦ
ĠØ¨Ø§ Ø§Ø«Ø±
ĠØ§ØŃØªÛĮØ§Ø· ÛĮ
ĠÙ¾Ø±ÛĮÚ© Ù¹Ø³
ĠÛģ Ø§Ø¦ÛĮØ±
ĠØ±ÛĮ ÙģØ±
ĠÙħÚ© Ø³
ĠØ¨Ø³ ÙĨÛĴ
Ø² ÙĦØ²
Ġ20 00
ĠÙĨØ´Ø§ÙĨ Ø§Øª
ÙĨØ¯ ÙĪ
ĠØ³ÛĮÚ© Ø±
ĠÛĮÙĪØ³Ùģ Ø²Ø¦ÛĮ
ÙģÛĮ Ø§Øª
Ġ9 4
ĠØ³ÛĮ Ù¹Ú¾ÛĮ
ĠØº Ø§ÙģÙĦ
Ø§Ù¾ ÙĨØ§
ĠÙ¾ÛģÙĨÚĨ Ø§ÙĨØ§
ĠØ±Ø³ ÙĪÙħ
ĠØªØ¹ Ø·ÙĦ
ĠÙģØ§Ø¦Ø¯ ÛĴ
ĠØ¨ ÙĪÙ¹
ĠØ±ÙĪÙĦ Ø²
Ú©Ø± Ù¾Ø´ÙĨ
Ú©ÙĪ Ùģ
Ø³Ø§ ÛĮÛģ
ÙħØªØ§Ø« Ø±Ûģ
ĠÙĨ Ø§Ø¯Ûģ
Ø±Ú© Ø§
ĠÙħ Ø§Ø±ÛĮ
ĠÙ¾ Ø§Ø¤ÙĨÚĪ
ĠØ§Ø³ØªØ¹ ÙģÛĴ
ÙĨØ¬ Ø±
ĠÙĨØ§Ø§ÙĨØµØ§Ùģ ÛĮ
ĠÙħØ§Ø¦ ÛĮÚ©ÙĦ
ĠØ§Ûģ ÙĦÛĮØª
ĠØ¢Ûģ ÙĨÚ¯
ĠÚ©ÛĮÙ¹ÛĮ Ú¯Ø±ÛĮ
Ġ T
ÙĤ Ø¯Ø±
ĠÙģØ· Ø±ÛĮ
Ġ G
ĠÚ©Ø± Ø³ÛĮ
ĠÙħÛĮ Ù¹
ĠØ¨Ø± Ø§Ø¨Ø±ÛĮ
ĠØ¨ÙĦ Ø§ÙĨÛĴ
Ø¦ Ø³
ÙĪÚ© ÙĪÙĨ
ĠØ±ÛģÙĨÙħØ§ ÙĪÚº
ĠÙħØ´Ø±ÙĪ Ø¨Ø§Øª
ĠØ§ ÙħÛĮØª
ĠÚ©ÙĪ ÙĦÛĮ
Ġ ÛĮÙĨÚ¯
ĠÙ¾ ÛĮÙĨØ§
ĠÚ¯ ÛĮØª
ĠÙ¹ Ø§ÙĪØ±
ĠØ¬Ø± Ø§Ø«ÛĮÙħ
ÙĨ Ø¬ÙĪ
ĠØ³ Ø¯Ø±ÙĨ
ĠÙħÙĨ Øµ
ĠÙħØ§ÙĦ Ø§
ĠÙħØŃØ±ÙĪ ÙħÛĮ
ĠÙĦØº Ø§Ø±ÛĮ
ĠÙĦ Øª
ĠØªÙĪ Ø«
ĠØ§ÙģØ± Ø§Ø¯ÛĮ
ĠÙħØ§ÙĨ ÙĨØ§
Ùħ Ø®Ø§ÙĦ
Ø³Ù¾ÙĪØ±Ù¹ Ø³
Ûģ ÛĮÙĦ
ĠØ±Ø³ ÙħÛĮ
ĠÙ¾Øª ÙĦÛĮ
Ø³Ù¹ Ø§Ú©
ĠÙħÙĪÙ¹ Ø§Ù¾ÛĴ
ĠÚĪ Ù¾Ø§Ø±Ù¹ÙħÙĨÙ¹
ĠÚĨÛĮÙĨ Ø¬
ĠÙĤ ÙĦØª
ĠØ¯Ú¾ Ø§Ø±
ĠØ´Ø± Ø¬ÛĮÙĦ
ÛģÙĪ Ø¦ÛĮ
ÙĪØ± ÛĮØª
Ø§ÙĨ ØªÛģ
ÙħÛĮ Ø¬Ø±
ĠÙĨØ¹ Ø±ÙĪÚº
ÙĪ Ú©ÛĮÙĦ
ĠÙħ Ú¯
ĠÛĮ ÙħÙĨÛĮ
ĠÙħÙĪ Ø§Ùģ
ÛģØ± ÙĪÚº
Ġ0 5
ĠÙħØ¹Ø¯ÙĨÛĮ Ø§Øª
ÙħÛĮ ÙħÛĮ
Ø§ÛĮ ÚĪ
ÙĪ Ø¹Ø§Øª
ĠÙħÙĨ Ø¬
ĠØ±Ûģ ÙĪÚº
ÙħÙĦ ÙĪÚº
ĠØ§ÙĨØ³Ù¹ Ø§Ú¯Ø±Ø§Ùħ
ĠÚ© ÚĨÛĮ
ÛĮÙħ Ûģ
Ø§Ø³Ù¾ ØªØ§ÙĦ
ĠÙĨØ§Ø®ÙĪØ´ Ú¯ÙĪØ§Ø±
ĠÚĪØ± Ø§ÙħÙĪÚº
ĠØ§ÙĦØ¹ Ø±Ø¨ÛĮ
ĠØ³ÙĦØ· ÙĨØª
ĠØ¬Ú¾ ÙĦØ³
Ú© ÙħÛĮØ´ÙĨ
ÛĮØ§ ÙĤ
ÙĨØ§ Ùģ
ĠÙ¾Ø§Ø± Ú©Ø³
ĠÙĨØ§Ú© Ø§Ø±Ûģ
ĠÙħØŃØª Ø§Ø·
ĠÙħØ´Ø§ÙĪØ± ØªÛĮ
ĠÙĪÛĮ Ø¦Ø±
Ø§ Ù¹Ú¾
ĠØ³ Ú¯ÙĨ
ĠÙħÛĮ ÙĦÛģ
ĠÚ©Ù¾ ÚĳÙĪÚº
ĠØ³ÙħØ¬Ú¾ ÙĨØ§
ÙĨÙħ Ø§Ø¦
ĠÙĦ Ø§Ø¬
ĠÚĨ Ø§Ø¦ÙĦÚĪ
ĠÛĮ ÙĦ
Ø¨Ø± Ø·Ø§ÙĨÛĮÛģ
Ø¸Ûģ Ø¨ÛĮ
ĠØ¹ Ø§Ø²ÙħÛĮÙĨ
ĠØ¨Ø± Ø¨Ø±ÛĮØª
ĠØ§ÛĮÙĨ Ø¯Ú¾ÙĨ
ĠÚ¯Ø±ÙĪ ÛģÙĪÚº
ĠÚ¾ Ùħ
ÙĪ Ø§Ø¦ÛĴ
ĠÚ¯ Ø§ÙĦ
ØŃ Ø±ÛĮØª
ĠØ§Ø³ Ù¹Ø±
ĠÙ¾Ø§ ÛĮÛģ
ĠÙ¹Ú©Ù¹ ÙĪÚº
ĠÙģØ±ÙĪ Ø´ÛĮ
3 3
ÙĤ ÛĮØ±
Ø±ÙĦ ÛĮÙĨÚĪ
ĠÙ¾Ø± Ø¯ÛĮ
ĠÙ¾ÛĮ Ø¬
ĠØ§Ø³ÙĦØ§Ùħ Ú©
ĠØªØ¨Ø§Ø¯ ÙĦÙĪÚº
ĠÙĨÙĪÙ¹ÛĮÙģ ÛĮÚ©ÛĮØ´ÙĨ
ĠØ¨Ø²Ø± Ú¯ÙĪÚº
ĠÙĨ Ø§Ø²ÛĮ
ÙħÙĨ Ø§Ú©
ĠØªÙĨ Ø²
ĠØ®Ø§Ø± Ø¬ÛĮ
ĠÙĨØ¨ ÙĪÛĮ
ĠØ§ÙģÙĪ Ø§Ûģ
ĠØ§Ø¹Ø´ Ø§Ø±ÛĮÛģ
ĠØ§ÙĦÙħØ¹ Ø§ÙĨÛĮ
ĠÚ©ÛĮÙĨÛĮ ÚĪØ§
ĠØ¹Ø§Ø¬ Ø²
ĠØªÙĪØ« ÛĮÙĤ
Ø¬ ÛĮØª
Ú©Ø´ÙħÛĮØ± ÙħÛĮ
Ø§ØµÙĦØ§ØŃ ÛĮØª
ÚĪ ÙĨÙ¹Ø³
ĠÙ¾ÙĦ Ø§ÙĨÛĴ
ÚĨ Ú¾ÛĮ
ĠÙħØ³ Ø±ÙĪÙĤÛģ
ĠÙĨØ¹ Øª
ĠÙģÙĨÚĪ ÙĨÚ¯
ĠÙĤÙĪÙħ ÛĮÚº
Ø§Ø¦ Ø¯Ûģ
ÙģØª ØŃ
Ø¯Ø±ÛĮ Ø¬
ĠØªÙĤØ§Ø¶ ÛĴ
ØªÚ¾ ÛĴ
ĠØ¨Ø§Ø²ÛĮ Ø§Ø¨ÛĮ
ÙĤ ÙĪÙĦ
ĠÚ¯ÛĮÙĨØ¯ ÙĪÚº
ĠØ¢ Ø±ÙĪØ§Ø¦ÛĮ
Ø§Ø±Ûģ Ø§
ĠØ´ÛĮØ¦Ø± Ø²
ĠÙ¾Ø±Ø³Øª ÙĪÚº
Ø§Ø¯ Ú¾
ĠØ¨ÙĪ Ù¹ÛĮÙĪÚº
Ú¯ÛĮ Ø³
ĠÚĪÛĮ Ø²ÙĦ
ĠØ· ÙĦÙĪØ¹
ĠØ§ÙĪ Ú©Ø§ÚĳÛģ
ĠØ´ ÙĨÙĪ
ĠÙħÙĦÛĮ Ø´ÛĮØ§
ĠÙĦÛĮÚ© ÚĨØ±
ĠÚĨ Ø§Ø¦ÙĨÛģ
ÙħØªØ¹ ÙĦÙĤÛģ
Ø§Ùħ Ø§ÙĨ
ĠÚĨÛĮØ± ÙħÛĮÙĨ
ĠØ¬ ÙħÛĮ
ĠÙ¾ÛĮ Ù¹Ø±ÙĪÙĦ
ĠØªÙħ Ø¨Ø§Ú©ÙĪ
Ú¯Ø² Ø±
ĠØ¹Ø± Ø´
ĠØ¨ Ø²Ø¯
Ù¹ Ø±ÛĮÙĨ
Ø±ÙĪ Ø¯
ĠØ³Ø±ØŃØ¯ ÙĪÚº
Ø¨ÛĮ Ø³
ĠØ®ÙĪØ´ Ø¨ÙĪ
ĠÙħÛĮÙĦ Ø§Ø¯
ĠØµ Ø±ÛĮØŃ
ĠØ¨Ø§Ø¤ ÙĦØ±
ĠØª ÙĦÙĪØ§Ø±
ĠÙĨØ¬ÛĮ Ø¨
Ø§Ø³ÙĦØ§Ùħ ÛĮ
ĠÙĦØ§Ø² ÙĪØ§ÙĦ
e s
ĠÙĤ ÙĦÛĮÙĦ
ĠØ§ÛĮ Ø¯Ú¾ÛĮ
ÚĪ Ûģ
ĠØ¨Ûģ Ø§ÙĨÛĴ
Ġ6 00
ĠÙĤÛĮ Ø§Ø³
ĠØ¯Ø§Ø±Ø§ÙĦ ÙģÚ©Ø±
Ø±ÛĮ ÙĦÛĮ
ĠØ³Ú© ØªÛĮÚº
ĠÙħØ®Øª Ø§Ø±ÛĮ
ĠØ§Øµ Ø±Ø§Ø±
ĠØ¬ÙĪ Ø³
Ø±ÛĮØ¨ ÙĪÙĨÙĦ
ĠÚ©Ú¾ Ø§ÛĮØ§
ĠØ³ÙĪ Ø§Ø±ÙĪÚº
ĠØ¨ Ø§Ùħ
Ø±Ú© ÙĪ
ĠØ²ÙĪÙĨ Ø²
âĢ¦ âĢ¦
ĠÚ©ÛĮØ± Ø¦ÛĮØ±
ĠÙ¾Ø±ÙĪØ§Ø² ÙĪÚº
ĠØ± Ú©Ø´
Ø« Ø§ÙĤØ¨
Ġ12 4
ĠØ§ÛĮÚ¯Ø²ÛĮÚ© Ù¹ÛĮÙĪ
Ú©Ø´ÙħÛĮØ±ÙħÛĮ ÚĪÛĮØ§Ø³Ø±ÙĪØ³
ĠÙ¾ ØªÛĴ
Ù¾ ÙĦØ§ÙĨ
ĠØ¨Ú¾ Ù¹Ûģ
ĠØ¨ÚĳÚ¾ Ø§ÙĨØ§
ĠØ±Ø§Ø¬ Ù¾ÙĪØª
ÙħØ´ Ú©ÙĦ
ÚĪ ÛĮØ§Úº
Ù¾Ø± Ø³ÙĨ
ĠÚ©Ø§ÙħÛĮØ§Ø¨ ÛĮØ§Úº
ĠØ±ÙĪ Ø§ÙĨÚ¯ÛĮ
ĠØ§Øª Ø§Ø±Ø§
Ø§Ø¦Ø² ÚĪ
ĠØ§ÛĮÙħØ§ÙĨ Ø¯Ø§Ø±
Ø¹ Ø«ÙħØ§ÙĨ
ĠÙĪ Ø¯
ĠÙ¾ÚĳÚ¾ ÙĨØ§
ĠØ¨ÙĪÙĦ Ø±
ĠÙĦ Ø³
ĠØ¨ÛĮØ± ÙĪØ²
ĠÚ©ÚĨ ÙĦ
ĠÙħØ¯ Ø§Ùģ
ĠÙĦÚĳ Ú©ÛĮØ§Úº
ĠÚ¯ÙĦ ÙĪØ¨ÙĦ
Ù Ń
ĠÙħ Ù¹Ú¾ÛĮ
ÚĪ Ø§ÙĨ
ĠÙģ ØªÙĪ
Ø§Ø¯ÛĮ ÙĪ
ĠÚ©Ø±ÙĪ Ø§ÙĨØ§
ĠØ²Ø¨ Ø§ÙĨÙĪÚº
ĠÙĤØ¨Ø± ÙĪÚº
Ùģ Ø±ÛĮÙĤ
ĠØ±ÙĪ Ø§
ĠÙ¾Ûģ ÙĨØ§
Ġ0 2
ĠØ§ÙĦ ØªØ±
ĠØ§Ú©Ú¾ Ø§Úĳ
Ûģ ÙģØªÛģ
ĠÚ©Ùħ Ø±Ûģ
Ø§Ø´ ÙĨ
ĠØ¨Ú¾ ÙĦ
ÙĪØ§Ø² ÙĨ
ĠÙ¾ÛģÙĨ ÙĨÛĴ
ÙĨ Ø§ØµØ±
ĠÙĦ Ø§Ø±
ĠØºÛĮØ± Øª
ĠÙĦÚĳ Ú©Ø§
Ø§ÙģØºØ§ÙĨ Ø³ØªØ§ÙĨ
ĠØ¯ Ù¾ÛĮÚ©Ø§
Ø´ Ø§ÙħÙĦ
ÙĪÛĮ ÚĪÛĮÙĪ
ĠØ¹Øµ ÙħØª
ĠÚ©ÙħÛĮ Ù¹ÛĮØ§Úº
Ø®ÙĪØ´ ØŃØ§ÙĦÛĮ
ĠÙ¾Ø± ÙĨØ¯ÙĪÚº
ĠØ§Ø¹ Øµ
ĠØ¨Ø± Ø§Ø¦ÛĮÙĪÚº
ĠØµØ§ØŃØ¨ Ø§ÙĨ
ÙĪÙĨ ÙħÙĨÙ¹
ÙĪÙĦ ÙĪ
ĠØ¬ÙĪ Ø²
ĠÚ¯ÙĪ Ø§ÛģÙĪÚº
ĠØªØ§ÙĪ Ø§ÙĨ
ĠÙħØ¹Ø· ÙĦÛĮ
ĠØ³ Ø§Ø±Ûģ
ĠØ³Ø± Ø³Ø¨Ø²
ĠÚ© ÙĦØ§
ĠÚĨ Ú©Ú¾
ÙħØ±Ú© Ø²ÛĮ
ĠØ§Ø³ Ø§ÙħÛģ
ĠÚĨÚ¾ ÙĪ
ĠØ¨Ø§Ø± Ú¯Ø§Ûģ
ĠÚ©Ùģ Ø§ÙĦØª
ĠÚ¯ÛģØ± Ø§Ø¦ÛĮ
ĠÙĨ ÙħÛĮ
Ù¾ Ú©
ĠÚ¯Ø±ÛĮ ÚĪÛĮØ´ÙĨ
ĠÚĪØ§Ø¦Ø±ÛĮÚ©Ù¹ ÙĪØ±ÛĮÙ¹
ĠÚĨÛĮÙħ Ù¾ÛĮØ¦ÙĨ
ĠÙħØ´ÙĤ ÙĪÚº
Ø´ Ø§Ø¯
Ø§Øª ØŃ
ĠØ¯ÙĪØ³Øª Ø§ÙĨÛģ
ĠØºÙĦØ§Ùħ ÛĮ
ĠÙģØ±ÛĮÙĨ ÚĪ
ÙĪ ÙģÛĮ
ĠÙ¾ Ø§ØªÚ¾
ĠØ§ÙĪØ± Ø¨
ĠÙĦÚĳ Ú©ÙĪÚº
ĠÙģØ¶ Ø§Ø¡
Ø¬Ø§ÙĨ Ø¨
Ø§ÙĨØ² Ú©
ØŃ ÙĦÙĤÛģ
ĠØ¨Ø± Ø¢
ĠØ¯Ú¾ÙĪ Ø§Úº
ĠÙħØ¹ Ø±Ø§Ø¬
ĠØ³ÛĮ ÙĪÙĨ
ÙĪØ§Ø± ÚĪØ²
ĠÙģÙĦ Ø³
ĠØ¨Ø³ ÙĪÚº
ĠØ³ØªÚ¾Ø± Ø§
ĠØ´Ùħ Ø³ÛĮ
Ùħ Ø´Øª
Ø´ ÛĮÙħ
ĠØ¨ÛĮ Ù¹ÛĮØ§Úº
Ø°Ø® ÛĮØ±Ûģ
ĠØ³Øª Ø§Ø¦Ø´
ĠØ®Ø§Ú© ÙĪÚº
ĠØŃØ§Ø¬ Øª
ÙĦÛģ Ø§
ĠØ³ÛĮÙħ ÙĨÙ¹
ĠÙģÛģ Ø¯
ÛĮ Ø±ÛĮ
ĠÙ¾Ú©Úĳ ÙĨÛĴ
ĠØ®Ø§ÙĨÛĮ ÙĪØ§ÙĦ
ÙĦØ§ ÚĳÚ©Ø§ÙĨÛģ
ĠÚ© Ø§Ø¹
ĠÙĦ Ùģ
ĠÙĤ Ø§Ø¯ÛĮ
Ġ8 00
ĠÚ¯Ú¾ÛĮ Ø±ÛĴ
ĠØ¨ ÙĪÙĨ
ĠÚ¯ Ø§ÙĨ
ĠØªØµ Ø±ÛĮØŃ
ĠÛ±Û °
3 9
ĠÙħ Ø§Ø¦ÙĦ
ĠÛģ Ø§ÙĨÚ¯
ĠØ§ÙĪØ± Ú©Ø²Ø¦ÛĮ
ĠÙĦ Ø§Ø±ÚĪ
ĠØ¹ Ø«
ĠÙħØ² Ûģ
ĠÚ© Ø§Ø¸
ĠØ¯Ø§Ø±ÙĦ ØŃÚ©ÙĪÙħØª
ĠØ¨ ÛĮØ¯
ĠØª ÙĨÚ¯ÛĮ
ĠØºÙĨÛĮ ÙħØª
Ø¢Ø³Ù¹Ø±ÛĮÙĦ ÛĮØ§
Ú© ÙħÙĦ
ĠÚ©Ú¾ÙĪÙĦ ÛĴ
ĠØ§ÙĪØ± ÙĨØ¬
Ø§Ø³Øª Ø¹ÙħØ§ÙĦ
ĠØ³ÙĨÚ¯ ÙĦ
ĠØªÙĦ ÙģÛĮ
ĠØ§ÙĦØªÙĪ Ø§Ø¡
ĠÛģÙħ Ú©ÙĨ
Ø®ØµÙĪØµ ÛĮ
ĠÙ¹Ø±Ø§ÙĨØ³ ÙģØ±
ĠÚĨÚ¾ Ù¹
ĠØ¨Ø§Ø± ÙĪØ¯
ĠØ¨ÙĨØ¯Ø± Ú¯Ø§Ûģ
ĠÙħØ´ Ú©ÙĪØ±
ĠØ³ÙħØ¬Ú¾ ÛĮÚº
ĠÙĨØ§Ø¯ Ø±Ø§
ĠØ§ Ù¹Ú¾ÛĮ
ĠØ±ÙĪ Ú©ÛĴ
ĠØ¨Ûģ ÙĨÙĪÚº
ĠØ¬Ø¨ Ø±ÛĮ
ĠØ¹Ø± Ø³
ĠØ¯Ú¾Ø± ÙħÛĮ
ĠØ¨ÛĮÙĪÛĮ ÙĪÚº
Ø¸ ÙħÛĮ
ĠØ¬ÙĪ ÚĳÙĪÚº
ĠØ³ÙĨØ¯ Ú¾ÛĮ
ĠØ§Ø® ÙĦØ§Øµ
ĠÚĨØ§Ûģ Ø§
ĠØ¨Ø§ Ø§Ø®ØªÛĮØ§Ø±
ĠØ¨ Ø§ØµÙĦØ§ØŃÛĮØª
ĠÚ©Ø± ÙĨÙ¹
ÙģÛĮØµ ÙĦÛģ
3 6
ĠØ§ÙĦ ÙĪØ¯
ĠØ¬ ÛĮÙħØ²
ĠØ± Ø§ÙĨÛĮ
Ù¾ ÙĪÙĦÙĨÚ¯
ĠÙĦ ÙĪÚº
Ġ13 0
Ø± Ø§ÙĨØ§
ĠÚ©ÙĪ ÛĮØª
ĠØ¹Ø¨Ø¯Ø§ÙĦ Ø³ØªØ§Ø±
ĠØ§ÙĪ ÙĤØ§Ùģ
ĠÛĮÙĪ ÙħÛĮÛģ
ĠÚ¯Ø³ØªØ§Ø® Ø§ÙĨÛģ
ĠÙģÚ©Ø³ ÙĨÚ¯
ĠÚĪ Ø±ÙĪ
ĠØ¨Ø± Ø§Ø¯Ø±
ĠÚ©Ø±ÛĮÚº Ú¯ÛĴ
ĠØ®ØµÙĪØµ ÛĮØª
ÙĨÙħ Ø§Ø²
ĠØ±ÙĪ Ø§ÙĨÛĮ
ĠÙģØ± Ø®
ĠØµÙģ ØŃÛģ
ĠÙĤØ· Ø¹ÛĮ
Ø· Ø§Ø¨ÙĤ
ĠØ³Ø¨ ÛĮÙĦ
ĠÚĨ ÙħÙĨ
ĠØ¨Ú¾ ØªÛĮ
ĠØ§ÛĮÙĨ Ø¬
ÙħÙĨØª ÙĤÙĦ
ĠØ¬Ø§ÙĨ Ø¯Ø§Ø±
ĠØµØŃ Ø±Ø§Ø¦ÛĮ
ĠÙĪÛĮ Ù¹
ĠØ³Ø§Ú© ÙĨ
ĠÙ¾ ØªÛĮ
ĠÙ¾ÛĮØ± ÙĪÚº
ĠØ¨ Ù¹Ú¾
Ùħ Ùģ
Ø±ÙĪ Ù¾ÛĴ
ÙħÛģ Ø±
ĠØ§Ø¨Øª Ø¯Ø§
ĠÛĮ Ø§Ø¯ÛĮÙĪ
ĠÚ©ÛĮÙĨ Ø§ÙĦ
ĠÚĨ ÙĪÙ¹
ĠÙĦÚ¯ ÙĨ
ĠØ¯Ø§Ø± Ø§ÙĨÛģ
ĠØ§ÙĨØ¬ Ø±ÛĮ
Ġ11 0
ĠÚ¯ÛģØ± Ø§
Ø§ÛĮ Ø§ÙĨ
ĠØ§ÙĨØ¬ ÛĮÙĦ
ĠØªÙĤØ± Ø±
ĠÙĪØ¨Ûģ Ø¨ÙĪØ¯
ĠÙĨ Ø§ÙĦ
Ùģ Ø§Ø¦Ø±
ĠÙĦÛģ ÚĳÛĮ
Ø§Ø³Ù¹ÛĮ Ù¹
ĠÛģØ§Ø¦ÛĮÚĪ Ø±ÙĪ
ØŃ Ø·
ĠØ³Ú© Ø§ÙĦØ±
ĠÙĦÛĮÚ¯ ÙĦ
ĠÙ¾ÛĮ ÚĪ
ĠØ¦ ÙĪ
ĠÚ©Ùģ Ø§ÛĮØª
ĠÚ© ÙĨÛĮ
ĠØ± ÛĮÙĨ
ĠØ§Ø³Ù¾ ÛĮÙĨ
ĠÙħØ«Ø§ÙĦ ÛĮÚº
ĠØ¢Ù¾Ø±ÛĮ Ø´ÙĨÙĦ
ĠØ§ÙĦ Øº
Ø³Ù¹ ÙħÙĨÙ¹
ĠÙħØ§ÙĦ Ø§Ú©ÙĨÚĪ
ĠÙĪØŃ Ø´ÛĮØ§
ĠÙĪÙĦÛĮ Ø¯
7 5
Ø§ÙĨÚĨ ÛĴ
ĠØ§Ø³Ù¹ÛĮØ´ÙĨ ÙĪÚº
ĠÚ¯ Ø§Ø¬
ĠØ±ÙĪ Ø§Ø¬
ĠÙĨØ´Ø§ÙĨÛĮ ÙĪÚº
ĠØ³ÙĨØ³ ÙĨÛĮ
ĠÙĦØ§ÙĦ ÚĨ
ĠÙħØ§Ø±Ú©ÛĮÙ¹ ÙĨÚ¯
ĠÚĨ ÛģØ±ÙĪÚº
ĠÙ¹Ú¾ ÙĨÚĪØ§
Ġ ........
ĠØ¨ÛĮ Ø§ÙĨÛĮ
ĠØ¨Ø± Ú¯
ĠØ¢ÛĮØª ÛĮÚº
ĠØ³ÛĮÙĦ ÙģÛĮ
ĠÛģÙĨØ¯ÙĪ Ø³ØªØ§ÙĨÛĮ
ĠÛģÙħÚ©ÙĨ Ø§Ø±
ÙĪ Ø§ÛĮØ§
ĠØ¨ÙĤ Ø§Ø¡
Ø¨ ÙĨÚ¯
ĠÚ©Ú¾ÛĮ ØªÙĪÚº
ĠØ¢ Ø´ÛĮØ§
ĠØ±ÛĮ ÚĳÚ¾
Ú¯ÙĪØ¯ ÛģØ§
ĠØ¬ ÙħØ§
Ø¢ Ú¯
ĠÙ¾ÛĮØ´ Ú¯ÛĮ
ĠÙ¹ÙĪ Ø¦ÛĮ
ĠØ¬Ø§Ø¯ÙĪ Ú¯Ø±
ĠØ§ÙĨØµ Ø§Ø±
ĠØ¨Ú¯Ø§ Úĳ
Ø³ Ø§Ø±
ĠØ¯ Ø§ÙĨÛĮ
Ø¹ ÙĪØ±
ÙĦÛĮ Ø¯
ĠÙģØ± ÙĨÚĨ
ÙĨÙħ Ø¨Ø±
ĠÚĪ ÙĪÙħÛĮ
ĠØªØ¹ ØµØ¨
ĠÙħÙĦØ§ÙĤØ§Øª ÙĪÚº
ĠØ¨ÛĮÙĨÚ© ÙĨÚ¯
Ù¾ Úĳ
Ø§Ùħ Ø¬Ø¯
ĠØ¢ ÙģØ±
ĠØ¹ ØµØ±
ĠØ¨Ø®Ø´ ÙĨÛĴ
ĠÙ¾ÙĦ Ø§Ø²Ûģ
ĠÚĨØ± ÚĨ
4 8
ÙĨ ØªÛĮ
ĠÚĨÚ¾Ù¹ÛĮ ÙĪÚº
ĠØ´ Ø§Ùģ
ĠÙĤ ØªØ§ÙĦ
ĠÛĮ ØŃÛĮ
ĠØ· Ø§Ø±ÛĮ
Ù¹ÛĮ Ø³Ù¹
ĠÙħÙĪ Ø®Ø±
ĠØ§ÙĨØ¯Ú¾ÛĮ Ø±ÛĴ
Ø§ÙĨ Ù¾
ĠØ± Ù¾ÙĪØ±
ĠØ¨Ø± Ø§Ø²ÛĮÙĦ
ÚĪÛĮ Ø¦Ø±
ĠÚ©Ø§Øº Ø°
ĠØ´ÛģØ²Ø§Ø¯ ÛĴ
ĠÛĮ Ø§Ø¨
ĠÛĮØ± Øº
Ùħ ÙĦÛĮ
ĠØ§Ø³ ÙĦÙĪØ¨
ĠØ¨ÛĮ Ø¬ÙĨÚ¯
ĠØ¨ÛĮØ± Ø§Ø¬
ĠÚ©ÛĮÙ¹ Ú¯Ø±ÛĮ
ĠØ¢ Ø³ÙħØ§ÙĨÛĮ
ĠØ¨Ú¾Ø± Ø§
ĠØ´Ø± ÙħÙĨØ§Ú©
ĠØªÛģ Ø§Ø¦ÛĮ
Ú© Ø§Ø´
ÙĨ ÛĮÙĨ
ĠÙĦÛĮ Ø§Ø±ÛĮ
ĠØ§Ø¹ ÙĦØ§ÙĨÛĮÛģ
ĠØ³Ø± Ø§Ø³Ø±
ĠÙħØ¶ Ø§ÙħÛĮÙĨ
ĠØ§Ø¦ÛĮØ± Ù¾ÙĪØ±Ù¹
ĠÚ¯ ÙĦØ§Ø³
ĠØ§Ø° Ø§
ĠÙĨÚĨ ÙĦÛĮ
ĠØ¢Ø±Øª Ú¾Ø±
ĠÙ¾ÚĪ ÙĪÚ©ÙĪÙĨ
ĠÚ© ÙĪØ±ÛĮØ¬
ĠÛĮ Ùģ
ĠØ¹Ø² ÛĮØ±
ĠÙĦØ§ÙĨ Ú¯ÙĪ
Ø¢ Ú¯ÛĴ
ĠØ¬ÙĪÙĨ Ú¯
ĠØ¨Øª Ø¯Ø±ÛĮØ¬
ĠØªØŃ Ø§Ø¦Ùģ
ĠÙ¾Ø±ÙĪ ÛĮÙĨ
ĠØ¢Ø¯ Ú¾ÛĮ
ÚĨ Ø§ÛģÛĴ
ĠØ§Øª Ø±ÛĴ
ĠØ¨ÛĮÙ¹ÛĮ ÙĪÚº
ĠØ§ÙĦØªÙĪ Ø§
ĠØŃ Ø¯ÛĮ
ĠÙģ Ø²
ĠØ¢Ø¨Ø§Ø¯ ÛĮÙĪÚº
ĠØ¨ÙĤ ÛĮÛģ
ĠÙħÚ© Ø§ØªØ¨
ĠØ¹Ø± Ø§ÙĤÛĮ
ĠØ®Ø§ÙĨ Ø¯Ø§ÙĨÛĮ
ĠØ³ÛĮØ¯ Ú¾Ø§
ĠØ³Ù¹ ÙĪØ±Ø²
ĠØªÙĪ ÙĦÛģ
ĠÙĪÛģ Ø§ÚĳÛĮ
Ø´Ùħ Ø§ÙĦÛĮ
ĠÚ©ÛĮ Ù¾Ø±
ĠÚ¯Ø± ÛĴ
ĠØ¨Ø² ÙĨØ¬ÙĪ
ĠÙĤ Ø³Ø·
ĠØ±Ø§Øª ÙĪÚº
ĠØŃ Ø³ÛĮ
ĠÙħÚĨ Ú¾Ø±
ĠÙħÙĦØ§Ø²ÙħØª ÙĪÚº
Ø§ÙĨØªØ® Ø§Ø¨ÛĮ
Ø§Ø¦ Øª
Ø² ÙĦÛģ
Ù¾ÛĮØ± Ø³
ĠÙĪ Úĳ
ĠÛģÙħ Ø§ÛĮÙĪÚº
ĠÙ¹Ø± ÙĨ
Ø¨ ÚĳÛĮ
ĠÙĦ Ú©Ùħ
ĠÚĨØ± Ø§Øº
ÙĪÙĨÙĪ Ø§ØŃ
ĠØ³Ø§Ø® ØªÛģ
ĠØ¢ÙĨØ¯ Ú¾ÛĮ
Ø¨ ÚĳÚ¾
ĠÙĪØ²ÛĮØ± Ø®Ø²Ø§ÙĨÛģ
ĠØ¯Ú¾ Úĳ
ĠØ³Øª Ø§Ø±Ûģ
ĠØ¬ÙħÛģÙĪØ± ÛĮÛģ
Ø§Ø´ÙĤ Ø¬ÛĮ
Ø¹ ÛĮÛģ
Ø±ÙĪ Ø¶
ĠÚ¯Ø±ÙģØªØ§Ø±ÛĮ ÙĪÚº
ĠØªØ§Ø±Ú© ÛĮÙĨ
ĠØ±ÛĮØ³Ù¹ÙĪØ± ÙĨÙ¹
ĠØ¬ Ø§Ø¦ÙĪ
ĠØ² ÙĪØ§ÙĦ
ĠÙĦØ§Ø¦ÙĨ ÙĪÚº
ĠØ² ÙĨ
Ø³ÙĪØ± Ûĥ
ĠØ·Ø§ÙĤ ØªÙĪÚº
Ø ĳ
Ù¹ Ø²
Ø±ÛĮÙĨ Ø¬Ø±Ø²
ĠÙĦÙĪ Ù¹ÛĴ
ĠÙĨØ¨ÛĮ ÙĪÚº
ĠÙĪØ§Ù¹Ø± Ø¨ÙĪØ±ÚĪ
Ø§ÙĦ Ú©
Ø§Ùħ ØªÛĮ
ÙĨÚ¯ Ø§Ø¦ÛĮ
ĠØ²ÙĦ ÙģÛĮ
ĠØ®ÛĮØ± Ù¾ÙĪØ±
Ø¹ ÛĮÙĨ
ĠØ± Ø§Ø¦ÙĦ
ĠØ® Ø±ÛĮØ¯ÛĮ
ĠØ´ Ú©ÙĨ
ĠÙĪØ¶ ÙĪ
ĠØ³ Ø§Ø¦ÛĮÚĪ
ÙĤ Ùħ
ĠÛģÙħØ¯ Ø±Ø¯
ĠØ§ÛĮÚĪÙħÙĨ Ø³Ù¹Ø±ÛĮØ´ÙĨ
ĠÙħÛĮØ§ÙĨ ÙĪØ§ÙĦÛĮ
Ú© Øª
Ø¬ÙĪ Ø¹Ûģ
ĠØ¬Ø§Ø³ ÙĪØ³
Ø§ÙĦ Ø«
ĠÙħÙĪØ¶ ÙĪØ¹Ø§Øª
ĠÙĨØ¸Ø±Ø¨ ÙĨØ¯
ĠÙ¾ ØªÙĪÚº
ĠØ¹Ùħ Ø§Ø¯
ĠÙħØ¹Ø¯ ÛĴ
ĠÛģ Ø³ØªÛĮ
ĠØŃ ÙĦÛĮÙħ
ĠØ§ÛĮ ØªÚ¾
ĠØ§ÛĮ ÙĪØ§Ø±ÚĪØ²
ĠØ®ÙĪ Ø§ÙĨ
ĠÙĨÛĮ Ù¾Ø§ÙĦ
ĠÙħÙĨØª Ø¸ÙħÛĮÙĨ
ĠÙħÚ¯ Ø³ÛĮ
ĠØ² ÛĮØªÙĪÙĨ
ĠØ¨Ø§ÙĦ ÙĦÛģ
ĠØ¨Ø¹ Ø«
ĠÙħÙĨØª Ø´Ø±
ĠÙĨØ°Ø± Ø§ÙĨÛģ
i t
ĠØ³ ÙĦÛĮ
ĠØ¯ÙĪØ± ÙĪÚº
ĠÙħÙĪØ³ÛĮ ÙĤÛĮ
Ø¢Ø¦ ÛĮÙĨ
ĠØ¬Ø°Ø¨ Ø§ØªÛĮ
Ø¬ÙĨ ÚĪ
ĠØ§Ø· ÛģØ±
ĠÚ©Ù¹ ÛģØ±ÛĴ
ĠÙģÙĦÛĮ Ù¹Ø³
ĠØ§ÙĪØ± ÙĨÚ¯ÛĮ
ĠØ¢Ù¹Ú¾ ÙĪÛĮÚº
ĠÙĨ ÙĤÛĮØ¨
ĠØ§ÙĦ Ø´Ø§ÙĨ
ĠÙħØ´ Ø¹ÙĦ
ĠÙħØ¹Ø¨ÙĪØ¯ ÙĪÚº
ĠÚ©ÛĮ Ø¬ÛĮÛĴ
Ø§Ø¦ ÚĨ
ĠØ±ÛĮ ÙĪ
Ø§Ø¤ ØªÚ¾
ĠØ®ÙĪØ±Ø¯ ÙĪÙĨÙĪØ´
ĠØªØ± Ø³ÛĮ
ĠØŃÙĤ Ø§ÙĨÛĮ
ĠÚ©ÙħÛĮÙĪÙĨ ÛĮÚ©ÛĮØ´ÙĨ
ĠØ´ÙĨÚ¯ Ú¾Ø§Ø¦ÛĮ
ĠÙħØª ÙĪØ§Ø²ÙĨ
ĠÛģÙħ Ø³Ø§ÛĮÛģ
ĠÚ¯Ø± ÙħÛĮÙĪÚº
ĠÙħØµÙĦ ØŃØª
3 7
ĠÚ©Ø± ÛĮÙĨÛģ
ĠØ± Ø§Ø²ÛĮ
Ø§Ø¯ ÙĪÚº
ĠØ³ÛĮØ¯ Ú¾ÛĮ
ÛĮÚ©ÛĮ Ù¹
ÙħÙĨØª Ø®Ø¨
ĠØ³ Ø§Ø±Ú©
ĠÚ©ÛĮ Ø³ÛĮ
ĠÙģ ÙĪÙĤ
ĠØ³Ùħ Ø§Ø¬
Ø§ÛĮ Ø§Ø¨
ĠÙħØ¨Ø§ØŃ Ø«
ĠØ§ÙĦ Ø¯
ĠØ±ÙĪ Ø²ÛĮ
ĠÙģÙĤ Ø¯Ø§ÙĨ
8 6
ĠØ³ÛĮÚ© ÚĳÙĪÚº
Ùħ Ø¹ÛĮ
ĠØ¯ Ø§ÙħÙĪÚº
ĠØ· Ø§ÙĦØ¨Ûģ
Ú©Ø´ÙħÛĮØ±ÛĮ ÙĪÚº
ĠÚ¯ ÙĪÛģØ±
ĠØ² Ú©Ø±ÛĮØ§
ĠØ¨Ø± Ø¬
ÙĤØª ÙĦ
ĠØ¬Ø§Ø¦ÛĮØ¯Ø§Ø¯ ÛĮÚº
ĠÙĨÙħ ÙĪÙĨÛĴ
ĠÙ¾ÙĦ Ù¹
ĠØ¨Ø§Ø¦ÛĮ Ø³
Ø¢ ÙĨÛĮ
ĠØ¯ Ø§Ø³Øª
Ø³ÛĮ ÙħÛĮÙĨØ§Ø±
Ø§Ø³ ÙĦ
ĠØ§Ø¨ ÙĪØ¯
ĠÚ©Ù¹ Ø§Ø¦ÛĮ
ĠÙĦÛĮ ÙĪØ§
ĠØ§Ø±Ø¯ Ú¯Ø±Ø¯
Ú©Ø± Ù¾Ù¹
Ø¯ÛĮÚ© Ú¾
ĠØ§Ø¹ ÙĦÙħ
ÙĦØ§ÙĨ Ú¯
ĠÛģÙĪÙĦ ÙĨØ§Ú©
ĠÚĨØ§Ø¦ ÙĨØ§
ĠØ®ÛĮ Ø§ÙĨØª
ĠÙ¾ÛĮØ± ÙĪ
ĠØ¯Ø´ ÙĪØ§Ø±ÛĮ
ĠØ§ÛĮØ¬ÙĨØ³ÛĮ ÙĪÚº
ĠØŃÙĤ Ø¯Ø§Ø±
ÚĨ ÙĪØ¯Ú¾Ø±ÛĮ
ĠÙ¹ Ø§Ø¦Ø±
ĠÙģÙĤÛģ Ø§Ø¡
Ù¾ Ø§Ù¹
Ø¬ Ø§Ø¦ÛĴ
ĠÛģÛĮ Ù¹
Ú©Ø± Ø²
ĠØ¯Ú¾ Ú©ÛĮÙĦ
ĠØ³ÙĪØ§ÙĦ ÛĮÛģ
Ġ20 20
Ø§Ø¦ ÙĨÛĮ
ĠØŃ Ø§ÙĦÛĮ
ĠØŃÚ© ÙĪ
ĠÙĤØµ Ø¨ÛĴ
ĠØ¨ ÙħØ§
ÙĪØ§Ù¾ Ø³
ĠØŃÛĮØ¯ Ø±ÛĮ
Ø±ÛĮ ÙģÛĮ
ĠÚ©ÛĮ ÚĳÛĴ
Ø±ÛĮÚ© ÙĨ
ĠÚ©Ø´ Ø§Ø¦ÛĮ
ĠÚ©Ú¾ÙĪ ÙĦØ§
Ú©ÛĮ Ûģ
Ø§Ø· ÛĮÙĨ
ĠØ§ØªØ§Ø± ÙĨÛĴ
ĠØºØ°Ø§Ø¦ÛĮ Øª
ĠØ³Ø± Ø§
ĠÙ¾Ø§ÙĨ Ø§ÙħÛģ
ĠØ¨ÛĮØ´ ÙħØ§Ø±
Ùģ ÙĪØ±ÛĮ
ĠÙħÙħÙĨ ÙĪØ¹
ĠÙĨ ÙĪØ¨
Ø¸ ÙĪØ±
ĠØ§Ø± Ø¬ÙĨÙ¹
ĠØ§ÛĮØ¬ ÙĨÙ¹Ø³
ĠÙ¹Ø±ÛĮÙĨ ÙĪÚº
ĠØ³ Ø§ÙĨÚ¯
ĠØ§ÛĮ Ø¦
ĠÙħÚ© ØªØ¨Ûģ
i s
Ø³ Ú©ÛĮ
ĠØ¬Ùħ Ø¹ÛĴ
ĠØ¹Ø· ÛĮØ§Øª
ĠØ Ģ
ĠØ§ÙħØªÛĮ Ø§Ø²ÛĮ
Ø±ÛĮ Ù¹Ø±
ĠØ§ÙĨ Ø´Ø§
ĠÙ¾Ø± Ùħ
ĠØ´Ûģ Ø§Ø¨
Ġ200 5
ĠØ§ÙģØ² Ø§Ø¦Ø´
ĠÚ©Ø´ Ùħ
ÙĪØ² ÙĦ
ĠØ§Ø± Ø§Ø¯ÛĮØª
ĠØ¨ÛĮÙĨ Ø¸ÛĮØ±
ĠÚĪÙ¾ Ø±ÛĮØ´ÙĨ
ĠÙħÙĪ Ø°ÛĮ
ĠØ¬ÙĨ ÙĪÙĨ
ĠØ¨Ø® Ø´ÛĮ
ĠÚ©ÙĪ ÙĨÛĴ
ĠØ® Ø§Ø´ÙĤØ¬ÛĮ
ĠÙħØ¹ Ø§Ø¦
ĠÙħÛĮ Ú¯Ø²ÛĮÙĨ
ĠØ³ÙħØ¬Ú¾ ØªÛĮ
ĠÙĦØ§ Ù¹Ú¾ÛĮ
ĠÙħÛĮÙĪØ² ÛĮÙħ
ĠØ§ÙĦ Ø§ÙĪÙĦ
ĠÙħØŃ ØµÙĪÙĦ
ĠØ¬Ú¾ ÙĨÚĪÛĴ
ÚĨ ÙĪØ±ÙĪÚº
Ø§Ø¦ÛĮ Øª
ĠÚ¯ÙĪÙĨ Ø¯ÙĦ
ĠÙĨ Ø§ÙĦÛĴ
ĠÙħØŃ ÙĤÙĤÛĮÙĨ
ĠØ§ÙĦØ® Ø¯ÙħØª
ĠØ¨Ø§Ú© Ø³ÙĨÚ¯
ĠØ±ÛĮØŃ Ø§Ùħ
ĠÙĨ Ø´ØªØ±
ĠØ¯ ÙĪØ±ÛĮ
Øª Ø§Ø±ÛĮØ®
ĠÙ¾ ÙĨÚ¯
ĠÙĦÛĮ ÙĪÙĨ
ĠØ¬Ø± ÙħÙĨ
ĠÙ¾Ú¾ÛĮÙĦ ÙĨÛĴ
ĠØ¬Ú¾Ù¹ ÙĦØ§ÛĮØ§
ĠØºØ² ÙĪÛģ
ÛĮØ§ ÙģØªÛģ
ĠØŃ Ø§ØªÙħ
ĠØ¨ÙĤ Ø§
ĠÙģ Ø±ÛĮØ¨
ÙħÙĪ Ù¹Ø±
ĠØªÙģØ±ÛĮØŃ ÛĮ
Ø¨ Ø§Ø³
ĠÙĪ Ø§ÙģØ±
ĠÚ©ÙĪ Ø§
ĠØ¬ÙĪ Ú©Ûģ
ÚĨÛĮÙħ Ù¾
ĠØ¬ Ø±ÛĮØ¯ÛĴ
Ù¾ÛĮ ÙĪ
e d
ĠØ± Ø§Ø¦ÙĪ
ĠØ· ÙĪÙĦ
Ú©Ù¾ ØªØ§ÙĨ
ĠÙħÛĮÚ©Ø³ ÛĮÚ©ÙĪ
ÛĮ ÙĪØ±
ĠØ§Ø³Ù¹ ÛĮÚ©
ĠØ¨ÙĪÙĦ ÛĴ
ĠÙĨØ§Ùģ Ø±ÙħØ§ÙĨ
ÙĤ Ø±ÛĮ
Ø³Ø§ÙĨ ØŃÛģ
ĠÙħØ¯ Ø«Ø±
Ø®Ø§ÙĦ ÙĤ
ĠØ§ÙĦØ¹Ø§ÙĦ ÙħÛĮÙĨ
Ġ K
ĠØ± Ø§Ø¦
ÚĨ Ø±ÙĦ
ĠÙ¹ ÙĪÙĦ
ĠÚĨÚ¾ Ù¾ÛĮ
ĠØ´Ø± ÙĤÛĮ
ĠØ§Ø³Ú© ÛĮÙĨÚĪÙĦ
ÙĪÛĮÙĦ ÛĮØ§Úº
ĠÙ¾Ø±Ø§Ø¦ÛĮ ÙĪÙ¹
Ø§ÙĨ ÙĪ
ÙĦÛĮ Ú¯
ØªÚ¾ Ø±ÛĮ
ĠÚ©ÛĮ Ø´
ĠÙĦ Ø§Ú©
ĠØ´ Øª
ĠÙħÛģ ÙĦÚ©
ĠØ®Ø· ÛĮØ±
Ø¹ ÙħÙĦ
ĠØªÛĮØ² Ø§Ø¨
ĠØ§ÙħÛĮØª Ø§Ø¨Ú¾
ĠØ« Ø§ÙĨÛĮÛģ
Ø¯Ùģ ÛĮÙĨ
ĠØ¨Ø³Øª Ø±
ĠÚĨÙĦ Ø§Ø¦ÛĴ
ĠØ¬Ú¾Ù¹ Ú©ÛĴ
ĠÙ¹ÛĮ ÚĨÙĨÚ¯
ĠØ§Ø² Ø¯ÙĪ
ĠÚĨÙĦ Ø§ÙĨØ§
ĠÙ¹ÛĮÚ©Ø³ Ø²
ĠØ®Ø§Øµ ÛĮ
ĠØµ Ø§Ø¯Ø±
Ù¹ÛĮ ÙħÙĪÚº
ĠØ±ÙĪÙ¾ ÛĮÛģ
Ú© Ø±ÛĮÙĨ
ĠÙģØ±ÙĪ Ù¹
ĠÛĮØ§Ø¯ Ø¯Ø§Ø´Øª
ĠØ§Ø³ØªÙĤØ¨Ø§ÙĦ ÛĮÛģ
ÛĮ Ø§ÙĨ
Ø§Ø¦ Ø®
ĠØ¹ Ø¶Ø¨
ĠØ§ÙĦ Ø¹ÙĦ
ĠÙħØ² ÛĴ
ĠØªÙĤ Ø¯Ø³
ĠØ¨Ûģ Ø±ØŃØ§ÙĦ
Ø§ÙĪ Ù¾ÙĨ
ĠØ¬ÛĮ ØªØ§
ĠÙģØ±ÙĪ Ø´
ĠØ®Ø· Ø¨Ûģ
ĠÚ©Ø± Ø¯ÙĪ
ĠÚĪ Ú¾ÛĮ
ĠØ§Ùħ Ø§Ø±Ø§ØªÛĮ
ĠÙħÙĦØ§ ÙĪÙ¹
ĠØ³ÙĪÙĨ Ùħ
ĠÚĪØ§Ú©ÙĪ Ø¦ÙĪÚº
Û ±Û
ĠØ§ÛĮ Ú¯
ĠØªØµ Ø±Ùģ
ÙĪÙħÙĨ ÛĮÙĨ
Ù¾ ÙĨÚ¯
ĠØ¢ Ú©Ø³
ØŃ Ø§Ø¬ÛĮ
ĠÚĨ Ø§ØºÛĮ
ĠØªÙħ ØºÛģ
ĠØ³Øª Ø§Ø±ÛĴ
Ú©ÛĮ Ù¹Ø³
ĠÙħÙĨ Ø³Ù¹Ø±
ĠÚĨÚ¾ÙĪÚĳ ÛĴ
Ø§ ÛĮØ±Ø§ÙĨÛĮ
ĠØ¬ÙĨ Ø¬ÙĪØ¹Ûģ
ĠØ§ÙĦØŃ ÙħØ¯
ĠÙĤØ§Ø¨ ÙĦÛĮØª
ĠÙ¾Ú¾ÙĨ Ø³ÛĴ
ĠØ³ ÚĨÛĮ
Ø§ÙĨ ÛĮØ§Úº
ĠØ¨Ú¾ Ú©Ø±
ĠÚĨÚ¾ Ø§
ĠÙ¾Ø±ÙĪ Ø§Ûģ
ĠÛĮØ±Øº ÙħØ§ÙĦ
ĠØ· Ø¹
ĠÙ¹ Ø§ÙĦ
ĠÙĨÚ©Ø§ÙĦ ÙĨØ§
Ø§Ø´ÙĨ Ú©ÙĪÙģ
3 8
ĠØ¢Ø¬ Ø§ØªØ§
ĠØ¬Ø§Ùħ Ûģ
âĢľ ÛĶ
ĠÚ©ÙĪ Ùħ
ĠØµ ÙĪØ±
ÙĪÛĮ Ø´ÙĨ
ĠØ¨ÙĨØ§ ÛĮØ§Ø¬
ĠÙĦØ§Ø¦ Ù¹Ø³
ĠØ§Ùħ ÙĪØ§ÙĦ
ÙĪÛĮ ÙĦØ§
ĠØ§Ø³Ú©ÛĮ ÙħÙĪÚº
ĠÙĨØ´ÙĪ ÙĪÙĨÙħØ§
ÙĪØ± ÙĦ
ĠØ° Ø§Ø¦ÙĤÛģ
ĠÙ¾ÛģÙĨÚĨ Ø§Ø¦ÛĴ
ĠØ¯Ú¾ ÙĨ
ĠÙĪØ± Ø§Ø«
ĠÙĦÚĳ ÛĮÚº
ĠÙ¾Ø± ÚĨÛĮ
ĠÙĪØ²Ø§Ø±Øª ÙĪÚº
ĠØ±Ø§Ø¦Ùģ ÙĦ
6 5
ĠÙĨ Ø§ÛĮØ§Ø¨
ÛĮÙĨ ÚĪØ±
ĠÛģÙħ Ø§
ĠØªØ¹ Ø¸ÛĮÙħ
ĠØ¨Ú¾Ø± ÙĨÛĴ
ĠØ§Ø³Ùħ Ú¯ÙĦ
ĠØ± Ø§Ø¦Ø¬
ĠÙĨØ¸Ø± ÙĪÚº
ĠØ¹Ø¨Ø§Ø¯ Ø§Øª
Ø§Ú© Ø³
ĠØµØŃ ÛĮ
ĠØ¹ÙĨ ØµØ±
ĠÙĪØ§Ø¨ Ø³ØªÚ¯ÛĮ
Ø±Ùħ Ø¶Ø§ÙĨ
ĠÙ¹Ú¾ÛĮÚ© Ûģ
ĠÙħØ§ÙĨÚ¯ ØªÛĴ
ĠØ§ÙĪÙĨ ÚĨÛĮ
9 0
Ú¾ ÙĦ
ĠØº ÙĪØ«
ĠÚ¯Ø² ÛĮÙĨÙĪÚº
ĠÚ¯Ú¾ ÙĨ
ĠÙ¾Ø±ÙĪÙ¹ ÛĮÚ©Ø´ÙĨ
ĠÚ¯ÙĪÙĦÛĮ ÙĪÚº
ĠØ¨Ø§Ø¤ ÙĦÙĨÚ¯
ĠÙĪ Ø¨Ø§ÙĦ
ĠÚĪØ± Ø§ÙĨÛĴ
ĠØ¹Ø² ÙĪ
ĠÛĮÚ© Ù¹Ø±
ĠØ¨ÛĮÙħØ§Ø± ÛĮØ§Úº
ĠØ¬ÙĪ ÚĳØ§
ĠÚĪÛĮ Ø±ÛĮ
ĠÙĨÙĤ Ø´Ûģ
ĠØ§ÙĦ Ø§ØŃ
ÙĦØ§Ùģ ÛĮ
ĠØªÙĤ ÙĦÛĮØ¯
ĠØ§ØªØŃØ§Ø¯ÛĮ ÙĪÚº
Ùģ ÙĦØ³
ĠØ³ Ø³Ø±
ÙĤ Ø§Ùħ
Ø³Ø± ÙĪØ±
ÚĨÚ© ÙĪØ§ÙĦ
ĠÙĨÚ©ÙĦ ÙĨØ§
ÙĪÙĨ Ù¹Ø³
ĠÙĨÛĮ ÙĪÛĮ
Ø³Ùħ ÙĨÙ¹
ĠØªÙĨ Ø§Ø¤
Ø§ÙĦ Ø¦ÛĮ
Øµ ÙĨØ¹
ĠØ² Ûģ
Ø³Ù¹ Ú¾
ĠØ¨ÙĦ ÙĪÚº
ĠØŃØ³ Ø¯
ĠØ§ÙħÛĮ Ú¯Ø±ÛĮØ´ÙĨ
ĠÙħÙĦØ²Ùħ ÙĪÚº
Ø§Ú¯ ÙĦÛĴ
Ø® Ø¯Ø§
ĠØ´ÛĮ Ø´ÛĴ
ĠØ³Ø±Ú© Ù¹
ĠØ¯Ø¨ Ø§ÙĪ
ĠÙħÙĦØ¨ÙĪØ³ Ø§Øª
ĠØ®ÙĪ Ø´ÙĨ
ĠØ¬ÙĦ ÙĪÛģ
Ø¹ Ø·
Ø¹ÙĦØ§ÙĤ ÛĴ
ĠØ¬ Ø±ØŃ
ĠÙĦ Ø¦ÛĮ
ÚĪ ÛĮÙĦ
ĠØ¹ ÛĮÙĨÛĮ
ĠÚĨ ÙĨØ§
ĠØ¹Ùħ ÙĪÙħÛĮ
ĠÙħØ¬Ø±Ùħ Ø§ÙĨÛģ
ĠÙ¾ÛĮÚĨ ÛĮØ¯Ûģ
Ø§ÙĨÚ¯ÙĦ ÛĮÙĨÚĪ
Ú¯ Ø±ÛĮÙĨ
Ø² ÙĨØ¯Ú¯ÛĮ
ĠÙħÙĪÛĮØ´ÛĮ ÙĪÚº
Ú¯ÙĪ Ø¦ÛĮ
ĠØ¨Ú¯ Úĳ
ĠÚ©ÙĪ ÙĦÙħ
Ø§ÛĮ ÙĪÙĨÙ¹
ĠÚĪØ± Ø§
ĠÚĨÙĨ Ø§Ø¨
ĠÙĦ Ø°
ĠØ´ Ø±Ùģ
ĠØ±Ø§Ú© Ù¹
Ø³ Ø±Ùģ
Øµ Ø±ÛĮÙĨ
Ø§Ø³ Ø³Ù¹ÙĨÙ¹
ĠØ¯Ø¨ Ø§ÙĨÛĴ
1 00
Ø¨ Ø²
ĠØ§ÙĦ ÙħØ§ÙĦ
ÙģÛĮ Ø§ÙĨ
ĠØ´ÛĮØ± ÛĮÚº
Ú© Ø§Ø¨ÙĦ
Ø¬ ÛĮÚ©
ĠØ±ÙĪ Ø¦ÛĴ
ĠÚĪÛĮ Ø³Ú©
ĠÙħØ¯ Ø¹ÛĮØª
ĠÙħØ¨ ÛĮÙĨ
ĠÙĨØ§Ø²ÛĮ Ø¨Ø§
ĠÙĨ Ø§Ø¦ÛĮÚ©
ĠØ± ÛĴ
ĠÛģÙĪ Ø´ÛĮ
ĠØ±ÙĨÚ¯ ÛĴ
ĠØ§ÛĮÚĪÙħÙĨØ³Ù¹Ø±ÛĮ Ù¹Ø±
Ø§ÙĪÙĨ ÚĪ
ĠØ³ÙĪÙĦ Ø±
ĠØ´ÙħØ§Ø±ÛĮ Ø§Øª
Ø§Ø³ Ù¹Ø±
ĠØ¹ÙĪØ§Ùħ ÙĦ
ÙĦÙĪ Ø§
Ù¾ÛģÙĨÚĨ Ø§
Ø§Ø± ÙĪ
ØŃ Ø¬
ĠØ¨Ú¾ ÛĮÙĨØ³
ĠØ¯Ø§Ø³Øª Ø§ÙĨ
ĠØ± Ø§ÙĪ
ĠÙ¾ÛĮ Ù¹Ú¾
ĠØ§ÙĨÚĪ Ø³
Ġ0 4
ĠÙĪÚĳ Ø§Ø¦ÚĨ
ĠØ§ ÚĳÚ¾Ø§Ø¦ÛĮ
Ú©Ø§Ø± Ø±ÙĪØ§Ø¦ÛĮ
ĠØ³ Ø³ØªØ§
ĠØ®ÙĦØ§Ùģ Øª
ĠÙ¾ÛģÙĨÚĨ ØªØ§
ĠØŃØ³ÙĨ ÛĮÙĨ
ĠÙ¹ Ø±Ø¨ÛĮ
Ù¹ÙĪ Ú©ÛĮÙĪ
ÙħÙĤØ± Ø±ÛĮÙĨ
ĠØª Ø§ÙĨ
ĠØ§Ø³ Ù¹ÙĪ
ÙĨÛĮ ØªÛĮ
ĠÙ¾Úĳ ØªÛĴ
ĠØ§Ø¯Ø§Ú© Ø±
Ù¹ÛĮ ÚĪ
Ø¶ Ø§ÙĦ
ĠØ¨Ø¯ ÛĮÙĨ
ĠØ¨ØŃ ÛĮØ±Ûģ
ĠØ³Ø§Ø¦ÙĨØ³ Ø¯Ø§ÙĨ
ĠÙ¾Ø±ÙĪØ§Ø² ÛĮÚº
ĠØ¯Ø± Ú¯Ø²Ø±
ĠØ³ÙĦØ§Ùħ ÛĮ
ĠØ®ÛĮØ± ÙħÙĤØ¯Ùħ
ĠÙĪØ¹ ÛĮØ¯
ÙĦ Ø§ØªÛĴ
ĠÚ©ÛĮ ÚĳÙĪÚº
ĠÙ¾ Ù¹ÛĮØ´ÙĨ
Ø¬Ø§Ùħ Ø¹
ĠÚĨØ§ÙĤ ÙĪ
ĠÙĪ ØªØ±ÙĤÛĮ
ĠÙĤ Ø¨ÛĮÙĦÛģ
ĠÚ©Ú¾ Ø§ÙĨÙĪÚº
ĠÙĪØ· ÙĨÛĮ
ĠØªØ§ØŃ ÛĮØ§Øª
ĠØ±Ø¶Ø§Ùħ ÙĨØ¯ÛĮ
Ġ H
Ûģ ÙĨÚ¯
Ø³Ø± ÙħØ§ÛĮÛģ
ĠÙģÙĦ ÙĪØ±
ÙĪØ· ÙĨÛĮ
ÙĦ ÚĳÙĨÛĴ
ĠØ¨ Ø§Ø¨Øª
ĠØª ÛģØ±Ø§ÙĨ
Ø§ÙĦ Ø§Ø¦ÛĮ
ĠØ§ÙĦ Ø§Ø±Ø¶
ĠÙ¾ÛĮ ÙĦÙ¹
Ø¯Ø§ÙĦ ÙĦÛģ
ĠØ§ÙħÛĮØ¯ ÛĮÚº
ĠØ§ÙĨØ¯Ú¾ÛĮ Ø±ÙĪÚº
ĠÙħÙĦØŃ ÙĪØ¸
ĠÙĤØ§Ùģ ÙĦÛģ
ÚĨÙĨ Ø§ÙĨÚĨÛģ
ĠÚ©ÙĪ Ø¯
ĠØ±Ø¶Ø§Ú© Ø§Ø±
Ø§Ø±ÛĮ Ø¨
ĠØ§Ø¬ ÙĨØ§Ø³
ĠÛĮÚ© Ø³Ø±
ĠÚ¯Ø§Ø±ÚĪ ÙĨ
Ùħ Ø§Úº
ĠØ§ ÚĪÙĪÚº
ÙĪÛĮ Ø³Ù¹
ĠØ¨Ø´ Ø±ÛĮ
ĠÚĪÚ¾ Ø§ÙĨÚĨÛĴ
ĠØºØ± ÙĪØ±
ĠÙĪ ÚĪÛĮÙĪ
ĠÙħÛĮ ÚĪÛĮ
ĠÙĪØ² Ù¹
ĠØ³ÛĮÚ©Ø±Ù¹Ø±ÛĮ Ø²
ĠØ¸Ø§ÙĦÙħ Ø§ÙĨÛģ
ĠÙħØ§Ûģ Ø±Ûģ
ĠÚ©ÙĨÙ¹ ÙĪÙĨÙħÙĨÙ¹
ØªØ¹ ÙħÛĮØ±
ĠÙĨÙĪÚ©Ø±ÛĮ Ø§Úº
ĠØ¹Ø¨Ø¯Ø§ÙĦØ±ØŃ ÙħØ§ÙĨ
ĠØªØ± ÙħÛĮÙħÛĮ
ĠÚ¯ÙĦ Ø³ØªØ§ÙĨ
ĠÙĪØ±Ø« Ø§
ÙĤ Ø¯
ĠØ§ÙĦ Ø¨ÛĮØ§ÙĨ
ĠÙĪÙģ Ø§
ĠÙĦÙħØ¨ ÛĴ
ĠØ¯ÙĨÛĮ ÙĪÛĮ
ĠØ¨Ø± ØµØºÛĮØ±
Ú©Ø± ÙħÛģ
ĠØ§ÙĪÙĦ ÚĪ
ÙħØ³ÙĦÙħØ§ÙĨ ÙĪÚº
ĠØ±Ø³ÙĪÙħ Ø§Øª
ĠÙģ Ú©ÛĮØ´ÙĨ
Ø¢ ÙĪØ±
ĠØ¨Ø± ÛģÙħ
Ø§ÙħØªÛĮ Ø§Ø²
ĠÙ¾ ÙĪÙħ
ĠØ¹ Ø§ÙĦÛĮ
ĠÙ¾Ø± Ø¯ÛĴ
ĠÙħÙģ Ø§ÛģÙħØª
ĠÙħØ§ ÛĮÛģ
Ġ200 2
ĠÙĤÙĦ ÙĨØ¯Ø±
9 6
ĠÙħ ÙĪÙħ
ĠØª Ø¯ÙģÛĮÙĨ
ĠØ¢Ø± Ø§Ø¦ÛĮÚº
ĠÙħÚĨ ÙĦ
ĠØ§ÙĪÙĨ Ø³
ĠÛģ Ø§Ú©ÛĮ
ĠØ³ÙĪÙĨ Ù¾
ĠØ¨Ø³ØªÛĮ ÙĪÚº
Øª Øµ
ĠÙĦ Ø§Ø¯
ĠÙģØ± Ø§ÙĨØ²Ú©
ĠØ¨ÚĳÚ¾ ÙĨØ§
ĠÙģÙĪ Ú©ÙĦ
ĠÙ¾ÙĨØ¬ Ø§Ø¨ÛĮ
ĠÙ¾Ø§Ùħ Ø§ÙĦ
ÙħØ± ÛĴ
Ø¯ÙĪ Ø´
ĠÙħ Ø§ÙĨÛĴ
Ø¨ Ø±Ø¯Ø§Ø±ÛĮ
ĠØº ÙĪØ±ÛĮ
ĠØ³ÙĨ ÛģØ±ÛĮ
Ú¯Ø² Ù¹
ĠØ´ÛģØ¯ Ø§Ø¦ÛĴ
ĠØ§ÛĮÚ©Ø³Ù¾ ÙĪ
ĠÙħÙĪØ¶ Ø¹
ĠØ¨Ø§Ø¦ ÙĪÙĦÙĨÚ¯
ÙħØ§Ø³ Ú©ÙĪ
ĠØ³ Ø§Ø¯Ú¯ÛĮ
ĠØ§ÛĮØ³ ÙĪ
ĠØ³Ùħ Ø¬Ú¾ÛĮ
ĠØ¹Ø¯ Øª
ĠØ§ÙĪÙĦÛĮ Ø§Ø¡
Ùħ ÙĤØª
ĠÙ¾ ÛĮØ§
Ø§Øª Ú¾ÛĮ
ĠÙĤ Ø§ØµØ±
ÙĨÙ¹ ÙĨ
ĠØ§Ø¹ Ø±Ø§Ø¶
ĠØ§Ø¹Øª Ø²Ø§Ø²
ĠÙĦ ÛģÙĪ
Ø§Ù¾ ÛĮ
ĠØ¨ÙĪÙĦ ØªØ§
ĠØŃØ¬ Ø§Ø¨
ĠØ¹Ú© Ø§Ø³ÛĮ
Ú© Ø§Ùģ
Øº ÙĪØ±
ĠØ³Ûģ ÛĮ
ĠØ±Ø§Ûģ ÛĮÚº
ĠØ§ÙĦØ¹ ÛĮÙĨ
ĠØ§Ø¯Ø§Ø¦ÛĮÚ¯ÛĮ ÙĪÚº
ĠÚ©ÙĨÙ¹ ÛĮÙĨØ±
ÙĤ Ø§Ø¨ÙĦ
ĠØŃ Ø±Ú©Ø§Øª
ĠØº Ø±Ø¨ÛĮ
ĠØ³Ø§Ø² Ú¯Ø§Ø±
ĠØ§ØªØ± ÛĮÚº
ĠÙ¾Ø±ÙĪÙ¹ ÛĮÙĨ
Ø¯ Ø³Øª
ĠØ±ÙĪØ² ÙħØ±Ûģ
ĠØ¨ØŃ Ø±ÛĮÙĨ
ĠØ³ÛĮÙĨ Ù¹Ø±Ø²
Ø³Ù¹Ø± ÙĪÙĦ
ÙĨ Ø§Ø³Ø¨
ĠØ¨ Ø®Øª
ĠØ¨ÙĨ Ø§Ø¯ÛĮ
ĠØªÙĨØ¸ÛĮÙħ ÛĮÚº
ĠÚ¯ Ù¹
ĠØ¦ ÙĦ
ĠÙ¾Ù¹Ú¾ Ø§ÙĨ
ĠÚ©Ù¹ÙĪ ØªÛĮ
ÙĪ ÛĮÙĨ
Ùħ Ø§Ø¦ÛĮ
ĠØ¯ ÙģØª
ĠØ§Ø¨ ÙĦÛĮØ³
ĠØ§ÙĨØ¯Ø§Ø² ÛĴ
ĠØ±ÛĮ ØŃØ§ÙĨ
ĠØ¸ ÛģØ±
ĠØ§Ø² ÙĪØ§Ø¬
ĠÚĨØ§Ø± Ù¹Ø±
ĠÚ©ÙĪÙĨØ³ÙĦ ÙĪÚº
ĠÙ¾ÙĦ Ø³
ĠØ³ÙĨÙ¹ Ø±Ø²
ĠØ° Ø±
ĠØµÙĦØ§ØŃÛĮØª ÛĮÚº
Ø§ÙĨØª Ø¸
ĠØ®ÙĦ ÙĪØµ
ĠÙģÛĮÚ©Ù¹Ø±ÛĮ ÙĪÚº
ĠØª ÙĪÙĦ
Ùģ Ù¹ÙĨ
Ø±Ø¨ Ø§
ĠØ¹Ø¨Ø¯Ø§ÙĦ ÙĤÛĮÙĪÙħ
ĠÙĨÚ©ÙĦ ØªÛĴ
ĠÚ¯ ÚĳÚ¾ÛĮ
ĠØ±ÙĪ Ø§Ø¯Ø§Ø±ÛĮ
ĠÙħÛĮ ÚĪÛĮØ§Ø³Ø±ÙĪØ³
ĠØ¢Ø± Ø§Ø¦Ø´
ĠÚ©ÚĨ Ø±ÛĴ
Ø¨ ÚĨÛĴ
ĠØ¯ Ø§ÙĪ
Øµ Ûģ
ĠÙĪÚ© ÙĦØ§
ĠÙĪ Ø§Ø´ÙĨÚ¯Ù¹ÙĨ
ĠÚĨ ÙĨÛĴ
ÙħØ§ÙĨ ÙĪÚº
ĠÙħØ¹Øª Ø¨Ø±
ĠÚĺ ÙĪØ¨
ĠØº Ø§Ø±
ĠØ¬Ø§ÙĨÛĮ ÙĪØ§ÙĦÛĴ
ĠÛģ Ø¶Ùħ
ĠØ§ÙĦ ÙħØª
ĠØ§Ú© Ø§ÙĨ
Ø¸ÛĮ ÙħÛĮ
Ûģ Ø§Ø¦ÛĮÚ©ÙĪØ±Ù¹
ĠØ³Ø± Ø§Ù¾Ø§
ĠÚ©ÙĦ Ú©
ĠØ§Ø´Øª ÛĮØ§ÙĤ
ĠØ³ÙĨÚĨ Ø±ÛĮ
ĠØ§Ø¬ Ø±Øª
ĠÚ©Ù¾ ÚĳØ§
ĠÚĪØ± ÙĨÛĴ
ØŃ Ø¯ÛĮØ«
ĠØ±ÙĪÚ© ØªÛĴ
ĠÙĨÚ©Ø§ÙĦ ÛĮÚº
ĠÙ¹Ø± ÙħÛĮÙĨ
ĠØ§Ø¯ Ú¾
ĠÚ©ÙĦ Ø§Ø´ÙĨÚ©ÙĪÙģ
ĠÙħØ±Ø¯ Ùħ
ĠÙ¹Ø±Ø§ÙĨ Ø³ÙħÛĮ
ØªÙĨ Ø¸ÛĮÙħ
ĠØªØ¹ ÙħÛĮÙĦ
ĠØªØ§Ø± ÛĮÚ©
ĠÚĪÛĮ ÙĪÙĦ
ĠØµÙģ ØŃØ§Øª
ĠØ§ÙĦØ¹ Ø¨Ø§Ø¯
ÙħØ³ Ø§Ø¦ÙĦ
ĠØ´ÛĮÙĦ ÚĪ
ĠÙĨØ´ ÛĮÙĨ
Ù¾Ø§Ø± Ú©Ø±
ĠØ§ÛĮ ØµØ§ÙĦ
ĠÙ¹ Ø±ÛĮØ¨ÙĪÙĨÙĦ
ĠÙ¾ÙĪ Ù¹
ĠÙĪ Ø§Ø±ÛĮ
Ù¾ ÚĨÚ¾
ĠÙĦ ÙĨÚ¯
ĠÙ¾ÛĮ Ø§Ø³
ĠØ¬Ø² Ø§Ø¡
ĠÚ©Ø±Ø¯ Ø§Ø±ÙĪÚº
ĠÙħØ´Ø±ÙĪ Ø¨
Ø§ÙĨØ¬ ÛĮÙĨØ¦Ø±
ĠÙĦØ³ Ø¨ÛĮÙĦÛģ
i c
Ø¨ ÛĮÙĦ
ĠÚ©Ø± Ø´
ĠØ¢Ø² ÙħØ§
ĠØ·ÙĦ Ø§Ø¦ÛĮ
ĠÚ¯ÙĨØ¯ ÛĴ
ĠØ´Ø¨Ûģ Ø§Øª
ĠÚĨÚĳ Ú¾Ø§
ĠÙ¹Ø±ÛĮ ÚĪÙĨÚ¯
ĠØ§ÛĮ Ø´ÙĪ
ĠØ§ÙĦØªØ± Ø§Ø«
ĠØ´Ø§Ùģ Ø¹ÛĮ
ĠÛģ Ø§ÙĪ
ĠÚ©Ø§ Ú©
ĠØ¨ÛĮØ± ÙĦ
Ø¹ÙĦÛĮ ÙħÛĮ
ĠÚĨÚ¾Ù¾ Ø§Ø¦ÛĮ
ĠÚ©Ø±Øª Ø§Ø±
ĠÚ© ØªÙĪÚº
Ú¯ Ø§ÙĦ
ĠØ´ÛĮ Ø·
ĠØ§Øµ ÙĪÙĦÛĮ
Ù¾Ø§Ù¹ Ø§Ø¦Ù¹Ø³
ĠÙħØŃØµÙĪÙĦ Ø§Øª
ĠØ± Ø±ÙĪØ§Ø¦ÛĮ
ĠÚ©Ùħ Ø§ÙĨÛĴ
ĠØ¨ÛĮÙ¹Ú¾ ÛĮÚº
Ø´ Ø§Ø¯ÛĮ
ĠÙĦÙĪ Ø¦Ø±
Ø±ØŃ ÛĮÙħ
ĠØ³Ø±Ú¯Ø± ÙħÛĮ
ĠØª ØºÛĮØ±
ĠØº Ø§Ø±Øª
ĠÙĨÙĪØ± Ø§ÙĨÛĮ
ĠÙģØ§Ø¦ÛĮ ÙĪ
ĠØŃØ¯ÛĮ Ø¨ÛĮÛģ
ĠÙħØ¬ÙħÙĪ Ø¹Ûģ
ÙĨØ§Ùħ ÛĴ
ÙģØ±ÙĪ Ø®Øª
ĠØ¹Ø²ÙĪ Ø¬ÙĦ
Ø¯ Ø´
Ú¯ Ø§Úº
ĠØ³Ùħ Ú¯ÙĦ
ĠÛģÚĪÛĮ ÙĪÚº
Ø¨Ø¬ ÙĦÛĮ
ĠØ§Ùħ ØªÙĪÚº
ĠØ¬Ø² ÛĮØ±ÛĴ
ĠØ¨Ú¾Ø§Ú¯ ÙĨÛĴ
ĠÚ¯ ÙĦØ§
ĠØ³Ùħ Ú¯ÙĦÙĨÚ¯
ÙĪ ØªØ§
ĠÙĦ Ù¹Ú©
ĠØ´ ÛĴ
ĠØ´Ø¹ Ø±
ĠØŃÙĪØ« ÛĮÙĪÚº
Ú¯ÛĮ Ø´ÙĨ
ĠÚ©Ø´ ÙĪÚº
Ø³ Ø±ÙĪØ³
ĠÚĨÛĮØ¦Ø± Ù¾Ø±Ø³ÙĨ
ĠØ§Ø¯ ÛĮØ¨
ĠØ³Ø§Ø¦ÛĮÚ©ÙĦ ÛĮÚº
ĠÙĪÙĦ Ø§Ø¯Øª
\ "
ĠØ« Ø§ÙĦØ«
ĠØ¯Ú¾Ùħ Ú©ÛĮÙĪÚº
K V
ĠØ¨ÚĳÚ¾ ÛĮÚº
ĠÚ¯Ø±Ø¯ ÙĪÙĨÙĪØ§ØŃ
Ġ7 00
ĠØ¹Ø¨Ø¯Ø§ÙĦØº ÙģÙĪØ±
ĠØ§ÙĨÙģ ÛĮÚ©Ø´ÙĨ
ĠÙħ Ø§Ø¯Ø±
ĠØ¹ ÙħÛĮØ±
ĠÙĨÚ© ÙĦÛĮ
ĠÙģÙĨ Ú©
ĠØ¨Ø§Ø¹ Ø²Øª
ĠØ¯Ø±Ø¢ÙħØ¯ ÛĮ
ĠÙĦÙĤ ÙħØ§ÙĨ
ĠØ¯ Ø§ÙĨØª
ĠØ¨Ûģ Ûģ
ĠÙħÚ© Ø§ÙĦ
ĠÚ©ÙĪ ÚĳØ§
Ø¢ Ø¦ÛĴ
ĠØ·ÙĦ Ø¨ÛĮ
ĠØ®Ø´ Ú©ÛĮ
ĠÙ¾Ø± Ø³Ú©ÙĪÙĨ
ĠØ³Ø¨ ØŃ
ĠÚ©ÙĦØ§Ùħ ÛĮ
ĠÚ¯ ÙĦÛģ
ĠØ¬ÙĪ ØªÛĴ
ĠØ±ÛĮ Ø§ÙĦ
ÙĪÚĳ ÙĪ
Ġ10 5
ĠÚ¯ÙĪÙĨ Ø¬
ĠÚ©ÙĪÚĨ ÙĨÚ¯
ĠØ¨ØŃØ± Ø§ÙĨÙĪÚº
i on
ĠØ§Ø° Ø§ÙĨ
ĠÙħÙĪ Ø§Ø²
ĠÚĨÚ¾ Ù¹ÛĴ
ĠØ¢Ú¯ ÛģÛĮ
ØµØŃ ÛĮØŃ
ĠÙ¹Ø§Ø¦ÛĮ Ú¯Ø±
ĠÙ¾ Ú¯Ú¾
ĠØ¯Ø§Ø¦Ø± ÛĴ
ĠÙ¾Ø§Ú© Ù¾ØªÙĨ
ĠØ³ÙĪ Ú¯ÙĪØ§Ø±
Ġ\ "
Ûģ Ø§Ùħ
ĠÛģÙĪ Ø§Ø¦ÛĮÚº
Ø§Ø³ ÙħÛĮ
Ø§Ø¹ ÙĦ
ĠÚ¯ÙĦ Ø§ÙĦØ¦ÛĮ
ĠÙĪ Ø³ÛĮ
ĠØ¢ ÙĪÙ¹
ĠÙħØµ Ø§ÙĦØŃÛģ
ĠØ§ÛĮÚĪ Ø¬Ø³Ù¹
Ù¾Ûģ ÙĦØ§
ĠØ¨ÙĤ Ø±Ûģ
ĠØ¬Ø¹ ÙģØ±ÛĮ
ĠØ§ÙĦØ¹ÙĦ ÙħÛĮÛģ
Ù¾ Ø¨ÙĦÚ©
ĠÚ©Ø§ Ù¹ÙĨ
ÙĪØ¨ Ø²
Ø¨ÛĮ ÙĪ
Ø§Ø· ÛĮ
ĠØ¨Ø® Ø§Ø±
ĠØ±Ø§Ûģ ÙĨÙħØ§
ĠÙĪØ±Ú© Ø±
ĠØ§ÛĮÙ¾ ÙĦÛĮ
ĠÙĦÛĮØ¨ ÛĮØ§
Ùħ Ø±ØŃ
Øª Ú¾Ø±
ÙĪØ¯ ÛĴ
ĠÚ©ÙĨÙ¹Ø±ÙĪÙĦ Ø±
ĠÙģÙĨ Ø§ÙĨ
ĠÙħØ±Ø§Ø³ ÙĦÛģ
ĠØ´ ÛĮÙĨ
ĠÙĨÙħ ÙĪØ¯
Ø§Ø® Øª
ĠØºÙĦØ· ÛĮÙĪÚº
ĠØ¹Ø´ ÙĤ
ĠØ¬Ø§ÙĨØ¨Ø¯Ø§Ø± Ø§ÙĨÛģ
ĠÚ© Ø§Ø±Øª
ĠÙ¾ Ø§Ø¦ÙĪÚº
ĠÙĨÙĪ ÛĮÚº
ĠÚ©Ú¾ Ù¹
ĠÚ©Ø´ ÛĮØ¯Ûģ
ĠÙ¾ÛĮØºÙħØ¨Ø± ÙĪÚº
ĠÚ©Ú¾ Úĳ
Ù¾ÙĪØ± ÛĴ
ĠÙĨ Ø§ÙĦÛģ
ĠÙ¾ Ø§Ø¯
ĠÛĮ Ø²
ĠÙ¹ ÙĦ
ĠØ¨Ûģ Ø§ÙĨÛģ
ĠÙĤØ· Ø§Ø±
ĠØªØ§Ø± Úĳ
ĠØ®Ø±ÛĮ Ø¯Ø§
ĠØ¹ ÙĨÛģ
ĠÙĨÚ©ÙĦ ØªØ§
Ø¯ÛģØ´Øª Ú¯Ø±Ø¯
ĠÙģØŃ Ø´
ÙĨ Øµ
ĠØ¢ Ø´
ĠØ¯Ú¾ ÙĪÙĦ
ĠØªÙĨØ§Ø² Ø¹ÛĴ
ĠÙĨØ§Ù¾ Ø§Ú©
Ø¨ÙĦ Øº
Ø²ÙĦ Ù¹
ĠØ¹ÙĤ ÛĮÙĦ
ĠÚ© ÙĨØ²
Ú©Ø± Ùħ
ĠÚ¯Ø² Ø§Ø±Ø§
ĠÚ¯Ø² Ø±Ø§
ÙģÙĦØ³ Ø·
4 6
ĠÛģ Ø³Ù¾
ĠØ¨Ø± ØŃÙĤ
Ø´Øª ÛĮØ§Úº
ĠØªØ±Ø¨ ÛĮ
ĠÛ±Û´Û °Û
ĠØªØ§ÙĦ Ù¾ÙĪØ±
Ø§ÙĦ Ø·
Ø§Ø´ Ø¯
ĠÙ¹Ø±Ø§ÙĨØ³ ÙģØ§Ø±
ĠÙ¾Ø± ÙĨØ¯ÛĴ
Ø±ÙĪ Ø³ÛĮ
ĠØ³ÛĮ Ø¨
ĠÙ¹ÛĮ ÚĨØ±Ø²
Ø±Ûģ ÙĨÙħØ§
ĠÛ±Û ±
ĠØ±ÙĪØ¨ ÙĪÙ¹
Øµ ÙĦÛĮÙ¹
ĠØ¬Ø² ÙĪÛĮ
ĠÚ©ÛĮ ÚĪÙ¹
Ø§ÙĨ Ú¾ÛĮÚº
Ø§Ø¦ ÛĮÙĨ
Ø§Ú© Ø«Ø±
Ø±Ø¯ Ú¯ÛĮ
ĠÙħØ®ÙĦÙĪÙĤ Ø§Øª
ĠÙ¹Ú¾Ú© Ø§ÙĨÙĪÚº
ĠØ¨ÛĮ Ù¹Ú¾ÛĮ
Ø³Ù¾ Ø§ÙĨØ³
ĠØªØ¯Ø±ÛĮ Ø³ÛĮ
Ø³ ÛĮÙĨÛĮ
ĠØª ÙĦØ§ÙģÛĮ
Ø±Ø¯ ÙĪ
ĠØ¨ÛĮ ÙĪÛģ
ØªÙħ Ø§ÙĦ
ĠØ¹Ø´ Ø±Øª
Øª ÛģØ±Ø§ÙĨ
ĠØ³Ù¹ÛĮØ´ÙĨ Ø²
ĠÚ¯ÛĮØ± ÙĪÚº
Ø´ Ø§ÛģÛĮ
Ø¹Ø§ÙĦ Ùħ
Ø§Ø¹ ÙĦØ§Ùħ
ĠØ¯Ú¾ÙĪ Ú©ÛĴ
Ø¯ Ú¯Ø§ÙĨ
ĠØ§Ø² Ø§ÙĦÛĴ
ÙħØ¹ Ø§Ø´ÛĮ
ĠÛ±Û ¹Û
ÙĦÛĮ Ø¦Ø±
ĠÚĨ ÙĨØ§ÚĨÛģ
ĠÙĨÙĪØ§Ø¨ Ø²Ø§Ø¯Ûģ
Ú© Ø±ÛĮÙħ
ĠØ±ÙĪ Ù¹Ø³
ĠÙħØ¬ ÙħØ¹
ĠÙħØµ Ø±ÙĪ
ĠØ§ÙĨÚĪ ÙĪÚº
Ø§ ÛĮØ±Ø§ÙĨ
ÙĨ ÙģØ±
ØµÙĪØ¨ ÙĪÚº
ĠÙħØ³Øª ÙĤÛĮÙħ
Ø§ÛģØ¯ ÛĴ
ĠÚ¯Ø² Ø§Ø±ÛĮ
ĠØ¢Ùģ Ø§ÙĤ
ĠÙħØŃØ±ÙĪ ÙħÛĮÙĪÚº
Ø§ÙĦ ÛĮÛģ
ĠÙħØŃ Ø§ÙĦ
Ø¨Ûģ ØªØ±
Ø§ÛģÙħ ØªÛĮ
ĠØ¨Ø±Ûģ Ø§ÙĨ
ÛĮ ÙĪÙĨ
ĠØ® ÛĮØ§
ĠÚ©Ùħ Ø³ÙĨ
ĠØ¢Ø¬ Ø§ØªÛĮ
ĠØ¹Ø¨Ø¯Ø§ÙĦ ÙĪ
ĠØ³Ø±Ø® Ø±ÙĪ
ĠÙħÙħÙĨ ÙĪÙĨ
ÙĨØ¹ ÛĮÙħ
ĠÚ© Ø§Øª
Ø¬ Ø±Ùħ
ĠÚĨ ÙĪÙ¹ÛĮ
ÛĮØª Ú¾
ĠØªØ¹ Ø§Ø±Ùģ
Ø²Ø® ÙħÛĮÙĪÚº
Ø¶Ø± ÙĪØ±Øª
ÙħØ¹Ø§ÙĦ Ø¬ÛĴ
Ú¯ Ø§Ø±ÙĪÚº
ÚĨ Ú©Ø§
Ú©Ú¾ ÙĦ
ĠØ§Ø³Øª Ø«ÙĨÛĮ
ĠÚ¯Ø± Ø§ÙĨÛĴ
ĠØ¯Ø³Øª Ú¯ÛĮØ±
ĠØ±ÙĨÚ¯ ÙĪÚº
Ø§ÙģØª ØªØ§ØŃ
Ø³ÛĮÚ© Ø±ÛĮÙ¹Ø±ÛĮ
ĠØ¨ÛĮ Ûģ
ĠÙ¾Ûģ ÙĨÛĴ
ĠØ§ÙĦÙħ Øµ
ĠØ®ÙĪØ´ÛĮ ÙĪÚº
Ø³Ù¾ÙĦ ÙĨ
ĠÙħÙĨÙĤ ÙĪÙĦ
ĠÚ©ÙĪØ¦ ÙĦÛĴ
ĠØ§ÛĮÙĨØ¬ ÙĦØ³
Ø¹ Ø±Ùģ
ĠØ¬Ø§Ø± Ø¬
ĠØ¢ ÙħØ±
ÚĪ ÙĪØ±
ÚĪ ÙĪÙĨÙĦÚĪ
Ġ200 6
Ø· Ø§ÙĦØ¨
ĠØ³ÙĪØ§ÙĦ ÙĪÚº
Ù¹ ÙħÙĨÙ¹
ĠØ¯Ú¾ Ø§Ø±ÛĴ
ĠØ¨Ø²Ø¯ ÙĦ
ĠÙ¹Ø±Ø§ÙĨØ³ÙħÛĮ Ø´ÙĨ
ĠÙ¾ Ø§ÙĪ
ĠØ§Ø¬ Ø±Ø§
ØªÚ¾ Ø§ÙĨÛģ
ĠÙħØ±Ø¯ Ø§ÙĨÛģ
ÙħØ¹ Ø§Ø´
ĠØ³ ØŃ
ĠÚ©ÙĪ ÚĳÛĴ
Ø§Ùģ Ø³ÙĪØ³
ĠØ§Ø¹ Ø²
ĠØŃÙĦ ÙģÛĮ
ĠÙĨØ§Øµ Ø±Ùģ
ĠÙĦ ÙĪØ±
ĠÚ©ÙĦ ÙĨÚ¯
ĠØ±ÛĮÚ¯ ÙĪÙĦØ±
Ø¹ Ø§Øµ
ĠÙħÙĪ Ù¹Ø±ÙĪ
Ø° ÙĪÙĦ
ÙħÙĪ ÙĤØ¹
Ġ14 0
ĠØ§Ø³Ú©ÙĪÙĦ Ø²
ĠØ¢ÙĪØ§Ø² ÛĮÚº
ĠØ¹Ø§Ø¯ Ø§Øª
ĠÙħØ¹ Ø§
ĠØ¨ÚĨ Ø§ÙĨØ§
Ġ18 0
ÙģÛĮØµ ÙĦÛĴ
Ø§Ùħ ÙĨÛĮ
ÙĪÛĮ Ø³ÛĴ
ĠÚ¯ÙĪØ±ÙĨØ± Ø³ÙĨØ¯Ú¾
ĠÛģØªÚ¾Ú©ÙĨ ÚĪÙĪÚº
ĠÛĮØŃÛĮ ÛĮ
ĠØ³ÙĪ Ø§Øª
ĠÚĨÚ¾ ÙĪÚĳÛĮ
ĠØ¯Ú¾ÙĪ Ú©Ø§
ĠØ§ÛĮÙĪÙĨ Ù¹Ø³
ĠØªØ§ÙĪ ÛĮÙĦ
ĠÙħÙĨØ¬ ÙħØ¯
ÛĮÚ© ÚĨØ±
ĠÚ©ÙĨ ÚĪÛĮØ´ÙĨ
ĠÚ¯Ø²Ø± ØªÛĴ
ĠÙ¹Ú¾Ú© Ø§ÙĨØ§
Ø§ÙĦ Ø±Ø²
ĠØ§ÙĨ Ø§Ø±
Ø¨Ø± ÙĦÙĨ
ĠØ±Ø² Ø§ÙĤ
ĠØ¯ Ø®Øª
ĠÚĨ ÙĨÚ¯
ĠØ¨ÙĨ Ø§ØªÛĮ
ĠØ§ÙĨØ¯ Ú¾ÛĴ
ĠÚ©Ø§ÙĦØ¬ ÙĪÚº
ĠÚĪ ÙĪÙħ
ĠØ¹ÛĮØ¯ Ø§ÙĦØ§Ø¶ØŃÛĮ
ĠÚ©Ø± ÛĮÙĨ
Ú©Ø§Ø± ÙĪØ¨
ĠØ±Ø¶ ÛĮ
ĠØ³ÙĨÚĨ Ø±ÛĮØ§Úº
Ú©Ø± Ø§
ĠØ§Ø¸ ÛģØ§
ĠØ³ÙĨ ÙĪ
ĠÙģÛĮØ³ ÙĪÚº
Ú¯ÛĮ ÙĪÚº
ÙħØ¹ ÙĦÙĪÙħ
ĠØ³ÙĪÚĨ ÙĨØ§
ĠØ®ÙĪ Ø§Ø±
ĠÙĪÛĮÙĦ Ø²
ĠØ§Ù¾ÙĨ Ø§ÙĨÛĴ
ĠÙħÙĦØ² ÙħÛģ
ĠØ´Ø¹ Ø§Ø±ÛĮ
ĠÙĤÛĮ ÙĪÙħ
ĠØ§ÙĪÙ¾ÙĨ Ø±
ĠÙħØ¹Ø§Ø¦ ÙĨÛĴ
ĠØº Ø±ÙĪØ¨
ĠÙĨÙĪ Ù¹ÛĮ
ĠÚĪØ±Ø§Ø¦ÛĮ ÙĪØ±Ø²
Ùħ Ø³ÙĦ
ÙĪÙ¹ Ø§
ĠØ§Ú© Ø´ÛĴ
ĠÙ¹Ú¾ÛĮÚ© ÛĮØ¯Ø§Ø±
ĠÙ¾ÙĨ ÚĪÛĮ
ĠÙ¾Ú©Ø§Ø± ØªÛĴ
ĠÚ© Úĳ
ĠØ± Ø²ÙĦÙ¹
ĠÙĪ Ø§Ø¦ÙĦ
Ø¬ÙĨ ÛģÛĮÚº
ĠØ¹Ø¨Ø¯Ø§ÙĦ ÙħØ¬ÛĮØ¯
ĠØ¨ÙĨ Øª
ĠØ¢ÚĨ Ú©ÛĮ
ĠÙĦ Ø§ÙĨÚĪ
Ø¸ ÙĦÙħ
ÙĪÛģ Ø§Ø¨
ĠØªØŃ ÙģÛĴ
ĠØ´ÛĮ Ø¹Ûģ
ĠÚ©Ø§ÙĦ Ùħ
ĠÛĮØ§Ø³ ÙħÛĮÙĨ
Ø³Ø±Ùģ Ø±Ø§Ø²
ĠØ¨ ÙĨÚ¯ÙĦ
ĠÙĪ Øº
Ø³ÛĮ Ø±ÛĮØ²
ĠØ§Ø¨ ÙĪØ§ÙĦ
ĠÙĤØ± Ø¢ÙĨÛĮ
ĠÚ©ÙĦ ÙģÙ¹ÙĨ
ĠØ¨ÙĪÚĳ Ú¾ÛĴ
ÙħØ¹Ø§ÙĦ Ø¬Ûģ
Ù¾ ÛĮØ§Úº
ĠÙ¾Ø± ÙĪØ±ÛĮ
Ø® ÙĦØ§
ÙĨÚ¯ ÙĪÚº
ĠÛģØ± ÙĨØ§Ø¦ÛĮ
ĠØ·ÙĦ ØŃÛģ
Ø§ÙħÛĮØ¯ ÙĪØ§Ø±
Ø¨ ÚĳÛĴ
Ø¨Ø± Ø§
ÙģÛĮ ÙĪ
ĠÙ¾Ø§Ø±Ù¹ÛĮ Ø²
ĠâĢ ¦
ĠÙ¹ Ø§
ĠÚ¯Ú¾ ÙĪÚĳÛĴ
ĠÙĦØ¨ Ø±ÛĮØ´ÙĨ
ĠÚĨÚ¾Ù¾ ÛĴ
ĠÛģØ§Ø³ Ù¹ÙĦ
Ûģ ÙĨØ¯ÙĪ
ĠÚĨÚ¾ ÙĦ
ĠØ¢Ø¯ Ú¾ÛĴ
Ġ0 8
ĠØ¯Ø±Ø¯ ÙĨØ§Ú©
Ø³ Ø±ÙĪ
ĠØ±Ø³ Ø§Ø²
Ø³ÙĪ Ø§Úº
ĠÙ¾Ú©Ø§Ø± Ø§
Ø¢Ø® Ø±ÛĮ
ÙĪ ÙĦØ§
ĠÙħÙĦ Ø§ÙĨÛĴ
ĠÙ¾ÛģÙĨÚĨ Ø§Ø¦ÛĮ
Úĺ Ø±ÛĮ
ĠÙĤØª Ø§Ø¯Ûģ
Ø§Ø³ ÙĦØ¦ÛĴ
ĠÚ©Ø§ÙĨ Ù¹ÛĴ
ĠÙħØµØ±ÙĪ ÙģÛĮØ§Øª
Ú© Ú¾ÛĮÙĦ
Ø¬ Ø§Úº
ÙħÙĨ Ø¹ÙĤ
ĠÚ©Ù¾ Øª
ĠÙħÙĨÚ¯ ÙĦØ§
ĠI I
ĠØ¬ ÙĪÚº
ĠÙĪÙģ Ø§Ø¯Ø§Ø±
ĠØ¯ Ø³ÙĪÛĮÚº
ĠÙ¾Ø± Ú©Ø´
Ù¹ÛĮ ÙĪØ¨
ÙĪØ¨ ÙĨØ¯
20 13
ĠÙħØ´Ø±Ú© ÙĪÚº
ĠÙ¹Ø§Ø¦Ùħ Ø²
ĠÙħØ¨ ØµØ±ÛĮÙĨ
ĠØ§Ú©ÛĮ ÙĦÛĴ
ĠØ¯Ø§ÙĨÛĮ Ø§ÙĦ
ĠØ¢ Ø±Ùħ
ĠØ§ÙĨ Ù¹
ĠØ´Ø± Ù¾Ø³ÙĨØ¯
Ù¾ÛģÙĨÚĨ Ø§ÙĨÛĴ
ĠÙ¾ÙĪÙħ Ù¾ÛĮÙĪ
ĠÚ©Ø§ Ù¹Ø§
ĠØº Ø³ÙĦ
ĠÚ¯Ø² Ø§Ø±ÙĪÚº
ĠØ³ÙĨÚ¯ Ø§Ù¾ÙĪØ±
Ùħ Ø§Ûģ
ĠÙħÙĤ ØªÙĪ
ĠÙĨÛģØ± ÛĮÚº
ĠÙħ Ø§Ø¬
Ø¹ Ø§Ø±
Ø¬ Ø¯Ûģ
ĠØ¯ÛĮ Ø¬ÛĮÛĴ
ĠØªØ¹ Ø±ÛĮÙģÛĮ
ĠØ¬ÛĮ ÙĪ
ÙħÙĨ ÚĪ
ĠÚ¯ÙĪ Ø´ÙĪ
ĠÚĨØ´ ØªÛĮ
Ø§ÙĨØªÛģ Ø§Ø¦ÛĮ
ĠÙħ ÛĴ
Ø´ Ø¯ÛĮØ¯
ĠØ¹ Ø§Ùģ
ĠØ§Ø¯ Ø±Ú©
ĠÚ©Ø§Ø± Ø®
ĠØ·Ø¨ Ø¹ÛĮ
ĠØ´ Ø´
ĠØ®Ø§ÙĨ Ùħ
Ø§Ø¶ Ø§ÙģÛģ
Ø§ÛĮ Ø¬ÙĪ
ĠØ§ÙģØ±ÛĮÙĤ Ø§
o m
ĠØ´ Ø¦ÛĮØ±
ĠØ§Ùģ Øº
ĠØ¬Ú¾ ÙĦÚ©
ĠÚĪÚ¾ Ø§ÙĦ
ĠØ¯Ú¾Ø± ÙĨÙĪÚº
ĠÛģØ¬ ÙĪÙħ
ĠØ¨Ø±Ø¢ Úº
ĠØµ Ø§Ø¨Ø±ÛĮ
ĠÙĦÛĮ Ø³Ú©ÙĪ
ĠØ¨ÚĳÚ¾ Ø§Ø¦ÛĮÚº
ĠØ³ Ø§Ø¤ØªÚ¾
ĠÙĨ Ø¹ÛĮ
Ø¦ ÙĦÛģ
Ø´ ÙĪÚ©
ĠØ¹ Ø§Ø´
ĠÛĮÙĪ Ù¹Ø±ÙĨ
ÙħÛĮÙĦ Ø§Ø¯
ĠÙħÙĪØ§Ùģ ÙĤ
ĠÙ¾Ø§Ø¯ Ø§Ø´
ĠÙħ ÛĮØ§
ĠÙĪ ÙĦÙĪ
ĠÙĨÛģ Ø§ÙĦ
ĠØ§ÛĮÙĨ Ù¹
ĠØ³ÙĨÛĮ Ø¦Ø±
Ġ c
ĠØ¬ ÛĮÙĨØ§
Ù¾ Ø§Ø±Ú©
Ø¬ ÙĪÙĨ
ĠÙģØ± Ø²
Øº Ø±Ø¶
ĠÙħØ³ ÙĪØ¯Ûģ
ĠØ§Ø³Øª ÙĨØ¨ÙĪÙĦ
ĠØ¹Ùħ Ø±ÙĪ
Ú¯ ÙĨÛĮ
ĠØªØŃ ÙħÙĦ
ĠØ³Ù¹ ÛĮÙĨÚĪ
ĠØ°Ûģ ÛĮÙĨ
ĠØ¬ Ø¯Øª
ĠØ¨Ú¾ÛĮ Úĳ
ĠØ¨ÛĮÙĨ Ø§Ø¦ÛĮ
ĠØ³Ûģ ÙĪ
ØŃØ§ÙĦ ÛĮÛģ
ĠØ§Ø³Ù¹ ÙĪØ±
ĠØ§ÙĦ Ø§ØŃØ³ÙĨ
ÙĨÛĮ ÙģÛģ
ĠØ¨Ú¾ ÙĪÙĨ
Ø³Ù¾ ÛĮÚ©Ø±
ĠØ§ÙĪÙĨÙ¹ ÙĨÛĮ
ĠØ¨ ÛĮÙĨÛĮ
Ú¾ Úĳ
ĠØ¬ Ù¹
ĠØ¬ Ø§Ø¨
ĠÙĦ Ú©ÛĮ
Ø·ÙĦØ¨ Ø§Ø¡
ĠØ·ÙĪ Ø§Ùģ
4 4
ĠÙĤ Ø°
Ø¯Ø§ ÛĮØª
ĠØ´Ø±Ùħ ÙĨØ¯Ú¯ÛĮ
ĠÚ¯ÙħØ´ Ø¯Ú¯ÛĮ
ĠÛģ ÛĮÙħ
ĠÛģÙĪ Ù¹
Ø§Ø¦ÛĮ Ø³
ĠÙ¾Ú¾ Ù¹ÙĨÛĴ
ĠØ¹ÛĮ Ø´
ĠÚ©Ø§ Ûģ
Ø° Ø§Ø¨
ĠØ±ÛĮ Ø³ÙĦ
ØªØ± Ú©ÛĮ
ĠØ³ÛĮØ¯ Ú¾ÛĴ
ĠØ¬Ø§Ø¦ÛĮØ¯Ø§Ø¯ ÙĪÚº
ĠØ³Ù¹ÛĮØ´ÙĨ ÙĪÚº
Ø¬ Ø§Øª
ĠØ¨ÛĮ Ø¹Øª
Ø³Ù¾ Ø±
ĠÙħÙĨÛĮ Ø¬ÙĨÚ¯
Ùħ ÙĪØ³
Ø´ Ø´
ĠØŃÛĮ ÙĪØ§ÙĨ
ĠÙ¾Ø±Ø¯ÛĮ Ø´
ÙħØ´Øª Ø±Ú©Ûģ
ĠØ´ÛĮ Ø§Ø·ÛĮÙĨ
ĠØ§Øµ Ø·
ĠÙĨØµ Ø§Ø¨ÛĮ
ĠÙĨØ§Ø± ÙħÙĦ
Ø²Ø± Ø¹ÛĮ
ĠÚ© Ø§Ø¨
ĠÙĨ ÛĮÙĨ
Ø§Ûģ Øª
ĠØª ÙĨØ§
ĠÛģÙĪ ØªÛĮÚº
ĠØ¹Ø¨ Ø§Ø±Øª
ĠÙĨØ¸Ø± ÛĮÚº
ĠØ§Ú©ÛĮ Ø³
ĠÙĤÙĪÙĨ ØµÙĦÛĮÙ¹
Ú© Ù¹Ø³
ÙĪ ØªÛĮ
ĠÙ¹ Ú¾ÛĮ
ĠÙĦÛĮ Ø¬ÙĨÚĪ
ĠØ³Ú© ÛĮÙĨÚĪÙĦ
Ø§Ø¤ ÙĨÙ¹
ĠØ³Ùħ ÙĪÚ¯
ÙĪØ§ Ù¹Ø±
Ø³ ÚĳÚ©
ĠÚ©ÛĮ ÙĦÛĮ
Ø¢ Ø¨
ĠØ§Ùģ Ø¶Ø§ÙĦ
ĠØ³Ù¹ÛĮ ÙĦ
ĠØ§ÙĦØ¹ ÙĦÙħ
5 5
ĠÙģØ±Ø¯ ÙĪØ³
ĠÙħØŃØ§Øµ Ø±ÛĴ
ĠØ³ ÙĪØ±ÛĮ
ĠÛ±Û µÛ
ĠÛĮÚ© Ø¬Ø§
ĠÙħØ±ØŃÙĪÙħ Ûģ
ĠÚĪØ¨ÙĦ Ø²
ĠÚ© Ø§Ø¨ÙĦ
ĠÙ¾Ø± Ø§Ø¦Ø²
ĠØ§ÛĮ ÙĦÛĮÙ¹
ĠØªÚ¾ ÙĪÚĳÛĴ
Ø±Ûģ ÙĨÙħ
ĠØ³Ø§Ø¦ ÙĪØªÚ¾
ĠÙ¾Ø§ÙĨÚĨ ÙĪØ§Úº
ĠØ²ÛĮ ÙĪØ±
ĠÚĪØ³Ù¾ ÙĪØ²ÙĦ
ĠØ¹ Ø¯ÛĮÙĦ
ĠÛ±Û ¶Û
Ø®Ø· ÛĴ
ĠÙħÙĨØ³ÙĪ Ø®ÛĮ
ĠÙĦØ§Ø¦ÛĮÙĪ Ø³Ù¹Ø§Ú©
ĠÚ¯Ø±ÛĮØ¬ ÙĪÛĮÙ¹
ÙĨÙĪ Ø´ÛģØ±Ûģ
ĠØ¬Ø§Ø³ ÙĪØ³ÛĮ
Ù ķ
ĠÙ¹ ÙĪÙĨÙ¹ÛĮ
ĠØ§ÙĨØª Ú¾Ú©
ĠÙ¾Ø®Øª ÙĪ
ĠÚ¾ Ø°Ø§
ĠØ¯Ø´ ÙĪØ§Ø±
ÙĪØ± ÙģØª
ĠØ² Ø§Ø¯Ûģ
ĠÙĦÛĮ Ù¹
ĠÙħØ¹ ÙħØ±
ĠØ§Ùħ Ø±ÛĮÚ©ÙĨ
ÙĪØ§ÙĦ ÙĦÛģ
ĠØ§Ø³Øª ØŃÙĤ
ĠÚ©ÛĮÙħÙ¾ ÙĪÚº
ĠØ±Ø§Ø¤ÙĨÚĪ Ø±
ĠÙģØªÙĪ ØŃØ§Øª
ĠÛģÙĪÙ¹ ÙĦÙĪÚº
ĠÙĦÛĮ ÙĪ
ĠØ§Ø¨ Ø¯Ø§ÙĦ
ĠØ§ÛĮÚĪ ÙĪØ§ÙĨ
ĠØ§ÙħÙ¾ Ø§Ø¦Ø±
ĠØ³Ú¯ÙĨ ÙĦ
ĠÙħÙĤØªÙĪ ÙĦÛģ
ĠØ§Ø¦ ÛĮ
ĠØ¬ÙĨÚ¯Ø¬ÙĪ Ø¤Úº
ĠÙ¾ Ù¹Ø±
ĠÙ¾ ÙħØ²
ĠØ®ÙĪØ´ ÛĮØ§Úº
ĠÛģÙ¹ Ø§ÛĮØ§
ĠØ§Úĳ Ø§ÙĨÛĴ
ĠØ¯ÛĮÙĪ Ø§Ø±ÙĪÚº
ĠÙ¾Ø±Ú©Ø´ Ø´
ĠÙ¾ÙĪ Ø´
ĠÙħØ§Ø± Ú©Ø±
ĠÚ©ÙĨ Ø³ÙĦ
ĠÙĪÙĤ ØªÛĮ
Ø§Ø° Ø§
ĠÚĨÙĪÚ© ÙĪÚº
ĠØµØ± Ø§Ø·
ĠÚ© Ø³ØªØ§ÙĨ
Ùħ Øº
ĠØªÙħ ÙĨØ§
ÙģØ± ÙĤ
ĠØ§ÛĮÙħ ÙĪ
ĠÛ²Û µÛ
ĠØ¨Ø¬Ú¾ Ø§ÙĨÛĴ
ĠÚ©Ø§Ø¸ ÙħÛĮ
ĠÙĪ Ø±Ø¯
ĠÚ©Ùħ Ø±ÙĪÚº
ĠØ¨Ø± Ø§ÚĪ
Ø¬ÛĮ Ø±ÛĮØ§
ØŃÚ© ÙħØ±
ÙħÙĪ Ø¹ÛĮ
Ú¾Ø± Ø§Úº
ĠØ³Ùħ Ù¹
Ø§ÛĮ Ûĥ
ĠÙ¹ÛĮÚ© ÛĴ
ĠÙ¹Ø±Ø¨ÛĮ ÙĪÙĨÙĦ
ĠÙħÙĪ ÙĦØ§
ĠÙħØ´ Ø§Ø¦Ø®
ĠØ¨Ø§ÙĦ Øº
ĠÚĪÚ¾ Ø§ÙĨÙ¾
ĠØ³Ø¬ Ø§ÙĪÙĦ
ĠÚ¯ÙĪØ§Ûģ Ø§ÙĨ
ØªØ¹ ÙĦÙĤ
Ø° ÙĪØ§ÙĦ
ĠØ³Ø± Ú¯ÙĪØ¯ÛģØ§
ĠÙħØ³Øª Ø«ÙĨÛĮ
ĠÚĨÙĪØ± ÙĨÚ¯ÛĮ
ĠØ¬ Ú©
Ù¾ Ø®Øª
ĠØ§Ø¬ Ø²Ø§
ĠÙħØ§Ø± Ù¹ÙĨ
ĠØŃØ§ÙħÛĮ ÙĪÚº
ĠØ¬ÙĪØ² Ùģ
ĠÙĨØ§ Ù¹
ĠØ¢ÚĨ Ú©Ø§
ĠÙĦ Ø³Ø§ÙĨÛĮ
Ġ100 0
Ġï ¿½
ĠØªØ±Ø¨ÛĮ ÙĦØ§
Ú©Ø§ ÛĮØ§
ĠØ¨ÙĨØ¯ Ú¾
ĠÙħÙģ Ø§ÛģÙħØªÛĮ
Ø¹Ø§ÙĦ ÛĮÛģ
ĠÙ¾Ø±ÙĪÙħ ÙĪØ´ÙĨ
Ø¶ ÙĨÙģØ±
ĠØ¬ÙĪ Ø§Ø±
ĠÙħØ¨ Ø°ÙĪÙĦ
ĠÙħØ§ÙĨÚ¯ ÛĮÚº
ĠÚ©Ø§ÙĪØ´ ÛĮÚº
ĠØ ĵ
Ù¾ ÛĮÚ©
ĠØ¯Ú¾ ÙĪÙĨ
Ø³ÙĨ ÙĨ
ĠÙ¾Øª ÙĨÚ¯
ØªØ±ÙĤÛĮ Ø§ØªÛĮ
ØŃÙħ ÙĦÛĴ
ĠØ³Ø± Ø¨ÙĦ
ĠØªØ± Ø§Ø´
ĠØ¯Ûģ ÙĨØ¯Ú¯Ø§ÙĨ
Ú©Ø§ÙħÛĮ Ø§Ø¨
Øª Ø¹ÙĦÛĮÙħÛĮ
ÙĪØ¨ Ø§Ø¦ÙĦ
ĠØªÙħ ÙĨ
Ø¬Ø¨ Ø§Ø±
ĠØ¨ÛĮÙĨ ÚĪ
ĠØªØ´ Ø®Øµ
ĠØªØ² Ø¦ÛĮÙĨ
ĠØ¬Ø§ Ú¯ÛĮØ±
ĠØ§ÙĨØªÛģ Ø§Ø¡
ĠÙĨØ§Ø± ÙĪÙĪØ§ÙĦ
ĠØ³Ø§Ø¦ÙĦ ÛĮÙĨ
ĠØ³ Ø§Ø³
Ù¹ Ø´
ĠØŃ ÙĪÛĮÙĦÛĮ
ĠÚĪ Ø³Ù¾ÙĦÙĨ
Ø³Øª Ùħ
Ġ15 00
ĠØ³ÙĪØ¯ Ø§
ĠÙĦØ§Ù¾ Ø±ÙĪ
ĠØ±Ø§Ø¦ÛĮ Ú¯Ø§Úº
ĠØ¬ Ø§ÛģÙĦ
ĠÙħÙĦ Ø§ÙħØª
Ø¢ Ø³
Ø¤ Ùģ
Ù¾ÙĪÙĦÛĮ Ù¹ÙĨ
ĠØ®ÙĦÛĮ Ø§Øª
ĠÙĨÚ¯Ûģ Ø¯Ø§Ø´Øª
ĠØ¸Ûģ Ø¨ÛĮ
ĠØ§ÙģÙĪØ§Ûģ ÛĮÚº
ĠÙħ Ø§ÙĪØ±
ĠØ³ Ø§Ø¦ÛĮÙ¹
Ú¾ Ø¯
ÙĤ Ø§ÙĦ
ĠÙĪ ÙħØ§ÙĦ
ĠÙħÙĪ Ø¬Ø¨
ĠÙħÙĤ Ø±ÙĪØ¶
Ø§ÙĪ ÛĴ
ĠØ±ÙĪÙħ Ø²
ĠØ¹Ø¨Ø¯Ø§ÙĦØŃ ÙħÛĮØ¯
ĠÙĤØ± Ø¶Ûģ
ĠÙħØ¶ Ø§Ùģ
ĠÚ©Ùģ Ø§Ø±Ûģ
ĠÙĨÛĮ ÙĪÙ¹
ĠØªØŃØµÛĮÙĦ ÙĪÚº
Ú©ÙĪÙ¹ ÙĦÛĮ
ĠÚ©ÛĮÙħ Ø·Ø§Ø¨ÙĤ
ĠØŃ Ø¬Ø±
ĠÙ¹Ú¾ ÙĪ
ĠØ³Ø±Ø¬ ÛĮÚ©ÙĦ
ĠØ¬ ÙĦÛĮÙĦ
Ù¾ Ø§ÙĦÛĮ
ĠØ§ÙĦ Ø°
ÙħÙĨ ØµÙĪØ¨Ûģ
Ú© ÙħØ§ÙĨ
Ø± Ø§Ø´Ø¯
Øµ Ø§Ø±
ÙħÙĦ Øª
ĠØ¨Ø± ØªÙĨ
ĠØ³ÙĪÚĨ ÙĨÛĴ
Ø¬ ÛĮÙĨ
ĠÙ¹ Ùħ
Ø§Ø¹ Ø¬Ø§Ø²
ĠØ±ÛĮ ÙģØ±ÛĮ
ÙħÙĨ Ø¸ÙĪØ±
ĠØ¨Ø¯ ØªÙħÛĮ
Ø®ÙĦ Ø§ØµÛģ
ĠÙģØ§ÙĦ Ø¬
ĠØ¨ ÙĦÛĮÙĪ
ĠØ´ ÙĪØ±ÛĮ
ĠØ³ÛĮ Ø±ÛĮÙĦ
ĠÚ©Ú¾ Ø§Ø¦ÛĴ
Ø§ÙĪ Ø§Øª
ĠØŃÙħ Ø§Ø³
Ø¬Ø¯ Ø§Ø±ÛĮ
Ø§ÙĨØªØ®Ø§Ø¨ Ø§Øª
ĠÙħÛģ Ø±Ø§ÙĨ
ÙħØŃ ÙĤÙĤÛĮÙĨ
ĠØ¨Ø±ÛĮ Ú¯Ø²Ù¹
ĠØ¨Ø§Ø´ ÙĨØ¯ÛĴ
ĠÙ¹Ø±ÙħÛĮÙĨ ÙĦ
ĠÚ© Ù¹ÛĮ
ĠØŃ ÙĪÛĮÙĦÛĮØ§Úº
ĠØ´ Ø§ÙĦ
ĠÙħÙĦ Ø¨ÛĴ
ĠØ¹ÙħØ§Ø±Øª ÛĮÚº
ĠØ¨Ø§Ø´ Ø¹ÙĪØ±
ĠØ§Ø³ØªØŃÙĤ Ø§ÙĤ
Ø¬ Ø¹ÙĦÛĮ
ĠØ´ Ø§Ø¨
ĠØ¬Ø§ÙĨ ØªÛĮ
ĠØ±ÛĮ Ù¹ÙĨÚ¯
ĠÙħ Ø¦
ĠÚ¯ ÙĨÚ¯
Ø§Ø¹ Ø¯Ø§Ø¯
ĠÙĦÙĪ ÛģÛĴ
ÙĤÛĮ Ø§ÙħØª
ĠÙ¾ÙĪØ³Ù¹ ÙĪÚº
ĠØ¢Ø±Ú¯ÙĨ Ø§Ø¦Ø²Ø±
ĠØ§Ú©Ø§ ÙĪ
Ûģ Ø§ÙĦ
ĠÙ¾ÛģÙĨÚĨ ÙĨØ§
ĠØ³ÛĮÙĨÛĮ Ù¹Ø±Ø²
ĠØ§Ø¹ ØªÙĤ
ĠØŃÙĤ ÛĮØ±
ĠØªÙĨ Ø¸ÛĮÙħÛĮ
ĠØ®Ø±ÛĮØ¯ ÛĴ
Ø®ØµÙĪØµ Ø§
ĠÙ¾ÙĪÚĨÚ¾ ÙĨÛĴ
ĠØ§Ù¹ ÙĦÛĮ
ĠÚ©ÛĮ ÙĪØ¨
ĠØ§Ø® Ø±ÙĪÛĮ
ĠØ´ÙĪÚ© Ø§Ø²
ĠÚ©ÙħÙ¾ÙĨÛĮ Ø²
ĠØŃØ§Ø¶ Ø±ÛĮÙĨ
ĠØ¢ÙĨÛĮ ÙĪØ§ÙĦÛĴ
ĠÚ©ÙĪÙĦÛĮ Ø³Ù¹Ø±ÙĪÙĦ
ĠÚ© ÙĨØ³
ÛĮØ§ Ûģ
ĠØ¨Ø§Ø± Ú¯Ø§ÛģÙĪÚº
ĠÚ©ÙĨ ÙĨØ¯Ú¯Ø§ÙĨ
ĠÛģÙĦ Ú©Ø§
ĠÚ¯Ø±ÙĪÙ¾ Ø³
ĠØ¯Ø§Ø±Ø§ÙĦ Ú©ØªØ¨
ĠÙĨØ§Ùħ Ú©ÙħÙĦ
ĠØ¨Ø±Ùģ Ø¨Ø§Ø±ÛĮ
ĠÚ© Ú©
Ø¨ Ø§Ø¨Ø±
ĠÙ¹ ÛĮÙĨØ³
ĠØªØ± Ø§Ø´ÛĮ
ĠØ§Ø¹ÙĦØ§ÙĨ Ø§Øª
ĠÚ©ÙĪÙĨØ³ÙĦ Ø²
ĠÙħÛĮÙ¹ÙĨÚ¯ Ø²
ĠÛģÙħ Ø§Ø±
ĠØªÙĤ Ø§Ø±ÛĮØ¨
ĠØ¯ÙĦ ÙĪØ§ÙĨÛĴ
ĠÚĨÙĦ ÙĪ
Ø¨ÛĮØ± ÙĪÙĨ
ĠØ§Ø¨ÙĪ ØŃ
ØµØŃ Ø§ÙģÛĮ
ĠÙĨ ØŃ
ÙĪÙĨ Ø¯ÛĮ
ĠØªÙĪ ÙĤÛĮØ±
Ø±Ùħ Ø¨Ø§Ø¯ÙĦÛģ
ÙħØ¹ Ø§ÛģØ¯ÛĴ
ÙĪ Ø§Ú©
ĠØ® Ø±ÙĪØ´
ĠÙģØ± Ø§
ĠÚ¯Ø± ÙħØ§
ĠØ®ÙĦÛĮ Ø¬ÛĮ
ÛĮ Ø¹
ĠÙĨ Ø§Ûģ
ĠÙħØ§ÙĨ ÙĨØ¯
Ø¬Ø§Ù¾ Ø§ÙĨ
Ø§ÙĨ ÙĪØ§ÙĦÛĮ
ĠØŃ Ø´
ĠÛĮÛģ ÛĮÚº
Ú©Ûģ ØªÛĴ
Ú¯ÛĮ ÚĪ
Ú©ÙĪÛģ Ø§Ù¹
ĠÛģ Ø§Ùģ
ĠØ® ÙĦÙģ
ĠØµÙģ ÙĪÚº
ÙģØ§Ø¦ÙĨ ÙĦ
ĠÙĦØ§ÙĨÚĪ Ú¾ÛĮ
ĠÛĮ Ø³ÛĮÙĨ
ĠØ§ÙĦ Ø¬
ĠØªØŃ ÙĦÛĮÙĦ
ĠÚ¯Ú¾ Ù¹ÙĨÛĴ
ĠÙģØ±ÛĮ Ø§Ø¯
ĠØµØ¯ÛĮ ÙĪÚº
ĠØ¯Ú©Ø§ÙĨ Ø¯Ø§Ø±
ĠÚ¯ Ø§Ø¦ÛĮÚĪ
ĠØº ÙĦÛģ
ÙĪØª ÙĪÚº
ĠÙ¾ÚĳÚ¾ Ø§Ø¦ÛĮ
ĠØ§ÙĦØ¹ Ø²Øª
ĠÙĦ ÚĳÛĮ
ĠØŃÙĨ ÙģÛĮ
ÙģÛĮÚĪ Ø±ÛĮØ´ÙĨ
ĠÙħ ÚĨØ§
Ø§ÙĨ Ú©ÛĮ
ĠÙĪ ÙĪÙĦ
ĠÙ¾ÛĮØ´ Ø§Ø¨
ĠØ§Øª Ø±ÛĮ
ĠØ§Ø± Ø§Ø¯ÛĴ
ĠØ´Ø¬ Ø§Ø¹
ĠÚĨÚ¾Ù¹ Ú©Ø§Ø±Ø§
Ûģ Ø²
ĠÙĨ Ø§ÙĪÙĦ
ĠÙĦÚĳ ØªÛĴ
ÚĪØ§Ú©Ù¹Ø± ÙĪÚº
Ø¸ ÙģØ±
ĠØ¬Ø¨ Ø±ÛĮÙĦ
ĠÙħÛģ ÙĨÚ¯Ø§Ø¦ÛĮ
ĠØ¨Ø® ØªÛĮØ§Ø±
ĠÙĦÙħØŃ Ø§Øª
ĠÙģÙĨØ§ÙĨ Ø´ÙĦ
ĠÚ©ÛĮ Ø¨ÙĦ
ÙħØ§ÙĨ Ø³ÛģØ±Ûģ
ĠØ¨ÛĮÚĨ ÙĨÛĴ
ĠÚ©Ø¨ÛĮØ± Ûģ
Ø§ÙĦØ· Ø§Ùģ
ĠÙĪ Ø®ÙĪØ´ØŃØ§ÙĦÛĮ
ĠÙ¾Ø®Øª ÙĪÙĨÙĪÚº
8 5
ĠØ§Ù¾ Ø§Ø±Ù¹ÙħÙĨÙ¹
Ú©Ûģ ÛĮÚº
ĠØ´Ø§Ûģ Ø¯ÛĮÙĨ
ĠÙĨØ§Ø¨ ÛĮÙĨØ§
ĠÙħ Ø±ÛĮØ¯
Ø§ÛĮÚ© Ø³Ù¾
ĠØ±ÛģÙĨÙħØ§ ÙĪ
ĠØ¢ÙħØ¯ ÙĪØ±ÙģØª
ĠÚ¯Ú¾Úĳ Øª
Ø³Ú©ÛĮ ÙĪØ±Ù¹ÛĮ
ĠÙ¾ Ø§ØªØ§
ĠÚĨ Ø´Ùħ
ĠÙĪØ§ÙĦ Ûģ
ĠØ¬ÛĮ Ù¾
Ø§Ø¦ÙĨ ÚĪ
ĠØ¨Ø¬ Ú©Ø±
Ø§Ø¦Ø² ÙĨÚ¯
ĠÙħÙĪ Ø³
ĠÙĤØ¨ Ø¶
ĠÚĨÙĦ ÚĪØ±ÙĨ
ĠØ¬ÛĮÙĦ Ø§ÙĨÛĮ
Ø²Ø® ÙħÛĮ
Ú© Ù¹Ø±Ø²
ĠØ¹ÙĤ ÙĦÛĮ
ĠÙħØ¹Øµ ÛĮØª
ĠÙ¾Ú¾ÛĮÙĨÚ© ÙĨÛĴ
Ø³ÛĮÚ©Ø±Ù¹Ø±ÛĮ Ù¹
ĠØ¨Øµ ÛĮØ±Øª
ĠØ¬Ø¯ ÙĪÙĨ
ĠÙħÛĮØ³ Ø¬
ĠØ« ÙħÙĪØ¯
ĠØ§Ø¹Ø² Ø§Ø²ÛĮ
Ø´ÙĪÚ© Øª
ĠØºÙĦØ· ÛĮØ§Úº
ĠØ¨ÙĦÙĨØ¯ ÛĮÙĪÚº
ÙħØ¬ ÙħÙĪØ¹ÛĮ
ĠØ§Ú©Ú¾ Ù¹ÛĴ
ĠÙĨÙĨ Ú¾ÛĴ
ÙħØ±ØŃ ÙĪÙħ
Ù¹Ø± ÙħÙ¾
Ø±Ú© ØªÙĪÚº
ĠÚ©Ø§Ø± Ø¢ÙħØ¯
ĠØ§ÙħØ± Ø§Ø¡
ĠØ¢Ùħ ÙĨÛĴ
Ø¬ÛĮÚ© Ø¨
ĠØ§ÙħØª ÙĨ
ĠÚĨÚ¾Ø§Ù¾ ÙĪÚº
ĠØ¨ÙĪØªÙĦ ÛĮÚº
Ù¹Ø² Ø±ÙĦÛĮÙĨÚĪ
Ø¯ ÙģØªØ±
Ø±ÛĮ ÚĪ
ĠÙģÛĮ ÙĪÙĦ
ĠÙħØ´ ÛĮØª
ĠÚĨØ§Ûģ ÙĨÛĴ
ĠâĢ ĵ
ĠÚ©Ú¾ÛĮÙĦ ÛĮÚº
ĠÙħØ¹ Ø±Ú©Ûģ
ÙħÛĮØ± Ù¾ÙĪØ±
ĠÛ±Û ²
ĠÚ¾ ÛĴ
ĠÚĪÙĪÙħÛĮ Ø³Ù¹Ú©
Û Ĥ
ĠØ¢ ÙĪØ±ÙĪÚº
ĠØ§Ø¨ ÚĳÙĪ
Ù¹Ø±ÛĮ Ø´ÙĨ
ĠØ²ÙħÛĮÙĨ Ø¯Ø§Ø±ÙĪÚº
ĠÙĨØ§Ú© Ø§
ÛģÛĮ ÚĪ
ÙģØ±ÙĪ Ø´
ĠØªØ§Ø± ÛĮÚ©ÛĮ
ĠÙĪØ±Ø§Ø« Øª
ĠØ± Ø§Ø¨
ĠØ° Ø§Ú©Ø±
ĠÚ©Ú¾ÛĮÙĦ ÙĨØ§
ĠÙ¾ÛĮ ÙħØ±Ø§
ĠØ¯Ø± Ú¯Ø§Ûģ
ĠØ³Ù¹ ÛĮÚ©
ĠØ±Ø§Ø¬ Ø§
Ø§Ø¯ Ø§Øª
Ú¯ Ø±ÛĮØ²
ĠØ¨Ú¾Ø± ØªÛĮØ§Úº
ĠØ¢Ú©Ø³ÛĮ Ø¬ÙĨ
ĠØ§ØµØ· ÙĦØ§ØŃ
9 5
Ø² Ø±Ø§Ø¦Ø¹
ĠØªÙĪ Ø¬
Ġ10 6
ĠÚĪØ± Ø§Ù¾
ĠØ¢Ø³ Ú©ÛĴ
Ø·ÙĦ Ø¨Ûģ
ĠØ¢ØªØ´ Ø²Ø¯Ú¯ÛĮ
ÙĨÛĮÙĪ Ø²ÛĮ
Ú¯ ÙĪÙĦ
ÙĪØ± Ø³Ù¹
ĠØ¢ ÙħÙĨÛģ
Ú©Ø± ÙĨØ§
ĠÙħØª ØµÙĦ
ĠØ§Ø¬ ÙĦ
Ġ12 7
ĠØ¨Ø±ÛĮÚ¯ÛĮ ÚĪÛĮØ¦Ø±
ĠÙ¹ÙĨÚĪ ÙĪ
ÙĪ Ø°
ĠÙħØª ÙĪØ³Ø·
ĠÙĨÙĪ ÛĴ
Ù¾Ø± Ø§
Ġ11 5
ĠÙĪØ§Ø±Ø¯Ø§Øª ÛĮÚº
ĠØ¨Ú¾Ø¬ÙĪ Ø§ÛĮØ§
ĠÚ© Ø§Ø²
ĠØ§Ø® ÙĪØª
ÙĨÚĪ Ùħ
ĠØ³ÛĮÙĨ Ûģ
ĠØ±ÙĤ Ø¨ÛĴ
ĠØ® Ø±Ø¯
ĠÙģ Ø¯Ø§
ĠÙħÙģ ØµÙĦ
ĠÙ¾ÛĮØ± Ø²Ø§Ø¯Ûģ
ĠØ¢ÙĦ ÙĪØ¯Ûģ
ĠÙĦÛĮÙĨÚĪ ÙĨÚ¯
ÙħØ§Ø± Ú©ÛĮÙ¹
ĠÙ¾ÙĪÙ¹ Ø§Ø´
ĠØ¨ ÙĪØªÚ¾
Ø¯ÙĪ Ø³Øª
ĠØ³ÙĨ Ø§Ø¦ÛĴ
ĠØ¹Ø§Øµ ÙħÛģ
ĠØ§ÛĮÙĪ Ø§ÙĨÙĪÚº
ĠÙħÙĦ Ø¨Ûģ
ĠÙĪÛĮ ÙĦÛĮÙĪ
ĠÙģÙĪ Ø¬Ø¯Ø§Ø±ÛĮ
ĠØ¯Ú© Ú¾ÛĮ
ĠØ¯ÙĦ Ø§ØªØ§
Ø¬Ø³ Ú©ÛĮ
ĠÙĨØ§Ø® ÙĨ
ĠÙħØ¯Ø§Ùģ Ø¹Øª
ĠÙħ Ú©Ú¾
ĠØ® Ø§ÙĪØ±
ĠØ§ÙĦ Ø§Ø¦ÙĪÙĨ
ĠÙħØ¹ Ø§Ø°
ĠØ¨ÚĨ ÙĪ
ĠØ³ÙĨ Ø§ÙĨÛĴ
ĠØ³ÛĮÙĨ Ø§
Ú©Ø´ÙħÛĮØ± ÙħÛĮÚĪÛĮØ§
Ùģ Ø§ÙĦ
ĠØ§ØŃ ØªÙħØ§ÙĦ
ĠÚĪÛĮÙħ Ø§ÙĨÚĪ
ĠØ¨Ø¹ ÛĮØ¯
ĠÚ©Ø± Ø§ÛĮÙĪÚº
ĠÙģØ± ØŃØª
ĠÙħÚ© Ø§ÙĨÛĮ
ĠÚĪÙĪÙĦ ÙģÙĨ
ÛĮ Ûĥ
Ø¦ ÙĪÙģ
Ø³Ø± Ø²
ĠØ§ÙĪ Ú¯Ø±Ø§
ĠØŃÙĪØ§ÙĦ Ø§Øª
ĠÙĨÙħØ¨Ø± Ø²
ĠÙ¾ÙĪÚĨÚ¾ ØªÛĴ
ĠÙħØŃØª Ø³Ø¨
Ø³ ÙĪØ§ÙĦ
Ø¦ÛĮ Ø³
ĠØ² ÙĪØ¬Ûģ
ĠØ¯Ø± Ù¾ÛĴ
Ø¯ÛĮ ÙĤÛĮ
ĠØ³Ø¨ ØŃØ§ÙĨ
Ø´ Ø¹ÛĮØ¨
ĠÙĨØ±Ø³ ÙĨÚ¯
ĠÙģØ±Ø² ÙĨØ¯
Ġ12 6
ĠÙĪØ§ ÚĨ
ĠØ±ÛĮÚ©Ø§Ø±ÚĪ ÙĨÚ¯
ĠØ¬Ú¾Ú¯ Úĳ
ĠØªÙĨØ² ÙĦÛĮ
ĠÙģÙĨÚ© Ø´ÙĨÙĦ
ĠØ² ÙħÛģ
ÙĨÚ¯ ÛĮØ§
ĠÙħÛĮ ÙĪ
ĠÛ±Û ·Û
ĠÙĨØ¸Ø±ÛĮ ÛĴ
Ø§ÙģØª Ø®Ø§Ø±
ĠØ§ÙĦØ¨ ÙĤØ±Ûģ
Ùħ ÙĪØª
ĠØ± Øª
ĠÛģÙĪ Ø§Ø¤Úº
ĠØ¬Ø§ÙĨ ÙĨØ§
Ø³Ù¹ Ø§Ø±
ĠØ¨Ø® ÙĪØ¯
ĠØ±ÛģØ§Ø¦Ø´ÛĮ ÙĪÚº
Ø§ØŃØªØ¬ Ø§Ø¬
Ø® Ø§ÙĨÛĮ
ĠÙ¹Ú¾ ÙĨÚĪÛĴ
ĠØ°Ûģ Ø§ÙĨØª
ĠÙħÙĨ Ú©Ø±ÛĮÙĨ
ÙĪÙģ Ø§ÙĤ
ĠØ§Ø´ØªÛģ Ø§Ø±ÛĮÙĪÚº
ĠÛģÛĮ Ù¾Ø§Ù¹Ø§Ø¦Ù¹Ø³
ĠØ³ Ø§Ø¦ÛĴ
ÙĨÛĮ Ø¦Ø±
ĠØ§Ø¬ Ø¯Ø§Ø¯
ĠØ³ÛĮØ¯ Ûģ
ĠÙĦØ§Ù¾Ø±ÙĪ Ø§ÛģÛĮ
i l
ĠØ· Ûģ
ĠØ¬ÛĮ Ø²
ĠØªÙĨØµÛĮØ¨ Ø§Øª
ĠÛģ ÛĮÙĨ
Ø³ Ø§Ø³
ĠÚ¯Ú¾ Ø³ÛĮ
ĠØ³Ù¹ÛĮ Ø¬
ĠØ¹Ø¨Ø¯Ø§ÙĦÙĤ Ø§Ø¯Ø±
Ø®ÙĪØ± Ø´ÛĮØ¯
Ø¯ ÛĮÚº
ĠÙĦÛĮ ÚĪ
ĠÙ¾ÛĮ ÚĨÚ¾Ø§
ÛĮÙħ Ø§ÙĨÛģ
Øº Ø§
ĠØ³ÙĪ ØªÛĮ
ĠØ¯ÙĦ Ø§ØªÛĴ
Ġ s
Ø¯ ÛĮÙĨÛĮ
Ù¾ Ø§Ø¦ÛĮ
ĠØ¹ ÙĪØ§
ĠØ® Ùħ
ĠÙħÙĦ Ø§Ø¦
ĠØ¹ÙħØ± Ø§ÙĨÛĮ
ĠÚ¯Ø±ÙģØªØ§Ø± ÛĮØ§Úº
ĠÙĪÙĤ ÙĪÙģ
ĠÚ©Ø±ÙĨÛĮ ÙĪØ§ÙĦÙĪÚº
ĠÚ© Ø²ÙĨ
ĠØ¨ Ø±ÛĮÙĨ
ĠØ¢ Ø³Ù¹Ø±ÛĮ
ĠÙ¾Ø± Ø§ÚĪ
ĠÙ¾Ø§Ø± Ù¹ÛĮØ§Úº
ĠØ¬ÙĦ Ø§ÙĨÛĴ
ĠØ¹Ø§Ø¨ Ø¯ÛĮ
ĠØ¯ÛĮÛģØ§Øª ÙĪÚº
ĠØ¨Ø¯ØªÙħÛĮ Ø²ÛĮ
ĠØ§ Ø±Ùħ
ĠØ³ Ø§Ø±
ĠØ¢ ÚĳÛĴ
Øµ Ø§Ø¯ÙĤ
ĠÙħÛĮÚĪ ÙĦØ²
ĠØ·Ø¨ Ø¹
ĠÚ¯ÙĪØ¯ Ø§Ùħ
Ø¬ Ø¯ÛĮØ¯
ÙĪÙħ Ø±
ĠØªÙĪ Ú©ÙĦ
ĠØ¢ØµÙģ Ûģ
ĠÙģØ±ÛĮ Ø§ÙĦ
ĠØ±Ø§Ø¬ ÙĨ
ĠØ¨ÛĮÙĪ ÛĮØ§Úº
ÛĮ ÙĪØ³Ùģ
ĠØ¬Ø² ÛĮØ±Ûģ
ĠÙ¾ Ø¨ÙĦ
ĠÙħØ¹ Ø±ÙģØª
Ú©Ø± ÛĴ
ĠÚ©ÙĦ ÙĨÙ¹ÙĨ
Ø§ÙĨ Ú©ÛĴ
ØŃ Ø§
ĠÙ¾ÛĮØ¯ Ø§Ø¦Ø´ÛĮ
ĠØ§Ø¬ÙĦØ§Ø³ ÙĪÚº
ĠØ´ÛĮØ± Ø§Ø²
ĠØªÛģ ÙħØª
ĠÙħØ§ÙĨÛĮ Ù¹Ø±
ĠÙĨØ§Ø³ ÙĪØ±
Ø±ØŃ ÙħÙĨ
ĠÚ©Ø±ÙĪ Ø§ØªÛĴ
ĠÙħØ± ÛĴ
ĠÚĨÚ¾ÛĮ Úĳ
ĠØªØ®Øª Ûģ
ĠÙĨÙħÙĪØ¯ Ø§Ø±
ĠØ§ ÙĪØ³
Ø¹ ÙĦÛĮÙħ
Ø§Ø¦ÛĮ ÛĴ
ĠÚĪ ÙĨØ±
Ø¬Ú¾ Ø§
ĠØ¹Ùħ Ø§Ø±Ø§Øª
ĠÚĪØ§Ú©ÙĪ Ø¤Úº
3 2
ĠÙĪ Ø§ÙĪ
ĠØ±ÙĪ Ø§Ûģ
ĠÙĦÙĪ ØŃ
ĠÙĦÙĪ ÛģØ§
ĠØ³Ø± Ø·Ø§ÙĨ
Ø§Úĳ Ú¾ÛĮ
ĠØ¹Ø³Ú© Ø±ÛĮØª
7 7
ĠØ§Ø® Ø°
ĠÛģÙħ Ø³
Ù¹Ø±ÛĮ ÙĦ
ĠØ³ÙĦ ÙĪØ±
ĠÙħØ¸ÙģØ± Ú¯ÚĳÚ¾
ĠÙģ Ø¬Ø±
ĠÙ¾Ú¾ Ø§Úĳ
ĠÚ© Ø§Ø¦ÙĪÙĨ
Ùħ Ú©Ûģ
ĠØ¨ Ù¹ÙĨ
ÙĪØ±ÛĮ Ø²
ÙĪØ² ÛĮÛģ
Ø§ÙĨØ¯ Ú¾ÛĮ
ĠÚ©ÚĨ ÙĨ
ĠÚĨÚĳ ÛĮØ§
ĠÙĦ Ø§Ùħ
ĠØ¢Ø¯ ÙħÛĮÙĪÚº
Ù¾Ø§Ø± ÙĦÛĮÙħÙĨÙ¹
ĠÙĤ Ûģ
Ø³Øª Ø±
ĠØ§Ùħ ÙĨÚ¯ÙĪÚº
ĠØ³Ø± ØªØ§Ø¬
Ú©ÙĪ Ø´Ø´
ĠÙħØ´ Ø§Ø¨Ûģ
ÙĪÙ¹ Ú©ÛĮ
ĠØ²ÙĨØ¯ Ú¯ÛĮØ§Úº
ĠÙĤØµ Ø§Øµ
ÚĨÛĮÙħÙ¾ Ø¦ÙĨ
Ú¯ ÛĮÙĨ
ĠÙĨÙħ Ø§Ø²ÛĮ
ĠØ¨Ø±Øª ÙĨÛĴ
ĠÚ©Ø± Ûģ
Ø±ÛĮ Ø¬ÙĨ
ĠÛģÙĪ ÛĴ
ĠÙĤØ¯Ø± ÛĴ
Ġ........ ........
ĠÛģÛĮ Ø±ÛĮ
ĠØ° Ø±Ûģ
ÙħÛģ ÙħØ§ÙĨ
ĠÙħÛĮØ± Ø§Ø«
ĠÙħØ§ÙĨ Ú¯ÛĴ
ØªØ¹ ÛĮÙĨ
ĠÚ¯Ø§ÙĦ ÛĮØ§Úº
ĠÚ©ÛĮ ÙĦÛĴ
ĠÚ¯ Ø§ÙĦØ§
ĠØ§ÙĨ ÛĮÙĦ
ĠØµ ØºÛĮØ±
ĠÙħÚ© Ø¦ÛĮ
ĠØªØ±Ø³ÛĮ ÙĦØ§Øª
ĠÚĪÛĮ Ø¨ÛĮÙĪ
Ø§ÙĨØ³ Ø¯Ø§Ø¯
ĠÚĪÙĪØ¨ ÙĨÛĴ
ĠØ¬Ø§Ø³ Ú©Ø§
ĠÚ©Ø±Ø³ Ú©ÛĮ
ĠØ¬ÛģØ§ÙĨ Ø²ÛĮØ¨
ĠÙħÙĪØ§Ø² ÙĨÛģ
ĠØ³ ÙģÛĮØ§ÙĨ
ĠÙĦÛĮ Ûģ
ĠØ¨ÛĮ Ø§ÙĨÛĮÛģ
Øº Ø±ÛĮØ¨
ĠÙĦÙĪ Ú©
ĠÙĤØµ Ø¨Ûģ
Ú¯ ÙĦÛĮ
Ø¨ ØºÛĮØ±
Ø§Ùħ ÛĮÚº
ĠÙ¾Ø§Ø± Ù¹
ĠØ¨Ø®Ø´ Ø´
ĠØ®ÙĦ ÙĦ
ÚĪØ§Ú©Ù¹Ø± Ø²
ĠØ±ÙĪÛģ ÙĨÚ¯ÛĮØ§
ĠØ³ ÛģØ±
ÙĤ Ø§Ø¦ÙħÛģ
ÙħÙĦ Ø²
ĠÙħØ³ Ø§ÙĪØ§Øª
ÙĤØ± ÙĨÛĮÙĨ
Ø¹ÙĦ Ø§Ø¬
ĠØ§ÙĨØ³Ù¾ Ú©Ù¹Ø±Ø²
ĠØ¨Ø§ÙĨ ÙĪ
ĠÛ ļ
Ù¹ ÙĨÙ¹
ĠÚ©Ø§ÙħÛĮ ÚĪÛĮ
ĠØ§ÙĦØŃ Ø§ÙĤ
ĠØŃØ± Ø¬
ĠØ¹ÙĤÛĮØ¯ ÛĴ
ĠØ§Ø³ØªÙĤ Ø§ÙħØª
ØµØŃ Ø§ÙģÛĮÙĪÚº
ĠÚ©ÛĮÙĨÛĮ ÚĪÛĮÙĨ
ĠÙģØ§Ø³ ÙĤ
ĠØ§ Ø±ÛĮ
Øµ ÙĪÙģ
ĠÙ¹Ú¾ ÙĨÚĪÛĮ
ÚĨØ± ÚĪ
ĠÙħÙĨÛģ Ø§Ø³
ĠØ¯ÛĮ Ø³ÛĮ
ĠØ¬Ùħ ÙĦÛĴ
ÙĦÙĪ Ø¬
ĠÛ±Û ¸Û
Ġ16 0
Ø¬ Ø§Ø±
ĠÙ¾ÛģÙĨÚĨ ØªÛĮ
ĠÚ¯Ø± Ø§Ùģ
ĠÚĨÚĳÚ¾ Ø§Ø¦ÛĮ
ĠÚ©Ø§Ùħ ÙĨ
ĠØ¨Ø§ÙĤÛĮ Ø§Øª
ĠÚ¯Ø±Ûģ ÙĨ
ÙĨ Ú©Ø³
ĠØ¬ ÙĨÛĮ
ĠØ´Ø± Ø§ÙģØª
ĠØ·ÙĦ Ø§ÙĦ
ĠØºÛĮ ÙĪØ±
Ø¹ Ø§Ø¨
ÚĨ ÙĪØª
ĠØ´Ùģ Ù¹
ĠÚ¯Ú¾ÛĮ Ø±Ø§
ĠÙĨÙĨ Ú¾ÛĮ
ĠØ§ÛĮÚĪÙĪØ§ÙĨ Ø³
Ø¦ ÙĨÚ¯
ĠÚ©Ûģ ÙĪÚº
ĠØ§ÙĪ ØµØ§Ùģ
ĠØ§ÙĦØ§Ù¹ ÙħÙĨÙ¹
Ø¯Ø´ ÙħÙĨ
ĠØªÚ¾ Ú©
ĠØªØ±ÙĤÛĮ Ø§Øª
ĠÙĨÛĮÙĦ Ø§Ùħ
ĠØ¯ Ø§Ø³
ĠÚ©Ú¾ ÙĦÙĪ
ĠØ§Ø² Ø³Ø±
ĠÙĨØµÛĮØ± Ø¢Ø¨Ø§Ø¯
ĠÙ¾ Ø´ÛĮÙĨ
ĠÚ©Ø± ÙĪÙĨÚ¯Ø§
ĠÙ¾Ú¾Ø± ØªÛĴ
ÙĦÛĮÙħ Ø§ÙĨÛĮ
ÙģØ§Ø¸ Øª
ĠÚĪÚ©ÛĮ ØªÛĮ
ĠÙĪ Ø§ØŃ
ĠÚ© Ø¹Ø¨
ĠØ§ÙĨØ¯Ø± Ø§Ø¨ÛĮ
Ø³ÛĮÚ© ÙĪØ±Ù¹ÛĮ
ĠØ§ØŃØ§Ø· ÛĴ
ĠØ³Ú©ÙĪ Ø§Ø´
ĠÙ¹Ø±Ø§ÙĨØ² ÛĮÚ©Ø´ÙĨ
ĠÚ©ÛĮ ÚĪ
ĠÙĪ Ø´
ĠØ§ÙĦ Ø°ÛĮ
ĠÙħÙĨÛĮ Ø¬ÙħÙĨÙ¹
ĠØ²ÙĦØ² ÙĦÛģ
ĠÙĨ Ú©Ú¾
Ø· Ø±ØŃ
ÛĮØ¯ Ø§Ø±ÙĪÚº
ĠØŃØ³ ÙĨÛĮ
ĠÚĨÙĦ Ø§ØªÛĴ
ĠÛĮÙĪ Ù¹ÛĮÙĪØ¨
ĠØ§Ø³Ú© Ø§ÙĦØ±
ĠÛģ ÙĦØ§
ĠÛĮ Ø¨
ĠÙħÛĮÙĨ Ø§Ø±
ÙĦØ² Ø¦ÛĮ
ÙħØ³Øª ÙĤØ¨ÙĦ
ĠØ¢Ø³Ú© ØªÛĮ
Ø¨ Ø§Øº
ĠØ±ÙĪ ÙĨÛĴ
ĠØªÙĨ ÛģØ§Ø¦ÛĮ
ĠÙħØ¬ Ø±ÙĪØŃ
Ø¨ÙĪ Ø·
ĠØ¢Ø³ Ø§ÙħÛĮÙĪÚº
Ú©Ø§ÙĦ Ø¬
ĠØ¨Ø¹Ø« Øª
ĠÙħÛĮÙĨ Ø¬Ø±
Ø§ÙĨØ³ Ù¹ÛĮ
ĠÙħ Ø¦ÛĮØ±
Ù¾ ÛĮÙĨ
ĠÙħØ¹ Ø§Ø±Ùģ
ĠÙħÛģ Ø°Ø¨
ĠÙĤØ§ØªÙĦ Ø§ÙĨÛģ
Ø¯ Ø±Ú©
ĠÙ¾ÙĪ Ø¬Ø§
ĠØ§Ø¦ Ùħ
ÙħØ®Øª Ø§Ø±
ĠÙĨ Ø·
Ø´ Ø¹Ø¨Ûģ
ĠØ§Ø³ Ù¾ÙĨØ±
ĠÙ¹ ÙĪÚ©
ÙĨÚĪ ÙĪÚº
ĠØ§ÙĤ Ø§ÙħÛģ
ĠØ§Ø³Ù¹ ÛĮÙĨÚĪ
ĠØ¨Ú¾ÛĮØ¬ ÛĮÚº
Ø§Ú¯ ÙĪÙĨ
ĠØ®ÙĦ Ø¬ÛĮ
ÛģÛĮÙĦ ØªÚ¾
ĠØªÙĪØ¬ ÛĮÛģ
ÚĨ Ø±ÛĮ
ĠØ¨ÙĨ Ú©
8 8
ĠØ³ Ø¹ÛĮ
ĠØ¨ ÙĪÙĨØ¯
ÙĤ Ø±Ø¨
ĠØ± Ø§Ùģ
Ġ) :
Ø¨Ø± Ø§Ø¦ÛĴ
ĠØµØŃ Ø§ÙģØªÛĮ
ÙħÙĤ Ø§Ùħ
ĠØ§ÙĦÙĤ Ø¯Ø³
ĠÙħØ²Ø¯ ÙĪØ±ÛĮ
ĠÙ¾ØªÚ¾Ø± ÙĪÚº
ĠÛĮÙĪÙĨÛĮÙĪØ±Ø³Ù¹ÛĮ Ø²
ĠØ¨ÙĤ ÙĪÙĦ
ĠØ§ÛģÙĦÛĮ Ø§ÙĨ
ĠØ¨ÛĮØ±ÙĪØ² Ú¯Ø§Ø±ÛĮ
Ùħ ÙĦØ§
ĠÛģÙĪ ÙĨ
ĠØµ ÙĦÙĪÛĥ
Ú©ÛĮ ÛĴ
ÙħØ§ ÚĪÙĦ
ĠÚ¯ÛĮ Ø±ÛĮ
ĠØ´Ûģ Ø²Ø§Ø¯ÛĮ
ĠÙ¹ÛĮ ÙĦÛĮÙģ
ĠÙ¾Ø±ÛĮ ÙħÛĮØ¦Ø±
ĠÚ¯Ø±ÚĪ Ø³Ù¹ÛĮØ´ÙĨ
ĠÙģØ±ÙĨÚĨ Ø§Ø¦Ø²
a s
ĠÙĪ ÙĪÙħÙĨ
ĠØ§Ø³ ØŃÙĤ
Ø¦ÛĮ ÙĦ
ĠØ¨ÛĮ ÙĪÙĤ
ĠÙ¾ÛģÙĨÚĨ ØªÛĴ
ĠØ®ÛĮØ± Ø§Øª
ĠØ¢Ùħ Ø±ÛĮØª
ÙĪ Ø§Ø±ÙĪÚº
ĠØ§ÛĮÚ© Ø³ÛĮ
Ø´Ûģ Ø²Ø§Ø¯
ĠÙħØº ÙĪÛĮ
ĠØ¬Ø² ÙĪ
ĠØ±ÙĪØ´ÙĨ Ø§Ø³
ĠÙ¾ ÙĨÚĨ
ĠÙĪ Ù¹ÙĪ
ÙĪÙĦ Ø±Ø²
Ø¯ÛĮ Ø¬Ûģ
ĠÙĤØµ ÛĴ
ĠØ´ÙĪÙĤ ÛĮÙĨ
Ûģ ÙħÛĮØ´Ûģ
ĠÙ¾Ø§Ú© Ø³ØªØ§
ĠÙĦÚ¯ ÚĺØ±ÛĮ
ĠÙ¾Ø±ÙĪ ÙĤØ§Ø±
ĠØ¨Ú© Ø±ÛĮ
ĠÚ¯ ÙĨÚĪØ§
ØŃ ÙħØª
ĠØ§Ù¾ Ø±
Ø³Ø± Ø§Ø¬
ĠÙģÙĪ Ú©Ø³
ĠÛ²Û ¶Û
ĠØ³ ÙĪÛģ
ĠØ¨ÙĦ Ø§Ø¦ÛĴ
ÚĪØ± Ø§Ø¦ÛĮ
ĠØ±ÙĪÙĨ ÙĤ
Ùħ Ø§Ø¦ÛĮÚ©
Ø§Øª ÙģØ§ÙĤ
ĠØ² ÙĪ
ĠÙ¹Ú¾ Ù¹Ú¾Ûģ
Ø§Ø³Ø±Ø§Ø¦ÛĮ ÙĦÛĮ
ĠÙħÙĪ Ú©ÙĦ
ĠØ¯ÙĦ Ú©Ø´
Ø¯Ùģ Ø§Ø¹
ĠØªØ³ÙĦ Ø·
ÛĮÙĤ ÛĮÙĨØ§
ÙħÛĮ ÚĪÛĮÙ¹
ĠÙħÙĪ ÚĪ
ĠØ¨Úĳ ÙĪÚº
Ù¾ÛĮ Ø³
ĠÙħØ® ÙģÛĮ
ĠÙħÛĮÙĦ Ø§ÙĨ
ĠØ§ÙĨÙĪ Ú©Ú¾Ø§
ĠÙħÙĨØ§ÙģÙĤ ÙĪÚº
ĠØ¨ Ø³Ùħ
ĠØª Ø±ÛĮ
ĠØ§ÛĮ Ø¨ÙĦ
ĠØ³Ø§ÙĦ ÙħÛĮØª
ĠØ³ÙĪ ØªÛĴ
ĠØ§ÙĦØŃ Ø¯ÛĮØ¯Ûģ
ĠØ±Ù¾ÙĪØ± Ù¹Ø±
ĠÚ©Ø§Ø±Øª ÙĪØ³
ĠÙ ĵ
ĠÙĨ Ø§Ø·
Ø¢ Ù¹Ú¾
ĠØ¨Ú¾Ø¬ÙĪ Ø§Ø¦ÛĴ
ĠÚ©Ø¨ Ø±ÛĮ
ÚĨ Úĳ
Ø§Ø² ÛĮÛģ
ĠÙĨÙģØ³ÛĮ Ø§Øª
ÙĦ ÛĮØ§Úº
Ø§ÛĮ ØªÛĮ
ĠØ§ÙĦÙħ Ø³ÙĦ
ĠØ§Ø¨ÙĪØŃ ÙĨÛĮÙģÛģ
ĠÙģ Ø®
Ø±Ú© ÙĨ
Ġ10 4
ĠØ¬ÙħØ¹ ÛĮØª
ĠÛĮÚ© Ø·Ø±ÙģÛģ
ĠÙĦØ¨ ÙĨØ§ÙĨ
ĠØ§ÙĦÙħØ¹ Ø¬Ùħ
Ø¨ Øº
ĠÚ©Ø± ÙħÙĨ
ĠÚ©ÙĪ Ø§Ø¦Ùģ
ĠØ¯ÙĦ Ø§ÙĦØª
Ú¯ÙĪ Ø§Ø¯Ø±
ĠÙĪØ§Ø³ Ø·Ûģ
ĠØ¬Úĳ ÙĪØ§Úº
ĠØ³Ù¹ÙĪ ÚĪÙĨÙ¹Ø³
ÚĪ ÛĮØ§
ĠÙħÙĨ Ø±ÙĦ
ĠØ³ÙĨ ØªØ§
Ø´ÙĪØ± ÙĪ
ÙĪØ± ÛĮÙĦ
Ø² ÙĨÛĮ
ĠÚ©ÙĪ Ø«Ø±
ĠÙĤ Ø§Ø³ÙħÛĮ
ĠÙħÛĮ Ø³ÛĮ
ĠØ¨ÙĨ Ø§ÙĦÛĮ
ĠÙħØ² ÙħÙĦ
ĠØ¯Ø¨ ÙĨÚ¯
ĠØ§Ø¦ ÙħÛģ
ĠØ§ÙĦÚ© Ø¨ÛĮØ±
ÙĪØ§Ø³ Ø·Ûģ
Ø³ Ø¬
Ú©ÙĦ Ø¨
ÙħÙĪ Ø³ÛĮ
Ø´Ùģ Ø§Ùģ
ĠÙĨ Ø§ØŃÙĤ
ÙħÛĮ Ú¯Ø§
ĠÙħØ§ÙĨ ÛĮÚº
ĠØµÙĨØ¹Øª Ú©Ø§Ø±ÙĪÚº
ĠÙħ Ø§Ø¬Ø¯
Ú¯ Ø§ÙĦÛĮ
ĠÙĦ Ø§ÙĪ
ĠØ§ÙĦ Ù¹Ø§
ĠØ² Ø§
ĠØµÙĪØ±Øª ÙĪÚº
ĠØ¢Ø²Ø§Ø¯ Ø¬ÙħÙĪÚº
ĠØ¨Øª Ø§Ø¯ÛĮØ§
ĠÙħØ§ÚĪÙĦ Ø²
ĠÙĦØ§Ø´ Ø§Ø±ÛĮ
ĠÙĨØµØ± Ø§ÙĦÙĦÛģ
ĠØ§ÙĨ Ú©
ĠÙħØª ÙĤÛĮ
ĠØ±Ø³ ÙĪØ§Ø¦ÛĮ
ĠÚ¯Ú¾Ø± Ø§ÙĨÛĴ
ÙĨÙĪ Ø§Ø¨
ĠØ§Ø² Ùħ
Ġ O
ĠÙ¾ Ø³ÛĮ
ĠÙĤØ· Ø¹
ĠØªØ±Ú©ÛĮ Ø¨
ĠÙħ ÚĪ
ĠÛĮ Ø§Ø±Ú©
Ø« Ø§ÙĤ
ĠØ¹Ùħ ÙĦØ§
ĠÙħØ¯Ø± Ø³Ûģ
ĠÚ¯ Ø§ÙĦÛĮ
ÚĨ ÙĨÛĮÙĪÙ¹
ØªÛĮ Ø³Ø±ÛĴ
ĠÙ¾Ø±ÛĮ Ø²
ĠØ¨ÙĪÙĦ ÚĪ
ĠØ¹Ø§ÙĦÙħ Ú¯ÛĮØ±
ĠØ¨Ù¹ Ú¯Ø±Ø§Ùħ
ĠÙ¹Ú¾ÛģØ± Ø§ÛĮØ§
ĠÙĦÙħØŃ ÛĴ
Û ²Û
ÙĪÙħ ÛĮÙĨ
ĠØ¨Ø± ØªÛĮ
ĠÙĨØ§Ø± Ú©ÙĪÙ¹
ĠØ§Ú©ÛĮ ÙĦØ§
ĠØ³ÙħÛĮ Ù¹
ĠÙĨÙģÛĮ Ø³
ĠØ±ÙĪ ÛĮÙĪÚº
ĠÚ©Ø´Ùħ Ú©Ø´
ĠÙĤ ØŃØ·
ĠÚĪ Ø³Ù¹Ø±ÛĮ
ĠÙħØ¹ ÙĤÙĪÙĦ
ĠØ¨Øº Ø¶
ĠÙħÛĮÚĪÛĮ Ø³ÙĨ
ĠØ® ÙĪØ±ÙĪÚº
ĠÚĪØ± ÙĨÚ©Ø³
ØµÙģ Ø§Ø¦ÛĮ
ĠÙĨÙģ Ø§ÙĤ
ĠÙĨÛĮ ØªÛĮ
ĠÚĨÚ¾ ÙĦØ§ÙĨÚ¯
Ø² Ø§ÛģØ¯
ĠØ§ÙĦ ÙĪØ·ÙĨÛĮ
ØªÛĮ Ø³Ø±ÛĮ
ĠØ¯Ú¾ ÙĪÙħ
ĠÙ¾Ú¾ÛĮ ÙĦÛĮ
ĠÚ©Ú¾Ø§Ø¯ ÙĪÚº
ĠØ§ØŃ ÙħØ±
ĠØªØ± Ø³
ĠØ¨ÛĮÙĨ Ø±
ĠØ¨Ú© ÙĨÚ¯
ĠØ¨ Ø§Ø³ÛĮ
ĠÙ¾ Ø§Ø±Ûģ
ĠØ¨Ûģ ÛĮÙħØ§ÙĨÛģ
ĠØ¨Ú¾ ÛĮÚ©
ĠØ³Ø¨ ÙĤØª
ĠÛĮÙĪØ± ÛĮØ§
ÙģØ³ Ø§Ø¯
ĠØ³Ø¯ Ø¨Ø§Ø¨
ĠÛģ Ø§ØªÚ¾ÛĮ
ĠØ¢ ÚĨÚ©ÛĴ
ÙĨÛĮ Ø§Ø²
ĠÙĪÛģ Ùħ
Ø§Ø® Ø§ÙĨ
ĠÚ©ÙĨ ÙĨØ¯Ûģ
ĠØ³ÛĮÙĦ Ø§Ø¨ÛĮ
ĠÙ¹ÙĨ ÙĦ
ĠØ¯Ú¾ÛĮ Ø§ÙĨ
ĠÙħ ÙĪÙĨÚ¯
ĠØ® ÙĪØ¨ÛĮ
ĠÙģÛĮ Ø¦Ø±
Ú©ÛĮØ³ Ø§ØªÚ¾
ĠÚĪÙĪÛĮ ÚĳÙĨ
Ø§Ø¦ Ø±Ø²
ĠÙħÛĮ Ù¾Ú©ÙĪ
ĠÙħÙģ ÙĦÙĪØ¬
ĠØªØ±Ø¨ Øª
ĠÙ¾ÙĪÚĨÚ¾ ÛĮÚº
ØºØ± Ø§ÙģÛĮ
Ø±ÙĪÛĮ Ø¬
Ø§ Ù´
ĠÚ¯ Ù¹Ú¾
ĠØ²ÙħÛĮÙĨ Ø¯Ø§Ø±
ĠÙĨÛĮÚ© ÛĮÙĪÚº
ĠØªØµÙĪØ± Ø§Øª
Ø´Ø§ ÛĮØ¯
ĠØ± Ø§Ú©Ú¾
ĠÚ©ÙĪ Ú©
ĠÙĦ Ø§ØªØ§
ĠÙ¾ÙĪÙĦÛĮ Ù¹ÛĮÚ©ÙĦ
ĠØ³ÛĮÚ©Ø±ÛĮÙ¹Ø±ÛĮ Ù¹
ĠØ§Ø³ÙĦ ØŃÛĴ
ĠÚ©ÙĪØ±Ø³ Ø²
ĠØ´ Ø§ÛĮØ§ÙĨ
ĠÛĮ ÙĪØ§
Ø¨ÙĦ Ø¯ÛĮÛģ
Ø®ÙĪ Ùģ
ĠØµØŃ Ø¨Øª
ĠØ³Ùģ Ø§Ú©
ĠØ¢ÙĨ Ø±
ĠØ¯ Ø§ØªØ§
Ø§Ú© Ø¨Ø±
ĠØ§Ø±Ø¯ Ú¯Ø§ÙĨ
ĠØ³Ø± Ø¹Ø§Ùħ
ĠÙħÛģ Ø§Ø±
Ø§ÛĮÚ© Ù¹
ĠØµØ§ÙĦØŃ ÛĮÙĨ
ĠÙ¹Ø±Ø§ÙĨØ² Ù¹
ĠÙ¹ÛĮØ± Ùģ
ĠÙĤÙĨØ¯ ÛĮÙĦ
ĠÚ© Ù¾ÙĦ
ĠÙħ Ø¨ÙĦØº
Ø¬ÛĮ Ø³ÛĮ
ĠÚ¯ÙĦ Ø§Ø¨
ĠØ¨ÙĪÙĦ ØªÛĴ
ĠÙħØ¬Ø¨ ÙĪØ±ÛĮ
Ġ35 0
ØªÙģØªÛĮ Ø´ÛĮ
ĠØ¬ ÛĮÚ©Ù¹
Ùģ ÙĪÚº
ĠØ¬ÙĪ Ø§Ø¦ÙĨ
Ø¢ Ø²Ø§Ø¯ÛĮ
ĠØ±ÛĮ ÙģØ§Ø¦ÙĨ
Ø³Ø§Ø¦ÙĨØ³ Ø¯Ø§ÙĨÙĪÚº
e l
Ø¬ Ø§Ø¦ÛĮÚº
ĠØ² ÙĨØ¬
ĠØ§ÛĮÙħ Ù¾ÙĦ
ĠØ§Ú¯ ÙĦØ§
ĠÛ²Û ·Û
ĠØ¨ Ø³ÛĮ
ĠÚ¯ ÙĨÛģ
ĠØ± ÛĮØ§
ĠØ² Ø§Ø¦ÙĦ
Ø¬Ûģ ÙĦÙħ
ĠØ´ÛģÛĮØ¯ ÙĪÚº
Û °Û°Û
ÙĪØ± ÛĮÙħ
ĠØ¬ Ø¯Ûģ
ĠÚĨÚ¾ ÚĳÚ©
ĠØ§Ú© Ù¹Ú¾ÛĮ
ĠØ§Ø´ Ø§Ø±ÛĴ
Ġ11 6
ĠØ§ÙħÛĮØ¯ ÙĪÚº
Ø°Ûģ Ø¨ÛĮ
Ø§ÛĮØ¬ÙĪ Ú©ÛĮØ´ÙĨ
ĠÙħ Ø§Ø¦ÛĮ
ĠÙĨ Ø¨Ø§Øª
ĠÙ¹ ÙĪØ¨Ûģ
ĠÚĪÛĮ Ù¾
ĠÙĨÚ© Ø§ØªÛĮ
ĠÙģÛĮÙĦ ÚĪÙĨÚ¯
ĠØ¢Ø±Ù¹ Ø³Ù¹
ĠÚĪÛĮÙĨ Ù¹ÙĦ
ĠÙ¹ Ø§Ú©
Ù¾Ø§Ø± ÙĦÛĮÙħØ§ÙĨÛĮ
in g
ĠÚĪÛĮÙĪÙĦ Ù¾ÙħÙĨÙ¹
ÙĨØ¯ ÛĮÙħ
ĠØ´Ø± Ø§Ø±Øª
ĠÙģØ§Ø¦ Ø¨Ø±
ĠÚĨÙħ ÚĨÛģ
ĠÛĮØªÛĮ ÙħÙĪÚº
ĠÚ©ÙĪØ¦ ÙĦÛģ
ĠØ§ÙĨ Ø¬ÛĮ
ØªÛĮ Ø²
ĠØªÚ¾ Ø±ÙĪ
ĠÙģÛĮ ÚĨØ±Ø²
ĠØ¨ÙĨÚ¯ ÙĦØ²Ø¦ÛĮ
ĠØ³Ø± Ø¬ÙĨ
Ø§Ø¦Ø² Ø±ÛĮ
ÙĪÚ© Ø³
ĠÙħÛĮØª Ú¾ÛĮ
Ø³Ù¾ ÛĮ
Ø°ÙĪØ§ÙĦ ÙģÙĤØ§Ø±
5 00
Ø§Ø¯ Ø§Ø±Ûģ
ĠØµ Ø§ÙĦØŃÛģ
ĠÙħØŃ ÙĦÙĪÚº
ĠÙĪÙģ Ø§Ø¯Ø§Ø±ÛĮ
ĠØ¹Ùħ Ø±ÛĮ
ĠØ®Ø± ÚĨÛģ
ĠØ®Ø¯ Ø§Ø¦ÛĮ
ĠØ³ÙĪÚĨ ØªÛĴ
ĠØ¬Ø¬ ÙĪÚº
ĠØªØŃØµÛĮÙĦ Ø¯Ø§Ø±
ĠÙ¾Ø±Ø³Øª Ø´
ĠØ¨ÚĨ ÙĨØ§
ĠØ³Ùħ ÙĨ
ĠÙ¾Ú¾ ÙĪÙĨÚ©
ĠØ§ÙĨÙĪÛĮ Ø³Ù¹ÙħÙĨÙ¹
ĠÙħÙħÙĨ ÙĪØ¹Ûģ
ĠÙĨØº ÙħÛĴ
ĠØŃÙģØ¸ Ø§ÙĨ
Ø¨ Ú©Ûģ
ĠØ§Ø³ Ùģ
ĠÚĪ Ø§Ø¦Ø±
Ġ0 9
ĠØ¢Ø¨ Ø§
ÙģÙĦØ³Ø· ÛĮÙĨÛĮ
ØŃÚ©ÙħØ± Ø§ÙĨÙĪÚº
9 2
Ø± ÙħÛĮÙĨ
Ûģ ÙĦ
ĠØ§ÙĦ ÙħÙĦÚ©
ĠØ¨ÛĮ ÙĪÙ¹ÛĮ
ÙĪÛĮ Ø¶
ĠØ¨ÚĳÚ¾ Ø§Ù¾ÛĴ
ĠØ§ÛģÙĦ Ø³ÙĨØª
ÙĪØ« ÛĮ
ĠØªÙĪ Ù¾
ĠÚ©ÙĨ ÚĪÛĮ
ĠØ³ÙĪÙĨ Ù¾ÛĮ
ÙħØµ Ø·ÙģÛĮ
4 1
ĠØ§ÛĮ Ø´ÙĪØ±
ÙĪÙĦ Ø²
ĠÛģÛĮ ÙĪÛĮ
Ø§Ø¦ÙĦ Ù¹
ĠØ¯Ø±ÙĪ Ø¯
Øº ÙĨ
ĠÙħØ³ Ø®
ĠØ¯ÛĮÚ©Ú¾ Ø¦ÛĴ
ÙħÙĪ ÙĦØ§
ĠØ³ÙĪØ² ÙĪÚ©ÛĮ
ĠØ¯Ø± Ø¨
Ġ12 2
ĠØ§ÙĨÙ¹Ø± ÙħÛĮÚĪÛĮÙ¹
Ġ13 1
ĠØ²ÛģØ±ÛĮ ÙĦÛĮ
ÛĮÙħ Ø§Ø±
ĠØ¨Ú¾ Ù¹Ú©
ĠØ³ÙĪØ± Ø§Ø®
ĠØ§Ù¹ ÛĮÚ©
ĠÙħÙĦØ§Ø¦ Ú©Ûģ
ĠØ³ ÙħØ§
ĠØª Ø±ÙĪÛĮØ¬
ĠÙħÛĮ Ù¾
ØªÚ¾ ÛĮÚº
ĠØ§ÙĦÙĨØ³ Ø§Ø¡
ĠØ§ ÚĪÛģ
ĠØ§ÙĦÙħ Ø³Øª
ĠÙĦÛĮÚĪØ± ÙĪÚº
Ø¯ Ø§Ø®
ĠÙĪØ± ÚĺÙĨ
ÙĪØ´ ÙĦÙħ
Ø¬ÙĦ Ø³ÛĴ
ĠÚĨÙĨ Ø§Ø¦ÛĮ
ĠØ³Ú© ÛĮÙĨÚĪ
ĠÚ¯Ø² ÛĮÙĨ
ĠØ« ÙĤÙĦ
ĠØ¨ÚĳÚ¾ Ø§Ø¦ÛĮ
ĠÚ¯Ú¾ ÙĪÙħØªÛĮ
ĠÙģÙĦ Ø§Ø¦ÛĮ
´Û ±
ĠÚĨÛĮÙħÙ¾ Ø¦ÙĨØ²
Ø´Ø±Ú© Ø§Ø¡
ĠØ±ÛĮÙģØ± ÙĨÚĪÙħ
ĠÛ °Û
ĠÙĦ Ú¾Ùħ
Ø§ÙĤ Ø¯
ĠØ§Ø¨ ØªØ±
ĠØ®ÙĪ Ø§
ĠØ§Ø¬ ÙĦØ§
ĠÙĨØ± Ø³Ø±ÛĮ
ĠØ¨ÛĮÙĪØ±ÙĪÚ©Ø±ÛĮ Ø³ÛĮ
Øª ÛĮÙĨÙĪÚº
Ú¾ Ø§ÙĨ
ĠØ§ÙĦ Ø§ÛĮÙħØ§ÙĨ
ĠØ¨ÙĨ ÙĪÚº
ĠÚ©Ú¾ Ø§ÙĦÛĮÚº
Ġ12 8
ĠÙĨØ³ Ø®
ÙĪ Ø§Ø¹Ø¸
Ùħ Ø²Ø¯
ĠØ¨ Ø¯ÛĮ
ĠØ¨ Ø³Ø§
ĠÙĪØ§ÙĦ ÙĦÛģ
Ú¾Ø± Ø§
ĠØ§ÙĦÙħ ÙĪÙħÙĨÛĮÙĨ
ĠØ·ÙĪÙģ Ø§ÙĨÛĮ
ĠÙĦÙĪØ± Ø§ÙĦØ§Ø¦ÛĮ
ĠÙ¾ÙĪ ÙĨÛĴ
ĠØ¨ÛĮ Ù¹
ĠØ¬ÙĨ ÙĪÚº
ĠÚ¯ÙĪ Ø¬Ø±
Ġ199 9
) ØĮ
Ùħ ÙħÚ©ÙĨ
Ú¾ Ø±ÛĮ
ĠØ¯ Ø±Ø¯ÛĮ
ĠÙ¾Ø± Ùģ
ĠØ´ Ú©ÙĪÚ©
ĠÛĮ Ø´ÙĨ
ĠØ±Ø³ Ú©
ĠØ³ÙĨ ÙĨØ§
6 6
Ø§Øª ÙĨØ§
ĠÙģ Ø§ÙĦÙĪ
ĠÙĤ ÛĮØ§
Ø§Ø² ÙĦ
ĠÙ¹ ÛĮÙĨÚĪ
ĠÙĪÛģ ÛĮÙĦ
Ø§ØªÚ¾ Ø§Ø±Ù¹ÛĮ
Ġ10 2
Ø§Ù¹ ÛĴ
Ø§ÙĤØª ØµØ§Ø¯ÛĮ
ÙħØ² Ûģ
ĠØ³ÛĮÙĨÛĮ Ø¦Ø±
ĠÙĨØ¨ Ø±Ø¯
ĠØªÚ¾ Ø§Ø¦ÛĮ
Ø¶ ÛĮØ§Ø¡
ĠØ¨Ø¯ Ø§ÙħÙĨÛĮ
ĠØ³Ù¹ Ø§ÙĦØ²
Ġ200 4
ĠÙĦØ§Ø±ÚĪ Ø²
ĠØ´Ø§Ø¨ Ø§Ø´
ĠÙħÙĦ Ù¹ÛĮ
Ø³ÙĦ Ø·Ø§ÙĨ
ÙĪÙ¹ ÙĨ
ĠÚ©Ø´ Ø´
ĠÙģØ¶ ÙĪÙĦ
ÙħØ´ ÛĮØ±
ĠÙħØ¹Ø° ÙĪØ±ÛĮ
ĠØ¯ÛĮÚ©Ú¾ ØªÛĮ
ÙĪÙģ ÛĮÚ©ÚĨØ±
ĠÙĨØ¬ Ú©Ø§Ø±ÛĮ
Ú©Ø§Ø±Ú©ÙĨ Ø§ÙĨ
ĠØ Ľ
Ø¨ ÙĨÙĪÚº
ĠØ§ÙĨ Ù¹ÛĮ
ĠØ´ ÙĪØ¨Ø²
ĠØ¯ÙĦ Ø¯ÙĦ
ĠÙĨÙħØ§Ø² ÙĪÚº
ĠØ³Ø¹Ø¯ ÛĮÛģ
ĠÙ¾ÙĪÙĦ Ù¹Ø±ÛĮ
ĠØ§ÙĪÙħ ÙĨÛĮ
ÙĤØ§Ø¨ Ø¶
ĠÙĨ Ø§Ø¦ÛĮ
ĠÙĪ Ø¸
ĠÙĨÛģ ÙĪÚº
ĠØ³ÙĦ ÛĮÚ©Ù¹Ø±
ÙħÙĤ Ø¯
ĠÚ¯Ø° Ø§Ø±
ØºØ±Ø§ÙģÛĮ Ø§Ø¦ÛĮ
Ú© Ø§Ø³Ù¹
Ø³ ÙĨÛģ
ĠØ¬ÙĪ Ø§
ĠÙĨÛĮ Ø¦Ø±
ĠØ´Ú© ÙĪÛģ
ĠÙ¾ÛģÙĦÙĪ Ø¤Úº
ĠØ§ÙĦÛģ ÛĮÛģ
ĠÙ¹ÛĮÙĦ Ø±
Ø¶ ÙĪ
ĠÚ©Ú¾ ÙĪØ¯
ĠÙĨØ§Ùħ ÙĨØ§Ø³Ø¨
ĠØ³ÛĮÙħÛĮÙĨØ§Ø± Ø²
ĠØ· ÙģÛĮÙĦ
ĠÙ¾ÛĮ ØªÛĴ
ĠØ±ÙĪÙ¾ ÙĪØ´
Ġ0 6
ĠÚ¯ÙĦÛĮ ÚĪÛĮ
ĠÚ©Ø³Ù¹ ÙħØ²
Ûģ ÙĪÙĨÛĮ
Ø« Ø±Øª
ĠØ±ÙĪÙĨ ÙħØ§Ø¦ÛĮ
ĠÙ¾ÙĦØ§ Ù¹ÙĪÚº
Ù¾ÚĨÚ¾ ÙĦÛĴ
Ø§ÙĨ ÙĤØ±Ûģ
ÙĪØµ ÙĪÙĦ
ĠÚĪØ± Ø§ÛĮØ§
ĠÙĪÛĮÙĦ ØªÚ¾
Ùħ ÙħÙĦÚ©Øª
ĠÙĨ Ø¯ÛĮ
ØªÙĪ Úĳ
Ġ12 00
Ø§Ø±Ø´ Ø¯
Ø¬ÙĦ ÙĪØ³
Ø³ÛĮØ¯ ÙĨØ§
Ġ199 0
ĠÚ©Ø§Ø±Ù¾ÙĪØ±ÛĮ Ù¹
ÙĦ Ø±Ø²
Ù¹ Ø±ÛĮÙģÚ©
ĠÚĪ Ø±ÛĮ
ĠÙħÙĨ Ø§Ø¦ÛĮÚº
ĠÙħÙĨ ØµÙĪ
ĠÙģØª ÙĪÛĮ
ĠØ§Ø³ÛĮÚ©ÛĮ ÙĪØ´ÙĨ
ĠÙ¾Ø±Ø§ ÚĨÛģ
ĠÚĪ Ø§Ú©Ûģ
ĠÚĪ Ø³Ù¹Ø±
ĠÙĦÙħØ¨ Ø§
ÙĦ ÛĮÙĨ
Ø§ÙĨ Ú©ÙĪ
Ø§Ø¦ ÛĮÚ©ÛĮ
ĠÙ¹Ú© ÚĳØ§
ĠØ§ÛĮØ´ ÙĪØ²
ĠØ§ÙĦØ§Ø¦ÙĪÙĨ Ø³
Ú© ÙĨÙ¹Ø±ÙĪÙĦ
ĠÙ¾ Ù¹ÛĮÙĦ
ØŃÚ© ÙħØ±Ø§ÙĨ
ĠØ¢Ø³Ø§ÙĨ ÛĮØ§Úº
ĠØ§ÙĨØ¹ Ø§ÙħÛĮ
ĠØ³Ø§Ø® Øª
ÛĮ Ú¯
ÙĤ Ø§Ø¶ÛĮ
ĠÛģÙĪ ÙĦÛĮ
ĠÚ©Ùħ Ø§ÛĮØ§
ĠØªÙģ ÙĪÛĮØ¶
ĠÙģØ§Ø± ÙĨ
ÙĪØ§ ÚĳÛģ
ĠÙĨØ³ Ø®Ûģ
ĠØ¨ÙĦØ§Øª ÙģØ±ÛĮÙĤ
4 9
ĠØ¯ÛĮ ÙĪØ§ÙĨ
ĠâĢ ¤
ĠØ®Ø±ÛĮ Ø¯ÙĪ
Ù¾Ø§ÙĨ Ø§ÙħØ§
ĠÚ©ÙĪ Ø¨
ÛĮÚ© Ø³ÛĮ
ĠØªØŃ Ø±
ĠÙħØ´ ÛĮÙĨÙĪÚº
ĠØ±Ù¾ÙĪØ±Ù¹ ÙĨÚ¯
ĠØ¢ÙĦ Ø§Ø¦Ø´
Ùħ ÙĪØ±
Ú©ÛĮ Ø´ÙĨÙĦ
Ø³Ù¹ ÙĪÙĦ
ĠØ³ÙĪ Ú¯
ÙĨÙħ Ø§Ø±Ú©
ĠØ¨ÙĤ Ø§ÛĮØ§
Ø¬Ø§Ùħ Ø¹Ûģ
ĠØ´ÙĨÙĪ Ø§Ø±ÛĮ
Ø¯ Ø§Ø¯ÛĮ
ĠØ§ÙĦ Ø³Ùħ
ĠÚĪ ÙĪÙĨ
ĠÙħÙĪ ÙĤ
ĠØ´ÛĮ Ù¹
ĠÙĨÚ©ÙĦ ØªÛĮ
ÙģØ±ÙĪ Ø´ÛĮ
ĠÙ¾ ÙĨÛĮ
Ø¹ Ø§Ø¦Ø´Ûģ
ÙĨØ³ Ø§
ÙĪØª Ø±
ĠÙģÙĦ Ø§Ø¦ÙĨÚ¯
ĠÙĨØ¨ ÛĮÙĦ
ĠØ§ÙĨÚ¯ÛĮ Ø²ÛĮ
ĠÛģÛĮØ±ÙĪ Ø¦ÙĨ
4 2
Ø§Øª Ø§Ø±
ĠØŃ Ø³Ø±Øª
ĠØ§ÙĦ Ø§Ø¹
ĠØ¨ÛĮ Ø±ÛĮ
ĠÚĪÛĮ ÙĪÛĮÙĦÙ¾ÙħÙĨÙ¹
ĠØµØ¯ ÙħÛģ
ĠØ¨Ú¾ØªÛĮ Ø¬ÛĴ
ĠÙĤØ° Ø§ÙģÛĮ
ĠÙ¾ Ú¯
ĠØ±ÛĮ Ø´Ùħ
Ø¨ØŃ ÙĤ
ĠÙ¾Ú¾ÛĮ Ù¾Ú¾
ĠØ¨Ø§Ø· ÙĨ
ĠØ± ÙĪØ±ÙĦ
ĠÙĦ Ø¨Ø±
ĠØ§ÙĦ Ø¬Ø§ÙħØ¹
Ú©ÛĮ Ø§Øª
ĠØ³Ø± Øº
ĠÛĮØ§ ÛģÙĪ
ĠØ¨ÙĨØ¯ Ú¾ÙĨ
ĠØ§Ø¹Øª Ø¯Ø§ÙĦ
ÙħØ¸ Ø§ÙĦÙħ
Ø¨ Ø§Ûģ
ĠØ§Ø¨ Ø¯ÛĮ
ĠÛģÙĪÚº Ú¯ÛĴ
ĠØ§ÙĤ ØµÛĮ
Ø¨ÛĮØ± Ø³Ù¹Ø±
ĠÚ©Ø±Ø¯ ÙĪÚº
ĠØ¨ÛĮÚ© Ù¹ÛĮ
ĠÙħÙĪØ± Ø®Ûģ
ĠÚĪÚ©ÛĮ Øª
ĠØ¬ ÚĳÛĴ
ĠØ§Ø³ Ù¹Ø±ÛĮ
ĠØªÙĪ ØµÛĮ
ĠØ¨Ø¯ Ø¨ÙĪ
ĠÙħØ¬ Ø³Ùħ
4 3
ĠÚ©ÛĮ ÙĪÙĨ
ĠÙħÙĪ Ø§Ø®
ĠØŃØ± ÙħÛĮÙĨ
ĠØ¢Ø¯ Ø§Ø¨
ĠÙĨØ³ Ø¨
ĠÙħØ´ÛĮÙĨ ÛĮÚº
ÙģÙĪÙĨ Ø²
e t
Ġ Úĳ
ĠØ Ĵ
Ø§ÙĨÛģ ÛĮ
ĠÙģØ± ÙĨÙ¹ÛĮ
ĠØ§Ùħ Ù¾ÙĪØ±Ù¹
ÚĨÚ¾ ÙĪÚĳ
ĠÙģØ§Ø± ÙħÛĮÙ¹
ĠÚ¯ÙĦ Ø¨Ø±Ú¯
Ø§Ø¨ÙĪ Ø¸ÛģØ¨ÛĮ
ĠÙĨØ§Ø±Ú©ÙĪÙ¹ Ú©Ø³
ĠØ³Ú© ÙĪÚº
ĠØ±Ø³ ÙĪØ§
Ġ200 1
ĠÙ¹ÙĪÙ¹ ÙĨÛĴ
ÙģØ§Ø¦Ø± ÙĨÚ¯
Ú© Ø§Ø´Øª
Ø±ÛĮÙģ ÙĨÚ¯
ĠÙħÙĪØ§ÙĤØ¹ ÙĪÚº
ĠØ³ÛĮÙ¹ ÙĪÚº
ĠÙĪØ±Ø² ÛĮØ§Úº
ĠÙ¾ Ø²ÛĮØ±
Ø§Ø´ Ø±Ùģ
ĠÙ¾Ø§Ø± ÙĦÛĮ
Ù¹ÛĮØ¬ Ú©
ĠÙħÙĨØ¯Ø± Ø¬Ûģ
Ø§ÙĨ ÙĪÛĴ
ĠØ¨Ûģ Ø§Ø¦ÙĪ
ĠØ¹Ø¨Ø¯Ø§ÙĦÙĤ Ø¯ÙĪØ³
ĠØ¹ÛĮØ³ Ø§Ø¦ÛĮ
ĠØªØ§Ø« Ø±Ø§Øª
ĠÙĤØ§Ø¯ÛĮ Ø§ÙĨÛĮ
ĠÙĨ Ù¹
ĠØ±ÙĪ ØªÛĴ
Ġ10 8
ĠÙħÙĨÛĮ Ø¨
ĠØ§Úĳ Ø§ÛĮØ§
ĠØ³ÙĨØ¨Ú¾Ø§ÙĦ Ø§
ĠÙ¹ÛĮÙĨ ÚĪØ±
ĠØ³ÙĪÙħ ÙĪØ§Ø±
Ø¹Ø§Øµ Ùħ
Ù¾ Ø§ÙĪØ±
Ø° ÙĦÚ©
Ø§Ø¬ ÙħØ§ÙĨ
Ø§Ø´ Ûģ
Ø§ÙĪ Ù¹
Ø±Ø§Ùģ ÛĮÛģ
ĠØ³ÛĮØ§ ÙĤ
ÙĪ ÙĪÙ¹
ĠØ¯ÛĮ Ø§ÙħØ±
Ú©ÙĦ Ùģ
ĠØ¨ÙĪÙĦ Ø±Ø²
ĠØ¬ Ø§Ûģ
ĠÚĨØ§Ûģ ÙĪ
ĠÙĦÚ¯ ÙĪ
ĠØ´Ø§Ûģ ÙĪØ§ÙĨÛĮ
ĠÙħÙĨØ¯ Ø§ÙĨÛģ
ĠØ¨Ùħ Ø¹Ûģ
Ù¾ÛģÙĨÚĨ Ø§ÛĮØ§
ĠØŃØ±Ùħ ØªÛĮ
7 8
ĠÛĮ Ø®
ĠØ¢Ø±Ø² ÙĪ
ĠØ§ÛĮÚĪØ¬Ø³Ù¹ ÙħÙĨÙ¹
ĠØ³Ø± ÙĪÚº
Øª Ø§Ø²Ûģ
ĠØ§ÛĮ Ù¹Ø±Ø²
Ú©ÛĮ ÙħÙ¾
Ø¢ Ø¦ÛĮÛĴ
ĠØ¯ÙĪ Ø§Úº
ĠØ¨Ú¾Ø¬ÙĪ Ø§ÙĨÛĴ
ÙĨ Ø¸
ĠØ§ÙĦ Ø«
ĠØ®ÛĮ Ø±ÛĮØª
ĠÚ©Ø§ÙĨ Ú¯ÙĪ
Øª Ø±Ø¨ÛĮ
ĠØª ÙĨØ¯Ø±
Ø±ÛĮÙĨ Ø²
ĠØ¹Ø· Ø§Ø¦ÛĮ
ĠØ§Úĳ Ø§ØªÛĴ
Ø¯ÙĪØ± ÛĴ
ĠÙĪØ§Ø±ÛĮ Øª
Øª Ø¨ÛĮ
ĠÚĨ Ø±Ø§
Ø® Ø±Ùħ
ĠØ®Ø· ÛĮØ¨
ĠØ±Ø³ ÙĪØ®
ĠØ¹Ø¨Ø¯Ø§ÙĦ Ø®Ø§ÙĦÙĤ
ĠÛ±Û ³
ĠÛģØ§Ø± ÙħÙĪÙĨ
ĠØ¹Ø¨Ø¯Ø§ÙĦØ±ØŃ ÛĮÙħ
ÛĮ Øµ
ÙĦ Øº
ĠØ¨ Ù¹Ú¾Ø§
ĠÙĨ Ø§Ø´ØªÛģ
ÙĨØ¯ Ø±Ø²
Ú¯Ø± Ùħ
ĠØ´Ùģ Ø§
ĠÙħÛĮØ² Ø§ÙĨ
ĠØ§Ø±Ø¬ÙĨÙ¹ Ø§Ø¦ÙĨ
ĠÙĪ Ø§Ø¦ÙĦÚĪ
ĠÙĦ ÙģÙ¹
ĠØ§ÙĦ ÙħØ±
ĠÙ¾ÛĮ Ø§Ø±ÛĴ
ĠØ§Ùħ Ø³Ø§ÙĦ
ĠÚĪÚ¯Ø±ÛĮ Ø§Úº
ĠÙħØ²Ø§ØŃ ÛĮÛģ
Ø¬ ÙĪÚº
Ġ2 20
ĠÙĨÙĪ Ø¹
ĠØ¨ÛģØª Ø§ÙĨ
ĠØ¶Ø±ÙĪØ± ÛĮÛģ
ĠØ±ÛģØ§Ø¦Ø´ Ú¯Ø§Ûģ
ĠÙĨØ§Ø±Ø§Ø¶ Ú¯ÛĮ
ÙħØ±Ø¯ Ø§ÙĨ
Ø¹Ø±Ùģ Ø§ÙĨ
ĠØ³ØŃ Ø±ÛĮ
Ġ W
Ø§Ùģ Ø¶ÙĦ
ĠØ³ÙĨ Ø§Ø¯ÛĮ
ĠÚ©Ú¾ÛĮ ØªÛĮ
Ø§Ø³Ù¾ ÛĮÚ©Ø±
ĠÙ¾ÙĦÛĮ Ø¦Ø±Ø²
ĠØ¨ÛĮÙĪÙĤ ÙĪÙģ
Øª ÙģØµÛĮÙĦ
ĠØ¢ ÚĪÛĮÙĪ
ĠÙĪØ§Ø± ÚĪØ²
ĠÙ¾Ø§ÙĨÚĨ ÙĪÚº
ĠØ³Ù¾ ÛĮÙĨ
ĠÛ±Û µ
ÙĨ ÙĪÙ¹Ø³
ĠØ² ÙħØ±ÛĴ
ĠØ´Ø¹ Ø¨
Ûģ ÛĮÙħ
ĠØ¢ Ø°
ĠØ§Ú©Ø§ ÙĪÙĨÙ¹Ø³
ĠØ¬ÙĪ Ø¦ÛĴ
ĠØªØ®ÙĦÛĮ ÙĤÛĮ
ĠØŃ Ø¨Ø§ÙĨ
ĠÙģ ÛĮÙĨ
ĠÚ©Ùħ Ø¨
ĠØ¨Ú¾ Ø§ÙĨ
ÙħØª Ú¾
ĠÙħØ® ÛĮØ±
Ø¨Ø· ÙĪØ±
ØªÙģ ØµÛĮ
ĠÙĦÙħØ¨ Ø§Ø¦ÛĮ
ĠÙ¹ÛĮÙĨÚ©Ø± Ø²
ĠØŃØ±Ø¨ ÛĴ
ĠÛĮ Ø´
Ø§Ø±ÛĮ ÙĦ
ĠÙ¹Ø± Ø§ÙĦÛĮ
Ġ0 7
ĠÚ©ÛģÛĮ ÛĴ
ÙħÙĤØ§Ø¨ ÙĦÛģ
ĠØ´ ÙĦ
Ø³Ùħ Ø¬Ú¾
ĠØ¯ÙģØª Ø±ÛĮ
ĠÚ© ÙģØ±ÙĪ
ĠÙĪ ØºÛĮØ±
ĠÚ©Ú¾ Ø§ÙĦ
ĠØ¹Ø¨Ø¯Ø§ÙĦ ØŃÙĤ
ĠÙħØ¨ Ø¹
ĠØ¢Ø³Ù¹Ø±ÛĮÙĦ ÛĮÙĨ
ĠØ§ÛĮÚ¯ Ø±ÛĮÚ©ÙĦ
ÙģØ± Ø§ÙĨØ³ÛĮØ³ÛĮ
ĠÚĨÚ¾ÙĪÚĳ ÙĨØ§
ĠØ¹ÙĨ Ø§Ø¯
ĠØ¨Øµ Ø±ÛĮ
ĠÙ¾ Ú©Ø§
ĠØ¯ ØªÛģ
ĠÚ¯ ÙĨÚĪ
ĠØ§ÙĦ ØµÙĪØ¨Ø§Ø¦ÛĮ
ĠØ¨ÛĴ ØŃÛĮ
ĠÚ¯Ø±Ø¯ ÛĴ
ĠØ¯Ùģ Ø¹
ĠØ³ÙĪØ¦ Ù¹Ø²Ø±ÙĦÛĮÙĨÚĪ
ĠØ´ÛĮØ· Ø§ÙĨÛĮ
ĠÙħÚ©Ø§ÙĦ ÙħÛģ
ĠÚ©Ù¾Øª Ø§ÙĨÛĮ
Ø± Ø§Ø¨Ø·Ûģ
ĠÙģ Ø¯ÛĮÛģ
ÙĨØ¯ Ø§
Ø²ÙĨ Ø´
ĠÙ¹ÙĪØ± Ø§Ø²Ùħ
ĠÚ©ÙĪØ¢Ø±ÚĪ ÛĮÙĨÛĮÙ¹Ø±
ĠØ¹ Ø§ÙĤ
Ú©Ø± Ø§Ø±
ĠØ¨Ú¾ Ø§Ø´Ø§
ĠØ§Ø¯Ø§Ø¦ÛĮ Ú¯ÛĮØ§Úº
ĠØ¨Ø¯Ø¹ ÙĨÙĪØ§ÙĨ
ĠØªØ§ÙĦ Ø§Ø¨
Ùħ ØªÛĮ
ĠØ§ Ø±ÙĪ
ĠÚ©Ûģ Ø§ÙĨÛĮØ§Úº
ĠÙħØ· ÛĮØ¹
Ú©Ø± ÙĨÙĦ
ĠØ³ÛĮÚ© ÙĪÙĦØ±
ĠØ§Ø± Ø¬ÙĨ
ĠØ±ÙĪÙĨ Ø§
ĠÙĨØ§Ø¯Ûģ ÙĨØ¯Ú¯Ø§ÙĨ
ÙĦ Ø·ÛĮÙģ
ĠØ³ Ù¾ÙĨØ±
ĠÙģ Ø§Ø´
Ø´ÙĨ Ú¯
ĠÙħØŃÙħØ¯ ÛĮ
ĠÚ©ÙĦ Ø±Ú©
Ġ11 7
ĠÙ¹ÙĪ Ù¾ÛĮ
ĠØªØ§Ø¬ Ú©
ĠØ¨Ø§Ø¬ ÙĪÚĳ
ĠØ§Ø³Øª Ø«
ĠØ¨Ø§ÙĦ Ø±
ĠÙĤØ§Ø¨Ø¶ ÛĮÙĨ
ĠÚ©Ø§Ø³ Ø§Ùħ
ĠÙĨÚ©Ú¾ Ø§Ø±
ÙĪØ¨ Ø§Ø±Ûģ
Ø³Ù¹ ÛĮÙĨ
ĠÙħØ³ Ú©
ĠÙħØ¯ ÙĨÛĮ
ĠÚĪØ± ØªØ§
ĠØ¯Ú©Ú¾ Ø§ÙĨØ§
ĠØ¯ÛĮØ± Ù¾Ø§
Ø¹Ø¨ Ø¯
ĠÙ¹ÙĪØ¦ÛĮ Ù¹
ĠØ®ÙĪØ´ÙĨ ÙĪØ¯ÛĮ
ÙĪÛĮ Ø±ÛĮ
ĠÙħØ¸ ÛģØ±ÛĮ
ĠÙģØ§Ø± ÙħÛĮ
Ø§ÙĦØŃ Ø³ÙĨ
ĠÙħÙĦØ§Ø²ÙħØª ÛĮÚº
ĠØ¨ Ø°Ø§Øª
ĠÙ¾Ø±ÛĮØ´Ø§ÙĨÛĮ ÙĪÚº
ĠØ¶Ø§Ø¨Ø· Ú¯ÛĮÙĪÚº
ĠØ³ÙħØ¬Ú¾ÙĪ ØªÛĴ
ĠØª Ø§ÙĦÛĴ
ĠÛģÛĮÚº Ø¬Ø¨Ú©Ûģ
Ø¹Ø¯ Ûģ
Ø§ÛĮ ÙĪÙĨ
ĠÙĨØ§ ÚĨ
ĠÛ²Û ±Û
Ù¾ÙĪ Ø³Ù¹
Ø ¥
ÙĨ ÙĪÙħ
Ùħ Ø·
Ùħ Ø§ØŃ
ĠÙħ Ø§Ø±ÛĮÛģ
ĠØ¬ ÛĮÙĨÛĮ
ĠÙĤ Ø§Ø±
ĠØªÚ© Ø§ÙĦÛĮÙģ
ĠØ®Ø§Øª Ùħ
ĠÙĤØ§Ø¦Ùħ ÙĤØ§Ùħ
ĠÛ²Û °Û
ĠÙ¾Ø§Ø±Ú© ÙĪÚº
ĠÚ¯ÛĮÙĦ ÙĨ
ĠØºØ° Ø§Ø¦ÛĮÚº
ĠØ´ ÙĪØ²
ĠÙģ Ø§ÙĨÛĮ
Ø· ÛĮÚ©Ûģ
Ø§Ø³Ú© ÙĪÙĦ
ĠÙħÙ¹Ú¾ Ø§Ø¦ÛĮ
ĠÙĪØ§Ûģ Ú¯Ûģ
ĠÙĨ Ø§ØªÚ¾
ĠØº Ø¶ÙĨÙģØ±
ÙħØª Ø¹Ø¯Ø¯
ĠÚ©ÛĮØ³ Ú©ÙĪ
ĠØ´Ùħ Ø¹
ĠÛ±Û ´
ĠÛĮØ§Ø± Ø³ÙĪÙĦ
ĠÙ¾ÙĨØ¬ Ú¯ÙĪØ±
ĠØª ÙĪÙĨ
Ø® ÙĪØ§Ùħ
ØªÙħ ÙĨØ¯
ĠØ³Ø±Ú© ÙĦØ±
ĠÙ¾ÙĪØ±Ù¹ ÙĦ
ĠØ¨ÛĮÙĦ ÙĨØ³
ĠØ¹ÛĮØ¯ Ø§ÙĦÙģØ·Ø±
ĠÙ¾Ø±Ø§Ù¾ ÛĮÚ¯
Ø¢Ùģ Ø±ÛĮØ¯ÛĮ
Ø³ Ø§ÙĨÛģ
ÙĪØ± ÛĮÛģ
ĠØ®ÙĪØ´ Ø§Ø¨
ĠØ¹Ø¯Ø§ÙĦØª ÛĮÚº
ĠØ¨Øª Ø§ØªØ§
ĠÙ¾Ú© ÚĳÛĮ
Ø§Ø¦ Ø±Ûģ
Ø¹ Ùģ
ĠØªØ¹ ÙħÛĮØ±ÛĮ
ĠØ¨ÙĪ Ø§Ø¦ÛĴ
ĠØ¨Ú¾Ø¬ÙĪ Ø§Ø¦ÛĮ
ĠØ°ÙĪØ§ÙĦ ÙĤØ±ÙĨÛĮÙĨ
ĠÙĨÙĪÚ©Ø±ÛĮ ÙĪÚº
ĠÙħØ¨Ø¹ ÙĪØ«
Ùħ Ûĥ
ĠÛģ Ø°Ø§
ĠØ³ ÙħØ§ÙĦ
ĠØ¹Ø§Ùħ ÙĦÛģ
ĠØ¨Ø±Ø¨Ø§Ø¯ ÛĮ
Ú© Ø¦ÛĴ
ĠØ± Øº
ÚĪ Ùħ
ĠÙģ ÙĨØ§
ÙĦÛĮÙģ ÙĪØ±ÙĨÛĮØ§
ĠØ±ÛĮØ³ ÙĪØ±Ø³
ØªØ¨ Ø¯ÛĮÙĦÛĮ
ÛĮ Ø³
ĠØ® ÙħÛĮ
ĠØ¨Ø± Ø§Ø¬ÙħØ§ÙĨ
ĠØ¯Ú¾ Ø§
ĠØ¯Ú¾ Ø§ÙĨ
ĠÙ¹ÛĮÚ©Ø³ Ø§Ø³
ĠØ¯Ø±Ø³Øª Ú¯ÛĮ
Ø¹Ø¨ Ø§Ø³
ĠØ±ÛĮÙĦ ÙĪÛĮØ²
ÙĨÚ© Ø§ÙĨÛģ
Ûģ Ø¯Ø§ÛĮØª
Ùģ Ø¶
ĠÙħØ¹ ÛĮÙĨÛģ
ĠØ³Ûģ ÙĦ
ĠÙħÙĨØ¸Ø± Ø¹Ø§Ùħ
ĠÚ©Ø± Ú¯ÛĮØ§
ĠØ§ÛĮÚ© Ø³ÛĮÙĨ
ĠÙħÙĪ ÙĦÛĮ
ĠÙħÙĪ ØªÛĮ
ĠØµØ¯ ÙĤ
ĠÛĮØ§Ø¯ Ø§Ø´Øª
ÚĪÛĮÙ¹ ÙĪØ±ÛĮÙħ
o u
ĠØ§ ÙģÛĮØ¦Ø±
Ùģ Ø¶ÙĦ
ĠÙĪÛģ ÛĮÚ©ÙĦ
ĠØ¨ÙĨØ¯ ÛĮÙĪÚº
ĠÚ©Ø´ØªÛĮ ÙĪÚº
ĠÙħØ±Ø¨ Ø¹
ÙĤ ÙĤ
Ù¾ ÙĦÛĮ
Ø§Øª ÙĪ
ĠØµ Ø±Ø§Ùģ
Øº ÛĴ
ĠØ³Ø± Ø²ÙĨØ´
ĠØ§Øª Ø§Ø±ÛĮ
ĠÛģÙĨ Ø³ÛĮ
ĠØ¬ ÙĪØ¯
ĠØ· ÙĨØ²
ĠÙģÛĮ Ø¶Ø§ÙĨ
ĠØ§Ùħ Ûģ
ĠØ§ÙĨØªØ¸ Ø§
ĠÙģØ§Ø± ÙħØ²
ÙħÙ¾ ÙĪØ±
ĠÚĨÚ¾ÛĮÙĨ ÙĨÛĴ
Ø¹ÙĦØ§ÙĤ Ûģ
ĠÙĦ Ø±
ĠØªØ± Ø¬Ùħ
ĠÚ¯Ú¾ ÙĪÙ¹Ú©ÛĮ
ĠÙħÙĦØ§Ø² ÙħÛģ
Ġ11 8
ĠØ§ÙĦÙħØ³ÙĦ ÙħÛĮÙĨ
ĠÛĮ Ùħ
Ø§ÛĮ ÙĪ
ĠØµÙĪØ±Øª ÛĮÚº
ĠÚ¯Ú¾ Ø§Ø³
ĠÚ¯Ø²Ø§Ø± Ø´
ĠØ¨Ø§ÙĨ Ø¯ÛĮ
5 6
ĠØ¯ Ø§ÙĦØ¨
ĠÙĦ Ù¹Ø±ÛĮ
ĠÙ¾Ûģ ÙĦ
Ø³Ø± Ø§ÙĨ
Ø¬ÛĮ Ø¦Ùħ
ĠÙģ ÙĤØ±
Ø§ÙĤ Ûģ
Ø¯ÛĮ Ù¾
ÙĦÙĪ ÚĪ
ĠÙħØ§ÙĨ Ø¯Ûģ
ĠÚĪØ±Ø§Ø¦ÛĮ ÙĪØ±ÙĪÚº
ĠØªØ¶ Ø§Ø¯
ÙĪ Ù¹Ø±Ø²
ĠÙĦ Ø±Ø²
ĠØº Ø²Ûģ
ĠÙ¾Ø±ÙĪ Ø³ÛĮ
ĠØ¯Ø§Ø± Ø§ØŃ
ĠØ¬Ú¾ ÙĪÙĨÚ©
Ú©Ú¾ÙĦØ§ ÚĳÛĮÙĪÚº
ĠÙģÙĦØ³ ÙģÛģ
ÙĨØ¯ ÛĮÙĨ
ĠØ§Úĳ Ø§ÙĨ
ĠØ±Ùģ Ø¹
ĠØ®ÙĪØ§ÙĨ Ø¯Ú¯ÛĮ
ĠÙħÙĪÙĤ ÙĪÙģ
ĠØ³ ØªÛĮ
Ġ12 9
ĠØ¨Ú© Ú¾Ø±
ĠØ³Ø§ÙĨ ØŃÛĴ
ĠÚ©ÛĮÙħÛĮÚ©ÙĦ Ø²
ĠØ§Ø²Ø¯ÙĪ Ø§Ø¬ÛĮ
ĠÙ¹Ø±Ø§ÙĨØ³ÙģØ§Ø± ÙħØ±
ĠØ³ ÙħØ±
ĠØ¨ Ø¢
ĠØ¯ Ø§ÙĨÛĴ
Ø¹ Ø¸ÙħÛĮ
ĠØŃ Ø±Ùģ
ĠØµ ÙĪÙģ
ĠÙħÙĨ Ø´Ø§Ø¡
ĠØ§Ø¬ ÙĨØ¨ÛĮ
ĠØ¯Ú¾ÙĪ ÙĨÛĴ
ĠØ¨ÛĮÙĦ Ø³Ù¹Ú©
ĠÙħÙĨÚ¯ ÙĨÛĮ
ĠØ§ÙģÙĪ Ø§ÛģÙĪÚº
ĠÙĨ ÚĨÚ¾
ĠÙħÙĪÙĤØ¹ ÛĴ
ĠØ±ÙĪÙ¾ ÛĮ
ĠØ¯ÙĦ ÙĪ
ĠØ¨ÙĦØ§ Ø§ÙħØªÛĮØ§Ø²
ĠØ±ÙĨÚ¯ Øª
ØªØŃÙĤÛĮÙĤ Ø§ØªÛĮ
ĠÙĦÙĪØ¯ Ú¾Ø±Ø§Úº
ĠÚ© Ù¹Ø±
ÙĦ ÙĨÛĴ
ĠÙ¾ Ù¹ÙĪ
ĠØ¨ÚĳÚ¾ Ø§Ø¦ÛĴ
ĠÙ¹Ø±ÛĮÚĪ Ø±Ø²
---- ----
ÚĪØ§ÙĦ ÙĨÛĴ
Ø² ÛĮÙĨ
ÙħØ¯ Ø§ÙĨ
Ø° Ùģ
ĠÚ¯ÛĮ Ù¹Ø³
ĠÚ©Ø¦ÛĮ ÛĴ
Ø¬ÙħÛģ ÙĪØ±ÛĮØª
ĠÙ¾Ú¾ÛĮÙĨ Ú©Ø§
ĠØ± Ù¹ÛĮ
ĠÙģ Ø§Ùħ
Ø§Ø³ Ú©ÛĮ
Ø¨Ø± Ø§ÙĨÛĮ
ĠØ³Ú© Ø±
ĠÚ©Ø§Ø± ÚĪÛĮ
ĠØ¯Ø§Ø® ÙĦÙĪÚº
ĠÙħÛĮØ¯ Ø§ÙĨÙĪÚº
ĠÙħÙģØª Ø§ØŃ
ÙħÙĨØ¹ÙĤ Ø¯
Ø³ ÙĪÙĨ
ĠÙħÙĦ ÙĨÛĮ
ĠØŃØ³ÛĮÙĨ Ûģ
ĠØ±Ú© ÙĨÛĴ
ĠÙ¹Ø±ÛĮ Ù¹ÙħÙĨÙ¹
ĠÙ¾Ø§Ø¤ ÚĪØ±
ĠÙħÙĨ Ø§Ø²ÙĦ
ĠÚ¯ÛĮ Ø³Ù¹
ĠØ§Ú© Ø³
ĠØ§Ø² Ø¨Ú©
Ġ10 9
ĠØ®Ø³ Ø±ÙĪ
ĠØ¹ ÛĮØ¨
Ø§Ø³ ØŃØ§ÙĤ
ĠÙ¹ Ø§ÙĪ
ĠÙħÙĨØµ Ø¨ÛĮ
ĠÙħ Ù¹Ø§
Ġ20 30
Ø¢ Ø¯
Ù¾Ø± Ø§Ø¦ÛĮ
ĠÛ²Û ²
Ø§ÙĨ ÙĪØ±
Ø¨Ø± Ú©
ĠÙħØŃ ÙĦÛĴ
ĠØ§ØŃ Ø±Ø§Ùħ
ĠØ¢Ø¬ Ø§ØªÛĴ
ĠÛ²Û ³Û
ĠÚ© ØªØ§
ĠÙħ Ø§Ø¯ÛĮ
Ø´ Ú©Ø§
ØŃ Ø±Ø§Ùģ
ØŃ ÙħØ²Ûģ
ÛĮÙĨ Ø±Ø²
ÙĪÙĦ ÙĪØ¯
ÙĪØ¨ Ú¾ÛĮ
Ø° ÙħÛģ
ĠÙħØ·Ø§Ø¨ÙĤ Øª
ĠØ¨Øª ÙĦØ§ÛĮØ§
ĠØ¬Ø± Ø£Øª
ĠØ¢Ù¾Ø±ÛĮ Ù¹ÙĪ
ĠØ§ÙģØ· Ø§Ø±ÛĮ
ĠØ¯ Ø§ÚĳÚ¾ÛĮ
Ø§ÙĦ ÙĪÛĮ
Ø§Øª ÙĪÚº
ĠÚ©Ú¾ Ø§ØªØ§
Ø§ÛĮ Ø¬ÙĨØ³ÛĮ
ĠØ±Ø³ ÛĮØ¯
ĠØ¨Ø§Ø¯ ÙĦÙĪÚº
ĠØ²ÙĪÙĨ ÙĦ
ĠÙ¹Ú© Ù¹Ø³
ĠÚ©ÙĨÙĪ ÛĮÙĨØ±
Ø¹Ø§Ø¨ Ø¯
ĠØªØ±Ø¬Ùħ Ø§ÙĨÛĮ
Ø± ÙĪÙħ
ĠØ± ÚĨØ±ÚĪ
ĠØ¨ÚĨ Ø§Ø¦ÛĴ
ĠÙĨØ¸ Ø§ÙħÛĮ
ĠØ³Ù¾ Ø±ÙĪ
Ø³ÛĮÙĨ Ù¹Ø±
ĠÚ©ÛĮ ÙģØ±
ĠØ² Ø±Ø¯
Ø±ØŃ ÙħØ§ÙĨ
ĠØªØ¨Øµ Ø±ÛĴ
ĠÙĨÙħÙ¹ Ø§ÙĨÛĴ
ÙĦ Ø§Ø¦ÛĮÚº
ĠØ± Ø³ÙĦ
Ú¯ÙĪ Ú¯ÙĦ
Ġ11 1
ÙĦÚĳ Ú©ÛĮ
ĠØ¯Ø§ÙĦØ¨ ÙĨØ¯ÛĮÙĨ
Ùħ ÚĨÚ¾
Øµ Ø¯ÛĮÙĤÛĮ
ĠÙĤ ÙħÛĮ
Ø° ÙĪÙģ
Ú©Ú¾ ÙĪÚº
Ø¨Ûģ ØªØ±ÛĮÙĨ
Ġ196 5
ĠÚĨØ§Ú© ÙĦÛĮÙ¹
Ûģ Ø§Ú©ÛĮ
ĠÙħØŃ ÙĨØªÛĮ
Ø§Øµ Ø¨
ÙĪÙ¹ Ú¾ÛĮ
ĠØ³ÙĪØ¦ Ø³
ĠØ¬Ø¨Ø± Ø§Ø¦ÛĮÙĦ
Ø± Ú©ÛĴ
ĠØ¨ Ø§ØªÚ¾
ĠÙĪ Ø§Ø¶Ø¹
ÚĨ ÙĪØ±
ØŃ ÛĮÚ©
ĠØ§ÙĦ Ù¹ÛĮ
Øº Ùħ
Ø¨Ûģ Ø§ÙĪÙĦ
ÙĤÛĮÙħ Øª
ĠÙħÙĨØŃ ØµØ±
ĠÙĨ Ø¯Ø§
ĠÙ¾ ÛĮÚ©Ù¹
ĠÙħÙĪ ØµÙĪÙģ
Øº ÙĨÛĮ
ĠØ§Ùģ Ú©Ø§Ø±
ĠÚĪØ§Ø¦ Ø±ÛĮÚ©
ĠÙ¹Ø±ÛĮÙĨ ÛĮÚº
ĠÙ¹Ø§Ø¦ Ù¾
ÚĨØ§Ûģ ØªÛĴ
ØºÙĦ Ø·
Ú¯ ÙĨÚ¯
ØŃ Ú©Ûģ
ĠØ§ÛĮØ³ ÚĪ
ÚĪÛĮ Ø§Ø²
Ø§ØªÛĮ ÙĪÚº
ĠØ¬Ú¾ Ø§Úĳ
ĠØ³Ø±Ú© Ø´
Ġ10 3
ĠØ´ÙĪ Ù¾ÛĮØ§Úº
ĠØªÙħØ§Ø´ Ø§Ø¦ÛĮ
ĠØ«Ø§ÙĦØ« ÛĮ
ĠÙ¾Ù¹Ø± ÙĪÙĦÙĨÚ¯
ÙĤ Ø³Ùħ
ĠÙĤ Ø§Ø¹Ø¯Ûģ
Ġ10 7
ĠÙħØ·Ø§ÙĦ Ø¹ÛĴ
ĠØ´Ø§Ø¯ÛĮ ÙĪÚº
ĠÛĮØ§Ø± Ø®Ø§ÙĨ
ĠØ²ÛģØ±ÛĮ ÙĦÛĴ
Ø§ÛĮØ§Ø¬ Ø§Øª
ĠØ§ÙĨ ØµØ±
ĠØµ Ûģ
ĠØ§ÙĤ Ø§Ø±Ø¨
ĠÙ¹Ú¾ ÙĨÚĪ
ĠØ´Ú¯ Ø§Ùģ
ĠØ§ÙĦÙħØª ÙĪÙģÛĮ
ĠÛģÙĪ Ø¯
Ø« Ø§Ø¨Øª
ĠØ¨ÛĮ Ø®Ø¨Ø±
ĠØ¨ÙĨ ÛĮØ§
ÚĪÙĦ Ø§Ø¦Ùģ
ĠØ³ÙħÙĨØ¯ Ø±ÙĪÚº
ĠÚ©Ø±Ø³ Ú©Ø§
ĠÙĨÙĪØ´ Ú©ÛĮ
ĠØ¯Ø§Ø±Ø§ØŃ ÛĮØ§Ø¡
ĠÙ¾ Ø§ÙĨÚĪ
ĠØª Ø§Ø±ÙĪÚº
Ø§Ø³ Ú©Ø§
Ø· Ø§Ø±
ĠÚĨÛĮ Ù¹
Ø§ÛĮ Ú¯Ø²
ĠØ²ÛĮ ÚĪ
Ġ V
ĠÙħØ¹ Ø¸Ùħ
ĠÚĨÚ¾ Ú©ÛĴ
ĠÛĮÙĪ Ù¹ÛĮÙĦ
ĠÚ©ÙĨÙĪ ÛĮÚº
ĠÛĮØ§Øª Ø±ÛĮÙĪÚº
Ùħ ÙħØ¨Ø±
ĠÙĪ Ø®
ĠÚ©Ú¾ Ø§Ø¤
Ø¬Ø³ Ú©ÛĴ
ĠØ´Ø¹ Ø§Ø±
ĠÚĨÙĪÛģ ÙĪÚº
ĠØ¯Ú©Ú¾ Ø§ØªÛĴ
ĠØ³Øª ÙĪÙĨ
ĠÙĨØ³ Ø§Ø¦ÛĮ
ĠÚĨÚ¾Ù¾ Ø§Ø¦ÛĴ
Ø³Ø§Ø¨ÙĤ Ûģ
ĠØ²ÙĨ Ø§ÙĨÛģ
ØªØ¹ÙĦÙĤ Ø§Øª
ĠÙ¾ Ø§Ø´Ø§
ĠØ¯ Ú¯ÛĮ
ĠØµÙģ Ø§ÛĮØ§
ĠØ´ÛĮÙĦ ÙĨÚ¯
ØµÙĪ Ø§Ø¨ÛĮ
ĠØ¨ÛĴØŃÛĮ Ø§Ø¦ÛĮ
ĠØ¨Ú¾ÛĮØ¬ ØªÛĴ
ĠÚ©ÙĪÙĦ Ú¯Ø§Ùħ
ĠØªØ§Ø« ÛĮØ±
ĠÙĪ Ø±Ø¯ÛĮ
Ø¨Ú¾ÛĮ Ø¬
ĠØ¢Ø³ Ø§Ùħ
ĠÛ±Û ¶
Ø¯Ø³Øª Ø§ÙĪÛĮØ²
ØªØ¹ÛĮÙĨ Ø§Øª
ĠØ¬ ØºØ±Ø§ÙģÛĮØ§Ø¦ÛĮ
ĠÙĦ ÛĮÙĨÛĮ
ĠÙĨÛģ ÛĮ
ĠÙħØŃ ÙĪØ±
ĠÙħÛĮ Ù¹Ú¾Ø§
ĠØ§Ø´ Ú©Ø§ÙĦ
ĠÙĪÙĪÙ¹Ø± ÙĪÚº
ĠÙģÙĦÙ¾ Ø§Ø¦ÙĨ
Ġp k
ĠÚ©ÙĪ Ø§Ø±ÚĪ
ĠØªØŃ Ø±ÛĮÙģ
ÙĨØª Ø§Ø¦Ø¬
ÙħØ´ ØªØ§ÙĤ
ĠØ±ÛĮÙĦ ÛĮØ§Úº
ĠÛģÛĮÚĪÚ©ÙĪØ§Ø± Ù¹Ø±Ø²
ĠØ³Ú© Ø§ÙĦØ±Ø²
ĠÙħÛĮ Ù¹Ø±ÛĮÙĦ
ĠØ§Ø¯ Ø§Ø±
ĠÙħÛĮÙĨ ÙĪÙģÛĮÚ©ÚĨØ±
ĠØ¹Ø¨Ø¯Ø§ÙĦ Ú©Ø±ÛĮÙħ
Ġ13 3
ĠØ¨Ø§Øº ÙĪÚº
ĠØ§ÙĨÚ¯ Ø±ÛĮØ²
ĠÚ© ÙĦÛģ
ĠÙħ ÛĮÚ©ÙĨ
Ø§Ø¬ Ø§
Ù¹Ø±ÙĨ Ø±ÛĮ
ØªÙħÛģ Ø§Ø±ÛĴ
ĠÛģÙĪØ´ÛĮ Ø§Ø±
ĠÙģØ± Ø¶ÛĮ
ĠØ« Ø±ÙĪØª
ĠÙħØ§ÙĨ ÙĪ
ĠÙģÙĪÙĨ Ú©
ÙħØ´ Ø±Ú©
ĠØ¨Ø±ÙĤÛĮ Ø§Øª
ÙħÙģ ØªÛĮ
ĠØ§ÙĨ Ú¯ÙĪ
ĠØ§ÙĦ Ø§Ùħ
ĠØ¨Ø± Ù¹Ø´
ĠÙĨÙĪ Ù¹ÙĪÚº
Ø³Ùħ Ø³
ĠÙ¾ÛĮØ± Ø§Ú¯ÙĪÙĨ
ĠØ¨Ø§ Ø§ÙĦ
ÙĤØ¨ Ø§Ø¦ÙĦÛĮ
ĠÙĨØ§Ø´ Ú©Ø±ÛĮ
ĠØ¯ ÙĪÙĨ
Ùģ ÙĪØ±ÚĪ
ĠÙģ ÙĦÙĪ
ÛĮØ¯ ÛĮ
ĠØ³ÛĮ Ù¹Ø³
ĠØ¨Úĳ Ú¾ÛĮ
ĠØ±Ú©Ú¾ ÙĨÛĮ
ĠÙ¾Ú¾ Ù¹ÛĮ
ĠÚ©Ø§ÙĨ Ø³ÛĮ
ĠØ§ÛĮÚĪÙĪ Ø§Ø¦Ø²Ø±
ĠÙĪØ¸ Ø§Ø¦Ùģ
ĠÙĨÚĨÚ¾ Ø§ÙĪØ±
ĠØ³ Ù¾ÛĮÚĪ
Ø³ Ø¹Ø¯
ĠØ§ÙĨ ØŃØ±Ø§Ùģ
ĠØ³Ú© Ø³
ÙħØ² Ø¯Ûģ
ĠØ§ÙĨÚ¯ ÙĦÛĮÙĪÚº
Ø¹Ø¨Ø¯Ø§ÙĦ ÙĦÛģ
ĠÙħ Ø¬ÛĮØ¨
ĠÙĪ Ø§Ø³Øª
Ø±ÛĮ ØªÛĮ
ĠÙħÛĮ Ø«Ø§ÙĤ
ÙĪÙĦÛĮ Ø´ÙĨ
ĠØ¨Ú© Ú¾ÛĮØ±
ĠØ¹ÛĮØ³ Ø§Ø¦ÛĮÙĪÚº
Ø¹ ÛĮÙĨÛĮ
ĠØ´ ÛĮÙħ
Øµ ÙĨ
ĠØ§ÙĦ ÛĮÚ©Ù¹
ĠÙħÙĤ Ø±Ø¨
ĠØ³Ø± ÙħØ§
ĠØ¹Ùħ Ø§Ø±
ĠØ³ÛĮÙ¹ ÛĮÚº
ĠÙħØ´ÙĤ ÛĮÚº
ww w
ÙħØ¹Ø§Ø´ Ø±ÛĴ
ĠØ¯Ú¾ Ø¬
ÙĨÙħ Ø§Ø¦Ø´
ĠÛ²Û ³
Ø§ÛĮÙħ Ø±
Ø±ÙĪØ² Ø§ÙĨÛģ
ÙģÙĨÚĪ Ø²
ĠØ´ Ú©ÛĮ
ĠØ¢Ø± Ø§Ø¡
Ġ13 5
ĠÚĪÚ¾ Ø§ÙĨÚĨÛģ
Ú©Ø§Ø±Ú©ÙĨ ÙĪÚº
ĠØ¢ÙģÛĮØ´ÙĦ Ø²
Ø¬ ÙĪÙĦ
ĠØ² ÙĨÛĮ
ÙģØ± Ø¶
ĠØ³ÙĨÛĮ ÙĦ
ĠØ§ÙĨØµ Ø§
Ø³ Ø§Ø²ÛĮ
Ø§Ø± Ùħ
ĠØ¨Ûģ Ø§Ø¤
ĠØ¹Ùħ ÙĪÙħ
Ø¨Ú¾ Ø§Ø±ÛĮ
Ø§ÙĪÛĮ Ø²ÛĮ
ĠØŃÛĮÙĪØ§ÙĨ Ø§Øª
ĠÙĦ Ø§ÙĨÚ¯
Ø§Øª ÙĨÛĮ
ĠØ§Ø±Ø¯ÙĪ Ø§ÙĨ
ĠØ§ÙģØ± Ø§Ø·
ØªÙĪ ÙĤØ¹
ĠØªØ¶ ØŃÛĮÚ©
Ùħ Ø§Øª
ĠÚ¯ÙĪØ±ÙĨ ÙĨÚ¯
ÙħÙĤØª ÙĪÙĦ
Ġ www
ĠØ§Ù¾ÛĮÙĦ ÛĮÚº
ĠÙĤØ· Ø¹Ø§
ĠÙħØ¹ÙħÙĪÙĦ Ø§Øª
Ø§ÙĨ Ø³Ù¾
Ø¹ ÙĪØ¨
Ø¬ Ø¹
Ø· Ø¨
ĠØ§ØŃ ÙħÙĤ
ĠÚ©Ú¾ ÙĪÚĳÙĪ
ĠØ¹ÙħØ± ÛĮÚº
ĠØ¨ÚĳÚ¾ Ø§ØªÛĴ
ĠÙ¾ÛģÙĦÙĪ Ø¦ÙĪÚº
ĠØ§Ø¹ØªÙĤ Ø§Ø¯
ĠÙħØ´ Ûģ
ĠÚĨØ§Ø± Ø¬Ø²
ØŃØ§ÙĦ Øª
ĠÙħØº ÙĦÙĪØ¨
ĠÚĪÚ¾ ÙĪÚ©
ĠÚ©ÙĨÙ¹ Ø±ÛĮ
ĠÙ¾ÙĦØ§ Ù¹Ø³
ĠØ¹ ÛĮØ§Úº
ĠØ¨ÛĮ Ú¯Ø²
ĠØ®Ø§ÙĨ Ø²Ø§Ø¯Ûģ
ĠØ³Ø¨ Ú©
ĠØ¬Ø§ÙĨØ¨ Ø¯Ø§Ø±ÛĮ
ÙĪÙ¹ ÛĮØ§Úº
ĠØ§Ø±Ø¨ ÙĨ
ĠÙħØ¶ ØŃÚ©Ûģ
Ġ11 4
Ø¨Ø§Ø± Ø´
ĠÚ¯ÙĪÙĦ ÚĪÙĨ
ĠØ§Ø³ÙĦ ÙĪØ¨ÛĮ
ĠÙħØ±Ø§Ú© Ø´
ĠØ§ÙĨÙģØ± Ø§
ĠØ±Ø¬ØŃØ§ÙĨ Ø§Øª
ĠÙħØµØ¯ Ø§ÙĤ
ĠØ³Ø±Øº ÙĨÛģ
ĠØ¹ Ø³
ĠÛĮ Ø§Ø±ÚĪ
ĠÚĪ ÛĮØ±ÛĴ
ĠØ¨Ø§ Úĳ
ĠØ¨Ø®Ø´ Ø§
ĠØ±Ø§Ø¦ÛĮ ÙĪÙĨÚĪ
ĠØµÛĮ ØºÛģ
ĠØ¬Ú¾Ù¹ÙĦ Ø§ÙĨÛĴ
ÙĦ Ú©Ûģ
ĠØ¨Ø® ÙĦ
ĠÙ¾ÙĦ Ø§Ø¦ÛĴ
ĠÛ²Û ²Û
ĠÙĦÙĤ ÙħÛģ
ĠØ±Ø§ÛģÙĨÙħ Ø§Ø¦ÛĮ
Ø§ÛĮÚ©Ø³Ù¾ Ø±ÛĮØ³
Ø³ Ø±Ú©
ĠÙ¾ Ø§Ø¯Ø±ÛĮ
ĠÚ¯ ÙĦÙģ
ÙĦØ§ Ú¯
ÙĨÛĮ Ûģ
ĠÙ¾ÛĮ ÙĪÙĨØ¯
ĠÙģØ± ØŃ
ĠØ¨Ú¾ ÙħØ¨Ø±
ĠÙħÛĮÙĨ ÙĪÚº
ĠØ´Ø±ÙĪØ¹ Ø§Øª
ĠØ¯Ø¹ Ø§Ø¦ÛĴ
20 17
Ø§ÙħÛĮØ¯ ÙĪØ§Ø±ÙĪÚº
Ú©Ø¨ Ø±ÛĮ
Ġ t
ĠÙ¾ Ùħ
Ø³ÛĮ ÙĪÚº
Ø±ÙĪ Ø§ÙĨÛģ
ÙĪÛĮ ÙĪ
ĠÚ©Ú¾ Ø¯Ø§Ø¦ÛĮ
ĠØªØ¨ Ø³Ùħ
ĠÚ¯Ø± Ø§ÙħÛĮ
ĠÙģÙĦ Ù¹Ø±ÛĮØ´ÙĨ
ĠØ¯Ø³Øª ÙĪÚº
ĠØ³ÙĨÛĮ ÙħØ§
ĠØªÚ¾Ø± Ù¾Ø§Ø±Ú©Ø±
ĠÙ¾Ø±ÙĪÙ¾ÛĮÚ¯ ÙĨÚĪØ§
ĠØ¨ Ø¯Ùħ
ÙħÛĮ Ù¹ÙĨÚ¯
ĠÚĪ Ùħ
Ø¨Ø± Ûģ
ĠÙħØŃ Ø°ÙĪÙģ
ĠØ³Ú© ÛĮÙĨ
ĠØ§ÙĪÙ¾ÙĨ ÙĨÚ¯
Ú¯Ú¾Ø± ÙĪÚº
ĠØ¶Ø§Ø¨Ø· ÛĴ
ÙħÙĤØ¯ ÙħÛģ
Ø± Ø§ÙĨÛĮ
Ø¦ Ú©
ĠÚ¯Ø² Ø±ÛĮ
ĠØ®Ø¯Ø§ ÙĪÙĨØ¯ÛĮ
ĠÚ¯Ù¹ Ú©Ø§
Ùħ ÙĪØ¨Ø§Ø¦ÙĦ
ĠØ¹ ÙĨÙĪØ§ÙĨÛĮ
ĠØ§ÙĦ Ø§ÙĪ
ĠÙħÙĦ Ø§Ø¦Ø´
ĠÙħØ¹ Ø§ÙĨÛĮ
Ø³Ø± Ù¹
ĠÙħØ³Øª ØŃ
ĠÙĦØ§ ÚĪ
ĠØ¯Ú¾Ø± ØªÛĮ
ĠÚ¯ÙĦÙĪ ÚĨ
Ġ U
Ùħ Ø³ÙĨØ¯
ĠØ³ Ú©ÛĮÙĦ
ĠØ§ÙĪØ± ÙĨ
ÙĨÛĮ ÙĦ
ĠÙħØ³ Ø§Ø¨ÙĤ
ØªÙĪ Ú©ÛĮ
ĠÙħØ® ØªÛĮØ§Ø±
ÙħØ¹ ÛĮÙĨ
ĠØ¨ÛĮÙ¹Ú¾ ØªÛĴ
ĠÙħÙħØ¨Ø± Ø²
ĠÙ¾ÙĪÙĦ ÛĮÙĨÚĪ
ØªØŃÙĤÛĮÙĤ Ø§Øª
ĠÚ©ÛĮÙĦ Ø¦ÛĮ
ĠØ¢Ø³Ù¹Ø±ÛĮ Ø§
ĠØ´ Ø§Ø²ÛĮÛģ
ĠÛĮ ØŃ
ĠØ§ÙĦÙĤ Ø§Ø¹Ø¯Ûģ
Ø® Ø°
ĠÙħÙĨ Ø´ÛĮØ§
Ø±Ø¨ Ø§Ø¡
Ġ19 47
ĠØªØµÙĪÛĮØ± ÛĮÚº
ĠÙ¾ÙĪØ³Ù¹ ÙĦ
ØªÙĤØ±ÛĮØ¨ Ø§
ĠØ®ÙĪØ§Ø¨ ÙĪÚº
ĠÙħØ¬Ø§ÛģØ¯ ÛĮÙĨ
ÚĪ Ø§ÙĦÛĴ
ÛĮÛģ ÙĪØ¯
Ġ200 3
Ø¹ÙĦÙħ Ø§Ø¦ÛĴ
ĠØ§Ø®ÙĦØ§ÙĤÛĮ Ø§Øª
ĠÚĪØ³Ù¾ ÙĨØ³
Ø¬Øª ÙĨØ§
ĠÙĦ Ø§ÛģÙĪ
ĠØ¢ ÚĪÛĮÙ¹ÙĪØ±ÛĮÙħ
ĠØ® Ø¯ÛĮØ¬Ûģ
Ø§Ø¯ ØªÙĪÚº
ĠÛĮ ÙĪØ²
ĠØ§ÙĦ Ø´ÛĮØ®
ĠÙħØŃ Ø§Ø³
ĠØ±ÛĮ Ø²Ûģ
ĠÚ¯ÙĪØ±ÙĨ Ø±Ø²
ĠØ¨Ø±Ûģ ÙĨÛģ
ĠØ§ÙĦØ§ÙĨ Ø¨ÛĮØ§Ø¡
ĠÙ¾ÙĪÙ¹Ø§Ø´ ÛĮÙħ
Ø§ ÚĨ
ÙĪ Ûĥ
ĠÙħ ÙĪØ¯
ĠÚ©ÛĮ ÙĨÚ¯
ĠØµ Ø¨Ø§
Ø³ÛĮÙĨÛĮ Ù¹
Ġ J
Ùħ Ø¶
ĠÙħ ÙĦÛģ
ĠÙħ Ø§Ø´
ĠÙĨ ÙĪØ±ÛĮ
ĠÚ¯ ÛģÙĪ
Ø¬ Ø¬
ĠØªÚ¾ Ù¾Úĳ
ÙĪÙħ ÛĮÚº
Ø¶ Ø§Ø¡
Ø¯Ø± Ø§ØµÙĦ
ĠØ§ÛĮÙħ Ø§ÙĨÛĮ
ĠØŃØ³ ÙĨÛģ
ĠØ¦ Ø±
ĠÙ¾Ø±ÛĮ Ø°
ĠÙ¾ÙĪØ±Ù¹ Ø³
ĠÚĪØ³Ù¾ ÙĦÛĴ
o l
Ø¦ Úº
ĠÛĮ Ø§ÙĨÚ¯
ĠØ¯ÛĮ Øª
ĠÚ©Ú¾ ÙĨÛģ
ÙĪÚ© Ú¾ÛĮ
ĠØŃÛĮ Ø³Ú©ÙĪ
ĠÚ©Ø±Ø§ ÛĮÛģ
ĠÙĤØ¯ÛĮÙħ Ûģ
ĠØ§ÙĦÚ© ØªØ¨
ĠØ±Ùģ Ø§ÙĤØª
ĠÙħÛĮØ§ÙĨ ÙħØ§Ø±
Ú©Ú¾ÙĦ Ø§ÛģÙ¹
ĠØªÙĪØµÛĮ Ùģ
ĠØµ Ø§Ø¦ÙħÛģ
Ø§Ø¬ Ø§Ø¦ÛĴ
ĠØ¨ÚĨ ÛĮØ§Úº
ĠÙħÛĮÙĨ ÚĪ
ĠØ¯ÙĦ Ø§ÙĨØ§
ĠÙĤÙĪ ÙħÛĮØª
ĠØ³ÙĨØ¯Ú¾ ÙĪ
ĠØ¨Ø´ Ø§Ø±
Û ¢
ĠÙĨ Ú¯ÙĦ
Ù¾ Ø§Ø³
ÙĪÛĮ Ø¨
Ø§ÙĪØ² Ø§Øª
ĠÙĪØ§Ø¦ÙĦ ÚĪÙĦØ§Ø¦Ùģ
ĠØ³ ÚĪÙĨÛĮ
ĠÙĤ ÙħØ§Ø±
ĠØ³ÛĮ ÚĪ
ĠÙħÛĮ Ù¹ÙĦ
ĠÙĦÙĪ Ø«
ĠÚ©Ú¾ ÙĨÚĪ
ĠØ·ÙĦ Ø¹Øª
ÙģØ±ÙĪ Øº
ĠÙħØ¬Ø³Ù¹Ø±ÛĮ Ù¹Ø³
ĠÙ¹ÙĨÚĪ ÙĪØ§ÙĦÛģ
ĠØ±Ú©Ø´ ÛĴ
ĠÚ© Ø³ØªØ§
Ø§ÙĨ Ø¯Ø±
Ø§Ø³ Ø§ØªØ°Ûģ
ĠØ² Ø±Ø§Ø¦Ø¹
ĠØ§ØŃ Ø¨Ø§Ø¨
ĠØ§Ø¦ÛĮØ± ÙĦØ§Ø¦ÙĨ
ĠØ¯Ø§Ø¹ ÛĮ
ĠÚĪÚ© Ù¹ÛĮ
9 7
ÙĪ Ø§Ø¦Ø¯
ĠÛģ ÚĪÛĮØ§Úº
ĠÙĪ Ú©ÛĮ
ĠÙ¾ÛĮ Ø³Ú©ÙĪ
ĠÙħÙĦÛĮ ØŃÛģ
ĠØ¨Ø¯ÙĦ ØªÛĴ
ĠÚ©Ùģ ÛĮÙĦ
ĠØ¢Ø¦Ø± ÙĨ
Ùħ Ø§Ø¹
ĠØ³ Ø¬Ø¯
ĠÚĪÛĮ ÙĦÛĮÙ¹
Ġ12 3
ĠÙĤÙĦ ÙħØ¯Ø§ÙĨ
ĠÙģØµÙĦ Ø§Øª
ĠÙĨ Ø´ÛĮ
Ø§Ûģ Ø§
ĠØ° ÛĮØ§Ø¯Ûģ
ĠØ³Ù¹ Ø§Ù¾
ÙģØ§Ø± ÙħØ²
ĠÙ¾ÙĪÙĨ ÚĨÚ¾
Ø¨Ø² ÙĨØ³
Ø¨ ÛĮØª
Ø² Ø§Ø¨
ĠØ· Ø§
Øº Øª
Ø§ÙĪ Ù¾Ø±
ĠØ¯Ú¾ ÙĪÙĨÛĮ
ĠØ¯Ø³Øª Ûģ
ĠØ¨Ø§Ø¨ ÙĪ
ĠÛ³Û ±Û
ĠØ¬Úĳ ÛĮÚº
ĠØ¬Ú¾ÚĳÙ¾ ÙĪÚº
ĠØ±Ø¶Ø§Ú© Ø§Ø±ÙĪÚº
ÙĤØ±ÛĮ Ø´ÛĮ
5 7
Ø§Ø± ÙĪÙĤ
ĠØ±ÙĪ ÛĮØª
ĠÙħÙĨ Ø²ÙĦÛģ
ĠÙħØ³ Ø²
ĠØ³ÛĮÚ© Ú¾Ø§
ÙĦÙĪ Ø·
ĠØ®Ø§Ø± Ø§ÙĨ
ĠÚ©ÙĦØ§Ø³ Ø²
ĠÙĪØ±Ú©Ø´Ø§Ù¾ Ø³
ĠØ³Ø±Ø¨ÙĦ ÙĨØ¯ÛĮ
ĠØ¨ÛĮÚ©Ù¹ÛĮ Ø±ÛĮØ§
ĠÙ¾ÙĪ Ø¬
ĠØ¨Ø± Ø®ÙĦØ§Ùģ
ĠØ±ÛĮ Ù¹Ø±ÙĨÚ¯
ĠØªØ¬ Ø²ÛĮ
ĠÙĦÚ©Ú¾ ÙĨØ§
ĠØ§ÛĮÙĨÚĪØ± Ø³ÙĨ
Ø¨ Ùħ
ĠÚ©ÛĮ ÙĨÙĪ
ĠØ³ÙĪ ÚĨÛĮ
ĠÙģÙĦ Ú©
Ø¬Ø± ÙħÙĨ
ĠØ¨Ú© Ø«Ø±Øª
ĠØµÙĪ Ø§Ø¨
ĠØ§ÙĨÚ¯ ÙĪÙ¹Ú¾ÛĮ
Â ¿
ĠÚĨ Ù¹Ú¾Ûģ
ĠØ² ØŃÙħØª
ĠÚ©Ø§Ø± ÛĮÚº
ĠØ³ÙĪ ÚĪØ§ÙĨ
ĠØ¹ÙĦ Ø§ÙĦØª
ĠØ§Ù¾ÛĮÙĦ ÙĪÚº
ĠÙ¹Ú¾ÛĮÚ© ÛĴ
ĠÙĤØ¯Ùħ ÙĪÚº
ĠØ´Ø§Ø¯ ÛĮØ§Úº
ĠØ§ÙĪØ³Ø· Ø§
ĠØ·Ø§ÙĦØ¨Ø¹ÙĦÙħ ÙĪÚº
ĠØ¹Ø« ÙħØ§ÙĨÛĮ
ĠØ§Ø³ Ù¾Ø±
Ø¹Ø¯ ÛĮ
ĠØ§Ø®Ø¨ Ø§Ø±ÛĮ
Ø§ÙĪ Ø§Ø±
ĠØ³ÙĦØ§Ùħ Øª
a c
ĠØ± Ù¾Ø±
Ø§Ùħ Ø§ÙĦ
Ø§Ø±Øª Ûģ
ĠÙ¾ÛĮØ´ ÙĪØ§
ÙħÙĨ ÛĮÙĨ
Ú¯Ø§ ÚĳÛĮ
ÙħØ³ Ø¬Ø¯
ĠØ§Øº Ø±Ø§Ø¶
ĠÙ¾Ø±ÙĪÙģ Ø§Ø¦ÙĦ
ĠØ§ÙĦØµ Ø¨ØŃ
ÙĤØ¨ Ø¶Ûģ
ØªØ§Ø¬ Ø±
ĠÚ¯ÙĪØ´ÙĪ Ø§Ø±ÛĴ
ĠÚ© ÚĨÛĴ
Ø® ÙĦÛĮ
ĠÙ¾ÛĮ Ø´ÙĨ
ĠØ³ÛĮÚ© Ù¹Ø±Ø²
ĠØ³ÙĦ ÙĨÚĪØ±
Ú¯Ø±Ø¯ Ú¯ÛĮ
ĠØªØ³ Ø®ÛĮØ±
ĠØ³Ø¬ Ø§
ĠØ¯ÛĮÙĪØ§Ø± ÛĮÚº
ĠÚĪÛĮØ² Ø§Ø³Ù¹Ø±
9 8
ĠÚ©Ø± Ú¯Ø¦ÛĮ
ÙģØ± Ø¹ÙĪÙĨ
ĠØ¨Ú¾ Ø§Ø¤
ĠÙħØ³ Ú©ÛĮÙĨ
ĠØ³ÙĪ ÛĮØ±ÛĴ
ĠØ³ÛĮÚ© ÙĪØ¦ÙĦ
Ø®Øµ ÛĮØµ
ĠØ§ÙĨØµØ§Ùģ ÛĮ
ĠÛģÙĦ Ø¯ÛĮ
ĠØ¨Ø±Ø¢ÙħØ¯ Ú©Ø±
ĠØ¯Ø§Ø¯ ÙĪ
ĠØ§ÙĪÙĨ ÚĨÛĴ
ÙħØ¬ Ø±Ùħ
ĠØ¹Ø¨Ø¯Ø§ÙĦØº ÙģØ§Ø±
e c
ĠØ³ÛĮ Ù¹ÙĦ
Ø±Ú© ÙĪÙ¹
ĠÚ¯Ø² Ø§Ø±ÛĴ
Ø§ÛĮ ÚĨ
ĠØ³ÙĨ ÚĪÛĮ
ĠØ§ÙĦØŃ Ø§Ø¬
ĠØ¹Ø¯ Ø§ÙĪØª
Ø®Ø· Ø§Ø¨
ĠØªØ° ÙĦÛĮÙĦ
ĠÛ±Û´Û±Û µ
Ø§Ø¦ ÙĪØ¯
ĠØ§ÛĮ Ø°
ĠÙħÙĦ Ø§ÙĦÛģ
ĠØº ÙħØ²Ø¯Ûģ
ĠØ¨Ú¾ Ú¯ÙĪ
ĠÙ¾ÛģÙĨÚĨ Ø§ØªÛĴ
ĠØ¹ÙħØ± ÛĴ
ĠÙ¾Ø³ÙĨØ¯ Ø§ÙĨÛģ
ĠÛĮÙĪØ±Ù¾ ÛĮÙĨ
ĠØ¯Ú¾Úĳ Ú©ÙĨ
ĠØ³Ø§ÙĨÚ¯ Ú¾Úĳ
6 7
ĠÛģ ÙĨØ¯ÛĮ
ĠÙ¾Ø§ÙĦ ÛĮØ§
ĠØ®ÙĦÛĮ Ø¬
ÛĮÙĨ ÙĪ
ĠÙ¾ÛĮØ´ Ú¯ÙĪØ¦ÛĮ
ĠÙ¹ÛĮÙħ Ø²
ĠØ§Ù¹Ú¾ ÛĮÚº
ĠØ¬Ú¾ ÙĨÚĪØ§
ĠØ¨Ø§Ø¨ Ø±Ú©Øª
Ø¶Ø± ÙĪØ±ÛĮ
ĠÚĨØ´ ÙħÛĴ
Ùħ Ø¬Ú¾
Ø¨ Ø§ÙĤ
ĠØª ÙģØª
ĠØ±Ú©Ú¾ ÙĪÚº
ĠØ¬ÛĮ Ù¹
ĠÙĦÚ© ÛĮØ±
Ù¾ÛģÙĨÚĨ ÛĴ
ĠÚ©Ø±Ùħ Ø§ÙĨÛĮ
ĠÙ¾ÙĨØ¬ Ø§
ĠØªÚ¾Ø± ÚĪ
ĠØª Ú©Ø±Ø§Ø±
ÚĪ ÙĪÛĮ
Ø¢ Ø¦ÛĮÚº
ĠØº Ø¯Ø§Ø±
ĠØ¯Ø³Øª Ø§ÙĪÛĮØ²ÛĮ
Ø²ÙĦØ² ÙĦÛĴ
Ú¯ Ùħ
Ø¨ ÚĨÛĮ
Ø¹ ÙĨ
ĠØ¬ÙĪ Ø§Úº
ĠØ§Ø³ØªØ¹ ÙħØ§
ĠØ³ÙĨ ÙĪØ§Ø±
Ø±ÙĪÙ¹ ÙĨÛĮ
ĠØ¨ÙĪÙĨ ÛĮØ±
ĠÙĪØ³ÛĮ ÙĦÛģ
ĠØª ÙħÛĮØ²
ÙħØ¯ ÛĮÙĨÛģ
Ø±ÛĮÚ© Ø§Ø±ÚĪ
ĠÚ¯Ø± ØªÛĮ
ĠØ¬Ø§ÙĪ ÛĴ
ĠØ´Ú©Ø± Ú¯Ø²Ø§Ø±
Ú¯ÙĪØ±ÙĨ ÙħÙĨÙ¹
Ú©Ø§ÙħÛĮ Ø§Ø¨ÛĮ
ÙĦ Ø§Ø¡
Ø§Ø± Ø¬
ĠÙĪ ÛĮØª
ĠØ® Ø§ÙħÛĮÙĪÚº
ĠØ¨Ú¾ ÙĨÚ¯
ĠØ³Ø§ÙĦ Ø§Ø±
ĠØ¨Ú¾ÙĦ ÙĪØ§ÙĦ
ĠØµØ±Ø§Ùģ Ûģ
ĠÙĪ Ø§ÙĨÚ¯
ĠØ¢ ÙħÛĮÙĨ
Ø±ÙĪ Ú©Ûģ
ĠØ§ÙģØ± Ø§Øª
ĠØ§ÙħÛĮ Ø¬
ĠÙħÙĨØ¯ ÙĪÚº
ĠØ³Ø±Ø¯ Ø§Ø±ÙĪÚº
ĠÚ©ÙħØ§ÙĨÚĪ ÙĨÙ¹
ÙĪØ± Ù¹Ø±
ÚĨ ÛĮÚ©
ĠØ® Ø³ØªÛģ
ĠØ² Ú©Ø±
ĠÙħÙĪ Ù¹ÛĮ
ĠØ¬ÙĪ ÙĤ
Ø´ÛĮ Ø§Ø¡
ĠØ« ÙħÛĮÙĨÛģ
Ø§ÛĮ Ù¹
ĠÚ¯Ø±Ø¯ ÙĪ
ÙĪÚĳ ÙĪÚº
ĠÙģÙĦÙħ Ø²
ĠØ§Ø¹Øª Ú©Ø§Ùģ
ÙħØ®Ø§ÙĦ ÙģÛĮÙĨ
ĠØ±ÛĮØ³ÙĦ ÙĨÚ¯
ÙĪ Ø§Ø¦Ø±
ĠÙĪ Ø§Ø¹Ø¸
ĠÚ©Ø§ Ù¹ÛĮ
ĠØ§ÙĦ ÙħÙĦ
ĠÚĪ ÙĨÙħØ§Ø±Ú©
ĠÙ¾Ú¾ ÙĦÛĮ
Ø¬Ø± Ø§Ø¦Ùħ
ĠØ¹Ø· Ø§Ø¦ÛĮÙĪÚº
ĠØ¯ÛĮØ¯ Ø§Ø±
ĠÚ©ÙĪØ¢Ø±ÚĪ ÛĮÙĨÛĮØ´ÙĨ
ĠÚ©Ø± ØªÛĮÚº
ĠÙĦÚ©Ú¾ Ù¾Øª
ĠÛ²Û ´Û
ĠØ§ÛĮÚ©Ø³Ù¾ ÙĪØ±Ù¹Ø±Ø²
ĠÙĪÚ© Ø§ÙĦØª
ĠÙĨÚĨ ÙĦÛĴ
ĠØ³Ù¹Ø± Ø§Ø¦ÛĮÚ©
ĠØ³ ÙĦÛĮÙħÛĮ
ĠÙĨ Ú¯Ø±ÛĮ
ĠÚ¯ Ø±ÛĮØ¨
ĠÙĦ ÛģÙħ
ĠØ¯ÙĪ Ú¯ÙĨØ§
ÙħØ¨ ÙĪ
ĠØ¨Ø§ÙĨ Ù¹
ĠÙĨÛĮØª ÙĨ
ĠØ¨Ú¾Ú¯Øª ÙĨØ§
ÙĤØ§Ø¨ ÙĦÛģ
ĠØ§ÙĦÙħØ¯ Ø§Ø±Ø³
Û Ļ
Ûģ ÙĦØ§Ú©
ĠÚĨ ÙĨØ¯Ûģ
Ø®ÛĮ Ø²
ĠØ¢Ø³Ú© ÛĮÚº
ĠØ³ Úĳ
ĠØ± ÚĨ
Ø§Ú© Ø´ÛĮ
Øº Ø²Ûģ
ĠØ¬ÙĨ ØªÛĮ
ĠØªÙĨ ÙĪÙĦÛĮ
ĠØ¢Ú¯ Ø¦ÛĮÚº
ĠÚ©ÙĪØ±Ù¹ Ø³
ĠÙ¾Ø±ÙĪÙģÛĮØ³Ø± Ø²
ĠØ±ÙĪØ´ÙĨÛĮ ÙĪÚº
ĠØ¹ÛĮ Ø§ÙĦ
Ø¬ÙħÛģ ÙĪØ±ÛĮ
ĠÙ¾Ú¾ÛĮ ÙĦÛĴ
ĠØ§ÛģÙĦÚ©Ø§Ø± Ø§ÙĨ
ĠØ³ÙĪØ¦ ÙħÙĨÚ¯
6 4
ĠÙħØª Ú©
ĠØ³Ø± Ø´Ø§Ø±
ĠØ¹Ø¨Ø¯Ø§ÙĦ ÙĪÛģØ§Ø¨
ĠØ¬Ø§Úº Ø¨ØŃÙĤ
ĠØ§ÙĦÙĪØ¯ Ø§Ø¹ÛĮ
Ø§Ø¨ Ø±ÛĮÙĨ
ĠÙħØŃ ØµÙĪØ±
ĠØ§ÙĦØ² ÙĪØ§Ø¦Ø¯
ĠØ¢Ú©Ø³ Ø§Ø¦ÛĮÚĪ
Ø®Ø§ÙĨÛĮ ÙĪØ§ÙĦ
ĠØ§ÙĦÙħØ³Øª Ø¯Ø±Ú©
ĠØ± Ø§Ø¨Ø±
ĠÙĦ Ø§ÙĦÛģ
ĠØ¢ Ù¹ÛĴ
ĠÚ©Ùħ ÙĪÚĪ
ĠØ³Ø± Ùħ
ĠØ³Ø± Ø¨
ĠÙħØ² ÛĮÙĨ
6 3
ĠÙħ Ø§Ú©
Ù¹ ÙĪØ±
ÙħÛĮ Ø´
ĠØ³Ø¨ Ø²Ûģ
ØªÚ¾ Ùħ
ĠÙħØ¹Ø§ÙĪ Ø¶ÛĴ
ØªØ¬ Ø§Ø±Øª
Ø±Ú©Ú¾ ÙĨÛĴ
ĠØ§ÙĪÙĦÙħÙ¾ Ú©Ø³
Ø§ÙģØªØªØ§ØŃ ÛĮ
Ø³ ÙĨÙ¹
Ø¨ ÚĨ
ĠØ± Ú©ÛĴ
Ø² ÙĪÙĨ
ĠØ§Ù¾ ÙĦ
ĠØ³ÛĮ ÙĪ
ĠÚ©Ú¾ Ø§ÙĨØ³ÛĮ
ĠØ³Ø±Ú© Ø±Ø¯Ûģ
ĠØ¯Ø§Ø¯ ÛĮÚº
ĠØ¨ÚĨÚ¾ ÚĳÛĴ
ĠØ¯ÛģØ± Ø§ÛĮØ§
ĠÙģØ±ÙĨÙ¹ÛĮ Ø¦Ø±
ÙĪØ± Ú©Ø´
Ø¹ ÙĪØ±Øª
ĠÚ¯ Ù¾
ĠÚĪ Ù¾ÙĦ
ĠÚ¯Ø§ Úĳ
ÙĤÛĮ Ø§Ø¯Øª
ĠÚĪÛĮ ÙĪÙ¹ÛĮØ§Úº
ĠØ¬ÙĦ ÙĨ
ĠÙĨØ§Ø± ÙĪØ§
ĠØ§ØªØ± ØªÛĴ
ĠÙĪ Ø¸ÛĮ
ĠØ± ÙģÛĮØ¹
ĠØ§ÙĨ ÙĪÚ©Ú¾ÛĮ
ĠØªÚ¾ Ú©Ø§ÙĪÙ¹
ĠØªÙĪ ÚĳØ§
ĠÙħØ³Øª ÙĨØ¯
ĠÛĮÙĪÙĨÛĮ ÙģØ§Ø±Ùħ
Ø§Ø³Ù¹ Ø§Ú©
ĠØ¯Ø§ÙĨ Ø´ÙĪØ±
ĠÙĪØ±Ø« ÛĴ
ĠÙħÙĤ Ø§
ÛĮÚ©ÙĨ Ø§ÙĦÙĪØ¬ÛĮ
Ø§Ø¸ ÛģØ±
ĠØµØ¯ ÙĤØ§Øª
ĠÙħÙĤØ¯ ÙħØ§
ĠÚĨÚ¾Ù¾ Ø§ÛĮØ§
ĠÙħØŃØª Ø±Ùħ
ĠØ±ÙĪÛģ Øª
Ø¹ Ø§Ø¦Ø¯
ĠÙĪ ØµÙģ
Ø´ ÙħÛģ
Ø§Ø¬ Ø³
ĠÙĪØ² ÙĨÛĮ
Ġ9 00
ÙħÙĤØ¯Ùħ ÛĴ
ĠÙħØµØ¯ ÙĤÛģ
ÙħØ®Ø§ÙĦ Ùģ
ĠØ§Ø¹Øµ Ø§Ø¨
ĠØ³ÛĮ Ø§Ø±ÛĴ
Ù¾ÛĮ Ù¹ÙĦ
ĠÙĨÙĪØ§Ø² ÛĮ
ĠØ¨Ø±Ø¢ÙħØ¯ ÛĮ
ĠØ³Ø§Ø² ÙĪÚº
Ø¢Ø¨Ø§Ø¯ ÛĮ
ĠÙĨØ¨Ø§Øª Ø§Øª
Ú© Ø§Ø±Ûģ
ĠÚ©Ø± ÙģÛĮÙĪ
âĢĺ ØĮ
ĠØªØŃ Ø±ÛĮ
ĠØ§Ù¹Ú¾ ØªÛĴ
ĠØµÙģ Ø§
ĠÙĨÙħØ§Ø² ÛĮÚº
ĠØ¨Ø§ÙĨ ÚĪÛĮ
ĠÙ¾Ø§Ùħ Ø§ÙĦÛĮÙĪÚº
ĠÙħØŃØ§Øµ Ø±Ûģ
ĠÚ¯Ø¯ Ú¾ÛĴ
ĠØ±Øº Ø¨Øª
Ú© Ø§Øº
ĠÙ¾ Ø´ÙĨ
ĠÙ¹ Ø§ÙĨÚ©
ÙģÛĮ Ø§Ø¶
ĠØ§Ø³Ùħ Ø§Ø¡
ĠØ¨ÙĪÙĦ ÙĨØ§
ĠØ¢Ûģ ÙĨÛĮ
ĠØ¬ÙĪÙĨÛĮ Ø¬ÙĪ
Ú©ÙħÙ¾ÙĨÛĮ ÙĪÚº
ĠÚ¯Ø§ÙĨ Ù¹Ú¾
ĠØ§ÙģØ±Ø§Øª ÙģØ±ÛĮ
ÙĦ Ø§Ú©Ú¾
ĠÛģÙĪ Ù¾
ĠØ´ Ø§Ø¡
ÙģÛĮ Ùģ
ĠØ§Ø³Øª Ø·
ÙĨÙĪ Ù¹ÛĮÙģ
ĠÙħØ¶ ÙħØ±
ĠØ¨Øª Ø§Ø¤
ÛģÛĮ ÙĪÙĨÛĮ
ĠØ®Ø±ÛĮØ¯ Ø§Ø±ÙĪÚº
ĠØ¯Ú¾Ø¬ ÛĮØ§Úº
Ø± ÙĨÚ¯
ĠÚ¯ Ûģ
ÙģÛĮ Ù¹
ĠØ³ÙĦ Ø¨
Ø§Ø´Øª Ø¹Ø§ÙĦ
ĠØ·Ø§ÙĤØª ÛĮÚº
ĠÛ²Û ±
ĠÙħÙĨØŃ Ø±Ùģ
ĠØ¨ÛĮÛģ ÙĤÛĮ
Ú©Ú¾ Ø§ÙĨÛĴ
ĠÙħØ´ Ø§Ø¹
ÙĪØ³ ÙĪ
Ø§ÛĮ ÙĪØ§Ø±ÚĪ
Ø§Ø³Ú© ØªØ§
ĠÙ¾ÙĨ Ø§ÛģÛĮ
ĠÚ©Ø±Ø§Ùħ Øª
ĠÛģÙĪÙĦ ÚĪÙĨÚ¯
ĠÚ¯ ÚĳÚ¾ÛĴ
ĠÚ©ÙĪ Ø³Ù¹
ĠØŃ ÙĪØ§
Ú©Ûģ Ûģ
Ú©Ú¾ ÙĦÛĮ
ĠÙħÛģ ØªØ§Ø¨
ÛĮÙĨÛĮ ÙĪ
Ø¨ÙĨ ÙĨÛĴ
ØªØ¬ Ø§ÙĪØ²Ø§Øª
ï ´¿
Ú© ØªÛĴ
ĠØ¨ÙĦ Ù¹
ĠØ¸ Ø±ÛĮÙģ
ĠØ³Ø±Ø¨Ø±Ø§Ûģ ÙĪÚº
ĠÙĪÛĮÙĦ Ø¬
Ġï ´¾
ĠÚ©ÙĨÚ¯ ÙĨØ§
ĠÚ¯Ø³ØªØ§Ø® ÛĮ
ĠØ§Ù¹Ú¾Ø§Ø¦ÛĮ Ø³
Ø±Ø¨ Ûģ
ĠØ±ÙĪÙĨ Ø§ÙĦ
ĠÚĪÛĮÙĦ Ø±Ø²
ĠØ§ÙĦ ÙħÛĮÛģ
ĠÙħØ¹ Ø§ÙĦÙħ
ĠÙĨÛĮÚ© ÛĮØ§Úº
ĠÙĦÙģØ¸ ÙĪÚº
ĠÙģØ±ÙħØ§Ø¦ÛĮ ÛĴ
ĠÙħÛĮÙĨÛĮ Ø¬Ø±
ĠØ¨Ø¢ Ø³Ø§ÙĨÛĮ
Ø¦ ÛĮØ§Úº
ĠØ¢ Ù¹Ø§
ÙĪÛģ ÛĮØª
ĠÙħØ´ Ú©ÙĪÛĥ
ĠØ§Ø³Ù¹ÛĮ Ù¹Ø³
ĠØªÛģ ÙĦÚ©Ûģ
ĠÙ¹Ø±Ø§Ø¦ÙĦ Ø²
Ø§ÙĨ Ø¶ÙħØ§Ùħ
ĠØŃ ÙĪØ§Ø³
ĠØ¬Ø§Ø¦ÛĮÚº Ú¯ÛĴ
Ø³ÙĪ Ø§Øª
ĠØ±ÛĮÚ© Ù¹Ø±
ĠØ°Ûģ ÙĨÙĪÚº
ĠØ¨ÛģØ§ÙĪÙĦ ÙĨÚ¯Ø±
ÛĮ Ø´
Ú© Ø§ÙĨÙĪÚº
ÙĦ Ø§ÙĦ
ĠÚ¯ Ø¨ÙĪÙĦ
Ø´ Ø§Ø¦
Ø§Ùģ ÙĪØ§Ø¬
Ú©Ú¾ ÙĦÛĴ
ĠØ¢Ø¦ ÛĮÙĨÛģ
ĠØ¬Ø§Ùħ Ø´ÙĪØ±ÙĪ
ĠØ³Øª Ø§Ø¦ÛĮØ³
Ø§Ø±Ù¹ Ùħ
ĠÙ¹Ú¾Ú© Ø§ÙĨÛģ
ĠØ¨Ø§Ø¦ ÙĪÙĦØ±
ÙĤØµ Ø§ÙĨ
ĠÚĪ Ø´
ÙģØ± Ø§ÙĨØ³
ĠØ³ÙĦ ÙĪ
ĠØ¨Øª ÙĦØ§
ĠÙĦØ° Øª
ĠÙ¾ÛĮ Ø§Ø±ÙĪÚº
Ø§Ø¬ Ø±
ĠØ±ÛĮ Ø³ØªÙĪØ±
ĠÙĪÛĮ Ú¯ÙĨ
ĠØ¹Ø¨Ø¯Ø§ÙĦ Ø¬Ø¨Ø§Ø±
ÙĪØ· Ûģ
ĠØ³ÙĪÛĮ ÚĪÙĨ
ĠØ§ÙĦÙħÙĨ Ø§Ú©
ĠÙħÛĮÙħ ÙĪØ±ÛĮÙĦ
ĠÙĪØ« ÙĪØ§Ø¨
ĠØ±Ø¶Ø§Ú©Ø§Ø± Ø§ÙĨÛģ
ĠÙ¾Ùħ ÙģÙĦ
5 8
ĠØ§ÙĦ Ú©Ø¨Ø±ÛĮ
ĠØ· Ø§ÛģØ±Ûģ
ÙĪØª Ø±ÛĮ
ĠÙĨÙĪÙħ ÙĪÙĦÙĪØ¯
ĠÛ±Û ·
ĠØ§Ú©Ø« Ø±ÛĮØªÛĮ
ĠÙħÛĮØ²Ø§Ø¦ÙĦ ÙĪÚº
ĠØ±Ø¦ÛĮ ÙĦ
ĠØ¯ÛĮØ§ÙĨØª Ø¯Ø§Ø±
ĠÚ©ÙĪØ±ÛĮ ÚĪÙĪØ±
9 3
ĠØŃ Ø±ÙĪÙģ
Ø§ÙĪÙĨ ÚĪÛĮØ´ÙĨ
ĠØ´ÛĮØ± Ø§Ø²ÛĮ
ĠÙĨÙĤØ´ Ø¨ÙĨØ¯ÛĮ
ĠØª Ø§Ø³ÛĮ
ĠÚ¯ Ø§ÙĨØ¯Ú¾ÛĮ
ØŃ Ø§Ø¶
Ø¨Ûģ Ø§Ø±
ĠØ§Ùģ Ø²Ø§
ĠØ±Ø¨ Ø·
ĠÛ²Û ´
ĠÙĨØ³ÙĦ ÛĮÚº
ĠØ³Ø¬ Ø§ÛĮØ§
ĠØ§ÛĮÚĪÙĪ Ø§Ø¦Ø²Ø±ÛĮ
ĠØ³ÙģØ§Ø±Øª Ø®Ø§ÙĨÛģ
ĠØ¨ÙĨÚ¯ Ø§ÙĦ
ĠØ±Ø§ÙĪÙĦ Ø§Ú©ÙĪÙ¹
Ø§ÙĤØ¯ Ø§ÙħØ§Øª
Ø§Ø¦ ÚĪ
Ø®ÙĪ Ø´ÛĮ
ĠØµØŃ Ø±Ø§
Ø¬ÙĨ Ú¾ÙĪÚº
ĠØ´ÛĮ Ø±ÛĮ
Ø¨Ø§ÙĦ Ø®ØµÙĪØµ
ĠÙĨØ§ Ú¯ÙĪØ§Ø±
Ø¬Ùħ Ø§ÙĦÛĮ
ĠØ§ÙĦÙħ Ø°
ĠØ¨ÙĤ Ø§ÛĮØ§Ø¬Ø§Øª
ĠØ¯Ø¹ÙĪ ÛĮØ¯Ø§Ø±
ĠØ¨Ø§Ø³ Ú©Ù¹
ÙĪØ±Ú©Ø´ Ø§Ù¾
ĠØŃ Ø°Ùģ
ÙĪØ±ÛĮ ÚĪØ§
ĠÙĨØ§ Ú¯
ĠÛģÙĦ Ú©ÛĴ
ĠÙĪÙĤ ØªØ§
ĠØ¨ÙĨØ¯ÛĮ Ø§ÙĦ
ĠÚĨÙ¹ Ø§ÙĨ
ÛĮ Ø§Ø±
ĠÙĨ ÙĨÚ©Ø§ÙĨÛģ
Ø¨ Ø±ÛĮÙģÙĨÚ¯
ĠØ´ ØªÛģ
ĠÙħÙĨ Ø´Ø§
Ø¯ÙĪ Ø§
Ġ10 1
ĠÛģÛĮØ± ÙĪØ²
ĠÚĨÙĨ Ø§ÙĨÚĨÛģ
ĠØ¹Ú© Ø§Ø³
Øµ ÙĪÙħ
ĠÙ¹ Ø§Ùħ
ĠÙħØ§Ø± Ú©ÛĮÙ¹Ø³
ĠÛĮÚ© ÛĴ
ĠÙħÙĨÛģ Ø¯Ùħ
ĠÛģØ§Ø± ÙĨÛĴ
ĠÚ©ÙĪÛģ Ø³ØªØ§ÙĨ
Ø¯ Ø§Ø¹
Ø° Ú©Ø±
ĠØ¬Ùħ ÛĴ
ĠØ§ÛĮÚĪÛĮ Ù¹Ø±
ĠÙĤØµ Ø¯
ĠÙĪÙĨÚĪ ÙĪ
Ø² ÙĨØ¯Ûģ
Ø§Ø³Øª Øº
ĠÙħØ¯ ÛĮÙĨ
ĠØ³Ø§Ø¦ Ø±Ûģ
ĠØ´Ø± Ø¹ÛĮÛģ
ĠØ®Ø§Øµ Ø§
ĠØ³Ú©Ú¾ Ø§ÛĮØ§
ĠØ¯ÛĮØ§ÙĨØª Ø¯Ø§Ø±ÛĮ
ÙĨ ÛĮÚ©
Ù¾ Ø´Øª
ĠÙģÛĮ Ø³Ù¹ÙĪÙĦ
ĠØ¬ÙĨ Ø§Ø²ÛĴ
ĠÚ¯Ø²Ø§Ø± ØªÛĴ
Ġ199 7
ĠÛģØ¬ Ø±ÛĮ
ĠÚĪÛĮÙĪØ§Ø¦Ø³ Ø²
ÙĦÛĮÙħÙĨÙ¹ Ø±ÛĮ
Ø¨ÙĨÛĮ Ø§Ø¯ÛĮ
Ø± ÚĪ
Ø® Ø±ÛĮØ¯
ĠÙ¾ÛĮ Ø³Ø§
ĠÙħØª ÙģØ±ÙĤ
Ø§ØµÙĦØ§ØŃ Ø§Øª
ĠØ¹Ø§Ø¬ Ø²ÛĮ
ĠØ¬Ø±ÙĨÙĦ Ø³Ù¹Ø³
ĠÙ¾Ú¾ÛĮÙ¾Ú¾ ÚĳÙĪÚº
Ú© ÛĮÙĨÙ¹
ĠØ± ÙĨØ§
ĠØ§ÙĦ Ø§Ø¦ÛĮÚĪ
ĠÙĨØ§ Ú¯Ûģ
ÙħØŃ Ø¶
ĠÙ¾Ø§Ùħ Ø§ÙĦÛĮ
ĠØ¨ÙħØ¨ Ø§Ø±
ĠØ¢Ø³Ú© ØªÛĴ
ĠÙĦÙĪÙĨ ÚĪÛĮ
ĠÙħ Ø§ÙħÙĪÚº
ĠÙĤ ÛĴ
Ø® Ø¯ÙħØª
ĠØ² Ø±ÙħØ¨Ø§Ø¯ÙĦÛģ
ĠØ§Ø¹ Ø±Ø§Ùģ
ĠØ³ÙģØ§Ø±Øª Ú©Ø§Ø±ÙĪÚº
ĠÙĨØ§Ø· ÛĴ
ĠØ¹ ÙĦØª
ĠØ¯Ú¾ ÚĨÚ©Ø§
ĠØ¨Ø±ÛĮ ÚĪ
ĠØ¨Ø§Ø¯ Ø´Ø§ÛģÛĮ
ĠÙ¾Ø§ Ú¯ÙĦ
ĠÙĨØ¸Ø±Ø¨ ÙĨØ¯ÛĮ
ĠØ ĳ
ĠÙģ Ø²ÛĮ
ÙĪÛĮ Ø³ÛĮ
Ø´Ûģ Ø¯Ø§Ø¡
ĠÙ¾Ø§Ú©Ø³ØªØ§ÙĨÛĮ Ø²
Ġ11 2
ĠØ³Ù¹ ÚĪÛĮØ²
ĠØ§Ø¹Ø¶ Ø§
ÙĨ Ø´Ø§Ûģ
ÙĨÚ¯Ø± Ø§Úº
ĠØ±Ø§Ø´ ÙĨ
ĠÙ¾Ø±ÙĪØ¬ ÛĮÚ©Ù¹Ø³
ĠØ¢ÙĨÛĮ ÙĪØ§ÙĦÛĮ
ĠØ± Ø§Ø¦Ù¹
ĠØ§Ø¬ ÛĮØ±ÙĨ
Ø§Ø¦ÙĦ Ø±
ĠÛģÙĪ ÙĨÙ¹
ĠØ¬Ø¨ Ø§Ø±
ĠÙĤØ³Ùħ ÙĪÚº
ĠØ§Ø¦ Ø±
ĠØ¯Ø±ÙĪ Ø§Ø²ÙĪÚº
ĠÚ¯Ø§Ûģ ÛĮÚº
Ġ199 2
ÙĨÙħØ§Ø¦ ÙĨØ¯ÙĪÚº
ĠØ¨Ø²Ø¯ÙĦ Ø§ÙĨÛģ
ÙĦØº Ø§Øª
ÚĨ Ú©ÛĮ
ĠÛ²Û ¸Û
ĠØ§ÙĨÚ¯ ÙĪØ±
ÙħØ« Ø§ÙĦ
ĠÙģ ÙĪØ±ÙĨÛĮØ§
Ø§ÙĪ Ú©Ø§ÚĳÛģ
ĠÙ¾Ø±ÙĪ Ø§
ĠØ¹Ø± ÙĤ
ĠÙģØ§Ø¦ÙĨ ÙĦØ²
ĠÙģØ±ÙħØ§ÙĨ Ø¨Ø±Ø¯Ø§Ø±
ĠÛĮØ± ÙĪØ´ÙĦÙħ
ĠØ§Ú©Ø§ ÙĪÙĨÙ¹
ĠØ§Ø³ØªØ· Ø§Ø¹Øª
5 4
Ûģ ÙĪÙĨ
Ø§ÙĦ ÙħÙ¾ÙĪØ±
ĠÙ¾Ø§Ú© ÛĮØ²
Ø±Ø¨ ÛĮØª
ĠÚ©Ø´ Ø§Ø¯Ûģ
ĠØ¯ÙĦ Ø§Ø¦ÛĮÚº
ĠØ¨ÙĪ Ú©Ú¾ÙĦØ§ÛģÙ¹
ØŃÙħ ÙĦÛģ
ĠØ§Ú©Ø§ÙĨ ÙĪÙħÛĮ
ĠØ³ ÙĦØ§
ĠÙ¾ Ø§ÙĨØ§
Ø¬ Ø§ØªÛĴ
ĠØ¬ÙĪ ØªÙĪÚº
ĠØ« Ø±
ĠØ§Ø³Ù¾ Ø§Ù¹
ĠÙģÛģØ±Ø³Øª ÛĮÚº
ĠÚ©ÙĨØ³ÙĦ Ù¹ÙĨÙ¹
ĠÙħ Ø§Ø¤Úº
Ø¨ Ø§Ø²ÛĮ
ĠØ´ÛĮÙĦ Ù¹Ø±
Ø¨ÙĦ Ø¯ÛĮ
ĠÙģØ±Ùħ Ø§Úº
ĠÚ©Ø§Ø³Ø§Ùħ ÙĨØ§
a m
ĠØ¨ Ø±ÛĮØª
ĠÙĪ Ú©Ø±Ùħ
Ø±ÛĮ ÙģØ±ÙĨØ³
ĠØ³Ø± Ø§Ø¤Úº
ĠØ±ÛĮ ÙģØ§Ø±ÙħØ²
ĠØªØ¬ Ø§
ĠØ®Øµ ÙĪ
ĠØ³Ùģ Ø§Ø±
ĠÙĨØ³ Ø±ÛĮÙĨ
ĠØ´ÙħØ§Ø± Ú©ÛĴ
ĠØ¨Ùħ Ø¹ÙĨÛĮ
ĠÙĪÛĮÙĨ Ø²
ĠÙħØ§Ø¦ÙĨ ÚĪ
ĠØ¨Ø§ÙĨÚĪ Ø²
Ú©Ø§Ø±ÙĪØ¨ Ø§Ø±ÛĮ
ĠÚ©ÙĪ Ø³Ø±
Ø§Ùģ ÛĮØ§Úº
ĠØ¨ÛĮ Ø²Ø§Ø±
ĠÙĪØ± Ø³Ù¹ÛĮ
ĠØ¨Ø¯ÙĦ ÙĨØ§
ĠØ®ÙĦ Ø§Ø¡
ØŃ ÙĦÙģ
Ø³ÙĪ Ø¦ÛĮ
ĠØ¨ÛĮÙĦ Ø¬ÛĮØ¦Ùħ
ĠØ¨Ø±Ùģ Ø§ÙĨÛĮ
ÙģØ§ Ù¹Ø§
ĠÙĨÛĮÙĪÙ¹ Ø±ÛĮØ´ÙĨ
ĠØ§Ø³ ÙħØªÚ¾
ĠØ§ÙĦ ÙĪÛģÛĮØª
ĠÚ©Ø§Ø± Ø¨ÙĨ
ĠÙģÙĦ Ù¹Ø±
ĠØ®Ø¯ Ø§Ø¦ÛĴ
ĠÛĮØ§Ø¯ Ú¯Ø§Ø±ÛĮ
ĠØ§ÙĦÙħ ÙĪØª
ĠÛ²Û ¶
ĠØ§ÙĨÚ¯ÙĦ ÛĮØ§Úº
ĠØ³ÙģÛĮØ± ÙĪÚº
ĠÛģÙħ Ø´
ĠØªØ´ Ú©Ø±
ĠØ³Ù¾ Ø§Ù¹
ĠØ¨Øº Ø¯Ø§Ø¯
ĠÙģ ÙĪØ²ÛĮÛģ
ĠÙģÛĮ Ûģ
ÙģØ± Ùħ
ĠØªÚ© Ø¨ÛĮØ±
ĠÙħØ´ Ø±Ø§ÙĨ
ĠÚĨÚ¾ Ú©ÙĪÚº
ĠÛ²Û µ
ĠØ§Ø° ÙĨ
ĠÙħØ§Ø³ Ù¹Ø±Ø²
ÙĪØ® ÛĮÙĦ
ĠØ§ÙĦÙĨØ³ Ø§Ø¦ÛĮ
ĠÙħÙĨØ¯ÙĪØ¨ ÛĮÙĨ
ĠØ´ Ø¯
ĠÙģØ± ÙĨ
ĠØ³ÙĪ ÛĮÙĦÛĮÙĨ
Ø±Ûģ ÛĮÚº
ĠØ¦ Ø²
ĠØ±Ø¨ Úĳ
Ġ14 7
ĠÛģØªÚ¾Ú©ÙĨ ÚĪÛĴ
ĠØ¨Ø¯ Ø¨
ĠÙ¾ÙĦ Ø§Ø¦ÛĮ
ĠØ£ ÙĨ
ĠÚ¯Ø§Ø¬ Ø±
ĠØ§ÙĨ Ø®ÙĦØ§
ĠØ¹ Ø§ÙħÙĦ
ĠØ§ÙĦ Ø¸
ĠÙĦÛĮ Ø¬Ø¦ÛĴ
ĠØ§Ùħ Ø±Ø§
ĠØªÚ¾ÛĮ ÙĦÛĮ
ĠÙħÛĮÙĨ Ú¯
âĢĺâĢĺ ØĮ
ĠØ¹Ø¬ Ø§Ø¦Ø¨
ĠØ² ÛĮØ§
ĠØ§Ø¨ Ø§
ÚĪÛĮ Ù¹Ø±
Ø³Ûģ ÛĮÙĦ
Ø±Ù¾ÙĪØ±Ù¹ Ø³
ĠÙĨÙĪØ¨ Øª
9 4
Ø§ ÛĮÚ©Ø³
Ø· Ø§ÙĤØª
ÙĨÛĮ Ù¾
ĠØ¨Ûģ ÙĪ
ĠØ§ÙĪ ÚĨÚ¾ÛĴ
ĠÙĤØ± Ø§Ø¨Øª
ĠÙ¾ÛģÙĦÙĪ Ø§ÙĨ
ÙħØ±ÛĮ Ø¶ÙĪÚº
ØªÙģØªÛĮ Ø´
ĠÙħØ³ØªØŃ ÙĤÛĮÙĨ
ĠÙħ ÛĮÛģ
Ø³ Ø§Ø¦ÙĦ
Ù¹ ÙĨÚĪ
ĠØ§Ø¬ ØªÛģ
ĠØ¨Ú¾ÛĮØ¬ ØªØ§
Ġ45 0
ĠÙĨØ¨Ú¾ Ø§ÙĨÛĴ
Ú© ÛĮÙĨÛĮ
ĠÙħ Ø¨Ø§Ø¯ÙĦÛģ
Ø® Ø¶Ø¯Ø§Ø±
Ø¨Ø± Ø§Ø¯Ø±ÛĮ
ĠØ±ÙĨÚ¯ Ø§
ĠÙĦØ§Ø² ÙħØ§
ĠØ³Ø±ÛĮ Ø§Ø¨
ĠØ´Ø§ÛģØ± Ø§Øª
ĠØ³Ø¨ØŃ Ø§ÙĨÛģ
ÚĪ ÙĪÛĮÙĦÙ¾ÙħÙĨÙ¹
ĠÙ¾Ø± ÙħÙ¹
ĠÙģØ± Ø§Ø¦ÛĮ
Ø¯Ø± ØŃÙĤÛĮÙĤØª
Ø³Ù¹Ùħ Ø§Ø±Ù¹Ùħ
Ø´Ø± Ø§Ø¨
ĠØ§ÙĦØ¹ Ø±Ø¨
ĠØ¨ÛģÙĨ ÛĮÚº
ĠÙ¾Ø§Ø¦ÙĦ Ù¹Ø³
ĠØ¹Ø¨Ø±Øª ÙĨØ§Ú©
ĠØ¹Ø§ ÛĮØ¯
en t
ĠÛĮÙĪÙ¹ÛĮÙĦ Ù¹ÛĮ
ĠÚ¯ÛģÙĪ Ø§Ø±Ûģ
ĠÙ¾Ø§Ú©ÛĮØ² Ú¯ÛĮ
Ø´ Ø¹
ĠÙħÙĪ Ù¹ÛĴ
ĠØ³Ø¨ ÙĪØªØ§
ĠØ§Ø¬ ÛĴ
ĠÚĨÚ¾ Ù¹ÛĮØ§Úº
ĠØ§ÙĨÙ¹Ø± Ù¾ÙĪÙĦ
ĠØ§Ø³Ù¹ Ø±ÙĪÚ©
ĠØ§ÙħØ§Ùħ Øª
ĠØ¨Ø§Ø¯Ø´Ø§Ûģ Øª
Ø¬ Ø§ØªØ§
ĠÛģÙĪ Ø§Ø¦ÙĪÚº
ÙĪÛĮ Ø´
ĠØ§Ø¶ Ø·Ø±
ĠØ¨Ø¯ Ø¹Øª
Ø§ÙħÛĮ ÚĪ
ĠØ´Ø±ÛĮÙģ ÛĮÙĨ
ĠÚ¯Ú¾ ÙĨÙ¹ÛĮ
ĠØ´Ø¹ Ø±Ø§Ø¡
Ġ18 8
ĠÙĤÙĦ ÙĪØ¨
Ø§Ø³Ú© ÛĮÚº
ĠÙĨØ± Ú¯Ø³
ĠÙĦÙ¹ ÛĮØ±ÙĪÚº
ĠØ¹Ø¨Ø¯Ø§ÙĦØº ÙĨÛĮ
ÛģØ² Ø§Ø±ÙĪÚº
ĠØ¢ ÛĮ
ĠØŃ ÛĮØ§
ÙħÙĨ ØµÙĪØ¨ÙĪÚº
ØŃØ§ÙĦ Ø§Øª
Ġ13 6
Ġ17 2
ĠØ¨ÛĮÚ© Ø±ÛĮ
ĠØ§ÙĦØª Ùģ
ĠØ§ÛĮØ¬ÙĨÙ¹ ÙĪÚº
ÙĦÙħ ÙĪ
ĠØ¯Ø¹ Ø§Ø¤Úº
ĠØ§Ø³Ù¹ Ø§Ø¦ÙĦ
ĠÙ¾ÛĮÚĨ ÛĮØ¯Ú¯ÛĮ
ĠØªØ§Ø³ÛĮ Ø³
Ú© Ø§ÙĨÛĴ
Ø§Ø¨ Ø®Ø´
ĠÙĤ Ø§ÛģØ±Ûģ
ĠÙĪÛĮ Ù¹Ø±ÙĨØ±ÛĮ
ĠÚ¯Ø±Ø¯ Ø´ÛĮ
ĠÚ©ÛĮÙ¾ Ù¹ÙĦ
ĠÙħ ÙĨÚ¯ÛĮ
Ø¹Ø¯ ÙĦÛĮÛģ
ĠØ¯ÙĪ ÙĦÛģØ§
ĠØ¨Ø± ÙĨ
ĠØ±ÛĮ ÚĳÚ¾ÛĮ
ĠÙħØ¯ ØªÛĮ
ĠØ³ÙĨ ÛģØ§
ĠÙħØ§ÙĦ Ú©ÛĮ
ĠÚ¯Ø²Ø§Ø± ÙĨØ§
ĠØ®Ø±ÛĮ Ø¯Ø§Ø±
ÙħØ´Ú©ÙĦ Ø§Øª
ĠÙħ ÙħØ§
ĠÙħÛĮ Ù¹Ú¾ÛĴ
ĠØ§ÙĦØµ ÙĦÙĪÛĥ
ĠÙħÛĮØ±Ù¾ÙĪØ± Ø®Ø§Øµ
ĠØ¨ÛĮØ¯ Ø§Ø±ÛĮ
ĠØ³ ÙĪØ¯ÛĮ
Ø³ ÚĪÙĨÛĮ
ĠÙĨ Ø§Ø±ÛĮÙĦ
ĠØ¯ÙĪØ± Ø§ÙĨÛĮ
ĠØ¬ÛĮ ØªÛĮ
ĠÙģØ±Ùħ Ø§Ø¦Ø´
Ġ14 5
ĠØ¨Ø±Ø³ Ø§ØªÛĮ
ĠÚ©ÙħÙ¾ÛĮÙĪÙ¹Ø± Ø§Ø¦Ø²ÚĪ
ĠØ§Ø³Ú©Ø§ Ù¹
Ø´Ø±ÛĮ Ø§Øª
ĠÚ©Ø§Ø±ÚĪÛĮ Ø§ÙĦÙĪØ¬ÛĮ
Ù¹ Ø§Ø¦ÙĪÙĨ
ĠÛģÙĪ Ø³
ÙĪØ¯ Ú¯ÛĮ
Ø¯Ø± Ø§
ĠØ´Ûģ Ø§Ø¯ØªÙĪÚº
ĠÙħØ§Ø± ØªÛĴ
ĠØ³ÛĮØ¯ Ø§Úº
ĠØ¹ÙĦ ÛĮÚ©Ùħ
ĠØ¯Ú¾ÙĪ Ø¦ÛĮÚº
ĠØ³Ø±Ù¹ÛĮÙģ ÛĮÚ©ÛĮÙ¹
Ø¬Ø§Ù¾ Ø§ÙĨÛĮ
ĠØ§ÛĮÙĨÚĪØ± Ø§Ø¦ÛĮÚĪ
ĠØ¯Ø®Øª Ø±
Ú¯ ÙĪÙĨ
ĠÙ¾ Ø´
Ø® ÙĪØ¨
Ø¯Ø§Ø± Ø§ÙĨ
Ø§Ø¸ ÛģØ§Ø±
ĠÙĦÚĳ ÙĨØ§
ĠÚĪÚ¯Ø±ÛĮ ÙĪÚº
Ø¨ÙĨØ¯ ÛĮÙĪÚº
Ú©Ø§Ùħ Ø±Ø§ÙĨ
Øª Ø±ÛĮ
ĠÙĨ Ú¯ÛĴ
Ø§Ø¦ ÙħØ§
ĠÙ¾ÙĪ Ø´ÛĮ
ĠÙĪØ±Ú© Ø±ÙĪÚº
ĠØ§ÙĦØ±ØŃ ÛĮÙħ
ĠØ¯Ø§ÙĨ Ø³ØªÛģ
ĠÙ¹Ú¾ÛģØ± Ø§
ÙħØ³Øª ØŃÚ©Ùħ
ÛĮÙĪØ± Ù¾ÛĮ
ĠØ± ÙģØªÛģ
Ø¬ ÙħÛĮÙĦ
ĠÙ¹ ÙĪÛĮ
Ù¹Ø± Ø§
ĠØ¨ÙĦ Ø§Ø¬
ĠÚĪÛĮÙħ ÙĪ
ĠÚ©Ø§Ø´ Ú©Ø§Ø±
Ùħ Ø¤
ØŃ ÙĦÙĤ
ĠÛĮ ÙĪØ§ÙĨ
ĠÙħÙĨ Ø§ØªÛĴ
ĠÙĨÙĪ Ø§Úº
Ø¨Ûģ Ùħ
ĠÚ©Ú¾ÙĦ ÙĨÛĴ
Ú©Ø±ÙĪ ÚĨ
ĠÚĪÚ©Ù¹ÛĮ Ù¹Ø±
Ø¨ Ø§ÙĨÙĪÚº
ĠØª ÛĮØ§
ÛĮÚ© Ù¹ÙĪ
ĠÚĨ ÙĪØ¨ÙĨØ¯
ĠÙ¹ Ø±ÙĪ
ĠÚ¯ÙĦ Ø§Ø¨ÛĮ
ĠÙĪÛĮÙĦ ÙĨÚ¯
ĠØªÙĪ Ø³Ø·
ĠØ±ÙĪÚ© ØªØ§
ĠÙĤÙĦ Ø¹
Øª Ø§Ø±
ĠÙ¾ Ú©ÙĪ
Ø§Ø¦ ØªÛĮ
ĠÚ©Ø± Ø¦ÛĴ
ĠØ¨ÙĨ Ø§Ø¤
ĠØµØŃ Ø§Ø¨ÛĮ
ĠÙ¾Ú¾ Ø³ÙĦ
ÙĨØ² ÛĮÙĦ
ĠØ³Ø§Ø¦ÛĮÚ©ÙĦ Ø²
ĠÙģØ±Ø¯ Ø§
ĠÙĦØ§Ù¾ ØªØ§
ĠØ¨ ÙĪÙħ
ĠØ¹ Ø¸Ùħ
Ø¨Ø± Ø³ÙĦØ²
ĠÙħØ³ Ø§
Ú©ÙĦ Ø§ÙĦÛģ
ĠØ¨Ø±Ø¢ÙħØ¯ Ú¯ÛĮ
Ġ199 8
ĠÙħØ¯Ø§Ø± Ú©
ĠÙħÛĮÙ¹Ø±ÙĪ Ù¾ÙĪÙĦÛĮÙ¹ÙĨ
ĠØ±Ø§Ø¨ Ø¹Ûģ
ĠÙĦ Ø§Ø¨ÛĮ
Ø³ÛĮ Ø¨
Ø° Ø±Ø§
Ú©Ø± ÙĨ
ÙĦÙģ Ø¸
ĠÙģÙĪÙĤ ØªØ§
ĠÙħ Ø§Ø¦ÛĮÚº
ÙĤ ÙĪÙĨ
ĠÙĪ ØªØ±
Ø§ÙĦ ÛĮÙĨ
ÙħÛĮ ÙĪÙĨØ³Ù¾ÙĦ
ĠØµ ÛģÛĮÙĪÙĨÛĮ
ĠØ§Øª Ø±Ø§
Ø³Ú© ÛĮÙĨ
ĠØ³ÙĪÚĨ ÛĮÚº
ĠØ§ÙĪÙĨ ÚĨØ§
ĠÚ©Ø±Øª Ø§ÛģÙĪÚº
ÙĪÙĦÙĪ Ø¬ÛĮ
ĠØªØ§Ø¬Ú© Ø³ØªØ§ÙĨ
Ø§ÛĮÙħØ± Ø¬ÙĨØ³ÛĮ
ĠÙħ Úĳ
Ø±ÛĮ Ø§Ø³ØªÛĮ
ÙĦÛĮ ÙĨÛĴ
ĠÙħÙĪ Ø¬ÙĪ
ĠØ²ÙħÛĮÙĨ ÛĮÚº
ĠÚ¯ÙĪØ±ÙĨ Ø±Ûģ
Ú©Ú¾ÙĦØ§ ÚĳÛĮ
ĠÛĮÙĪØ§ ÛĴ
ÙħØ´Ø±Ú© ÛĮÙĨ
ÛĮ ÙĤÛĮÙĨ
ĠÙħ Ú©Ø§
ĠØ§ÙĦ Ø¨Ø±
ĠØ§ÙĦ ÙĪÙĤØª
ÙĤÛĮ Ø³
ÛģØ§Ø± ÙĪÙĨ
Ø¬ÙĨ Ú¾ÛĮÚº
ĠÚ©ÙĨ ÙĪØ±
ĠÙĪØ§ÙĪ ÚĪØ§
ĠØ¯ Ø§ÙĨÛģ
ĠØ§Ø³ Ø§Ø³
ĠÚĪ Ø±ÛĮÙĨ
ĠÙ¾ÛĮ ÙĪ
ĠÙ¾ÛĮØ´ ÛĴ
ĠØ¯ÛĮÚ¯Ø± ÛĴ
ĠÙģØ¶ Ø§Ø¦ÙĦ
ĠÛ±Û ¹
ĠÚĨÚ¾Ù¾ Ø§ØªÛĴ
Ø¯ÙĦ ÚĨØ³Ù¾
ĠØ±ØŃÙħ Ø§ÙĨÛĮ
Ø§Ø¹ÙĦØ§Ùħ ÛĮÛģ
ĠØ¢ ÙĨÚĨ
ĠÙĤ ÙħØ¨Ø±
Ú¯Ø± ÙħØ§
ÙħØ± Øª
ĠØªØ´ Ø¨ÛĮÛģ
ĠØ¨Ø±ÙĪ ÛģÛĮ
ĠÙħØ¹Ùħ Ø§Ø±
ÙħÙĤØ§Ø¨ ÙĦÛĴ
ĠÙģØ² ÛĮÚ©ÙĦ
ĠØ³ ÙĦÙģ
ĠØ³ ÙĪÙĦÙĨÚ¯
Ø¨ Ø§Ú©
ĠÙĪ Ú¾ÙĪ
ĠØ® Ø¨ÛĮ
ĠØ¨ÛĮ ÙĪØ´ÙĨ
ĠÚĨÚ¾ Ø§ØªÛĮ
ÙĦÛĮÙ¹ Ú©Ø³
ÙħÙĨÚ¯ Ú¾Ùħ
ĠÙħ Ø§Ø¯ÛĴ
ĠÚ©Ø§Ø± Ú¯Ø±Ø¯Ú¯ÛĮ
ĠØ±Ú© Ø¹Øª
ĠØŃÛĮØ¯Ø± Ø®Ø§ÙĨ
ĠÛ³Û ²Û
ĠÙĨØ§Ø¯ Ø§Ø±
ĠÙħÙ¹ Ø§ÙĨÛĴ
ĠØ±ÙĪØ¨ ÛĮÙĨÛģ
ĠØ§Ø¨Ø± Ø§ÛģÛĮ
Ø¨ÙĨÚ¯ ÙĦÛģ
ĠØ¬ Ø±ÛĮ
ĠØ¨Ø± ØªØ±
ĠÙ¾Ú¾Ø± ÙĨÛĴ
ĠÙģÙĪ ÚĪØ²
ĠØ³ÛĮÙĨ Ø¦ÛĮØ±
ĠÚĪØ± Ø§ÙģÙ¹
ĠÚ©ÙĨ Ø§Ø±Ûģ
ĠÙ¾Ø´Øª ÙĪ
ĠÛ±Û´Û ²Û
ĠÙħØ¹Ø§ÙĪ ÛĮÛģ
Ø§ØŃØªØ¬ Ø§Ø¬ÛĮ
ĠØªÙĨØ¯Ø± Ø³Øª
Ġ f
Ø± ÙĨ
ĠÚ© ÙĨØ§
ĠÙħ Ø§ÙĨÚĨ
ĠÚ©Ûģ Ùģ
ĠØ¬Ø§ÙĨ Ø³ÙĨ
ĠØ´ÛĮ Ø¨Ûģ
ĠØ¨Ø§ÙĪ ÙĤØ§Ø±
ĠÙ¾ÛĮÙĨ ØªÛĮØ³
ĠØ§ÙĨÙ¹Ø±ÙĪ ÛĮ
ĠÙ¹Ø±Ø§ÙĨØ³Ù¾ ÙĪØ±Ù¹Ø±Ø²
ĠØ¨ÙĨØ§ÛĮØ§Ø¬ Ø§Ø¦ÛĴ
ĠÙĪØ§ÙĦÛģ Ø§ÙĨÛģ
4 00
7 1
Ù¹ Ø§Ø¦ÛĮ
ĠØ¹ Ø§ÙĤØ¨
ĠØ§ÙĦ Ø§Ø¯Ø§
ĠØ¯Ú¾ Ú©ÛĴ
ÙĪÙĤ Ø§Ø±
ĠØ¬Ú¾ ÙĦ
ÙħØ¨ ÛĮØ±
ÙĤØ§ÙĨ ÙĪÙĨÛĮ
Ø³ ÙħÛģ
ĠØ¨ ÙĦØ§Ùħ
ĠØ¯ Ø§Ø¦ÙĪ
ĠØ¬Ø³ Ú©ÛĴ
ĠÙħØ¹ Ø±Ú©ÛĴ
ĠØªÙħ Ø«
ĠØ° Ø±Ø§Øª
ĠØªØ± Ø§ÙĨÛģ
ĠÙģØ§Ø± ÙħÙĪÙĦØ§
Ø§Ø¦ÙĪÙĨ ÚĪØ±
ĠÙħÛģØ§Ø¬ Ø±ÙĪÚº
6 8
Ûģ Ø§ÙĦÛĮ
ÙĨ Ø§Ø¦Ø¨
ĠÙĪ Ø¦ÛĮØ±
ØªÛĮ Ø§Ø±ÛĮ
Ù¹ÙĦ Ø±
ĠØ¨Ú¾ÛĮØ¬ ÙĨØ§
Ġ17 0
Ù¹Ø±Ú© Ø´ÙĨ
ĠÚĪÛĮØ²Ø§Ø¦ÙĨ Ø±
ĠÙĦÙ¹ Ú©Ø§
ĠÙħÙĪØ§Ø® Ø°Ûģ
ĠÙħÙĦ ÙĪÚº
Ø§ØŃ ØªÛĮ
ÙħÙĨÙ¹ Ø³
ĠÙ¾Ú¾ ÙĪÙĨ
ĠÙħØ§ÙĨ Ø¹
ĠÙħØ§ÙĨÚ¯ ØªØ§
Ø§Ø³Ø±Ø§Ø¦ÛĮ ÙĦ
Ù¾Ø§ÙĦÛĮ Ø³ÛĮ
ĠØŃ Ø§Ø´
Ø¢ ÛĮØ§
ÙħÛĮÙĨ Ù¹
ĠØ¯Ø±ÙħÛĮ Ø§ÙĨÛĴ
ĠØªÛģ ÙħÛĮÙĨÛģ
ĠÙģØ±ÙĤ ÛĴ
ĠÙĨØ§Ú¯Ûģ Ø§ÙĨÛĮ
Ù¹ ÛĮÚ©
Ø¹ Ø§Ø´
Ø´ Ú©ÙĦ
ĠØ§ÙĪØ± Ø³
ĠØ§ÙĦ ÙħÛĮ
ĠØ§ÛĮ Ø«Ø§Ø±
ĠÚĨÚ¾ Ù¹Ú©
ĠØ§Ø´ Ø®Ø§Øµ
ĠÚ©ÛĮØ³ ÙĪÚº
ÙħØŃ Ø¨Øª
ĠØŃÛĮ Ø¶
ĠÙģØ±ÛĮ Ø¬
ĠØ®ÙĪØ±Ø¯ ÙĨÛĮ
ĠØ´Ø§ÙĦ ÛĮÙħØ§Ø±
ĠØ±ÛĮÙģØ§Ø¦ÙĨ Ø±ÛĮ
ĠÙħØŃØ§Ø³ Ø¨Ûģ
Ø§ ÚĳÛĮÙĪÚº
ĠØ´ ÙĪØ§ÙĦ
ĠÛĮ ÙĪØ³
ĠØ¨Ø§Ø² Ø¦ÛĮ
ĠÚ©Ø§ÙĨÙģØ±ÙĨØ³ Ø²
ĠØ±ÛĮÙĦÛĮ ÙĪÚº
ĠÚ©ÙĨÙ¹ ÛĮÙĨØ±Ø²
ĠÙħØ°Ùħ ØªÛĮ
ĠØ³Ø±ÙĨÚ¯ ÙĪÚº
ĠÙħØ³Ú©Ø± Ø§ÛģÙ¹
ĠÙħÙĪÙ¹Ø±ÙĪ ÛĴ
Ø¯ ÙĪØ¨Ø§Ø±Ûģ
Ø· ÙĪÛĮÙĦ
ĠØ§ÙĦ Ø¬ÙĨ
ĠØ±ÛĮ ÚĪÙĨÚ¯
Ú¯Ø§ ÚĳÛĮÙĪÚº
ĠØ¨ÛĮÙ¹Ú¾ ÙĨØ§
Ø¬Ø² ÛĮÛģ
ĠÚ¯ÙĪÙĦ Ø²
ĠÙģØ±ÛĮ ÙĤÛĮ
Ġ199 3
ĠÙ¹Ø±Ú© ÙĪÚº
ĠÚĪÚ¾ÙĪÙĨÚĪ ÙĨÛĴ
ĠÙ¾ÙĪØ³Ù¹Ø± Ø²
5 2
Ùħ Ø®
Ø¯ Ø§ÙĨÛģ
Ø¨ Ø§Ø¡
ĠØ® Ø§Ú©ÛĮ
ĠØ® ÛĮÙħÛģ
ĠÛģØ± ÙĨ
Ø§Ø¤ ÙĨØ³
ĠØ¢Ø± Ù¹ÛĮ
ĠØ¨Øª Ø§ØªÛĮ
ĠØ¨Ø§Øº Ø¨Ø§ÙĨ
ĠØ§ÙĨØ³Ù¾ Ú©Ø´ÙĨ
ĠÙ¾Ø´Øª ÙĪÙĨÙĪÚº
ÙĪ Ø§Ûģ
Ø¯ ÙĦÛĮ
ĠØ§ÛĮÚ© Ù¹Ø±
Ø¬Ûģ Ø§ÙĨÚ¯ÛĮØ±
Ø§Ø¤ ÙĨÙ¹Ø±
ÙħØŃ ÙĨØª
ĠØ¨ÙĪ Ù¹ÛĮ
ĠÚ©ÙĪØ± Ùħ
ĠÚ©ÚĨ Ú¾ÛĮ
ĠØ§ÙĨÙĪØ§Ø± Ø§ÙĦØŃÙĤ
ĠÙ¾Ø±ÙĪÙ¾ÛĮÚ¯ ÙĨÚĪÛĴ
ÙĦ Ûĥ
ĠØ§Ùħ ÙĨÙĪØ§
Ø§ØŃ Ø³Ø§ÙĨ
ĠÙħØ´Øª Ø±Ú©
ĠØ¯Ùħ Ø´ÙĤ
ĠÚĨÛģ ÙĦÙħ
ĠØ¨Ø±Ø§ÙĨÚĪ Ø²
ĠÙĨ Ú©ÛĮ
ĠÙĦ Ø¦ÛĮÛĴ
ĠØŃ ÙĤÛĮÙĤ
ĠÚĨ ÙĪØ³
ĠØ§ÙĦ ØªØŃØµÛĮÙĦ
ĠÙĤØ¨ ÙĪÙĦÛĮØª
ĠÛĮÙĪ Ø¢Ø¦ÛĮ
ĠØ§Ø¨ÙĪ Ø¸ÛģØ¨ÛĮ
ĠÚ©Ø±ÛĮ Ø³ÛĮ
ĠØ´Ø§Ø± Ø¬Ûģ
ĠØ§ÙĪÙĦÙħÙ¾ Ú©
ĠØ§ÙĨ Ø¨Ø§Ø±
ĠØ´ ÙĪÙ¹
ĠÛĮ Ù¹
ĠØŃØ³ Ø§ÙĨ
ĠØ±ØŃ Ø¬Ø§ÙĨ
ĠÚ©Ø§Ø¹ ÙħÙĦ
Ùħ Ø§Ùħ
ĠÙĨ ÙģØ±
ĠÙģ Ú©Ø±ÛĮ
Ø¸ ÙĪØ¸
ĠÙĦÛĮ ÙĪØ±
ĠÙħØŃ ÙħÙĪÙĦ
ĠÙħØ± ØªÛĴ
ĠÙĨÚ© ÙĪÙĦ
ĠÚ©ÙĪÙĨ Ø³ÛĮ
ĠÙ¾Ø±ÛĮ Ùħ
Ø³Ûģ ÙĪÙĦÛĮØ§Øª
ĠØŃÚ©ÙħØ± Ø§Úº
ĠÙ¾ÛĮÙĨ Ù¹
ĠÙħØ·ÙĦÙĤ Ø§
Ù¾Ø®Øª ÙĪÙĨ
Ø¯ Ø³ØªÛĮ
ĠØ§ÙĨ ÙģØ§ÙĤ
ĠØ§Ø¬ ÙħØ§Ø¹
Ø´ÛĮ Ø·Ø§ÙĨ
ĠØµØ¯ Ø§Ùħ
ĠØ¨ÙĪÙ¹ ÛĮØ§Úº
ĠÙħÙĦØ§Ø¦Ø´ ÛĮØ§
Ø¯Ø§Ø¹ Ø´
ĠÙħØ§ÙĨÚĨ Ø³Ù¹Ø±
ĠÚ©Ûģ ÙĦ
ĠØ§ÙĦ ØºÛĮØ¨
ĠÙĨÛģ Ø±ÙĪÚº
ĠÙ¾ÙĪ Ø³Ù¹ÙħØ§Ø±Ù¹Ùħ
ĠÙħØª Ø±ÙĪÚ©Ûģ
Ù¹Ú¾ ÛĮÚ©
ĠÙħØ§ÙĨ ØªØ§
Ġ15 8
ĠÛ±Û ¸
ĠØ¨ÙĪ Ú¯Ø³
ĠØ¬Ø± Ú¯ÛĴ
Ø§Ø±Ø´ Ø§Ø¯
Û ³Û
Ú¯ ÙĨÛĴ
ĠØ¬ ÛĮÙħ
ÛĮÚ© Ù¹Ø±Ø²
Øµ ÙħØ¯
ĠÚĪ Ø¨ÛĴ
ĠØ¨ÛĮ Ø³Ù¹
ĠÚ©Ø§Ø± Ù¾Ù¹
ĠÙħØ± ÙĨØ§
ĠØ¬Ú¾ ÙĪÙĨ
ĠØ§Ø· ÙĦØ§
ĠÙ¾ÙĨ Ú©
ĠÙĤØµ Ø§Ø¨
Ø§Ø¦ Øµ
ĠÚ©ÙĪ ÙĦÚĪ
Ø¬ Ø±Ûģ
ĠØ¢ Ø³Øª
Ø³ÙĦ ÙĪÙĨØ§
ĠÚ©ÙĦ Ø±Ø²
ĠØ³ÙĨ Ø³Ø±
ĠÙĦÚĳ Ø§Ú©Ø§
ĠÙħØªØŃ ÙħÙĦ
ĠØªØ¯Ø±ÛĮ Ø³
ĠØ± Ø´ÛĮ
ÙĦÛĮ ÚĪ
ĠÙħÛĮ Ø´Ø§
ĠØ§ÙĨØª Ø¨Ø§Ûģ
ĠØ§ÛĮÚĪ Ø²
ĠÙĪØŃ Ø¯Ûģ
Ø³Ø±ÙĪ ÛĴ
ĠØŃØ´ Ø±Ø§Øª
ĠÙĪ ÛĮØ±Ø§ÙĨ
ĠØ§ÙĨ ÙģÙĪØ±
Ø® ÛĮÙĦ
ÙģØ± Ø§ÙĨ
ĠØ¨Ûģ Ùħ
ĠÙħØª Ø¶
ĠØ¯Ú¾ Ø§ÙĪØ§
ĠØ¢Ø¨ Ø§Ø¡
ÙħÙĪØ³ Ùħ
Ù¾Ø±Ø§Ø¦ÛĮ ÙĪÛĮÙ¹
ĠØ±Ø§Ø¨Ø± Ù¹
ĠÙĨ ÛĮØ±
ÙĤ ÛĮÛģ
Ø±ÛĮ Ø¶
Ø§Ø¨ Ø±Ø§ÛģÛĮÙħ
ĠØ§ÛĮ Ú¯Ø±ÛĮ
ÙĪØ§ÙĦ ÛĮÛģ
ĠÚ¯Ø²Ø± ÙĨØ§
ĠØ§ØŃØªØ¬Ø§Ø¬ Ø§
Ġ a
ÙĪØ± Ú©Ø±Ø²
ÚĨ Ø§Ø¦ÛĮ
Ø® ÙĪÙĨ
ÙĪÙĨ ÛĮØ§
ĠÙĨÛĮ ÙĪÚ©
ĠÙħÛĮÚĪ ÛĮÙħ
ÛģÙĨÚ¯ ÙĪ
ĠØ³Ø¨Ú© Ø¯ÙĪØ´
ÛĮ ÙĦÛģ
Ø¦ Ûģ
ĠØ± Ø´Ú©
ĠÙħÛĮ ÙĪÛģ
ĠØ¬Ø§ÙĨ Ø¨Ø±
ĠØ¢Ø¦ÛĮ ÚĪÛĮØ§Ø²
ĠØ´ÛģØ± ÙĤØ§Ø¦Ø¯
ĠÙģØ±ÛĮÙĤ ÙĪÚº
Ø¢Ø® Ø±Øª
ĠØ³ Ø§Ø¬
ĠØª ÙĪØ±
ĠÚĪ Ú¾ÛĮÙĦ
ĠØ² Ø¹Ùħ
ĠØ±ÙĪ ÙħÛĮ
ĠØ¨ÙĨ Ø§ÙĦÛĮÚº
Ø³ÙĦØ§Ùħ ØªÛĮ
ØµØ¨ Ø§ØŃ
Ø§Ø¤ÙĨÚĪ Ø±ÛĮ
ĠÚ©Ø§Ù¾ ÛĮØ§Úº
ĠØŃØ§Ú© ÙħÛĮØª
Ù¾Ø±ÛĮ Ø´Ø±
ĠØ§ÙĦÙĪØ¯ Ø§Ø¹
ĠØ¨Ú¾Ø± ÙħØ§Ø±
ÙĨÙĪ Ø´
ĠÚ¯ÙĪ Ø§Ø±Ø§
ĠÙĪØ± ÙĪÙĨ
ĠÛ²Û °
ĠØ§Ø³Ù¹Ø§Ø± Ø²
ĠÚ© ØªØ±
ÙģÛĮ Ø¶
ĠÙħØ³ Ø§ÙģØª
Ø§Ø±Ûģ ÙĪ
ÙħÙĨ Ù¹ÛĮ
Ù¾Ø± ÙĨÚ¯
ĠÚ©ÛĮÙĦ ÙĪØ±ÛĮØ²
ÙħØªØ§Ø« Ø±ÛĮÙĨ
ĠØ§ Ù¹ÙĦ
ĠØ¢ Ù¹
ØŃ Ø³Ø§Ø³
ĠÙ¾Ø± ÚĨÛģ
ĠØ¨Ú¾ ÙĪØª
ĠØ¬Ø§Øª ÛĮÚº
ĠÚĨÚ¾ Ø±ÛĮ
ĠÙ¾Ø§Ø³ Ø¨Ø§ÙĨ
ĠÚĨÚ¾ÙĪÚĳ ØªÛĴ
Ġ13 9
ĠÛģØ§Ø± Ø³
ĠÚĨÙĪØª Ú¾Ø§Ø¦ÛĮ
ĠØ§Ø²Ø¨Ú© Ø³ØªØ§ÙĨ
7 3
Ġ2 10
ĠÚ©Ùħ Ø§Ø¯
ĠÙħØ³ Ø®Ø±
ĠÙ¹ÛĮ Ú¯
ĠØ¨ØŃ ÙģØ§Ø¸Øª
ĠØªØ¹ÙĦÙĤ Ûģ
ĠØ´Ø± Ù¹
ĠÙħØ® ÙĦÙĪØ·
ĠÙĨÙĤ Ø´ÛĴ
ĠØ¬Ø§Ø¦Ø² ÛĴ
ĠÙħÚ©Ø± Ø§ÙĨ
ĠÙħØ²Ø§ØŃ ÙħØªÛĮ
ĠÚĨÙ¾ Ú©ÛĴ
Ø´ ÛĮÚ©
ĠØ§Ø³ Ù¹Ø±Ú©ÚĨØ±
ĠØ¯ÙĪØ± Ø§
ĠØ±ÛĮ Ø²ÛĮ
ĠØ³Ø¨ Ú¾ÛĮ
ĠÚ©ÙĦ ÚĨØ±ÙĦ
Ú©Ø§Ø± ÙĪØ§Ø¦ÛĮ
ĠÚ©ÛĮÙĨ ÛĮØ§
ĠØ³Ø¬Ø¯ ÛĴ
Ùħ ÙĪÙħ
ĠØ³ Ø´
ĠØª ÙĪÙħ
ĠØª Ø§ÙħÙĦ
ĠØ¢ ÙĤØ§
Ġ20 25
ĠØ³ÙĪ ÚĨÛĴ
Ø§Øº Øª
ĠÙ¹Ú¾ ÛģØ±ÛĴ
ĠÚĨÛĮÙĦÙĨØ¬ ÙĪÚº
ĠÙĦØº Øª
ĠÙĨØ§Ø¯Ûģ ÙĨØ¯Ûģ
Ø¨Ø§Ø³ Ø·
ĠØ¨ ÚĨÚ¾Ø§
Ø¨ Ø´Ø±
ĠÚ©Ø± Ø³ÙħØ³
ĠØ± Ø¯Ø§ÙĦ
Ø§Ø¹ Ûĥ
Ø§Ø¬ ÙĪ
ĠÙħØ§Ø± ÙĨØ§
Ù¾Ø§Ú© Ù¾ØªÙĨ
7 2
ĠØ³ Ù¹Ø±Ú©ÚĨØ±
ØŃ ØªÙħÛĮ
ØŃ ÙħÙĦÙĪÚº
ĠÚĪ Ú¾Ø§
ĠØ¨Ûģ Ø±ÛĴ
ĠØ¸ ÙĨ
ĠÙ¾ÛģÙĨ Ø§ÙĨÛĴ
ĠÚ©ÛĮÙħ Ø³Ù¹Ø±ÛĮ
h e
ï ¿½
ĠØŃ ÙħÛĮ
ĠÚ©Ø±ÙĪ Ø§Ø¯ÛĮØ§
ĠØ§ÛĮÚĪ ÙĨ
ĠÚĨÚĳÚ¾ Ø§ÙĨÛĴ
ĠÙĨØ¨ Ú¾Ø§
ĠØ§Ù¾ÙĨ Ø§Ø¦ÛĮÚº
ĠÙĨØ§Ø¦ Ù¹Ø±ÙĪ
Ø§ØªØŃ Ø§Ø¯
ĠØ§Ø¨ÙĪØ¯ Ø§Ø¦ÙĪØ¯
ĠØ§Ø¨Ø±Ø§ÛģÛĮ ÙħÛĮ
Ùħ ÙĪÙħÙĨ
ĠÙĪ Ø¬ÙĪ
ĠØ¨ÚĳÚ¾ ÙĪØªØ±ÛĮ
Ø§ÙĨÚĪ ÙĪÙĨÛĮ
ĠÙĨØ³ ÙĦÛĮ
ĠÛ³Û ¶Û
ĠØ±ÛĮÚ¯ÙĪÙĦÛĮ Ø´ÙĨ
ĠÙħ Ø§Ø®
ÙĤ Ø§Ø³Ùħ
Ø¬ ÙĪÙħ
ÙĦÛģ ÛĴ
ĠØ³ÙĪ ÛĮØ§
ĠØ¬ÙĦ ÙĨÛĴ
ĠØ¯ÛĮÙĨ Ø§Ø±
ĠÙģÙĦÙħ Ø³Ø§Ø²
ĠÙĨÚ©Ø§ÙĦ ØªÛĴ
ĠØ¨ÙĪ ØªÛĴ
ĠØ³ÙģØ§Ø±Øª Ú©Ø§Ø±
ĠÙĨØ¹Ø´ ÛĮÚº
ĠÙ¾Ø±Øª Ù¾Ø§Ú©
Ø¨ Ø§Ø±Ûģ
ĠØª ÙĨØ¯
ĠÛĮ Ø´ÙĨØ²
ĠØ¨Ú© Ø±ÛĮÙĪÚº
ĠÚ¯Ø²Ø± ØªØ§
ĠÙĨØ§Ø¸ Ø±ÛĮÙĨ
ĠØ¬Úĳ Ø§ÙĨÙĪØ§ÙĦÛģ
ĠÚ©ÙĦÛĮØ¦Ø± ÙĨØ³
ĠØ® ÙĨØ¬Ø±
ĠØ¨ÙĦ Ø§Ø¦ÙĨÚĪ
ĠØ¬Ø§Ø±ÛĮ Ûģ
ĠÙĦÚ¯ Ø§ØªØ§Ø±
ĠØ« Ø§ÙĨÙĪÛĮ
ĠØ¬Ûģ Øª
ĠØ§Ø± Ø³ÙĦ
ĠØ§ÛĮØ´ÙĨ Ø²
ĠØ¨Ø§Ø±Ø´ ÛĮÚº
ĠØ¨Ø±Øª Ø§Ø¤
ĠÙħÛĮØª Ú¾
ĠÛģÙĪÙ¹ÙĦ Ø²
ĠØ²Ûģ Ø±Ûģ
ĠØ§ ÛĮÙĨÛĮ
ĠØª Ø®ØµÛĮØµ
Ø§Øª ÙĨÛĴ
ĠÙģ Ø§ÙĪÙĨÚĪÛĮØ´ÙĨ
Ú¾ÛĮ Ø±Ø§
ĠØ¯Ø± ÙĨØ¯Ú¯ÛĮ
Ù¾ÛĮ Øº
ĠÙħÛĮØ± ÙĪØ§Ø¹Ø¸
ĠØ§ÙĨÙ¹Ø± Ù¹ÛĮÙĨ
ĠÙ¾ÛĮÙħ Ø§ÙĨÛģ
ĠÙģÛģÙħÛĮ Ø¯Ûģ
ĠÙħØ¹Ø§ÙĦ Ø¬
Ø§Ø¯Ú¾ ÙĪØ±ÛĮ
ĠØµÙĪØ§Ø¨ Ø¯ÛĮØ¯
ĠÙĪØ¸ÛĮ ÙģÛģ
ĠØ³ Ù¹Ø±ÛĮ
ĠØ³ Ø®ÛĮ
Ùģ Ø±ÛĮÙĨ
ĠØŃ ÙĨØ§
Ø® Ø§
ÙĨÛĮ Ùħ
ĠÙħØ³ÙĦ Ú©
ĠØ¨ÛĴ ÙĨÛĮØ§Ø²
ĠØ³ÛĮÙĦ Ùģ
ĠØ¨ÙĪÙĦ Ø§ÙĨ
ĠØ§ÙĦØ¹ ÙħÙĦ
Ø§Ú©Ø± Ø§ØªÛĮ
ĠØ³ÙĪØ¯ ÙĪÚº
ÙħÛĮØ² Ø¨Ø§ÙĨ
ĠÙħÚ©Ø± Ùħ
ĠØ§ÙĦØª ÙĨØ²ÛĮÙĦ
ĠÙĦÙĤ Ø¨
ĠØ³Ø¨ÙĪØªØ§ Úĺ
ĠÙħØŃ Ø¸ÙĪØ¸
ĠÚ©Ø§Ø± Ú¯ÙĪ
ĠØ³ÙĪ Ù¹
ĠØ´Ø§Ûģ Ø¯Ø±Ûģ
ĠÙħØ¬ ØªØ¨ÛĮ
ĠØ³Ù¹ÛĮ Ø²
ĠÙ¹Ø± Ø§ÙĦØ±
ĠÚĨÛģ ÙĦ
ĠØ¯ÛĮÙĪ Ø§ÙĨÛģ
ĠÚ©ÙĪØ±ÛĮ Ø§Ø¦ÛĮ
Ø§Ø³ØªØº Ø§Ø«Ûģ
· ²
Ùħ Ø°ÛģØ¨ÛĮ
ĠÙ¾Ø± Ø³ÙĪÚº
Ø¬Ú¾ ÙĨÚ¯
ĠÚ¯Ú¾ ÙħØ¨ÛĮØ±
ÙĨÛģ ÙĪÚº
ĠÚ©ÙĨ Ø³Ø±Ù¹
ÙħÙĪ ÙĦÛģ
ĠÛģÙĦØ§Ú© ØªÛĮÚº
ĠÚĪÚ¾ ÙĪÙĦ
ĠÚ©Ø±Ø§Ø¦Ùħ Ø²
ĠØ¥ ÙĨ
ĠÙĨ Ú©Ûģ
ĠØ§ÙĦ Ø¬Ø²
ĠØ¯Ø± Ûģ
ĠØªØ¨ ÙĪÚ©
ĠÚ¯Ø± Ø§ÛĮØ§
ĠÙħÙĨØ¯ ÙĪØ®ÛĮÙĦ
ĠÙĦØº ÙĪÛĮ
Ø¬Øª ÙĨÛĮ
ĠØ§ÛĮÚ¯Ø±ÛĮÚ©ÙĦ ÚĨØ±
ĠÚ©ÛĮ ÙĦÛĮÙģÙĪØ±ÙĨÛĮØ§
ĠØ¨Úĳ Ø§Ø¦ÛĮ
ĠØ¢Ø¦ÛĮ Ú¯ÛĮ
ĠÙģÙĦ ÛĮÚ©Ø³
ÙħØ¹ Ø§ÙĪÙĨ
ĠÙħØ§ÙĦÛĮ ØªÛĮ
Ø§ÙĨ Ø¹Ø§Ùħ
ÙĤ ÙħØ±
ĠÚĪ Ø³Ú©
ĠØ§ÙĦØ² ÙħØ§ÙĨ
ĠØ¹Ø´ Ø±ÛĴ
ĠØ³ÙħØª Ú¾
ĠØ§Ú©Ú¾ Ù¹Ø§
ĠØ³ ÛģØ±Ø§
Ø¬ Ø³Ùħ
Ø³Ù¹ ÙĪ
ĠØµØŃ ØªÙħÙĨØ¯
ÙĨØ¬ Ùħ
Ġ13 8
ĠÙĤÙĦ ÙĨØ¯Ø±Ø²
ÙħØ³ Ø¦ÙĦÛģ
ØªØ¬ Ø§Ø±ØªÛĮ
ĠØ§ÙĨØ³Ù¹ Ø§
ĠØ§ÙĦÙħØ° Ø§ÛģØ¨
6 2
Ø§ÙĨ Ø´Ø§
ĠØ´ ÙĪØ±ÙĪ
ÙĦÛĮ ÙĪÛĮØ²
ĠÚĨ Ø§ÙĪ
ØªÛĮ Ø³Ø±Ø§
Ø¨Ø± Ø¬
ĠØªÙĪ Ø§Ø¶Ø¹
ĠÙ¾Ûģ ÛĮÛģ
Ġ16 8
ĠÚ©ÙĨÙ¹ Ø±ÛĮÚ©Ù¹Ø±
ĠÚĨÛĮÙħØ¨Ø± Ø²
Ú©Ø§ÙĦ ÙĪÙĨÛĮ
l e
Ùħ Ø´Ø±
ÚĨ Ø§ÛģÛĮ
ĠØ§ÙĦ ÙħØŃ
ĠÙĨÛģ Ø§ÙĨÛĴ
ÛĮÙĦ ÙĪÚº
Ø§Ø¬ ÙĦØ§
Ú©ÙĦ ÙĪ
ÙħÙĨ ÚĪÛĮ
ĠÙģÙĦ ÚĪ
ĠØ±ÙĪÚ© ÛĮÚº
ĠÙ¾ÚĳÚ¾ ØªØ§
ĠØ·Ø¨ ÙĤ
ĠØ¨ÙĪØ³ ÛĮØ¯Ûģ
ĠØ§ ÙĦÛĮÛģ
ĠÙ¹ ÙĪØªÚ¾
ĠØ§Ø¨ ÛĮØ¨
Ø±Ø¨ ÙĨ
ĠÙĪØ²ÛĮØ± Ø¯ÙģØ§Ø¹
ĠØ³Ø§ÙĦ Ùħ
ĠØ¬Ø¨ Ûģ
ĠÚ©Ø±ÙĪ Ø§Ø¯ÛĮ
ĠØºÛĮØ± Ø¬Ø§ÙĨØ¨
ĠØ³ÙħØ¬Ú¾ Ø§ÛĮØ§
20 16
ĠØ§Ø³Ù¹ Ø§Ù¾
ĠÙ¾Ú¾ÛĮÙĦ Ø§Ø¤
ĠÙ¾Ø±Øª Ú¯Ø§ÙĦ
ĠÚĨÚ©ÙĨ Ø§Ø¦ÛĮ
ĠØ³ÙĪÙĦÙĨÚ¯ ÛĮ
Ú© ÛĮØ±
Ú© ÙĪÙħ
ĠØ¯ Ú¯ÙĨØ§
ĠÛĮ Ø§ÙħÛĮÙĨ
ĠØ¬ÙĨ Ø±
ÙĪÛĮ Ùģ
Ù¹Ø±ÛĮ Ø§
ĠØ§ØŃØª Ø´Ø§Ùħ
ĠØªÙĤØ± Ø±ÛĮÙĪÚº
Ø³Ùģ ÛĮØ±
ØµØ§ØŃØ¨ Ø²Ø§Ø¯Ûģ
Ú© Ø±Ø¯Ø§Ø±
ÙĨ ÙģÛĮ
Ø³ ÙĨØ¬
Ø±ÙĪ Ûģ
ĠØ³Ø± Ø§Ø¦ÛĴ
ĠØ¬Ûģ ÙĨ
ĠÙĦÙĪÙ¹ ÙĨØ§
Ø· ÛĮÙĨ
ĠØ¨ÛĮ Ø´ÛĮ
ĠØ¨Ø± Ø´
ĠÙħØ¬ Ø³ÙħÛģ
ĠÙ¹ÛĮÚ© Ûģ
ĠÙĦÙģØ¸ ÛĮ
Ø´ÛĮØ± ÛĮÚº
ĠØ§ ÙģÛĮ
ĠØ¨ Ú©Ø³
ĠØ± ØªÛĮ
ĠØ§Ùħ ÙĨÙĪ
ĠØ° ÙĪÙĤ
ĠÚĨÚ¾ Ø¨ÛĮØ³
Ø§ÛĮ ÙĪØ¨
Ø§ÛĮ ÚĪÙĪ
Ġ11 3
ĠÙģØŃ Ø§Ø´ÛĮ
Ú©ÙħØ§ÙĨ ÚĪØ±
ĠÙĨ Ø§ÙĪ
ÚĨ ÙĪÚ©
ĠØ¨ÙĦ Ø²
Ø§Ø® ÛĮÙĦ
ĠÙ¾ÛģÙĨÚĨ Ø§ØªØ§
Ø¯Ùħ ÛĴ
ĠØ¯Ø¹ Ø§Ø¡
Ġ14 9
ĠÙĤØ¨Ø±Ø³ØªØ§ÙĨ ÙĪÚº
ĠØªØ´Ûģ ÛĮØ±ÛĮ
ĠÙĨØ§Ø´ ØªÛĴ
ĠÙĨÙħØ§Ø²ÛĮ ÙĪÚº
ĠØ§ÙĨÙ¹Ø±ÙĪÛĮ ÙĪØ²
ĠÙħ Ø§Ø³Ú©
Ø¹ Ø¸ÛĮÙħ
ĠØ¨Ø¯ ÙĦØ§
ĠØŃÙħØ§ ÛĮØªÛĮ
ĠÙħØ¹Ø¬Ø² ÛĴ
Ø¯ÛģØ´ØªÚ¯Ø±Ø¯ ÛĮ
ĠØ¨ÙĦØ§Ø¬ ÙĪØ§Ø²
Ûģ ÙģØªÛĴ
ĠØºÙĦØ§Ùħ ÙĪÚº
Ø±Ø¶ Ø§
Ø³ÙĪØ± Ø¬
ĠØ¨ ÚĪ
ĠØª ÙĪÚº
Ø¹ Ø²Øª
ĠÚ©Ø± Ø¨
ĠÙĦ ÚĨÚ©
ÙĤÛĮ Ø§Ùħ
ĠÙħÛģ ÙĪØ´
Ø³Ù¹ÛĮ ÙĪÙĦ
Ø±Ø¶ ÙĪØ§ÙĨ
ĠØ§ÙĦØ± Ø¬ÛĮ
ĠØ³Ú©Ú¾ ÙĪÚº
ĠÙħØŃØ¨ÙĪØ¨ Ûģ
ĠÚ¯ÙĨÚĪ Ø§Ù¾ÙĪØ±
ĠØª Ø§Ø¯ÛĮ
ĠØ· Ø¹Ø§Ùħ
ĠØ¨Ø¯ ØŃØ§ÙĦÛĮ
Ù¾Ø± ÙĨØ³
ĠØ¬Ûģ ÙĦ
ĠØ³Ûģ Ø§Ø±ÛĴ
ĠÙ¾Ø®Øª Ú¯ÛĮ
ĠØ¨Ú© Ø±ÛĮØ§Úº
ĠÙħØ±ÛĮ Ø®
ØªØ¨ Ø§Ûģ
ĠØ´Ø§ Ú¯Ø±Ø¯
ĠÙĦØ§Ø³ Ø²
ĠÙ¹Ú¾ÛĮ Ø³
ĠÚ©ÛĮÙĨÚ¯ Ø±ÙĪØ²
ĠÙĦ Ù¹Ø±
ĠØ¨ÙĨ Ú©ÙĪÚº
ĠØ¨Ø± ÙĤ
Ø±Ø¨ Ø§Ø¦ÛĮ
ĠÚĨÚ¾ Ù¹Ø§
ĠÙĪÙĦ Ø§Ø¯ÛĮ
ĠØ¨Ø§Ø±Ûģ Ø§
Ġ199 6
o v
ĠÙħÛĮ Ù¹Ø³
Ø³Ø± ÙħØ§
ĠØ³ÙĦ ÙħÛģ
Ø¯Ùħ Ø´ÙĤ
ĠÚ¯ÙĪÙĦ ÛĴ
at ion
ĠØ§ÙģÛĮØ¦Ø± Ø²
ĠØ ģ
ĠØ§ ÙģÛĮØ³Ø±
ĠØ¨ Ø±Ú©Ø§Øª
ĠÙĦ Ø§Ø¹ÙĦ
ĠØ´ ÛĮÚ©
ĠØ¨Ú¾ÛĮ Ø§ÙĨÚ©
ĠØº Ø¯Ø§Ø±ÛĮ
ĠØ¨Ûģ Ø±
ĠÙ¹ÛĮ Ø´ÙĨ
ĠØµØŃ ØªÛĮ
ĠÚĪØ§ÙĦ ØªØ§
ĠØ§Ø¨Øª Ú©
ĠØ¨Ø±Ø³Ø± Ø§ÙĤØªØ¯Ø§Ø±
ĠØ§ÛĮÙħÙ¾ÙĦ Ø§Ø¦Ø²
Ġ `
ĠÙħ Ø§Ø¯
ĠØ§Ø´ Ø¹Ø§Ø±
ĠØ§Ø´ Ø±Ø§ÙģÛĮÛģ
ĠÚ©Ø§ÙĨ ÙĪ
ÙĪØ§ Ù¹Ø³
ÚĪÛĮÙĪ Ù¹ÛĮ
ĠØ¢Ù¾Ø±ÛĮ Ù¹Ø±Ø²
ĠØ§ÙĦØ¹ÙĦÙħ ÛĮÙĨ
ĠØ§ Ú¾ÙĦ
ĠÙĨ Ú¯Ø§ÛģÙĪÚº
ĠÙĨ Ø®ÙĪØ§
ĠÚ¯ ÙĪÚº
ĠØ§ÙĦ ÛĴ
ÛĮØª Ø±
ĠÚ¯Ø§ ÙĪ
ĠØ¯ÙĪ Ø§Ø¦ÛĮ
ØªÚ¾ ÙĦ
ĠÙ¾ÚĳÚ¾ Ø§ÙĨÛĴ
ĠØªÙģØµÛĮ ÙĦØ§
ĠØªØ® Ø±ÛĮØ¨
ĠÙģØµÙĦ ÛĮÚº
ĠØ¨Ø¯ÙĨ Ø§ÙħÛĮ
ĠØ¹Ø¨Ø¯Ø§ÙĦÙĪ ØŃÛĮØ¯
ĠÙ¹ÛĮÙĦÛĮÙģ ÙĪÙĨ
i d
ĠÙ¾ ØªÙĪÚ©ÛĮ
ĠØ¬ ÙħÙĦÙĪÚº
ĠØ± Ø´ØªÙĪÚº
ÙĪÙĨ ÛĮØª
ĠØ³Ø± Ø§Ø¦ÛĮ
ĠÙ¾ÛĮØ´ Ø§ÙĨÛĮ
Ø´Ûģ Ø¯
ĠØ§Ø¹Ø¬Ø§Ø² Ø§ÙĦ
ĠÚ©ÙĨØ¯ Ú¾ÛĴ
ÙħÙĦØª ÙĪÛĮ
Ø§ ÚĨÚ¾ÛĮ
Ø§Ø¨ Ø§Øº
ĠÚĪ Ø§ÙĪÙĨ
ĠÙħØª Ø§Ø¹
ĠÙħÛĮØ± Ø¬
ĠÚ¯Ú¾ ÙĪÙĨ
ĠØ³Ú©ÛĮ ÙħÛĮÚº
ĠÙħØ§Øª ÙħÛĮ
ĠÙħÚĨÚ¾ ÙĦÛĮÙĪÚº
ĠØ¯Ø§Øº ÛĴ
7 6
ĠÙ¾Ø± Ø§ÙħÛĮØ¯
ÙĨÛĮ ÙĦÙħ
ĠØ³ÙĪ Ø¬ÙĨ
ĠÛģØ± Ø³Ø§ÙĦ
ĠÙħÛĮÚĪ Ùħ
ĠØ³Ûģ Ø§
ĠØ³ÙħØ¬Ú¾ Ø§ÙĨÛĴ
Ø®Ø± Ø§Ø¬
ĠØ°ÛģÙĨÛĮ Øª
ĠÙ¾Ú©Ø§Ø± ÙĪ
u r
Ú© ÛĮÚº
ÙĨ ÙĪÙĨ
Ø¯ Ú¾ÛĴ
ĠØ¯ ÙĪÙĦ
ĠØ± Ú©Ø§
ĠÚ©Ø§ Ù¹ÛĴ
ĠØ¨Ø± Ø³ÙĦØ²
ÙħÙĨ Ø§ÙĨ
ĠØ´Ø¹ Ø§Ø¹
Ø¨ÙĪ ÙĦØ§
Ø¹Ùħ ÙĪÙħ
ØªÙħÛģ ÛĮÚº
ĠØ´ÙĨÙĪ Ø§Ø¦ÛĮ
ĠÛģÙħØ´ ÛĮØ±Ûģ
ĠÙħ Ú©ÙĦÙģ
ĠÚ©ÛĮ Ø¨ÙĨ
ÙĤ Ø§ÛģØ±Ûģ
ĠÙĪ Ø§Øµ
Ø§ÙĦ ØŃÚ©ÙĪÙħØª
Ø¬ Ø§ÙĦ
Ø® Ùħ
ĠØ±Ø¨ Ú©
ÙħØ¬ Ø§ÛģØ¯
ĠØ§Ø³Ú©ÙĪ Ø§Ø¦Ø±
ĠÚ¯Ú¾Ø¨Ø± Ø§
ĠØ´Ø§Ø± Ø¹
ĠÙħØ±Ø§Ø³ ÙĦÛĴ
Ø± Ø§Ø¨
ÙĤ Ø³
ĠØ± Ø³Ù¾Ø§ÙĨØ³
Ø² ÛĴ
ĠÙģ ÙĨÚĨ
ĠØ¨ÛĮ Ø³ÙĨ
ÚĨÚ¾ ÙĪÙ¹ÛĴ
ĠØµÙĨ Ùħ
ĠÙĨÛĮÚ© ÛģØ§
ÙĦÛĮÙģ Ù¹ÛĮÙĨÙĨÙ¹
ØªØ§ØŃ Ø§ÙĦ
ĠÙģØ±ÙħØ§ÙĨ Ø¨Ø±Ø¯Ø§Ø±ÛĮ
ĠØ§ÙĦÙģ Ø·Ø±
ĠÙģÛĮÚ©Ù¹Ø±ÛĮ Ø§Úº
Ø± Ø´
ĠÚ© Ø§Ø¤ÙĨ
Øª ÙħØ§
ĠØª Ú¯
ĠØ± ÙĨØ±
ĠØ® Ø¯ÙĪ
ĠØ§ÛĮÚ© Ø³Ø±ÛĴ
ĠØ³ÙĪ Ø³
ĠÙ¾Úĳ Ø±ÛģØ§
ĠÚ¯ÙĪ Ø¨Ø±
Ġ17 5
Ġ24 0
ĠÙħÛĮØ¯ Ø§ÙĨÛĮ
ÙħØ´ Ø±Ùģ
Ø³Ø§Ùħ ÙĨÛĴ
ÙĪØ±Ø³Ù¹ ÛĮØ§Úº
Ø³ Ø¨ÛĮ
ĠÙĦ Ø°ÛĮ
ĠÚĪ Ø§Ù¹
Ø§ÙĤ Ùģ
Ø§ØŃ Ú©
ĠØ§Ú© Ø§Ø¨Ø±ÛĮÙĨ
ĠØ§ÙĦØ´ Ø±ÛĮÙģ
ĠØ³Ø¯Ú¾ ÙĪ
ĠÙĨ ÙħÙĦ
ĠÛ °Û°Û
ĠÙĪ Ø¨Ø±
ĠÙģØ± Ø³
ĠØ§Ø¨ Ú¾Ø§Ø±
Ø¯Ø± Ø¢ÙħØ¯
ĠÙħØ§ÙĦÛĮ Ø§Øª
Ø®ÙĦ Ø§Ø¡
ĠØ¨Ø³Øª ÛĮØ§Úº
ĠÛģØ³Ù¾ ØªØ§
ĠÙĪÙĪÙĦ Ù¹ÛĮØ¬
ï ·²
ĠØ§Ø³ Ù¾ÛĮÚĪ
ĠØŃ Ùģ
ÛĮÚ© ÛĴ
ÙĪØ¨ Ø¯ÙĦ
ĠØ¨ÙĨ Ø¬Ø±
Ø¯ÛĮ Ø´ÛĮ
ĠÚĨÛĮÙģ Ø³
ĠÙĤØ¯ ÛĮØ±
ÙħØ³ Ø§Ùģ
ĠØ¯ÙĦÛĮ Ø±
ĠØªØ§Ø¦ÛĮ ÙĪØ§ÙĨ
ĠÙ¹Ø±Ø§ÙĨØ³Ù¾ ÙĦØ§ÙĨ
ĠØ¨ Ø§Ø³Ùħ
Ø§ÙĨ Ø³Ø±
ĠØ³Ø± Ûģ
ĠÚ¯Ø± Ø¬Ø§
ĠÙħÙħ Ø§Ø«
ĠØ¯Ø±ÛĮ Ø§Ø¤Úº
Ø§Úĳ Ûģ
ĠØ³Ø¨Ø² ÙĪØ§Ø±ÛĮ
ĠØ¬Ú¾Ù¹ ÙĦØ§
Ø²ÛĮØ± ÙĪ
Ø¨Ø¬ Ù¹
ÙħØ³ÙĦ Ø³ÙĦ
ĠØ¹ Ø´Ø±
ĠØ® Ø¨Ø±ÛĮ
ĠÙ¹ÛĮ ÙĪØ´ÙĨ
ĠØ¯ÛĮÚ¯Ø± ÙĨÛĴ
ĠÙħØ± Ø§
ĠØ§ÙĦØŃ Ø¬
ĠÛģÙĦ ÚĨÙĦ
ĠØ¯Ú©Ú¾ Ø§ØªØ§
Ú© ÙģØ±
ĠØ¨ Ú¯ÙĪ
ĠÙĨ ÙĪØ¨ÙĦ
ĠÙ¾ Ù´
ØŃ Ø§Ú©
ĠØ¯ÙĪ Ø³Ø§ÙĦ
Ø³Ø± ÙĪÚº
ĠØ³Ø± Ú¯ÙĪ
ĠØ¬Ø¨ ÛĮØ±
Ø§Ø±Ûģ ÛĮÚº
ÙĪØ² ÛĮÙħ
ĠØ§Ø· Ø§ÙĦÙĪÛĮ
ĠØ³Ú©Ú¾ Ø§ÙĨÛĴ
ĠØ¨Ø§Ø· ÙĨÛĮ
ĠØ¨Ø±Ø·Ø±Ùģ ÛĮ
ĠØª Øª
ĠÙĦ Ø§ÛĮ
ĠÙħÙĦ Ø¹ÙĪÙĨ
ĠÙ¾Úĳ Ú¯ÛĮØ§
ĠØ¨Ø§ Ú¯
ĠØ§ Ú¾
Ø³ Ø±Ø¯
Ø§Ø± Ø¯ÙĪ
ĠØ¬ ÚĳÙĪÚº
ĠÙĪ ØµÙĪØ¨Ø§Ø¦ÛĮ
ĠØ² Ú©Ø§Ùħ
ĠÚ©Ú¾ ÙħØ¨
ĠØ§Ø¯Ø§Ú©Ø§Ø± Ø§Ø¤Úº
ĠÚ©ÛĮÙħØ± ÙĪÙĨ
ĠØ³Ú©ÛĮÙĨÚĪ Ø±ÛĮ
ĠÙħ Ø±Ùģ
ĠÙ¾ ÙĦÙĪ
Ø® ÙģÛĮÛģ
ĠØº Ø§ØµØ¨
ĠØ¨Ø± Ø§Øª
ĠØ¨ÙĦ Ø§Ø¦ÛĮÚº
ĠØ±ÛĮ ÚĪÛĮ
Ø¨Ú¾ ÙĦØ§
ĠÙ¾ÛĮØ± Ø§ÙħÛĮÚĪ
ĠÙ¾Ø±ÙĨÙ¹ ÙĨÚ¯
ÙĪØªØ± ÙĤÛĮ
ĠØ³ Ø§Ø¦ÛĮÚº
Ø³ Ø³
ĠØ§ÙĦ Ø§Ø¤ÙĨØ³
ĠÚ©Ø§Ø± ÙĨØ§ÙħÛĴ
ÙħØ± Ø²Ø§
Ø´ÛĮ ÚĪÙĪÙĦ
ĠØŃØµ Ø§Ø±
ĠÙĨØ§Ø± Ø¯Ø±ÙĨ
ĠØ§ØŃØ³Ø§Ø³ Ø§Øª
ĠØ®ÙħÛĮ Ø§Ø²Ûģ
ĠØ®Ø¨ÛĮ Ø«
ÙĨÙ¹ ÙĪ
ĠØ¬Ø³ Ù¹ÙĨ
Ø§Ø® ØªØ±
ĠÙ¾ÛĮÙĨ Ù¹ÙĨÚ¯
ĠÙ¾Ø§Ø±Ù¹ÙĨØ± Ø´Ù¾
ÛĮÙĪÙĨ ÛĮÙĨ
ĠØªÙģØª Ø§ÙĨ
Ø« ÙĪØ±
ĠØ³Ú© Ø§Ù¹
ĠÙĨÙĪ Ú©
ÛĮÚ©Ø³ ÙĨ
ĠÙħØ±Ú© ÙĦ
ĠØµÙĨ ÙģÛĮ
ĠØ³ÙĨØ¨Ú¾ Ø§ÙĦÛĮ
ĠØ¯Ø§ ÙĪØ¯
ĠÚĪØ§Ø¦ÛĮ ÙĦØ§Ú¯
ĠØ³ÙĪØ² Ø´
ĠÙ¾ÙħÙ¾ Ø³
ĠÙĨØ¹ÛĮ ÙħÛĮ
Ø§ ÛĮÛģ
ĠØª Ù¾
ĠØª ÚĳÙ¾
ĠÙĦ ÙĨÚ¯Ø±
ĠÚĨ Ø³ØªØ§ÙĨ
Ø§Ú© Ø±Ùħ
ĠØ³ÛĮ ÚĳÚ¾ÛĮ
Ø³Ø± ØŃØ¯
Ø§ÛĮ Ø§Ø²
ĠÙħØ¨ Ø§Ø±
Ø´Ú© ÙĪØ±
ĠÙ¾Ú© Ø§ÙĨÛĴ
Ø¨Øº Ø¯Ø§Ø¯
Ùħ ÙħØªØ§Ø²
ĠÚ©ÛĮ ÙģÛĴ
ĠØ· ØºÛĮ
Ø±Ùģ Ø§Ø±ÙĪÙĤ
ĠÚ©Ú¾ ÙĦÙħ
ĠØ§ÙĪ ÚĳÚ¾
ÙĪÙĦÛĮ ØªÛĮ
ĠØªØ§Ø±ÛĮØ® ÙĪÚº
ĠØ¨ÙĪ Ø§Ø¦ÛĮ
Ø³ÛĮÙĨ Ù¹
Ø°ÛĮ ÙģÛģ
ĠÙħÚĨ Ø§ÙĨÛĴ
ĠÙ¾Ø³ÙħØ§ÙĨ Ø¯Ú¯Ø§ÙĨ
ĠÚ©ÙĦÛĮÙĨ Ú©Ø³
Ġ198 0
ĠÙĨØ¨Ú¾ Ø§Ø¦ÛĮÚº
ĠØ§Ø¹Ø¬Ø§Ø²Ø§ÙĦ Ø§ØŃØ³ÙĨ
Ø§Ú© ØªÙĪØ¨Ø±
ĠÚĪÚ¾ Ú©ÛĮ
ĠÚ©ÙĦØ§ Úº
ÚĨ ØªØ±Ø§ÙĦ
ĠØ® Ø¶
Ġ2 25
ĠØ¬Ø³ Ú©ÛĮ
ÙģÛĮ Ø³Ù¹ÛĮÙĪÙĦ
ĠÚĨÚ¾ ÚĳØ§
ĠØ¸ ÛģØ§Ø±
ĠØ¶ÙĦ Ø§ÙĦØª
Ġ11 9
ĠØ¨Ø§Ø¬ ÙĪØ¯
ĠØ§Ù¾ÙĨ Ø§ÙĨØ§
ĠØ³ÙĪÛĮ Ù¾
ĠØ§ ÚĳÛĴ
Ø¨ Ø´
ĠØªÙĪ Ø³ÛĮ
ĠØ¬ÙĪ Ûģ
ĠÙĪÛģ Ø±
Ø¬ÙĨ Ø§ØŃ
ĠÚ¯Ø± Ø§ÙĪÙĨÚĪ
ĠÙģØ§Ø± Ø³ÛĮ
ĠÙĨØ°Ø± Ø§ÙĨÛĴ
ĠØ³ÙĪØ±Øª ÙĪÚº
ĠØ§ÙģØº Ø§ÙĨÛĮ
ĠØ³ÙģØ§Ø± Ø´ÛĮ
ĠØ¯ÙĪØ±Ø§ÙĨÛĮ ÛĴ
Ú© ÙĪØ¨
Ø¯ ÙħØ§
Ø³ Ø§Ø±Ûģ
ĠØ¨ Ø§Ø¤ÙĨÚĪØ±ÛĮ
ĠÚĪ Ø¨ÙĪ
ĠØ² Ú©ÙĪ
ĠÙ¾ÛĮ ÙĪÙ¹ÙĨ
Ø§ÙĨÛĮ Øª
ĠÙħÛģ Ú©
ĠØ¹Ø¨Ø¯Ø§ÙĦ Ø³ÙĦØ§Ùħ
ĠÚĨÚĳÚ¾ Ø§Ø¦ÛĴ
ĠÚ¯Ú¾Ø¨Ø± Ø§ÛģÙ¹
ĠØ§ÙĨÙģÙĪØ± Ø³ÙħÙĨÙ¹
ĠØ§ ÛĮØ§
ĠÙĨ Ø³ÙĪØ§Úº
ĠØ§Ø³ ÙĨÛĮÙ¾
ĠÙħØŃ ÙĤÙĤ
ĠØ¨Ø± Ø§Ø³ØªÛģ
ĠØ¨Ú¾ Úĳ
ĠØ´ÛĮØ± Ø§ÙĨÛĮ
ĠØ§ÙĦØ¨ Ùħ
Ø¬ÙĪÙĦ Ø§Ø¦ÛĮ
ĠØ¯ Ø§Ø¯ÛĮ
ĠÙĪ Ø§Ø¯
ĠØŃ Øª
Ø§Ø² ÙĪ
ĠØ§ÛĮ ÙħØ§
ĠØ¬ÛĮ ÙĨÛĴ
ĠÛĮÙĪÙĨ ÛģÛĮ
ĠÚ¯Ø²Ø§Ø± ÛĮÚº
ĠÚĨØ§ÙĨ Ø³ÙĦ
ĠØ´ÛģØ§Ø¯Øª ÛĮÚº
ĠØ±ÙĪÛģ ÚĳÛĮ
ĠØ§ÙħØªÙĨ Ø§Ø¹ÛĮ
ÙĪ Ø§Ø¦Ù¹
ĠØŃ Ø±Ú©ØªÙĪÚº
ĠÙ¹ Ø³
ĠÙħØ· ÛģØ±
ĠÙħØ³ÙĦ ÙħÛĮÙĨ
ÙĨØ¯ÛĮ Ø§Ø±
ĠÙ¾Ø±ÙĪÙ¾ÛĮÚ¯ ÙĨÚĪÛģ
ĠÙĦØ§Ø¯ ÙĨ
ĠØ¯Ø§ÙĪ Úĳ
ĠÙĨØ§Ûģ ÛĮØ¯
ĠØ§ÙĨ Ú©Ø±ÙĪÚĨ
ĠÚĨ ÙĪÚĳ
ĠØ§Ø¨ Ø¯Ûģ
ĠØº Ø²ÙĦ
ĠØªÚ© Ø±ÛĮÙħ
ĠÚ©Ú¾ Ø§Ø±
ÙĪØ² Ø¦ÛĮ
Ø¦ÛĮØ± Ø²
ĠØ³Ø¹ÙĪØ¯ ÛĮÛģ
ĠÚ©Ø§Ø¬ ÙĪÙĦ
ĠÙģÙ¹Ø¨Ø§ÙĦ Ø±
Ġ o
Øª Ø¬Ø²ÛĮÛģ
Ø¬ ÛĮÙħ
ĠÙĦ Ù¾
Ġ2 30
ĠØ§Ø¯ ÙĨÛĮ
ĠØ§Ú© ØªÛĮØ³
ĠØ¯Ûģ ÙĨØ¯Ûģ
ĠØ¢Ú¯ Ø§
ĠØªØ¨ Ø§Ø±Ú©
Ġ14 8
ĠØ¨ÙĪÙĦ Ù¹
ĠØ¹Øµ Ø§
ĠÚĨØ§Ø¦ ÙĨÛĮØ²
ĠÙħØ¯Ø± Ø³ÛĴ
ÙħØ¹ÛĮ Ø´Øª
Ø¬ Úĳ
ĠØªÚ¾ Ùħ
Ø¢ ØªØ´
ĠÙħÛĮ Ø¹Ø§Ø¯
ĠØªÚ¾ÛĮ ÙĦÛĴ
Ø§Ø® Ø±Ø§Ø¬
Ø§ÛĮ Ø§Øª
ĠÚ©Ø§ÙĨ ÙģØ±
Ø³ÙĨ Ø¬ÙĪ
ĠØ¹Ø±Ùģ Ø§Øª
ĠØ§ÙĦÙħØ¹ Ø±ÙĪÙģ
ĠÙ¹ÛĮÙĪÙ¹ Ø§
7 4
Ø§Øª ÛĮÚº
ĠØ· Ø§Øº
Ø±Ø¯ ÙĪØ³
ĠØ¨ÛĮ Ø¹
ĠØ§Ø¨ Ø±Ø§
ĠØ¢Ø² Ø§Ø±ÛĮ
ĠØ¢ÙĨ ÙĨØ¯
ĠØ¨Ø§ÙĤ Ø±
ĠØ²ÛĮØ§Ø¯ØªÛĮ ÙĪÚº
ĠØ¯ÙĨÛĮ Ø§Ø¦ÛĴ
Ú¯ ÙĨØ§Ûģ
Ø§Ùħ ØªØŃ
ÙĨÛĮ ÙĪÛĮ
Ø±ÙĪ Ø§ÙĦ
ĠÙħÙĪ Ø¬
ĠØ¬Ø³ Ø¯
ĠÚ©Ú¾ ÙĪØ³ÙĪ
Ø¨ÙĦ Ø§Ø´Ø¨Ûģ
ĠØ±ÛģÛĮ Ú¯Ø§
ÙĪÙĨÛĮ Ø´ÙĨ
ÙĪØª Ø±Ø§
ĠØ¨ÙĦØ§ ÙĪØ¬Ûģ
ĠÙħÙĦØ§ ÛĮØ§
Ø§Ú¯ ÛĮØ§
ĠØ¬Ø§ÙĨÚĨ ÙĨÛĴ
ĠÙĤØ·Ø§Ø± ÛĮÚº
ĠØ¹Ø§Ùģ ÛĮØª
Ú©Ø§Øº Ø°Ø§Øª
ÚĨ Ø§ÙĨ
ĠØ¹Ø±Ø¨ ÙĪÚº
ĠØ´ÙĨ Ø§Ø³
ĠÙ¾Ú¾ÛĮÙĦ Ø§Ø¦ÛĮ
ĠØµÙĨØ¹Øª ÛĮÚº
Ù¾ÛģÙĨÚĨ ÙĨÛĴ
ĠÚ¯Ú¾ÙĨ Ø§Ø¤
ĠØµÛģ ÛĮØ¨
ĠÚĪÙħ Ù¾Ø±
ĠÚ©Ú¾ÙĨÚĪ Ø±Ø§Øª
Ø Ľ
ĠÚ¯Ú¾ Ù¹ÙĨ
ĠØ±ÙĪÙħ Ø§ÙĨÙĪÛĮ
ÙĦÚ© ÙĪÚº
ĠØ³ÛĮØ´ÙĨ Ø²
ĠØ¢ÙĦÙĪ Ø³ÛĮ
ĠØ¬Ø±ÙĨÙĦ Ø³Ù¹
ĠÚ©ÙĪØ§ Ù¹Ø±
Ø±Ø¨Ø§Ø¦ÛĮ Ø¬Ø§ÙĨ
Ø§ÙĦ ÙĨØ¨ÛĮ
ÚĨ Ø§Ø±ÙĪÚº
ĠÙģ ÙĨÚ¯Ø±
ĠØ§ÛĮ Øª
ĠØ¨ÙĨ Ø§Ø¯ÛĮÚº
ĠØªØ± ÙĤ
ĠØŃÙĪØ§ÙĦ Ú¯ÛĮ
ĠÙ¾Ø§ÙĦ ØªÙĪ
ÙħØ±Ú© Ø²
ĠÛģØ¯ Ø§Ø¦Øª
ĠÚ©Ø§Ø±Ø® Ø§ÙĨÛĴ
Ø³ Ø§Ø±ÛĮ
Ø¦ ÙĪ
ĠØ´ Ø±Ø¨Øª
ĠÙĤ Ø¶Ø§
ĠÛģÛĮÚº Ø¬Ø³
ĠØ¨Ú¾ ÙĦÛĴ
ĠØªØ± Ø§ÙĨÛĴ
Ø¨ÙĦ Ø§ÙĦ
ÙħØ¨ ÛĮÙĨÛģ
ĠÙ¹ÛĮÚ©Ø³ ÙĦØ§
Ġ197 3
ĠØ´Ø§Ù¾ Ø³
7 9
ÛĮ ÙĪØªÚ¾
Ùħ ÙĪØ¯ÛĮ
ĠØ§ ÚĪØ§
Ø¯ ÙĪÚº
ĠØ¬ Ø§Ø¦ÙĪÚº
Ù¹ ÙĪÙĨ
ĠØµ Ø¯ÙħÛĴ
ĠØ´Ûģ ÙĨØ´Ø§Ûģ
ÙĦÙħ ÛĴ
ĠÛ³Û ³Û
ĠØªØ® ÙĪÛĮÙģ
ĠÙĦØ¨Ø± ÙĦ
ĠØ³Ø±Ø¨ ÙħÛģØ±
ĠØ ¤
Ú© Ø§Ø±ÛĮÙĪÚº
Ø¯ ÙĪØ±Ûģ
Ø³ Ø§Ø±ÛĴ
ĠÚ©ÛĮ ÙĪÛĮØ²
ĠØª Ø¹Ø¯
ĠØ§ÙĨ Ú©Ø§Ø±ÛĮ
Ġ15 4
ĠÛĮÙĪ Ù¹ÛĮÙĦÛĮ
ÙĨÚ¯Ø± Ø§ÙĨÛĮ
ĠØ³ÙĪØ³Ø§Ø¦Ù¹ÛĮ Ø²
ĠØ§ÙĨÙĪ Ú©Ú¾ÛĴ
ĠØ¬Ú¾ÚĳÙ¾ ÛĮÚº
ĠÙĨØ· ÙģÛģ
ĠØª ÙĨÛĴ
ĠÚ©ÙĪ Ù¹Ø±ÛĮ
ĠØ¹ Ø¶ÙĪ
ĠÚ¯Ø§ ÙĪÚº
Ú©Ú¾ Ù¹
Ø¨ÙĦ ÙĨØ¯
ÙĦÙħ ÙĨÙ¹
ĠØ§Ø¶ Ø§
ĠØ³Ø§Ø² Ø´ÛĮ
ÛĮÙĨÚĪØ± ÚĪ
ĠÙħØ¬Ø³Ùħ ÛĴ
ĠØ§Ø³ØªØ« ÙĨØ§Ø¡
ĠØ³ ÙĪÙĨÚ¯
Ø¨ ØµÙĪØ±Øª
ĠÙģ ÙħÙĨ
ĠØ³Ú© Ø±ÛĮÙ¹Ø±ÛĮ
ĠØ§Ø¨ ÛģØ§Ùħ
ĠØ¨Ø± Ø§Ø¦ÙĦØ±
ĠØ§Ø¯ Ú¾Ø§Ø±
Ø¯Ø± Ø§Ø²
ĠÙħØ° Ø§Ú©Ø±Ø§ØªÛĮ
ĠÚ¯Ø± ØªÛĴ
ĠÙ¾ÚĳÚ¾ ÙĪ
ĠÙħØ§ÚĪÙĦ ÙĨÚ¯
ĠÙħØ±Øº ÛĮÙĪÚº
ĠØ±ÙĪÙĨØ§ÙĦ ÚĪÙĪ
ÛĮ Ø§Ø³Ø±
Ø¬ ÛĮÚ©Ù¹
ĠØ´ Ø±ÙĪ
Ø§Ø¯ Ø¦ÛĮÛĴ
ĠÙħØŃÙħØ¯ ÛĮÛģ
ĠØªÙģ ÛģÛĮÙħ
ĠØ±Ø¯ ÙĪØ¨Ø¯ÙĦ
âĢ¦ .
ĠÛģ Ø§Ø¶
ĠÙ¹ ÙĪÙĦÛĴ
ĠØ¯ÛĮ Ø´ÛĮ
ĠØ« ÙĦ
ĠØ±Ø³ Ø§ÙĨÛĮ
ĠÚ©ÙĪÙĨØ³ÙĦ Ø±Ø²
ØŃØ¶ Ø±Ø§Øª
Ø³Ù¹ÛĮ ÚĪÛĮÙħ
ĠØ¯Ø§ÙĨ Ø´Ùħ
Ø³Ø§ÙĦ Ø§ÙĨÛģ
ĠØ¬ÙĨÛĮ ÙĪØ§
ÛĮ ÙĪÙĨØ³
ÙĨ ÙĨ
ĠÙħ Ú©ÙĪ
ĠØª Ø³Ú©ÛĮÙĨ
ĠÙħÛĮÚº Ùħ
ĠÚ¯ Ø§ÙĨÙĪÚº
Ø¬ ÙĨÛĮ
ĠØ® Ø¯Ø§Ø¯
ĠØº ÙĪØ·Ûģ
ĠØ³ÙĪ Ø¦ÛĴ
ĠÚĨÚ¾ ØªÙĪÚº
ĠÚ©Ø±ÙĪ Ø²
ĠØ¨Ø¯ ØªØ±
ĠÙĨØ³ Ø¨ØªØ§
ĠÙ¹Ø±ÛĮ ÙĪÙĦ
ĠØ¢Ø²Ùħ Ø§Ø¦Ø´ÛĮ
ĠÛģ ØªÚ©
ĠØ³ Ù¹Ø±Ú©
ĠÙ¾ Ø§Ø¦ÙĪÙĨÚĪ
ĠÚ¯Ø§ ÛĮØ§
ĠÚĪØ§Ø¦Ø±ÛĮÚ©Ù¹Ø± Ø¬ÙĨØ±ÙĦ
ÛģÙĪ Ø´
ĠØªØ§Ø¨ ÙĪØª
5 3
ĠÛģ ÙĪØ±
Ø¹ Ø´
ĠÙĦÛĮ Ø¨ÙĦ
ĠÚ©Ø§Ø± Ûģ
Ø§ÙĪ ÙĪØ±
ĠÛĮÙĪÙĨÛĮ ÙĪØ±Ø³Ù¹ÛĮØ§Úº
ÙħØ¹ ØµÙĪÙħ
ĠØ¨ÛĮØ¬ ÙĪÚº
ĠØªÙħØ« ÛĮÙĦ
Ø³ Ø§Ø¬Ø¯
ĠØ± Ú©Ø±
ĠØ¨Ø± ÙĦÙĨ
Ø§ØŃ Ø¨Ûģ
ĠÙħØ³ ÙĪØ¯ÛĴ
ĠÙħØ´ Ø§ÙĦ
ĠÙĨØ§ÙĤ Ø¯ÛĮÙĨ
Ø³ÙħÛĮ Ø¹
Ø§Ú©ÛĮ ÚĪ
ĠÙģØ§Ø· ÙħÛĮ
ĠÙħØ³Ú© ÛĮÙĨÙĪÚº
ĠÚĪÙ¾ÙĦ ÙĪÙħÛĮ
ĠÛģ Ø±Ø¨
Ø¨ ÙĪØ±ÙĨ
Ø¹ ØªÛĮ
ØŃ Ø§ÙħØ¯
ÙĪÙĦ ÙĪÚº
ĠØ§Ù¾ Ø±ÛĮØ´ÙĨ
ĠÙħÙĨ Ø¨Ø±
Ø³Ù¹ Ø§Ùģ
ĠØ¢Ø¦ÛĮ Ø³Ú©ÙĪ
ĠØ¹ÙĦÙħ Ø¨Ø±Ø¯Ø§Ø±
ĠÙħØ¹Ø§Ø´ Ø±ÙĪÚº
ĠÙģÙĦ Ú©ÛĮØ§Øª
ĠØ§ÛĮÚĪ Ø±ÛĮØ³
Ġ14 2
ĠÚĪÚ¾ Ø§Ø¦ÛĴ
ÙħØ¸ Ø§ÛģØ±
ĠØ±ØŃÙħ Ûĥ
ĠØ´Ø±ÛĮ Ø§ÙĨÙĪÚº
ĠÚ©Ú¾Ø± Ø¨ÙĪÚº
ĠØªØ¨ÙĦÛĮ ØºÛĮ
ĠÚĨÚ¾Úĳ Ø§ÙĨÛĴ
ĠÚ© Ø¯ÙĪ
Ø§Ùħ ØŃÙħØ¯
ĠØ® ÙĪÙĨÛĮ
ĠÚĪ Ø±ÛĮØ³
Ú¯ÛĮ Ù¹
ĠÙħØª ÙĤÛĮÙĨ
Ø¯Ø± Ø®Øª
ĠØ§ÙĪ Ø§Ø¦ÙĦ
Ø·ÛĮ Ø§Ø±ÛĴ
ĠØ´ÛĮÙĦ ÚĪØ²
ĠÙ¾Ù¹Ú¾ ÙĪÚº
ĠÚ¯Ø±ÛĮØ¨ Ø§ÙĨ
6 9
Ġ b
ÚĨ Ø§ÙĨØ¯
ĠØ¯ÙĪ ÛģØ±Ø§
ĠÚ©Ú¾ Ø¬
ÙĪÚ© Ø§Ø±ÙĪÚº
Ø¨Ú¾ Ø§Ø¦ÛĮ
Ú©Úĳ ÛĮØ§Úº
Ġ18 4
Ġ24 3
ĠÚĨÚĳÚ¾ ÙĨÛĴ
ĠØ³ÙĨØ¨Ú¾Ø§ÙĦ ÛĮÚº
ĠÙĨØ§Ù¾Ø³ÙĨØ¯ ÛĮØ¯Ûģ
Ù¹ÛĮ Ø¨ÙĦ
Ø³ÙĦ Ø·
ĠÙģØ± ÙĨØ³
ĠØ¬Ø¨ ÙĦ
ĠÚĨÚ¾ ÛĮÙĨÛĮ
ĠØ¯ÙĦ Ø¨Ø±Ø¯
ĠÙĨØ¸Ø§Ùħ Øª
Ø§ÙĪÛĮ ØŃ
ĠÙ¾Ø§ÙĦ Ú©
ĠØ§Ù¾ÙĨ Ø§ØªÛĴ
ĠÚĪÛĮÙģ Ø§ÙĦ
ĠÚ©ÙĨØ¯ Ú¾ÙĪÚº
ĠÚ¯ Ø¯Ø§
ĠØ· Ø¨Ø±Ø§ÙĨÛĮ
ĠÙħØ³ Ø§Ø¬
Ø¨Ø§ÙĦ Ú©ÙĦ
ĠÛĮÙĪ Ø¢ÙĨ
Ø¹ÙĦ ÙĤÛĮ
ĠØ³ÛĮØ§ ÛģÛĮ
ĠÚ¯ÙĦÙĪÚ© Ø§Ø±ÙĪÚº
ĠÚ©ÛĮÙ¹ Ú¯Ø±ÛĮØ²
ĠÙ¹Ø§ÙĨÚ¯ ÙĪÚº
Ø²ÙĦØ² ÙĦ
ĠÚ©ÙĨØ³ Ù¹Ø±Ú©Ø´ÙĨ
ĠØªÙĪØ³ÛĮ Ø¹ÛĮ
Ú© ÙĨÙ¹
Ú© ÙĪØ§ÙĦ
ĠÚ© Ø§Ø¤ÙĨÙ¹Ø±
ĠÙħ ÛĮÚ©Ø±
Ø¨ Ø§Ø·
ĠÙ¹ÛĮ Ø²Ø±
ĠØ¢Ø² ÙħØ§ÛĮØ§
ĠÛ²Û ·
ĠÚĨÙĪ Ú©ÛĴ
ĠÙħÛĮÚ¯ Ú¾ÙĨ
ĠÙ¾ÙĦÛĮ Ø¦Ø±
Ùģ Ø®Ø±
ĠÚ¯ ÙĨÚ¯Ø§
ĠÚĪ ÙĦÛĮ
ĠØ§Ùħ Ø±Øª
ÙħÛĮØ± Ù¹
ĠØ§ÙĨØ¬ ÙĨÛĮØ¦Ø±
Ġ13 4
ĠÙĨÙģ ÙĪØ³
ĠØ®Ø¯Ø§ ÙĪÙĨØ¯
ĠÛ²Û ¹
ĠÚ¯ÙĦÙĪÚ© Ø§Ø±ÛĮ
ĠÛģÛĮÚ© Ø±Ø²
ĠÙģØ´ Ø±ÛĮØ²
ĠØ²ÙĨØ¬ ÛĮØ±
ĠÚ© Ø§Ø®
Ø§ÙĦ Ø±ØŃÙħÙĨ
ĠÚ©ÙĪ Ù¹ÛĴ
ĠÙħØ¹ ÙĦÙħ
ĠØ¯ÙĪ Ø¦Ùħ
ĠÙħØ´ Ú©
ĠÙħØ§ÙĦ Ø¯Ø§Ø±
ØªØŃ ÙģØ¸
ĠÙħØ±Ø§Ø¯ Ø¬ÙħØ§ÙĦÛĮ
ĠÙ¾Ú¾ÛĮÙĦ Ø§ÙĨØ§
ĠØ§ÙĪÙħ Ø§ÙĨ
ĠØ³Ø±Ùħ Ø§Ø¦ÛĴ
Ø¨ Ø§ÙĪ
ÙĪØ¨ ÛĮØª
ĠØ§Ø¯ ÙĦØ¨
ĠÙħÚ© Ø§ÙĨÙĪÚº
Ù¾ÛĮ ÙĨÛĴ
ĠÚ¯Ú¾ ÙĦ
Ø§Ø±Ú© Ø§ÙĨ
ĠØ±ÙĪÚĪ Ø²
ÙħÙĤ ØµØ¯
ĠÚ©ÙĪØ± ÛĮÙĨ
ĠØ§ÙĦÙĪ Ø§ÙĤØ¹
ĠØ§ÙĨÚ©Ø±ÙĪÚĨ ÙħÙĨÙ¹
Ú¾ ÙħØ§
Ø² ÙħØ¨Ø§Ø¨ÙĪÛĴ
ĠÙģ Ø§Ø±ÛĮ
ĠÙħÙĪ Ûģ
ĠÙħØ¹ ÛĮØ§Ø¯
Ø¢ ØºØ§
ĠÙģÛĮ ÙĪØ±Ù¹
ĠÙħØª Øµ
ĠØ§Øª Ø§Ø±ÛĴ
ĠØ¨Ø¯ ÙĨÛĮØªÛĮ
ĠØ®Ø§Øµ Ûģ
Ø²Ø± Ø§Ø¹Øª
ØµØŃ Ø§Ø¨Ûģ
Ġ197 1
ĠØ¨ÙĪØª ÙĦÙĪÚº
ÙħØº Ø±Ø¨ÛĮ
ĠÚ¯ÙĨÛģ Ú¯Ø§Ø±
ĠØ§ÙĨÙ¹Ø±Ù¹ÛĮÙĨ ÙħÙĨÙ¹
ĠÙĦ ÙħÙĨ
ÙĦÛĮ Ú¯ÛĮ
ĠÙĤ ÙĦÛĮ
ĠØ§Ú© ØªÙģ
Ø§ÛĮ Ù¾ÙĦ
ĠØ³ÙĨ ÚĪ
ĠØ´ÛĮØ± Ù¾
ĠØ§ÛĮÚ¯Ø² ÛĮÚ©Ù¹
ØªØ´ Ø¯Ø¯
ĠÙ¹ÙĪÙ¹ ÙĦ
ĠØ¹Ø´ Ø§Ø¦ÛĮÛģ
ĠØ¨Ø§ÙĨØ¯ Ú¾Ø§
ĠÛģØ§ÙĪØ³ ÙĨÚ¯
ÙħØ¹ÛĮ Ø§Ø±ÛĮ
ĠØ§ÛĮØ´ÙĪØ± ÛĮØ§
s t
ĠÙ¹ Ø±ÛĮØ³
Ø§Ø® ÙĦØ§ÙĤÛĮ
ĠÚĪØ§ÙĦ ÙĪ
ĠÙħÙĦÛĮ Ø±ÛĮØ§
ĠØ§Ø³Ù¹ ÙĪØ±Ø²
ĠÛģØ§Ø¤Ø³ Ø²
ĠÙĨØ¯ Ø§ÙħØª
Ø³Ú©ÙĪ Ø§Ø´
ĠØŃØ¨ Ø³
ĠØªÚ©ÙĨ ÛĮÚ©
ĠÚ©ÙĪÙĦÙħ Ø¨ÛĮØ§
ĠÚĨ Ú©ÙĦØ§ÙĦÛģ
ĠÙ¾ÙĪ Ù¾
ĠÚ¯Ú¾ ÙĪÚĳÙĪÚº
Ġ13 7
ĠØ§Ø³Ù¹ ÙĨÙ¹
ĠÚ©Ø§Øº Ø°ÛĮ
ĠÙħÙĨØ§Ùģ ÙĤØª
ĠØ¨Ø§Ø¤ ÙĦØ±Ø²
Ø¯Ú¾Ø± ÙĨÛĴ
ĠÙĤØ§Ø¯ÛĮ Ø§ÙĨÛĮÙĪÚº
ĠØ§Ø³Ù¹ÙĪ ÚĪÛĮÙĪ
ĠÙĨ ÙĨÚ¯
ĠÙ¾ ØªÚ¾
ĠØ´ ÙĪÛģ
ĠÛĮ Ø¤
ÙħÛĮ Ø§ÙĨ
ĠØµ Ø§
ĠØ¯ÛĮ ÙĪØ§ÙĦÛĮÛģ
ĠÚ¯Ú¾ ÙħÙĨ
ĠØ¨Ø®Ø´ ÛĴ
ĠÙ¾Ø±Ø³Øª Ø§Ø±ÙĪÚº
ĠÙĪÙĦÛĮÙħ Ø²
ĠÙ¾ÛģÙĨØ§ ÛĮØ§
ÙĨÙĪÙ¹ÛĮÙģ Ú©ÛĮØ´ÙĨ
ĠØ±ÛĮØ³ØªÙĪØ± Ø§ÙĨ
3 00
ØŃ ÙħÙĪØ¯
ĠÙĨÛĮ Ù¹ÙĪ
ĠÙĨÛĮÚ© Ù¹Ø§
ĠÙħÚĨ Ø§Ø¯ÛĮ
ĠØ®Ø§Ú© Ø³ØªØ±
ĠØ³ÛĮØ± Ø§Ø¨
ĠÙģÙĪÙĤ ÛĮØª
ÙĦ Ø§Ø´
Ø§ÙĨ ØªÛĮ
Ø§ÙĤ Ø±Ùħ
ĠØ®ÙĪ Ø§Øµ
Ø¨Ûģ Ø±ØŃØ§ÙĦ
ĠØ¹Ø¨Ø¯Ø§ÙĦ ÙħØ§ÙĦÚ©
ĠØ¬Ú¾Ú¯ ÚĳÙĪÚº
Ø§ÙĨØªØ¸ Ø§ÙħÛĮ
ĠÛģ Ø§Ø¦
ĠÛģ Ø¯ÛĮÛģ
ĠÚ©Ø± Ø§ÙĦÛĮØ§
ĠØ± Ø¹Ø¨
Ø´ Ø¯
ĠÙĦ Ø§Ø¦ÙĪ
ĠØ§ÙĨ Ø®ÙĦØ§Ø¡
ĠØ¨Ø± Ø§Ø¹Ø¸Ùħ
ĠØ´Ûģ ÙĪØª
ĠÙ¹Ø± Ø§ÙģÛĮØ§Úº
ĠÚ©Ø±ÛĮÙħ Ûģ
ĠØ¨Ø§Ø¯ Ø§Ùħ
ĠØ¨Ú¾Ø§Ú¯ ØªÛĴ
ĠÙ¹Ø§Ø± Ú¯
ĠÙģÙĦÙ¾ Ø§Ø¦ÙĨÛĮ
Ø§ÙĦ ÙĨÛĴ
ĠØ¬ÙĨ ØªØ§
ĠÛģØ± Ø§ÛĮØ§
ĠØ®ÛĮ Ø§ÙĦÛĮ
ĠØ¨Ø§ÙĦ Ø§Ø¦ÛĴ
ĠØ¹Ø¨Ø¯Ø§ÙĦ ÙĦØ·ÛĮÙģ
ĠØ±ÙĪÙħ Ø§ÙĨ
ĠÛ³Û ±
ĠÙģØ±ÙħØ§ÙĨ Ø§
ØªØµ ÙĪÛĮØ±
Ø§Ø®Øª Øª
ĠØ¯ÙĦØ¨Ø±Ø¯ Ø§Ø´ØªÛģ
Ø¨ Ø§Ø±ÛĴ
ĠÛ Ļ
ĠÙ¾Ø± ÙĨ
ØªÛĮ ÙĦ
ĠØ§Ø¯ ÙĪ
Ø§Ø¯ÛĮ Ø´
ĠÙĪØ§Ø± ÚĪÙĨ
ÙĨØ§Ùħ Ø²Ø¯
ĠØ§Ø³Ú©ÛĮ ÙħÛĮÚº
ĠØ§ÙĦØ§ÙĨ Ø¹Ø§Ùħ
ĠØ¹Ø§Ùģ ÛĮÛģ
ĠØ¨ Ø±Ú©
ĠØ¬ ÛĮÚ©Ø³ÙĨ
ÛĮÙħ Ø§
ĠØ° Ø§Ø¦ÙĤ
ĠÙĨÙĤ ÙĦÛĮ
ÙĨØ§Ûģ ÛĴ
Ġ16 2
ĠØ§ÛĮØ¬Ø§Ø¯ Ø§Øª
ĠÙĨ ÙĤÛĮ
ĠÚ©ÙĪ ÙĨØ³Ø§
ĠØ§Ø³ ÙĦØ§
ÙĦÛĮ Ù¹Ø³
ÙĦÛģ Ø°
ÙĨÛĮ ÙĪÚº
Ø±Øª Ú¾
ĠÙĨÙĪØ¬ÙĪ Øª
Ø§Ù¹ Ø§Ø±ÙĨÛĮ
Ø¨ØŃ Ø±
ĠØ¨ÙĪ ÙĤØª
ĠØ¨ÙĪØ± ÛĴ
ĠØªØ¯ Ø¨Ø±
ĠØºØ§Ø²ÛĮ Ø®Ø§ÙĨ
ĠÙĪØ¨ Ø§Ø¦ÛĮ
ÙĪØ§Ø¦Ø± Ø³
ĠØŃØ§Ø´ ÛĮÛģ
ÙĨ Ø§ÙĨÛĮ
ĠØ¨ ÛĮØ§
ĠØŃ Ø°ÛĮÙģÛģ
ĠÙħØŃ Ø§ÙģÙĦ
ĠØ¨Ø± Ø³Ø§
ÙĪÛģ ÛĮØ¨
ĠØ¨ÚĨ Ø§ÙĪ
ĠØ¯Ûģ Ø±ÛĮ
ĠÙĦÚĳ Ø§
ĠÙ¾Ú¾ÛĮ ÙĦØ§ÛĮØ§
Ġ16 5
ĠÚ¯Ø±ÛĮ Ø¬ÙĪ
ĠØ¯Ú¾Ø± ÛĴ
ĠØ§ÛĮÙ¾ Ø³
ĠÛģØ§Ø¦ÙĪØ³ Ø²
ĠÙĨØ§Ø³ Ø§
ĠØ¨Ø§ÙĨÚĪ Ûģ
ĠÙ¾Ø§ØªÚ¾ ÙĪÚº
Ø§ÛĮÚ¯Ø² ÛĮÚ©Ù¹ÙĪ
ĠÙħÙĪØ¯ ÙĪØ¯ÛĮ
ĠØ§ÙģÛĮ ÙĪÙĨ
ĠØ³ Ø§Ø¦ÛĮ
Ø¦ Øª
ĠÙ¾ÛĮ ÙħØ§
Ú©ÙĪ Ø§Ø±
ĠÙħØ±Ú© Ø¨
ĠÙĨÙħØ¨Ø± ÙĪÚº
ĠØ³Ø² Ø§Ø¤Úº
ÙħØ° Ø§Ú©Ø±Ø§Øª
ĠØ´Ø¨ ÙĦÛĮ
ĠÚ¯Ú¾Ù¹ ÛĮØ§
Ù¹ Ú©Ù¹
Ùģ Ø§Ø¶ÙĦ
ĠÚ©ÙĪ ÙĦØ§
ĠÙ¾Ø± Ûģ
ĠÙ¾Ø± Ú©Ú¾
ĠØ®ÙĪ Ø§ÛģÛĮ
ĠØ±ÙĪØ² ÙĨØ§ÙħÛģ
ĠØ¬ÛĮ Ø³ÙĨ
ĠÙģØ§Ø± ÙĪØ±ÚĪ
ĠØ¬ÙĨÚ¯ ÙĪÚº
Ġ15 5
ÙħÙĤ Ø¯ÙħØ§Øª
ĠÚ©ÛĮÙĪ Ø¬Ûģ
ĠØ¨ÙĪÚĳ Ú¾Ø§
ĠØ«ÙĤÙĦ ÛĮÙĨ
r o
ĠÚ©Ûģ Ø¦ÛĴ
ĠØ´ Ø§Ù¹
ÙĪÙĨ ÚĨØ±
ĠÚĪ ÙĪÛĮÙĦ
Ø§Ùģ Ø§Øª
ĠØªÛĮ ÙĪÙĨØ³
Ø¬ÙĨ Øª
ĠÚ©ÙħÛĮÙ¹ÛĮ Ø²
Ø¨Ú¾ Ø¬ÙĪ
ĠØ§ÙĦÙħ Ø¬
ĠØ§ÙĦÙħ Ø·
ĠØ¢Ù¾Ø±ÛĮ Ù¹Ø±
ĠØªÚ¾Ø± Ø§Ù¾ÛĮ
ĠØ±Ùģ Ø¹Øª
ĠÚ©ÙħØ²ÙĪØ±ÛĮ ÙĪÚº
ĠÙħÚ©ÛĮ Ø´
Ø³ÚĳÚ© ÙĪÚº
ĠÙ¾Ø±ÛĮØ² Ø§Ø¦ÛĮÚĪÙĨÚ¯
Ø§ÚĨ Ø§ÙĨÚ©
ÙĦØ§Ú©Ú¾ ÙĪÚº
Ø¯ ÙĤ
ĠÙħÛĮÚº Ø¨Ú¾ÛĮ
Ø§ÙĨÛĮ Ø³
ĠÙĦÚ¯ Ø§Ùħ
ĠØŃÙħ Ø§ÙĤØª
20 15
ĠÙģÙĪØ± ÙħØ²
ĠØ²ÛģØ± ÙĪÚº
8 7
Ø¬ ÙĪÛģ
ĠÙĦ ÙĦØ¨
ĠØ´ Ù¹Ø±
ĠÚĪ ÛĮØ±ÙĨ
ĠÙħÙĨ ÚĪ
ĠØ¨Ûģ Ø±Ûģ
ĠØ´Ú©Ø§Ø± Ù¾ÙĪØ±
ĠÛĮØ§Ø¯ ÛĮÚº
ĠÙĤØ§Ø¦Ø¯ Ø§ÙĨÛģ
Ġ24 7
Ø¢Ø¦ ÛĮÙĨÛĮ
ØŃÙĤÛĮ ÙĤÛĮ
ĠØ¨Øµ Ø§Ø±Øª
ĠØ´Ø§Ø® ÙĪÚº
ĠÙħØµØ¯ ÙĤ
Ø¬Ø±Ùħ ÙĨÛĮ
ĠÛģ Ø§Ø±ÚĪ
ĠØ¨ Ø§Ûģ
ĠÚ©Ø± Ø§Ù¹ÛĴ
ĠÙĤ ÙħØ¹
ÙĪÙĦ Ú©
ĠÙĦÛĮ ÚĪØ±Ø²
ĠÙĪØ²ÛĮØ± Ø§
ĠØ¹ÙĦØ§ÙĤÙĪÚº ÙħÛĮÚº
ĠÙ¹ÙĪ Ú©ÛĮÙĪ
ĠØ¢Ùħ Ø§Ø¯Ú¯ÛĮ
ĠÛģÚĳ Ù¾
ĠØ¹Ø´ Ø±Ûģ
ĠØ¨ÙĨÙĪ Ø§ÙĨÛĴ
ĠØ§ÙĨÙĪ Ø§Ø¹
ĠÙħØµØ§ÙĦØŃ Øª
ĠØ²Ø§ ÛĮØ¯
ÙħØ³Ø§Ùģ Ø±ÙĪÚº
ĠÛĮÙĪÙ¹ÛĮÙĦÛĮ Ù¹ÛĮ
ĠÚ© Ø§Ø³ÛĮ
ĠÙĨ ÙĦ
Ø¨ Ø±ÛĮÙĨ
Ø§ÙĨ ÚĪØ±
ĠØ± Ú©ÛĮ
Ø§ÙĦ Øº
ĠÙ¾Ø± Ú¯
ĠÛĮ Ø¬
ĠÙħÛĮ Ù¹Ø±Ø²
ĠØ³Ø± Ø§Ø¦ÙĪÚº
ĠØ§Ø³Øª Ûģ
Ø¬ÛĮ Ø³
ÛģÙĪ ØªØ§
Ø±ÙĪØ² Ú¯Ø§Ø±
ĠØ§Ø¶Ø·Ø± Ø§Ø¨
ĠÙħØªØ¶ Ø§Ø¯
Ø§ Ûĥ
Ø± ÙĤÙħ
Ø´ Ø¯Ûģ
ĠØ§Ø³ Ú¯ÛĮ
Ø§Ø³ ÛĮÙĨ
ÙĨØ² Ûģ
ĠÙģÛģØ±Ø³Øª ÙĪÚº
ĠØ³Ø±Ø¯ ÛĮÙĪÚº
ĠÚ©ÛĮÙĦ Ø´ÛĮÙħ
ĠØ§ÙĨØ´Ø§ Ø§ÙĦÙĦÛģ
Ùħ ÙĨØ§
ĠÚ©ÙĪ Ù¾
ĠÙħÙģ Ø±ÙĪ
ĠØ®Ø¯ Ø´ÛĴ
ÙĦÛĮØ§ ÙĤØª
ÙĪ Ø§Ø¬Ø¯
ĠÙĪ Ø§ÙĨØ§
ĠØ§ÙĨ ÙĤØ±Ûģ
ĠØ§ÙĦ Ø¢
ĠÙģØ± Ø¹
ĠÚ¾ ÙĪØ¯
Ø¨ÛĮØ± ÙĪÙĨÛĮ
ĠÙ¹Ú¾ÛĮÚ© ÛĮØ¯Ø§Ø±ÙĪÚº
ĠÙĪØ¬ Ø§ÛģØª
ĠØ´Ø§Ø¦ Ø³ØªÛģ
ĠÙģØ§Ø³ ÙģÙĪØ±Ø³
ĠØªÙħÙĨ Ø§Ø¤Úº
ĠÙħØ·ÛģØ± Ø§Øª
ĠØ¹ Ùģ
ÙĪÙħ ÙĦ
ÙħØ± Ø§Ø¡
Ú©Ø§Ø± ÚĪ
ĠÙħÚ© Øª
ĠÚ©ÙĨ Ú©Ø±ÛĮ
ĠØ±Ø§Ûģ Ú¯ÛĮØ±
ĠØ¯Ø³Øª Ø¨Ø±Ø¯Ø§Ø±ÛĮ
ĠÙ¹Ø± Ù¾
ĠÙĨÙĪØ± ÛĮÙĨ
µÛ ²
ĠØªØ® ÙģÛĮÙģ
ĠØ§Úĳ ÙĨÛĴ
ĠÚ©ÙħÛĮÙĪÙĨ Ø³Ù¹
ĠÙħÙĤØªÙĪÙĦ ÛĮÙĨ
ĠÙĨØ§ÙĦ Ø§Úº
ĠÙ¾ÙĨÛĮ Ø±ÛĮ
ĠØªÙĪÙĨ Ø³Ûģ
ÙħØ±Øª Ø¶ÛĮ
ĠØ±Ø¯Ø§ÙĦ ÙģØ³Ø§Ø¯
Ø³ Ø³Ù¹Ùħ
ÙĤ ÙĪØª
ĠÚ¯ ÙĪØ¨Ú¾ÛĮ
Ø´ Ú©ÛĮÙĦ
ĠØŃ Ø§ÙĪÛĮ
ĠØ´Ûģ Ø±Ûģ
ÙĪÙ¹ Ûģ
ĠØ³ÙĦ Ø§Ø¦ÛĮ
Ø±ÛĮØ³ Ø§ÙħÛĴ
ĠØ±ÛĮÙ¹Ø± ÙĨ
ĠØ³ÛĮÚ©Ú¾ ÙĨØ§
ĠÙĨÚ¯Ûģ Ø¨Ø§ÙĨ
Ùħ ÚĨ
ĠØ® ÛĮÙħ
ĠØ§ÙĦ Ú¾
ĠÙĦÛĮ ÚĪÛĮØ²
ĠÙģØ± Ø§Ø®
ĠØ§ØŃ ÛĮØ§Ø¡
ĠØ¬Ùħ Ø±ÙĪØ¯
Ø³Ùħ ÙĨØ¯Ø±
ĠâĢĿ ÛĶ
ĠÙĨÙħØ§Ø¦ Ø´ÛĮ
Ġ26 0
ĠÙħØ³ÛĮ ØŃÛĮ
ĠÙĪØ¹ Ø¸
ĠÚ©Ù¹Ú¾ ÙĪØ¹Ûģ
ĠØ¨ÛĮØ§ÙĨÛĮ ÛĴ
ĠÙģØ² Ú©Ø³
Ġ Ú¾ÛĮ
ĠØ§Ø³ Ø·Ø±ØŃ
Ø§ÙĤ ÙĦÛĮ
ĠØŃØ¶ Ø±ÙĪ
Ġ14 6
ĠØ¨Ø±ÛĮ Ø³Ù¹
ĠØ¨Ø§Ø¨ Ø§Ø¦ÛĴ
ĠÙ¾ÙĪÚĨÚ¾ ÙĨØ§
ĠØ§ÙĦÙģ Ø±Ø¯ÙĪØ³
ĠØ¨Øº ÙĪØ±
ÙħØ¸ÙģØ± Ú¯ÚĳÚ¾
ĠÙ¾Ø´ØªÙĪÙĨ Ø®ÙĪØ§
ĠÛģÙĨ Ø±Ùħ
ĠÙģØ±Ø³ ÙĪØ¯Ûģ
ĠÙħ Ø§Ø¯Ú¾ÙĪØ±ÛĮ
Ø¯ Ú©Ø§ÙĨ
ĠØ¬ÙĪ ÚĳÙĨÛĴ
Ú¾Ø± Ø§ÙĨÛĮ
Ø§ØŃ ÛĮ
ĠØ¶ Ø¹Ùģ
Ø§ÙĪØ± ÛĮÛģ
ÙĪÙ¹ ÙĦ
ĠÙħÛĮÙĨ ÙĪ
ĠØ§Ù¹Ú¾ Ø§Ø±
ĠØ§ÙĨØ¬ Ú©Ø´ÙĨ
ĠÙĦØ§ Ú¯
ĠÚ¯Ø±ÙĪ ØªÚ¾
Ø§ÙĨØ³ Ûģ
ĠÙĤØ±Ø¨ Øª
Ø³Ù¾ÙĦ Ø§Ø¦ÛĮ
ĠÙħØ¤ Ø®Ø±
ĠÙĨØ±Ø³ Ø²
Ø¯Ø³ØªØ§ÙĪÛĮØ² Ø§Øª
Ø¨ Ø§Ø¦ÛĮ
Ø§Ø± Ø§Ú©ÛĮÙĨ
ĠÙĪ Ø³ÙħØ§Ø¬ÛĮ
ĠØµ Ø§Ø¨ÙĨ
ĠÙ¾Ø§Ú© Ø±
ĠÙĤØ± Ø£Øª
ĠØªÙĤ Ø±ÛĮØ±ÛĮ
Ø¨Ú¾ Ù¹ÙĪ
Ø±ÙĪØ³ Ø§ÙģÙ¹
ÙĪØ§ÙħÛĮ Ù¾
Ø§Ø¨ÙĦ Ø³
ĠÙ¾ÛĮÙĨ Ø´ÙĨ
ĠÛ´Û ±
ĠÙ¾ÙĦÛĮ Ø¬ÙĪ
ĠÙ¹Ú¾ÙĨÚĪ Ú©
Ø³ Ú©Ú¾
Ø¨ Ú¾Ø§
ĠÙ¾ Ø§ØªÛĮ
ĠÙģ Ø±ÛĮØ²
Ø® ÙĪØ§ÙħÛĮÙ¾
Ø§Ùģ ÛĴ
Ø§Ø¹ ÙĪØ§ÙĨ
ĠÙħØ³ ÙħØ§
ÙħÙĨ Ø´ÛĮØ§Øª
ĠØ³ÛĮÙĨ ÚĪ
ĠØ±Ø§Ûģ ÙĪÚº
ĠÙģØ§Ø±Ùħ ÙĪÙĦÛĴ
ĠÙĦØ§Øª Ø¹ÙĦÙĤÛĮ
ĠØ¢ÙĪ Ø§Ø±Ûģ
ĠØ·Ø¹ ÙĨ
ĠØ³ÛģØ± Ø§Ø¨
ÚĨ ÙĪ
Ø¬ ÙĨÛĮØ¯
ĠØ² ÙĪØ¬
ĠØŃØ³ ÛĮÙĨÛĮ
ĠÙħØ§Ø± Ø¬ÙĨ
ĠØ¯Ø§Ø± ÙĪ
ĠØ¬Ú¾ Ú©Ø§
ĠÙĪØ§Ù¾ ÚĪØ§
ĠØ®ÙĪØ§ÛģØ´ ÙĪÚº
ĠÙħÛģÙħØ§ÙĨ Ø§ÙĨ
ĠÚĪÛĮÙĨ Ú¯ÛĮ
ĠÙģØ§Ø±ÙħÛĮ Ø³ÛĮ
8 3
ĠØ± Ø¤Ùģ
Ù¾ Ø§Ø¦Ù¾
ÙĦÛĮ Ø¨
ĠØ¯ÛĮ Ù¾ÛĮÚ©Ø§
Øº Ø±Ø¨Øª
ĠÙĨÙħ Ø¨Ø±ÛĮ
ĠØ§ÙĨØªØ® Ø§
Ġ12 1
ĠØ¨Ø±Ø§Ø¯Ø±ÛĮ ÙĪÚº
ÙĨØ§Ùħ ÙĪÚº
ĠÙģØ±ÙħØ§ÙĨ Ø±ÙĪØ§
ĠÙħÙĪØ§ØµÙĦ Ø§ØªÛĮ
ØªÙģØµÛĮ ÙĦØ§
ØµÙĨ Ø¹Øª
Ø¨ Ø¯Ø§Ø¯
ÙĪØ± ÛĮÙĨ
ĠÙ¾ Ø¦ÛĮÚº
Ú©Ûģ ÙĨÛĴ
ÙģØ± Ø§Ø±
ĠÛģÛĮ Ø¨Øª
ĠØ¨Ûģ ÙĨÛĴ
Ø¬Ú¾ ÙĦ
ĠØ±Ø³ Ø¯
ĠØ¨Ø¯ Ú©Ø§Ø±ÛĮ
ĠÚ©Ø±ÙĨÛĮ ÙĪØ§ÙĦÛĮ
ĠÛģÙ¹ Ø§Ø¦ÛĴ
ĠÙģØ³ ÙĤ
ĠØ¯ ÛĮØ¯Ûģ
ĠÙĦ Ø§ØŃ
ĠÙ¹ Ú©ÚĳÙĪÚº
ĠØº ÙģØ§Ø±
ĠØ¬Ûģ Ø§
ÙĨÙĪ ÛĮØ¯
ĠÚ¯ÙĦ ÛĮÚ©Ø³ÛĮ
ĠÙ¹ÛĮØ³Ù¹ ÙĨÚ¯
ĠÚĪÚ¾ Ø§Ú©Ûģ
ĠØµØ¯ÛĮ ÙĤÛģ
°Û ¶
ĠÚ©Ú¾ÙĦ Ø§ÙĨÛĴ
ĠÙħØ§Ùħ ÙĪÙĨ
ÙĦ ÙĪÙĨ
ÙĦÛĮ Ù¹ÛĮ
ĠØ¯ÛĮ ÙĪØ§ÙĦÛĮ
ĠÙ¾ÛĮ Ù¾
ØªÙħ Ø§Ø¯ÛĮ
ĠØ§ÙĪ Ø¨Ø±
ĠØ±Ø¨ ÙĪØ¨ÛĮØª
ĠØŃÛĮ Ø§ØªÛĮ
ĠØŃØ§Ø¬ ÛĮÙĪÚº
ĠØ¨Ú©Ø± ÛĴ
Ġ g
Øª Ø¹Ø¯Ø§Ø¯
ĠÚ©ÛĮ Ø¬
ĠØª ÙħÛĮÙħ
ĠØ¯ ÙĨÚ¯
ĠØ± Ø¬Ùħ
ĠØ± Ø§Ø¦ÛĮÚĪ
ĠØ¢ ÚĪÛĮÙ¹Ø±
ĠØ¹ Ú©Ø±ÙħÛģ
ĠØµ Ø§ØŃØ¨Ûģ
ĠØ¨ÛĮ Ø²
ĠØ±ÛĮ Ø§Ø¶ÛĮ
ĠØ´ÛĮ Ù¹Ú¾ÛĮ
ĠØ¨ÙĦØ§ Ø§Ø´ØªØ¹Ø§ÙĦ
ĠÙĪÙĪ Ú©ÛĮØ´ÙĨÙĦ
ĠÙģØ±ÛĮ ÚĪÙħ
ĠÙ¾Ø³ ÛĮÙĨÛģ
ĠÛ³Û °
ĠÚ©Ø±ÙħÙĨ ÙĦ
ĠØ¢Ø³Ø§Ùħ ÛĮØ§Úº
Ú© Ø¨Ø§Ø±
ĠÙħ Ø³Ø±ÙĪØ±
Ú¯ Ø§ÙĨÛĴ
Ø¹ Ø°Ø§Ø¨
ĠØ± Ø§Ø¦ÙĪÙĨÚĪØ±
ĠÙģ Ú©Ø´ÙĨ
ĠÚĨ Ø³Ù¾
ĠÚĪ ÛĮØ±
Ø¶ ØŃÛĮ
Øº Ø²
ĠÙħØ³ ØŃ
ÚĨÚ¾Ø§ Úĳ
ĠÚ¯ÛģØ± Ø§Ø¦ÛĮÙĪÚº
ĠÙħÛĮÚ©ÙĨ Ø²Ùħ
Ú¯ Ø¦ÛĮÚº
ĠÙħÛĮÚº Ú©ÛģØ§
ÙĨØ¯ Ø±ÛĮ
ÙĨÙĪ Ø¹
ĠØ´Ø± Ø¹
ĠÙģÛĮØ³ Ú©ÙĪ
Ú©ÙĪÙĦ ÙħØ¨ÙĪ
ĠØ±Ø§ÙĨ Ø¬Ú¾Ø§
ĠØ¬Ø§Ø¯ÙĪÚ¯Ø± ÙĪÚº
Ø§Ø¦ ÙĨØ§
ĠØ´ Ø´Ùħ
Ø§Ø¯ Ûĥ
Ø· Ø§ÙĦØ¨Ø§Øª
ĠÚ©Ø§Ø± Ø¨
Ø³Ù¹ Ø§Ø¦ÙĦ
Ø¯ÛĮ ØªÛĴ
ÙģØª Ø§ØŃ
Ø±ÛĮÚ© ÚĨØ±
ĠÙħØ² Ø§
ĠØ´Ø§Ûģ ÙĨÙĪØ§Ø²
ĠÚ©Ø§ÙĦ Ø§Ø¨Ø§Øº
ĠÙħØ§ÙĨ ÚĪÙĪÛĮ
ĠÙ¹ÙĪ Ø§Ø¦ÙĦÙ¹
ĠÚ©ÙĪÙĦ ÙĨ
ĠÙ¾Ø§Ù¾ ÙĪÙĦÛĮØ´ÙĨ
ĠØŃØ³ÛĮ Ø¨
ĠØ¯ Ø§Ûģ
ĠÙħÛĮÚº Ø§ÛĮÚ©
Ø´ Ø®Øµ
ĠØµ ÙĪÙĦØª
ĠØ¨Ø± ÙĤØ¹
ÛĮØ§Ø¯ ØªÛĮ
ĠØ¢Ø± ÚĪ
ĠØ¨Ø¬ Ø²
Ġ15 6
ĠÛ´Û ³
ĠØªÚ¾Ø§Ùħ ÛĴ
ĠÙĦØº Ø²
ĠÚ©ÙħØ§ÙĨÚĪ ÙĪØ²
ĠÙħØ¨Ø§ØŃØ« ÛĴ
Ġ d
ĠÚ© Ø´ØªÛĮØ§Úº
ĠÛģ Ø§Ø¯ÛĮ
ĠÙ¾ ØªÚ¾Ø±ÛĮ
ĠØ¬ÙĨ ØªÙĪÚº
ĠÚ©Ú¾ Ù¾Øª
ÚĨÛĮ ÚĨÛģ
ĠØ®ÙĪØ¯ ÙħØ®ØªØ§Ø±
ĠÚ¯Ø± Ø§ÙģÛĮ
ĠØ§Ø´ Ø§Ø±ÙĪÚº
ĠÙģØ§Ø± ÙħØ±Ø²
Ġ24 5
ĠØ¶ÙħØ§ÙĨØª ÛĮÚº
¸Û ±
ĠÙĨØ§Ø¯ ÛĮÛģ
ĠÙĦÛĮØ¨Ø§Ø±Ù¹Ø±ÛĮ Ø²
ĠÙĦØ§Ø± Ø¬Ø±
ĠÚ©ÛĮ Ø¨
ĠØ¬ Ø¯Ø§Ø¦ÛĮ
ĠØ® Ø§Ø²ÙĨ
Ø´ÛĮ Ø®ÙĪÙ¾ÙĪØ±Ûģ
ĠØ§ÙĦØŃ Ø±ÙħÛĮÙĨ
ÙħØŃ Ø³ÙĨ
ĠÚ¯ÛĮÙĦ Ø±ÛĮ
ĠÙħØ§Ø³ Ú©ÙĪ
ĠØ¹Ø§Ø± Ø¶Ûģ
Ġ197 0
Ġ198 8
ĠØ¨Ø³Øª Ø±ÙĪÚº
ĠØ§ÛĮØ¦Ø±ÙĦØ§Ø¦ÙĨ Ø²
ĠÙħØµÙĦ ØŃ
ĠØ¨Ø±Ø§Ø¯Ø± Ø§ÙĨÛģ
Ø¢Ø³ ÙħØ§ÙĨ
ĠØ§ÙĦØ§Ø¹ Ø±Ø§Ùģ
8 1
i v
ĠÚ© ÚĳØ§
ĠÚ© Ø§Ø¦Ø±Ûģ
Ø§Øª Ûģ
ĠØ§ÙĨ Ø§Ø¦ÛĮØ§Úº
ĠÙ¾Ø± ÚĨÛĮÙģ
ÙĦÙĤ Ø¯
ĠØ³ÙĪ Ù¾ÙĪØ±
ĠÙĤØ± Ø§ÙĤØ±Ùħ
ÙĤÛĮÙĤ Ûģ
ĠØ§ÙħØ±ÛĮÚ©ÛĮ ÙĪÚº
ĠØ¯Ø³Øª Ø±
ĠÙ¹ÙĪ Ú©ÙĨ
ĠØµÙĨØ¹Øª Ú©Ø§Ø±
ĠØºØ° Ø§Ø¤Úº
ĠÙĦÛģØ± ÙĪÚº
ĠÙĨØ§Ú©Ø§ÙħÛĮ ÙĪÚº
ĠØ¯Ø¹ÙĪ ÙĪÚº
ĠÚ¯ÙħØ´ Ø¯Ûģ
ĠÙ¹Ø±Ø§ÙĨØ³Ù¾ÙĦØ§ÙĨ Ù¹
5 1
Ø¨ ÙĪÙĦÛĮ
ĠÚ©ÙĪ Ú©ÙĨÚ¯
ĠÙĦ ÛĮÙĨØ³
ĠØ§ÙĦ Ù¹ÙĨÛĴ
ĠØ² ÙĨÚ¯
ĠÙħÙĪ ÛģÙĨ
Ø« Ø§ÙĦ
ĠØ¨ÛĮ Ø®
ĠØ±ÛĮ Ø³ÙĦØ±
ÙħÙĨÙ¹ ÙĨ
Ġ19 0
ĠÙģÙĦ ÙĪØ±ÛĮÚĪØ§
ĠØ¨Øª ÙĦ
Ù¾ÙĪÙĦÛĮ ÙĪ
ĠØ¨Ù¹ ÙĪØ±
ĠÙ¾ÛĮÙĨ ØªØ§ÙĦÛĮØ³
ĠØ´Ø¨ Ø§ÙĨÛģ
ĠØ¹Ø´ Ø±ÙĪÚº
Ø´Ø§Ø± Ø¬Ûģ
ĠØ¨Ø§Ø¦ ÙĪÙĦØ±Ø²
8 9
ĠÙ ĸ
Ø³ Ø®Øª
ĠÙĪ Ú©Ø§ÙĨ
ĠØ¢ Ø¨Ø±ÙĪ
ĠØ® ÙĨØ¯
ĠÙħÙĨ Ø³Ù¹Ø±ÛĮ
ĠØ¨Ú¾ Ù¹ÛĮØ§Úº
ÙĨÙĪ Ø¦ÛĮ
ĠÛģÛĮÙĦ Ø±ÛĮ
ĠÛ²Û ¹Û
ĠÛģÛĮØ± Ø§
ĠÚ©Ù¹Ú¾ ÙĨ
ĠØªØ§Ø¯ÛĮ Ø¨ÛĮ
Ú© Ø§Ø³
ĠÚ©ÛĮ ØªÚ¾
Ø¹ Ø·ÙĦ
ØŃ ÙĨÛĮÙģ
ĠØ§ÙĦ Ù¹ÛĴ
ĠÚ©Ùħ Ø§Ø¦ÛĴ
ĠÚ©Ø§Ø± ÙĦ
ÙĪÚĨ Ø±
Ø§Ø¦ÛĮÚ© ÙĪ
ĠÛ²Û ¸
ĠØµÛĮ Ø§Ùħ
ÚĪÚ¾ Ø§Ú©Ûģ
ĠØ³ ÙĦÙħ
ĠØ¬ Ø§Ø¦ÛĮÙĨ
Ù¾ Ø±Ø¯ÛĮ
ĠØ§Ø³ ÙĨÚ¯
ĠÙ¹ Ùģ
ĠØ² Ø¨Ø±
Ġ( (
ÙĪØ±Øª Ú¾
ÙĦÙħ ÙĨØ¯
ĠÙħØ³Øª ØŃØ¨
ĠØ¦ Ùħ
ĠÙħÙĦØ§Ø² ÙħØ§ÙĨ
ĠØ§ÛĮÚĪ Ùħ
ĠØ³Ù¹ÛĮ Ù¹Ø³
ĠØ¯Ø¨ Ø§ÛĮØ§
ĠÙ¹Ø±ÛĮÙĨ ÚĪ
ĠØ³Ø¬ Ø§Ø¯Ûģ
ĠÙħØ¹ÛĮØ§Ø± Ø§Øª
ĠÚ©Ú¾ÙĦ ÛĮÚº
Ø¢Ø± Ù¹Ø³
ĠØªØ¹ÛĮÙĨØ§ØªÛĮ ÙĪÚº
ĠÛĮÚ©Ø³ ÙĪ
ĠØ¨Ø§Ø³ Ø·
Ù¹Ø±ÛĮÙĨ ÙĨÚ¯
Ġc om
Ø¨ Úĳ
ĠØ¬ ÛĮÙĨØ²
ĠØ§ÙĦ Ø¯Ø¹
Ø´ÙĨ Ú¯Ú¾
Ø±ÙĪ Ø¬
ÙħÙĦ Ø§Ø¦ÛĮ
ĠÙħÛĮ ÚĪÛĮÙ¹
ĠØº ÙĨÚĪÛģ
ĠÚ©Ø§Ùħ ÙĦÛģ
Ø§Ø¡ Øª
ĠÙ¹ÛĮ Ù¾
ĠØ¹ÙĦÛĮÛģ ÙħØ§
ĠØ¬Ûģ Ø§ÙĨÙĪÚº
ĠØ´Ùħ ÙĪÙĦÛĮØªÛĮ
ĠÙĪÙĤ Ø§ÙĦ
ĠØ²Ø¨Ø§ÙĨ ÛĮÚº
ĠÙĦØº ÙĪ
ĠÚ©ÙĨÚ©Ø´ÙĨ Ø²
Ø¨Ø´Ø± Ø·ÛĮÚ©Ûģ
ĠÙĨ Ø§ÙĦÛĮ
ĠÙĦ ÙħØ§
Ø§Øª ÛĮØ±
Ø§Ø¯ Ú¾Ø§Ø±
Úĳ ÙĪÙĦ
ĠÚĪ Ø±Ùħ
Ø§Ø¹ ÙĦØ§ÙĨ
ĠØ¨ÙĨ Ø§ÙĨÛĮ
ĠÚĨÚ¾ ÛĮÙĨØ§
ĠØ¬Ú¾ Ø§ÙĨÚ©
ĠØ±ØŃ ÙħÛĮ
ĠÙĪØ³ Ø§ÙĨ
ĠÙ¾Ø®ØªÙĪÙĨØ®ÙĪ Ø§Ú©ÛĴ
Ø®Ø§ÙĨ Ø¯Ø§ÙĨ
5 9
ÛĮ ÙĪÙĨÛĮ
Ú©ÛĮ Ø³ÛĴ
ĠÚĪ ÛĮØªÚ¾
Ø§Ø¬ ØªÙħØ§Ø¹
Ø¢ ÙģØª
ĠØªØŃ Ø§Ø´Ûģ
ĠÙĨØ¸ Ø§Ø±Ûģ
ĠØ´ÛĮ ÚĪ
Ø§Ø¦Ùħ Ù¹
ĠÚĨÙĪÛģ ÛĴ
ÙĦØ² Ùħ
ĠÙģÙĨ ÙĪÙĨ
ĠÙĪÛĮÙĦ Ùģ
ĠÙħØ¬Ø¨ÙĪØ± Ø§
ÙħØ§Ø± ÚĨ
ĠÙģØ±ÙĤ Ø§ÙĨ
ØŃØµ Ûģ
ĠØ¢Ø²Ùħ Ø§Ø¦ÛĮ
ĠØ¢Ø±Ú¯ÙĨ Ø§Ø¦Ø²ÙĨÚ¯
Ø§Ø®Ø± Ûĥ
Ø·Ø§ÙĦØ¨ Ø§ÙĨ
ĠÙĨØ§ÙĪ Ø§ÙĤÙģ
Ø¯ ÙĪØ¯Ú¾
ĠØ³ Ø§ÙĪ
ĠÚ¯ ÙĨÙĪ
Ø§Ø¬ ÙĨ
ÙĪØ³ Ø§Ø¦ÙĦ
Ú©ÙĦ Ø¨Ú¾ÙĪØ´ÙĨ
ĠØ¯Ø¹ Ø§Ø¦ÛĮÛģ
ĠÚĨÚ¾Ù¾ ÙĨÛĴ
ĠÛ´Û ²
ĠØªÙĤØ§Ø¶ Ûģ
ĠØ³ÙĨØ¨Ú¾Ø§ÙĦ ØªÛĴ
ĠÙĪÛĮÙĨ Ù¹ÛĮ
Ø§ ÚĨÚ¾Ø§
ĠØ§ÙĨ ØªÛĮØ³
ĠÙ¾Ø± Ø¨Ø§Øª
ÛĮØ± Ø§Øª
Ø· ÙĪØ±
ĠØ¬ÙĨ Ø±ÛĮØ´ÙĨ
ĠÚĨÚ¾ ÙĪÙĨÛĴ
ĠØ³ÙĦ Ø§Ø¦ÛĮÚĪÙĨÚ¯
ĠØ¨Ø§ÙĦ Ø§Ú©ÙĪÙ¹
ĠÙĤØ±ÛĮØ¨ Ø§
Ø³Ú© ØªØ§
ĠØ¨Ø§Ø¦ÛĮ ÙĪÙ¹
ØŃØ± Ø§Ø³Øª
Ú©Ù¾ Ø§Ø³
Ø´Ùģ ÙĤØª
ĠÚĨÙĪÚ©ÛĮ Ø¯Ø§Ø±
ĠØ´Ú©ÛĮ Ø¨
Ùħ Ø§Ø±ÛĮ
ĠØ± ÛĮÛģ
Ø· ÙĨ
ĠØ¯ÛĮ ÙĪÙĦ
Ø§ÙĪØ± ÙĪÛģ
ĠØ³Ø¨ Ø§
ĠÙĦÛģ Ø¬ÛĴ
ĠÚĨØ± Ø§ÙĨÛĴ
ĠÙħÙĨÚ¯ ÛĮØªØ±
ĠØ¨Ø§Ø§ÙĦ Ø®ØµÙĪØµ
ĠÙħ Ø±Ø¯Ø§Ø±
ĠØ¯ Ø±Ú©
Ù¾ ØªÛģ
ĠØ¹ ÙĪ
Ø® Ø´Ú©
ĠØ¬Ø§ÙĨ ÙĪ
ĠØ¹ÙĦÛĮ Ú¾Ùħ
ĠØ¨ÚĨ Ø§Ø¦ÛĮÚº
ĠØ§Ø¬ Ø§Ø±Ûģ
ÙĪÙĨÛĮ Ø¦Ø±
ĠØ´Ø§Ûģ Ú©Ø§Ø±
ĠØ±Ø³ Ø§ÙĦ
Ġ7 50
ĠÙĪØ± Øº
ĠÙģØ¶ ÙĦÛģ
ĠØ³Ù¹ Ø§ÙĦ
ĠØ²ÙĪØ± Ø¯Ø§Ø±
ĠÙĪÙĦ Ú©ÙĨ
Ø±ÛĮØŃ Ø§Ùħ
ĠØ³ÙĪÙĨ ÛĮØ§
ÚĨØ§Ø± Ø³Ø¯Ûģ
ĠÙĪØµÙĪÙĦÛĮ ÙĪÚº
ÙĪÙĪ Ú©ÛĮØ´ÙĨ
ĠÚ¯Ú¾ÛĮØ± Ø§Ø¤
ĠØ¢Ø´ ÙĨØ§
Ø´ÙĨÚ¯Ú¾ Ø§Ø¦ÛĮ
Ø§Ø± ÙģÛĮ
ĠØ§ÙĦ Ø¬Ø¨
ÛĮÛģ ÙĤÛĮ
ĠØ¬Ø§ÙĨ Ø´ÛĮÙĨ
Ø¨ÙĪ Ø§
ĠÚĨÚĳÚ¾ Ø§ÛĮØ§
ĠN A
ĠÙĨØ³Ø® ÛĴ
8 4
Ùħ ÙĨØ§Ùģ
Ú¯ ÙĦÙĪ
ĠÙĨ Ø§ÙĨØ§
ÙĤ Ø·Ø±
ĠØ± ÚĪ
ĠÙĦ Ø§Ø±ÛĮ
ĠØ§Ø³ Ù¾ÙĨ
Ú©Ûģ Ø§Úº
Ø¬ÙĨ ÙĪÙĨ
ĠØ±ÛĮÙħ ÙĪÙ¹
Ø¯Ú¾ Ø§ÙĨØ¯ÙĦÛĮ
ĠØ¨ÛĮÚ© Ù¹Ø±ÛĮØ§
ĠØªØ§Ø± ÛĮÚº
ĠÙħØ¹Ø§ÙĦ Ø¬ÛĴ
ĠÙĦØ§ÙĪ Ø§Ø±Ø«
ĠÙ¾Ù¹ÙĪ Ø§Ø±ÛĮ
ØŃÙĦÙĤ ÛĴ
ÙĨ Ø´Ø±ÛĮ
Ú¾ Ø§ÙĪØ§
ĠÙĪ Ø§Øª
ĠØ±ÙĪ Ú©ÛĮ
ÙĪØ§ÙĦ Ø¯
Ø§Ø¹Øª Ø±Ø§Ø¶
ĠØ¨Ø§ÙĦ Ø¹ÙħÙĪÙħ
ĠÚ©Ù¾ ÙĪØ§ÚĳÛģ
ĠØ¬Ø§ÙĪ ÛĮÚº
ĠÙħØ±ÛĮ Ø¶Ûģ
ĠÙ¾ÙĪÚĨÚ¾ ÙĪ
ĠØ¨ÙĦÛĮ Ø¯ÛĮ
ĠÙħÚĨÙĦ Ú©ÛĴ
ĠÚ©ÙĨØ² Ø±ÙĪÛĮ
Ù¾Ø´Øª ÙĪÙĨ
Ú© Ùģ
ĠØ³ ØªØ§
Ùģ Ø´Ø§ÙĨÛĮ
Ø¹ Ø¨Ø§Ø¯
ĠØ§ÙĨ Ø§ÙĨ
ĠØ§Ø³ Ø¯Ø§ÙĦÙĦÛģ
Ø§Ø¨ Ø§ÙĨ
ĠÙħØ± ÙĦÛģ
Ø§ÙĨÚĪ Ø§
ĠØ¨Ø§Ø¨ Ú©
ĠÚĪÙĪÛĮ Úĺ
ĠÚĨÛĮØ® ÛĮÚº
ĠÙ¾ÛĮØ±ÙĪ Ú©Ø§Ø±
ĠÚ©Ú¾Úĳ Ú©ÛĮ
ĠØ§ Úĺ
ĠÚ©ÛĮ Ø¬Ø§ÙĨØ¨
Ø§Ø¦ ÙĪÙ¹Ø³
Ø´ Ø§Úº
ĠÙģ Ø§Ø³Ø¯
Ú¯Ø± Ø§ÙģÛĮ
ÙģØ± Ø®
ĠÙħØµ ÙĪØ±
Ġ14 1
Ġ14 3
ĠÚ©Ø±ÙĨ ÛĮÚ©ÛĮ
ĠØ§Ù¾ÙĨ Ø§Ø¦ÛĮ
ĠØ¬Ø¨Ø± Ø¦ÛĮÙĦ
ĠØ§ÙĪÙĨÙ¹ ÙĪÚº
ĠØ±ÙĨØ¬ Ø´
ĠÙĦØ§Øª Ø¹Ø¯Ø§Ø¯
ĠØ±Ú¯ Úĳ
ĠØ´ÛĮÙħ Ù¾ÙĪ
ĠÙĦØ°ÛĮ Ø°
ÙĪ Ø§ØŃØ¯
ĠÚ© Ù¹ÙĨÚ¯
ĠÚ©ÛĮ Ù¾ÛĮÙ¹ÙĦ
ĠÙ¾ Ú©ÛĴ
Ø² Ø±ÙĪÛĮ
ĠÙĤ ÙĨ
ĠÙħÙĦ ÙĪ
ĠØº Ø¨Ø§Ø±
ĠØ¨ÚĨ Ø§Ø¦ÛĮ
ĠÙħÚ© ØªØ¨
ĠØ¯Ú¾ ÙĪÙĨØ§
ĠØ®ÙĪØ¯ Ú©Ø§Ø±
ĠÙ¾Ú¾ Ø§Ù¹Ú©
Ġ30 2
Ø³Ø¨ Ø²ÛĮ
ÙĨØµ ÛĮØ±
ÛģÙĪÙĨÛĮ ÙĪØ§ÙĦÛĴ
ÙĨØ´Ø±ÛĮ Ø§ØªÛĮ
ĠÚ© Ø°
ĠØ³ Ø§ÙĤ
Ø§ÙĦ ÙĤ
Øµ Ø§ÙĦØŃÛģ
ĠØ§ÙĦ Ø³ÛĮ
ÙĨØ¯ Ø±Ø§
Ø° Ø§ØªÛĮ
ĠØ§Ùħ ÙĨÛĮ
ĠØ¯Ø± ÛĮÚº
ĠÛģØ± Ø¬Ø§ÙĨÛĴ
ĠØ¨ÚĳÚ¾ Ø§ØªØ§
ĠÙĨØ¹ Ùħ
ĠØ³Ù¹ ÙĪØ±ÛĮØ¬
ĠÙĨØ³ Ø§Ø¡
ĠÛ³Û ³
ĠÙĪ ÛĮØ¯
ĠØ¢ ÙĦÛĴ
ĠØµ ÙĪÙħ
ĠØ³ÙĦ Ø§Ø³ÙĦ
ĠØ§ÙĤØ¯ Ø³
ĠØ¢Ø³ Ú©ÛĮ
Ġ15 7
ĠØ±Ø§Ûģ ÙĪÙĦ
Ø§ÙĨØ¯ Ø§Ø²
ĠØ¯Ùħ Úĳ
Ø°ÛĮ ÚĪÙĨÙ¹
ĠØ³ÙĪÙĨ Ø§Ú©Ø´ÛĮ
ĠÛ±Û³Û ¹Û
ĠÙĪÙĨÚĪ ÙĪØ²
ĠÚĨØ§Ú© ÙĨÚ¯
ĠÙ¾Ø±ÛĮØ° Ø§Ø¦ÛĮÚĪÙĨÚ¯
ĠØ¨Ø§Ø³Ùħ ØªÛĮ
i r
ĠÚ© ÙĦÛĮÛģ
ÙĨ Ø§ÙħÛĮ
ĠÚ¯ Ø§Ø±ÛĮ
Ø® Ø§Ø³Øª
Ø¶ ÙħÙĨÛĮ
Ú¯Ø± Ø§Ø¦ÙĪÙĨÚĪ
ĠØ¬ÙĪ Ú¯ÛĮ
ĠÙħØŃ Ø±Ú©Ø§Øª
ĠÚ©Ø§Ø± Ú¯Ø±
ĠØ§ÙĤØªØµØ§Ø¯ÛĮ Ø§Øª
ĠÙ¾Ø§ÙĦ ÙĨÛĴ
ĠØµØŃÛĮ ØŃÛģ
ĠÙħÚ©Ú¾ ÙĨ
ĠØ³ÛĮÙ¹ÙĦ Ø§Ø¦Ù¹
ĠØ§Ø¬ØªÛģ Ø§Ø¯
Ûģ Ø§ÙĨÚ¯
Ú¾ Ø¨
Ø±ÛĮ Ù¹Ø³
ĠØ¹ ØªØ§Ø¨
ĠÙ¾Ø± ÙĦ
ĠØ§ÛĮ Ø°Ø§
ĠØ¶ ÙħØ§ÙĨ
ĠÙĨÙĪ Ø³Ø±
ĠØ¨ÚĨ Ø§ØªØ§
Ø®ÙĪØ§Ø³Øª Ûģ
ĠØ·Ø¨ Ø±ÛĮ
Ø§Ø³Ú© ØªÛĮ
ĠÙħÚĨÚ¾ ÙĦÛĮØ§Úº
ĠØ§Ú©ÛĮÚĪ ÙħÚ©
ĠÛģÙĪØ´ Ø±Ø¨Ø§
ĠÙĨØ§Ø¯Ø± ÙĨ
ĠÙħØ§ÙĪØ± Ø§Ø¦ÛĴ
ÙħØ²Ø¯ ÙĪØ±
ĠØµØŃØªÛĮ Ø§Ø¨ÛĮ
6 1
ĠØ¹ Ø¬Ø¨
ĠÚĪ ÛĮÚ©
ĠÙħÙĨ Ø²
ĠØ§Ú© Úĳ
ĠÙĪÛĮ Ù¹Ø±
ĠØ¨Ø¬ Ø§Ø¦ÛĮ
ĠØ§ÙĨÚĪ ÙĪ
ĠÚ©Ú¾ÙĪ Ø¬
ĠØ²ÛģØ±ÛĮ ÙĦØ§
ĠÚ©Ø±Øª ÙĪØªÙĪÚº
ÚĪÙĪÛĮÚĺÙĨ ÙĦ
ĠÚ© Ø¬
Ø¯ Ú¾Ø§
ĠÙĨ Ø§ÙĦÛĮÙĪÚº
ĠØª Ø±ÙĪØª
ĠØ¬ ÙĨØ¯
ĠØ§Ø³ ÛĮØ±Ø§ÙĨ
ĠØ³Ø± Ú©Ûģ
ĠÙĨÛĮ Ù¹Ø±
ĠÛĮÙĪÙĨ Ø§ÙĨÛĮ
ØªÙĤ Ø³ÛĮÙħ
ĠÙĤØ· Ø¨
ĠÛ³Û µ
ĠØ¨ÙĨÚ¯ ÙĦØ§
ĠØ³Ø® ÙĨ
ĠÙĨØ¸Ø±Ø¨ ÙĨØ¯ÙĪÚº
ĠÛģØ³Ù¾ Ø§ÙĨÙĪÛĮ
Ø² ÛĮØ¯
ØŃ ÙĨØ§
Ø§Ø¨ Ø¹
Øº Ø§Ø±
ÙģØª Ú¯ÙĪ
ĠØ³ÙĪ ÙĦÛĮ
Ø¨ÛĮ ÙĪÙĨÙĦ
ĠÚ©ÙĦ Ù¾
ĠØ§ÙĨØ³ ÙĪÙĦÛĮÙĨ
ĠØ³ÙĨ Ø§Ø¦ÛĮÚº
ĠÙħØ§Ø± ÛĮÚº
ÙĪÙĤ Ùģ
ĠÚ©Ú¾ÛĮ Ù¾
ĠÙĪØ³ ÙĪØ³Ûģ
ĠØ³Ù¹ ÛĮÙĨ
Ġ27 0
ĠÙ¾Øª ÛĮØ§Úº
ĠØ¯Ø¹ÙĪ Ø¦ÙĪÚº
ĠÙ¾Ø§Ø±ÙĦÛĮ ÙħÙĨÙ¹ÛĮ
Ø¨ÛģØ§ÙĪÙĦ Ù¾ÙĪØ±
Ø§ÛĮÚĪÙĪ ÙĪÚ©ÛĮÙ¹
ĠÛģ ÙĨÚĪØ§
ĠØ¨ Ø³ØªÛģ
ĠØ¬ ÙĦÛĮ
ĠØ± Ø§Ú¯
ĠÙĦ Ø§Ûģ
ĠØ¬ÙĪ Ú©ÙĪ
ÙģØ± ÙĤÛģ
ĠÚĨØ§Ûģ ÙĪÚº
ĠØ³Ùħ ÙĪÚº
ĠÙĪÛĮ Ø³Ø§
ÙĤÙĦ Ø§ÙĦ
ĠÚ¯ÙĪ ÚĪÛĮ
ĠØ²ÛĮØ± Ø¹ÙĦØ§Ø¬
ĠØ¬Øª Ú©
ĠØ§Ø³Ú©ÙĪ Ø§Ø´
ĠØ§Ø²Ø¯ÙĪ Ø§Ø¬
ÚĨØ§ÛģÛĮ ÛĴ
ĠØ§ÙĦØ´Ø±ÛĮÙģ ÛĮÙĨ
Ø§ÙĨ ÙĪØ§Ø±
Ùģ Ø¹
Ø§Ø¦ Ù¹ÛĮ
ÛĮÙĨ ÛĮÙħ
ĠÙħØª Ø²ÙĦØ²ÙĦ
ĠÙ¾ÛĮØ´ ÛĮØ§Úº
ĠÛģØ± ÙĤØ³Ùħ
ĠØ¨Ø§Ø± Ø¯Ø§ÙĨÛģ
Ø§Ø· Øª
ĠØ¢ÙħØ¯ Ûģ
ĠÙĪØ§ ÙĪÛĮÙĦØ§
ĠØ§ÛĮØ± Ø¯ÙĪ
ØªÙĨ ÙĤÛĮØ¯
ĠÙģÛĮÙħÙĦÛĮ Ø²
ĠØ¨Ø§ÙĨØ¯ Ú¾ÛĴ
ĠØ´Ú¯ ÙĪÙĨ
Ø§ÛĮÚĪ ÙħÙĨ
ĠØªØºÛĮØ± Ø§Øª
ĠÚĨÚ¾ÙĦ Ú©ÛĴ
Ùħ ÛĮØ§
Ø´ Ø±Ú©Øª
ĠÙ¾Ø± ÙĨØ¯Ûģ
Ø· Ø§
Ø§Ø³Øª ÙĨØ¨ÙĪÙĦ
ĠÙħØŃÚ© ÙĪÙħ
ĠÙ¾Ø±ÛĮ Ø±Ø§
ĠÙĤÙĪÙĨØµÙĦ Ø±
ĠÙħØ§Ø¦ Ø¯Ûģ
ÛĮ Ø¦ÛĴ
ÙĨ Ø´
ĠØ¬ Ø³Øª
ĠÛģÛĮÚº Ø¬ÙĨ
ĠØ§ÙĦ ÙĨÛģ
ĠØ¯ÙĪ Ú©Ø§ÙĨÙĪÚº
ĠØ¢Ù¾ Ú©ÙĪ
ĠÚĨÚ¾ Ø§Úĳ
ĠÙħÛģ ØªÙħ
Ø§Ø® ÙĪÚº
ĠØ³Ùħ Ø³Ù¹Ø±
ĠÙĨÙĪØ§Ø² Ú©ÛĮ
ÙĪÚ© Ø±ÛĮÙĨ
Ø³Ú© ÙĨØ¯Ø±
ĠÙ¹Ø±ÛĮÙĦ ÛĮÙĨ
ĠÙ¾Ø±Ø§Ù¾Ø±Ù¹ÛĮ Ø²
ĠÙĨØ±Ø³ ÙĪÚº
Ø¢Ø³Ù¹Ø±ÛĮÙĦ ÙĪÛĮ
ĠÙħÚĨÚ¾Ø± ÙĪÚº
ĠÙ¾Ú¯Ú¾ ÙĦ
Ø§Ø¦ ÛĮÚ©ÙĦ
ĠØ´ Ø±ÙĪÙģ
ĠÙĤ Ø§ØµØ¯
ĠØªÚ© ÙĪ
ĠØ¢Ù¾ Ø´ÙĨØ²
ĠØ§ÙģØ± Ø§
ĠØ¨Ø§Ø± Ø³ÙĦÙĪÙĨØ§
ĠØ¨Ø§ÙĦ ÙĪØ§Ø³Ø·Ûģ
ĠÚĪØ§Ø¦ ÙħÙĨÚĪ
ĠÙĨØ§ Ø§ÙħÛĮØ¯
ĠÚ©ÙĪØ± ÛĴ
ĠØ¬ÛĮØª ÙĨØ§
ĠØ´ÙĨ Ø§Ø³ÛĮ
ĠÙħØŃØ± Ø§Ø¨
ĠÛģ Ø§ÙĨÛĮ
ĠÙĦÙĪ Ø§Ø¦ÛĮ
ĠØ®ÙĪ Ø¨Ø±ÙĪ
Ø§Ø¦Ø± ÙĨ
ĠÙĪØ§Ø± ÙĨØ±
ĠØ§ØªÚ¾Ø§Ø±Ù¹ÛĮ Ø²
ÙħØ¬ ÙĦØ³
Ø§ÙĦØ² Ø§Ùħ
ĠÙĪÙĦÛĮÙħ Ø³ÙĨ
ed u
ĠØ±Ø§Ø¦ Ù¹Ø±
ĠÚ¯Ú¾Ø³ÛĮ Ù¹
ØªØ±Ø¨ÛĮ ÙĦØ§
Ø§ÙĨØ³Ù¾ Ú©Ù¹Ø±
ĠØ§ÛĮØ° Ø§Ø¡
9 1
Ù¾ Ø§Ø¨
ĠÙĦÛĮ ÙĦØ§
ĠØ®ÙĪ Ø§Úº
ĠÙģØ§Ø± ÙħØ§
ĠØ¨Ø±Ø³ Ø§Øª
ĠØ®ÛĮØ± Ø¨Ø§Ø¯
ĠØªØ±Ú© Ø¦ÛĮ
Ø§ÙĨÙ¹Ø± ÙĨÛĮÙ¹
ÙħØ¨Ø§Ø±Ú© Ø¨Ø§Ø¯
ĠØ¨Ø§Ø³ÛĮ ÙĪÚº
ĠØ¬ Ú©Úĳ
Ùģ Ø§Ø³Ù¹
ØŃ ÙħÛĮØ¯
ĠÙħØ¹ Ø²
ĠÙħØ§ÙĦ Ùħ
ĠÙħØµ Ø§Ùģ
ĠÛ³Û °Û
ĠÙħØ¶Ø§Ùģ Ø§ØªÛĮ
ÙĤØ³ ÙħØª
Ùħ Ø§ÛģØ±
Ø±ÛĮ Ø§ÙĦ
Ú¾ÛĮ Ùħ
ĠØ§ÛĮ ÙĦÛĮ
ĠÙħØŃ ÙħÙĦ
ĠÙħØ¹ Ø´
ĠØº ÙĦØ§Ùģ
ĠØ¨Ø± ÙħØ§
Ø¬Ûģ Ø§ÙĨ
Ø§Øµ ÛĮ
ĠØ¨ÚĨ Ø§ÙĦÛĮØ§
ĠØ¯Ûģ Ø§ÙĨÛĴ
ĠÙħÛĮÚĪ Ø±ÚĪ
ĠØ¯ÙĦ ÙĪØ§Ø¦ÛĮ
ĠÙĨØ´ Ø§ÙĨÛĴ
ĠÚ¯ÙĪ Ø¬Ø±Ûģ
ĠÛ³Û ²
ĠØ§Ù¾ÙĨ Ø§Ø¦ÛĴ
a d
ĠÚ© Ø¨ÙĪØª
ĠØª ÙħØ¯
ĠØ§ÙĪØ± Ø¬
ĠØ¹ Ø´Ø§Ø¡
ĠÙĤ ÙĪØ§ÙĦ
ĠØ§ÙĦ ÙģØ±
ĠØ§ÙĦ Ø³ÙĨÙĨ
ĠØ¯ÙĪ Ø§Ùħ
ĠÚ©Ø§Ø± Ø¨ÙĨØ¯
Ø¨ÛĮ ØŃÛģ
ĠÛģØ± Ø²Ûģ
ØªØ± Ø§ÙĨ
ĠØ´Ø¹ Ø¨Ø§ÙĨ
ĠØ³ÛĮÙĨ ÙĪÚº
ĠØ¬Ú¾ ÙĨ
ĠØ¹Ø¨Ø¯Ø§ÙĦ ØµÙħØ¯
ĠØ¨Ø±Ø³ Ø§Ø¦ÛĴ
ĠÚ¯ÙĨØ¬ Ø§ÙĨ
ĠØ³ØªÚ¾Ø± ÛĴ
ĠÙĪÙĦØ§ ÛĮØª
Ø§ÙĨØªØ¸ Ø§ÙħØ§Øª
Ø§Ú©ÛĮÚĪ ÙħÛĮ
Ø± Ø§Ø³
ĠØ± Ø³ØªÙħ
Ø§ÙĦ ÛĮÚ©
ÚĨ Ø¦ÛĮØ±
ÙĨÛĮ ÙĪØ²
Ġ) )
ÛĮÙħ ÙĦ
ĠØ¯ÙĪ ØŃÛģ
ĠÙħØª Ø¨Ø¹
ĠÙĨÙĪ Ø§
ĠÙĦÚ¯ Ø§ØªØ§
ĠÙħØ²ÛĮØ¯ Ø§Ø±
Ø¨Ú¾ Ø§Ø±
ĠÙĦØ§Ø¦ÙĨ ÛĮÚº
ĠØ§Úĳ ØªØ§ÙĦÛĮØ³
Ø¹Ø±Ø¨ ÛĮÛģ
ĠÙħØ±Ø¬ Ø¹
ĠØ¨ÙĨØ§ÛĮØ§Ø¬ Ø§
ĠÙħØ±Ùģ ÙĪØ¹
Ø¢ÙģØª Ø§Ø¨
ĠØ´ Ø§Ø¦Ø±
ĠÙģ ØªØ§
Ø· ÙĪØ¨
ĠØ¨Ú¾ÛĮ Ø¬ÙĪ
ĠÚĪ Ø±ÙĦ
ĠØ¨Ûģ ØªÛĮ
ĠØªØ± Ø§ÙĪÛĮØŃ
ÙĦÛĮÙħ ÙĪÚº
ĠÚ¯Ø±Ø¯ Ø§ÙĨÛģ
ĠØ¹Ø¯ ÙĨ
ĠÙĤØ· Ø±Ûģ
ĠÛ³Û ·Û
ĠÙģÙĤ Ø·
ĠÙĦÙģ Ù¹ÙĨÚ¯
ĠÙĨØ¹ÛĮ ÙħÛĮÛģ
ĠØ§Ø³Ù¾Ø± ÛĴ
ĠÚ©Ø§Ø¤ÙĨ Ù¹ÛĮ
Ûģ ÙħØ§
ĠØ§ ï·²
ĠÛģ Ø´Ø§Ùħ
ĠØ³ Ú¯ÛĴ
Ú¯ ÙĪÙĦÛĮ
ĠØ¨ Ø§ØŃ
Ø§Ø± Ø¨ÙĪÚº
Ø¬ ÙĦÛĮ
ĠÙĦ ÚĳÛĴ
ĠØ§Ø³ ÙĪÛģ
ÙħÛĮÙĨ Ø¬ÙħÙĨÙ¹
Ġ24 6
ĠÙ¾ÙĪÚĨÚ¾ ØªØ§
ĠØ§Ø³Ù¹Ø±ÛĮÙ¹ Ø¬Ú©
ĠØ¬Ú¾Ù¹ÙĦ Ø§ØªÛĴ
Ø²ÛĮÙĨ Ø¨
ĠÚ¯ Ø§ÙĦÙħ
ĠØ± Ø§Ø¦Ø³
ĠØ¢ Ø±ÛĮ
ĠØŃ ÙĦØ¨
ĠØ² Ø§ÙĪÛĮ
Ù¹Ø± Ø§ÙĨ
ĠØ¨ÙĨ Ø§ÙĨ
ĠØ¬Ùħ Ø§Ø¦ÙħØ§
ĠØ¨ÚĨ Ø§ØªÛĴ
ĠØ§ÙĤ Ø¯Ø§
ĠØ¨ÙĨØ¯ Ú¾ÛĴ
ĠØ´Ø¹ Ø§Ø¦Ø±
ĠÚĨØ§Ø± Ø¬ÙĨÚ¯
ĠØ´Ú© ÙĪØ±
ĠØ²Ø± Ø®ÛĮØ²
ĠØ¯Ø§Ø±Ø§ÙĦ Ø¹ÙĦÙĪÙħ
ĠÙ¾ÛģÙĨ Ø§Ø¦ÛĴ
ĠØ§ÛĮØ± ÙĪÙĨ
ĠÚ¯Ø§Ø± ÙĨÙ¹ÛĮ
ĠÚ©Ú¾Ø± ÙĦ
ĠÙħÛĮÙĪØ² ÛĮÚ©ÙĦ
ĠØ³ÙĨÚĨ Ø±ÛĮÙĪÚº
ØªØ§Ø¬ Ø±ÙĪÚº
ĠÚĪØ§ÙĨ Ù¹
Ø´ÛģØ±ÛĮ Ø§Ø±
ĠØ®Ø´ ÙĪØ¹
ÙģÛĮÚĪ Ø±ÙĦ
ĠØ¢Ø±Ùħ ÚĪ
Ġ i
Ø³ Ø±Ú©Ø§Ø±
ĠÚ©Ø± Ø±
ĠØ³ÙĪ ÚĪØ§
Ù¹Ú¾ ÙĪØ±
Ø±Ûģ ÙĪ
Ø§Ø¨ÛĮ ØŃ
ĠØ§Ø± ÙħØ§ÙĨ
Ø³ÙĪ ÙĦÛģ
Ø¶Ø± ÙĪØ±
ĠÚ©ÙħÙ¾ÙĦ ÛĮÙĨÙ¹
ĠØ±ÙĨØ¯ Ú¾Ø§ÙĪØ§
ĠØ±Ú©Ø´ ÙĪÚº
ĠÚ©ÙĨÚĪÛĮØ´ÙĨ Ø²
ĠÛģÙĪÙĨ ÛģØ§Ø±
Ø¢Ø¯ ÙħÛĮ
ÙĦ Ø§Ø¬
ĠÙĨ Ø³ÛĮ
ĠÙĨ Ú©Ø§
ĠØ¯ Ø§ÙĦÙĪÚº
ĠÚĨ Ø§Ø¦ÛĮÛĴ
ĠÚ©Ø§Ø± ÙĨØ¯ÙĪÚº
ĠØ³Ø§ÙĦ ÚĪ
ĠØ¬Ûģ ÛĮØ²
ĠØ²ÛĮØ± Ûģ
ĠØ¹Ø¨Ø¯Ø§ÙĦ Ø¨Ø§Ø³Ø·
Ġ16 6
Ġ199 4
ĠÙħÛģØ§Ø±Øª ÙĪÚº
ØªÙħÛģ Ø§Ø±ÛĮ
ĠØ§Ú©ÙĨØ§Ùħ Ú©Ø³
Ø§Ø³ÙĦ ØŃÛģ
ĠØ³Ø³Ø± Ø§ÙĦ
u n
ĠÙ Ĺ
ÙĪ Ø§ÙĨØ§
ĠÙ¾ Ø§Ø´
ĠØª ÙĦÛĮ
Ø¬ Ø§ÙĨØ§
ĠÙ¾Ø± ÛĴ
Ú¾ÛĮ ÙĪÚº
ĠÚĪ Ø±ÛĴ
Ø³ÛĮ Ø´ÙĨ
ĠØªÙħ ØºÛĴ
ĠÚĨÚ¾ ØªØ±
ĠÙħØ° Ø§Ú©
ĠÙħØ³ÙĦÙħ ÙĪÚº
Ø±Ú©Ø± Ø§ÚĨÛĮ
ĠÙ¾Ú¾ÛĮÙĨ Ú©ÛĴ
Û ´Û
Ú¾ Ø§Ø±Ø§
ĠÙ¾ Ú©ÛĮ
ĠÚ¯ ÙĪØ±ÛĮ
ĠØ§ÙĨ ÙĨÚ¯
ÙħÛĮ ÙĦØ§
ĠØ³Ú© Øª
ĠÚ©Ø§Ø± Ø®Ø§ÙĨÛģ
Ø§Ø¤ Ø¯
ĠØ¬ÛĮ Ø§ÙĦÙĪÚº
Ù¾Ø± Ø§Ø¬
ĠÚ©Ø§ÙħÛĮ ÚĪÛĮÙĨ
ĠØ¯Ø¹ Ø§Ø¦ÙĪÚº
ĠÙħØ±Øª Ø¯
Ø¯ÙĪØ³ ØªÛĮ
ĠÙ¹ÙĪ Ù¹ÛĮ
ĠÙĪØµ Ø§ÙĦ
Ù¾Ø§Ú©Ø³ØªØ§ÙĨÛĮ ÙĪÚº
ĠØªÙĤØ± Ø±ÛĮØ§Úº
ĠÙħÙĨÚ¯ Ú¾ÙĪ
ĠÚ¯ÛĮØ§Ø±Ûģ ÙĪÛĮÚº
ĠØ¨Ù¹Ú¾ Ø§ÛĮØ§
Ø± Ù¹
ÙĦ ÙĪÙ¹
ĠÛģ Ø§Ú©
ĠÙĨ ÙĪÚº
Ø¨ Ø¸Ø§ÛģØ±
Ø´ Ø§ÙħÛĮ
ĠØ§Ø® Ø±Ø¬
ĠØ° Ú©
ĠØªØŃ Ø±ÛĮÙħ
Ø¬ÙĪ ÚĪÛĮØ´ÙĦ
ĠØ§ÙĤ Ø§ÙħØª
ĠÙħØªÙĪ Ø§ØªØ±
ĠÛģÛĮØ± ÛĴ
ĠØ§ÙģØ² Ø§Ø¡
ĠØºØ§ÙĦØ¨ Ø§
ĠÚ©ÙĨÙĪ ÛĮÙĨØ¦Ø±
ÙħØ±Ø¯ ÙĪÚº
Ù¾Ø±ÙĨØ³ Ù¾ÙĦ
ĠÙħØ¨Ø§Ø± Ú©Ûģ
ĠÚ© Ø§Ø¯
Ú¯ ÛĮÙĨÚ¯
Ø§Ùħ Ø§Ø±Ø§ØªÛĮ
ĠØ¹ Øª
ĠØ³ÛĮ Ø³Ûģ
Ø¨ÙĦ ÚĪÙĨÚ¯
ĠØ§Ùģ ÛģØ§Ùħ
ĠØ´ÛĮ ÙĪ
ĠÙħÙĨØª Ø¸Ùħ
Ú©Ø³ Ø§ÙĨÙĪÚº
Ġ16 4
ĠØ±ÛĮÙĦ ÛĴ
ĠØ§ÙĪÙĨ ÚĨØ§Ø¦ÛĮ
ĠØ¯ÛĮÙĪ Ø§Ø±ÛĮ
ĠØ§ÙģØ±ÛĮÙĤ ÙĨ
ĠÙ¾ÙħÙ¾ ÙĨÚ¯
ÙĤØµ Ø¯
ĠÛĮØ² ÛĮØ¯
Ġ Ú¾Ø§
ÙĨ ÙĪÛĮ
Ø¯ Ø«
Ù¹ Ø±ÛĮÚ©
ĠÚ©Ø± Ø§ÙģÙ¹
Ø¬ ÙĨØ³
ĠÙĦÛĮ ÙĪÛĮ
ĠÙĦÛĮ Ø¬ÛĮÛĴ
ĠÚ©Ø§Ø± ÙĨØ¯ÛĴ
ĠÙĦÛĮØ§ Ø§ÙĪØ±
Ø±Ûģ Ø§Ø¦ÛĮ
Ø´Ûģ ÙĪØ±
ĠØ¨Ø¬ Ø§ÙĨÛĴ
ĠÚ¯Ø± Ø§ÙģØ±
Ø¨Ø§ÙĦ Ø¢Ø®Ø±
ĠÙħÙĦØ§ Ù¾
ĠÙģÙĦØ³ ÙģÛĴ
Ø± ÙĪØ±
ĠÛģ ÛĮÙĨÚĪÙĦ
ĠÙ¾ ÙĦØ§ÛĮØ§
ĠØ´ Ø±Ø¯
Ø¹Ø¯ ÙĨØ§ÙĨ
ĠØ¨Ø± Ø§Ø¦ÙĨ
ĠØ§ÛĮÙħ Ù¾Ø±ÛĮØ³
ĠØ¨Ø§ÙĦ ÙħÙĤØ§Ø¨ÙĦ
ÚĪØ± ÚĪ
ĠØ³Ø±Ù¹ÛĮÙģ Ú©ÛĮÙ¹Ø³
Ø§ÙĨÚ©ÙĪ Ø§Ø¦Ø±ÛĮ
ĠØ³ ØªØ§ÙĨ
ĠÙĪ ÙĦÙĤØ¯
ĠØ§ÙĨ Ø§Ø¬
ÙĪÙĦ ÛĮØ§
ĠØ³ÛĮ Ù¹Ú¾
ÙħÙĦ Ø§Ø²
ĠØ¹ÙĦÛĮ ÙħÛģ
ĠØ´Ø§Ûģ Ø¯Ûģ
ĠØªØ¹ÙħÛĮØ± ÙĪØªØ±ÙĤÛĮ
ĠØ§Ø« Ø¨Ø§Øª
ĠÙģØ§Ø¦ Ù¹
ĠÙģØ±Ø§ÙĨØ³ Ø³
ĠØ¨Ú¾Ø§ Ú¯ÛĴ
ĠØ¯ÙĦØ§ ÙĪØ±
ĠÙĨØº ÙħÛģ
ĠØ§ÛĮØ±ÛĮ Ø§Ø²
Ġ w
ĠÙĨ ÚĪØ±
ĠÙĪ ØªØ¹
Ø±Ùģ Ø¹
Ø³ÙĦ Ø§ÙĨÙĪØ§ÙĦÛĮ
ĠØ³ÛĮ Ù¾Ú©ÙĪ
ÛĮÛģ Ø§
ĠØ³Ø± Ø²Ø¯
Ġ3 000
ĠÚ©Ø´ ÙĪØ±
ĠÚ¯Ú¾Ø± Ø§ÙĨÙĪÚº
ĠØªÛģ Ø¬Ø¯
ĠÙ¾ÛģÙĨ ÙĨØ§
ĠØ¯ÙĪÙ¾ Ù¹Ûģ
ĠÙħØ¨Ø§ØŃØ« Ûģ
Ġ #
Ûģ Ø¯Ùģ
ÙĨ ØµØ±
ĠÛģ ÛĮÚ©Ûģ
ĠØ³ Ø§ÛģÛĮ
ÙĦÛĮ Ø§Ø¡
ÙħÛĮ Ù¹Ø±ÙĪ
ĠØ¬Ø§ÙĨ ÙģØ´Ø§ÙĨÛĮ
ĠØ¯Ø± Ø§Úĳ
ĠÙĪØ² Ø±Ø§Øª
ĠÙĦØ§ Ù¹Ø±ÛĮ
ĠØ§ÛĮÚĪ ÙĪÙĨÚĨØ±
Ġ25 00
ĠÙĤÙĦ Ø¹ÛĴ
ĠØ§ÙĤØ¯Ø§Ùħ Ø§
Ø®Ø· Ø±
ĠØ¢Ù¾Ø±ÛĮ Ù¹
ĠØ¯ÛĮÙĪ Ú¯ÙĨ
ĠØŃÙĪ Ø§Ø±ÛĮÙĪÚº
ÙĤØ¯Ø± ØªÛĮ
ĠØ¹Ø§ÙĤ ÙĦ
ĠØ¨ Ø±Ú©ØªÙĪÚº
Ø¨ Ú¯
Ø¨ Ø¯Ø§ÙĦ
ĠØ¯ Ú¯ÙĨÛĮ
Ù¾ Ø§Ø¦Ø±
ĠÛģÛĮÚº Ø¬ÙĪ
ĠÙħÙĤ Ø§ÙĦÛģ
Ø§ÛĮ Ø´ÛĮØ§
Ú¯Ø±Ø¯ Ø§ÙĨÛĮ
Ø¯Ùģ Ø§Ø¹ÛĮ
ĠØ¬Ú¾Ù¹ Ú©Ø§
ĠÙħØ¸ÙĦÙĪÙħ ÙĪÚº
ĠE B
ĠØ´Ú©ÙĨ Ø¬ÛĴ
ĠÚ©Ø±ÛĮÙĨ Ú¯ÛĮ
ĠÙħØ´Ø§Ø¨Ûģ Øª
Ø§ÙĨÚĪÙĪÙĨÛĮ Ø´ÛĮØ§
ĠÚ©ÙĪ ÙĦÚ©
ĠÙĤ Ø±ÛĮÙĨÛģ
ĠØ§ÙĦ ÙģØªØŃ
Ú¯ÛĮ Ø§Ø±Ûģ
ĠÙħØ´ Ø¹Ø§ÙĦ
Ú©ÙĨ ÚĪÛĮ
Ù¾ÛĮ Ù¹Ø±
ĠÛ³Û ´Û
Ø±Ø§Ø² Ùħ
Ø§ÛĮÙĨ Ù¹ÛĮ
Ø§ÙħØ¯ Ø§Ø¯ÛĮ
ĠÙĨØ² Ø§Ú©Øª
ĠÙ¾ØªØ§ ÙģÛĮ
ĠØ³Ø±Ø¬ Ø§ÙĨÛĮ
ĠØŃØ±ÛĮÙģ ÙĪÚº
ĠÚ©Ø§Ú© Ø±Ø¯Ú¯ÛĮ
ĠÙħÙĦÛģ ÙĪØªØ±Ø§
Ġ edu
Ø± Ø¬Ø³Ù¹Ø±
Ûģ ÙĨÚĨ
ĠÚ© Ø³ÛĴ
ĠØ³ ÙħÛĮØ±
ĠØª Ø§Ø®
ĠÙ¾Ø± ØºÙĪØ±
ĠÚĨ Ø´ØªÛĮØ§Úº
ĠØ§ÙĦ Ø¯ÙĨÛĮØ§
ÙĤÛĮ ØµØ±
ĠÙĨÛĮ Ù¾Ø±Ø§
Ġ5 000
ĠØ¢Ø± Ø§ÙĪ
ĠØ§ÙĦØ² ÙħØ§Úº
ÙħØŃ Ø¨
Ġ13 00
ĠÙħØ¹Ø§ÙĪÙĨ ÛĮÙĨ
ĠÚĨÙħ ÚĨÛĴ
ĠØ¨ÙĦØ§Ú© Ø³
ĠÙ¾Ø±Ø§ÚĪ Ú©Ù¹Ø³
ĠØ§ÙĦÛĮÚ©Ù¹ Ø±ÛĮÚ©ÙĦ
ĠØºÛĮØ±Ø¬Ø§ÙĨØ¨ Ø¯Ø§Ø±
8 2
ĠØ³ ØªÚ¾Ø±ÛĮ
ĠØ§Ø³ Ú©Ø±Ù¾Ù¹
ÛĮÛģ ÙĪÙĨÛĮ
ĠÙĪÛĮ Ú¯
ĠØ³Ø±Ú© ÙĪØ¨ÛĮ
ĠÚ©Ø§ÙĨ ÙĪØ§
ĠØ¢Ø³ Ú©Ø±
ĠÙħØ±Ø¯ ÙĪ
ĠÙħÙĨØ§ ÙģØ±Øª
ĠÙĨØ²Ø¯ ÛĮÚ©ÛĮ
ĠØºÙħ Ú¯ÛĮÙĨ
ĠÙħØ±ÙĪ Ø¬Ûģ
ĠØ±ÙĨØ§ ÙĪØª
ĠÙĦØ§Ø¹ÙĦ ÙħÛĮ
ĠØ®ÙĨØ¯ ÙĤ
Ùħ Ø³Ù¹Ø±
ĠØª Ø¦ÛĮØ³
ĠÚ©Ø± ÙĪØ§ÙĦ
ĠØ§ÙĪØ± Ù¾
ĠØ§Ø³ ÙħØ¹
Ø¶ Ø§Ø¨Ø·Ûģ
ĠØ³ÙĪ Ù¾
ĠØ§Ù¹Ú¾ ØªØ§
ĠØ§ÙģØ³Ø± Ø§
ĠØ¬ÙĪÙĨ Ø²
Ġ16 1
ĠÚ¯Ø²Ø± ØªÛĮ
ĠÙĨØ² ÙĦÛģ
ĠØ®Ø¯ÙĪ Ø®Ø§ÙĦ
ĠÚ©Ø± Ø³Ú©ÙĪ
ĠÚ¯ Ù¹Ø±
Ø§ÙĦ Ø¹Ø±Ø¨ÛĮÛģ
ĠÙĦÙĪ Ú©ÛĮØ´ÙĨ
ĠØ¨Ø§ÙĦ ÙĦ
ĠÚ¯Ø± Ø§Ø³
ĠÙĪÙĪ ÛĮÙħÙĨ
ĠÙ¾Ø³ ÙĨÛĮ
ĠÙģØ±ÙĤ ÙĪÚº
ĠØ¨Ú¾ÙĪÙĦ ÛĴ
ĠØ¯ÛĮÛģ Ø§ØªÛĮ
ĠÙ¹Ø§ÙĨÚ¯ ÛĮÚº
ĠÙħØ±Ûģ ÙĪÙĨ
ĠØ§Ø³Ù¹Ø± Ø§Ø¦ÛĮÚ©
ĠÙ¾Ø³ÛĮ ÙĨÛĴ
Û ±
ÙĪ Ø¦ÛĴ
ĠÚ©Ø± ÙĪÙ¹
ĠØ® Ø¯Ø±ÛĮ
ĠÚĨ Ø§Ù¹
Ø§Ø¬ Ø¨Ú©Ûģ
ĠÙħØ´ ÛĮ
ĠÙħØ± Ø¹ÙĪØ¨
ĠÚ¯Ú¾ ÙĪÙĨÙ¹
ĠØ²ÛĮØ± ÙĨÚ¯Ø±Ø§ÙĨÛĮ
ĠØ¨ÙĪ Ø¬Ûģ
ĠÙħÙĤØª Ø¯Ø±
ĠØ±ÛĮÚĪ Ø§Ø±
ĠÚ¯Ø±ÛĮØ¬ ÙĪÛĮØ´ÙĨ
ĠÚ©ÙħØ¨ ÙĪÛģ
ĠÙĨÛĮÙĪÚ© ÙĦÛĮØ¦Ø±
ÙĪ ÛĮÙħÙĨ
ÙĦ ÙĦ
ĠÚ©Ø± Ø¨ÙĦØ§
Ø´ Ø¨
ØŃ ÙģÛĮØ¸
Ø³Øª Ú¾Ø§ÙĨ
ĠØ¬ÙĪ ÙĦÛĮ
Ø§Ø¹ ÙĦÙħ
Ø¢ Ùħ
ĠØ²ÛĮØ± ÛĮÚº
ĠØ§Ø³Ú© ÛĮÙĨ
ÙĪÙħÛĮ Ù¹Ø±Ú©
ĠÙĨØ§Ø¸ ÙħÛĮÙĨ
ĠÙĤØ§ÙĦ ÙĪØ§
ĠØ³Ø§Ú© ÙĨØ§ÙĨ
ĠÙĪÙģØ§Ø¯Ø§Ø± ÛĮØ§Úº
ĠÙĪÙĦÙĪ ÙĦÛģ
ĠÙĦÙ¹Ø±ÛĮ ÚĨØ±
a k
Ø§ÙĨ Ù¹
ĠØªÙħ Ø§Ø´Ø§
Ú©ÙĪ Ø²
ĠØªØ± Ø¬
ĠÛģØ± ÚĨÙĨØ¯
ĠÚĨÚ¾ ØªÛĮØ³
ĠØ§ÙĦØŃ ÙħØ±Ø§Ø¡
ĠÚ©Ø³ Ø¨
ĠØ³ÙĪØ± Ø§Ø¬
Ġ17 3
Ø¹Ùħ ÙĦÛĴ
Ø¹Ø¯Ø§ÙĦ ØªÙĪÚº
Ù¾ÙĦØ§ÙĨ ÙĨÚ¯
ĠÚ©Ø±ØªØ§Ø± Ù¾ÙĪØ±
ĠÙ¾ÙħÙģÙĦ Ù¹
Ú© Ø³Ù¹Ùħ
Ø¯ Ø±ÙĪ
Ú¯ ÙĨØ¯
ĠÚ©Ø§ Ø§Ø¬ÙĦØ§Ø³
ÚĪ Ø±ÛĮ
ÛĮÙĨ Ù¹ÛĮ
ĠÙĤ Ø§Ø¹Ø¯Ú¯ÛĮ
ĠÙ¹ ÙĪÙ¹ÛĴ
ĠÚĪ ÙĨÚĪÛĴ
ĠÙħÛĮ Ù¹Ú¾ÛĮ
ĠØ¨Ø± Ø§Ø¦ÛĮØ§Úº
ĠÙħØª ÙĦ
ĠØ¨Ø§ÙĦ ÙģØ±Ø¶
Ø¹ÙĤ ÙĦ
ĠØ¨Ø§ ÚĨØ§
ĠÙ¹Ø± Ø§ÙħØ§
Ø§Ú©ÛĮ Ø³
ĠÚ©Ú¾ÙĪ Ø¦ÛĮ
Ù¾Ø§ÙĨÚĨ ÙĪÛĮÚº
ÚĨØ§Ûģ Ø¦ÛĴ
ĠÙ¾ÛĮÚĨÛĮØ¯Ú¯ÛĮ ÙĪÚº
ĠÚĨÚ¾Ù¹Ú© Ø§Ø±Ûģ
ĠÚ©Ú¾Ø¬ ÙĪØ±ÙĪÚº
$ `
Ø¬ Ø§ØªÛĮ
ĠØ§ÙĨ ÙħØ§
ØªØ§ ÙĪØ±
ĠÙħØ¹ ÛĮØ¯
ĠØ³Ø± Ú¯Ø²
Ø§Ù¾ Ø±
Ġ5 50
ĠÚ©ÙĨ Ø§Ø±ÙĪÚº
Ġ15 9
ĠØ¨Ø· Ø±ÛĮÙĤ
ÙĨØ§Ùħ Ø¹ÙĦÙĪÙħ
ĠÛ´Û ±Û
ĠÚ©Ú¾ÙĪ ÛĮØ§
ĠÙĨØ¸Ø±ÛĮÛģ Ù´
ÙĦ ÙħÛĮ
Ø¬ Ø´ÙĨ
Ú¯Ø± Ø§Ùģ
ĠÙħØŃ Ø´Ø±
Ø§ØªÚ¾ ÙĨ
ĠØ¬ÙĨ Ø±ÛĮÙ¹Ø±
ĠØ§ÛĮÙĨ Ú¯Ø±ÙĪ
ĠØ¬ÙĦ ØªÛĴ
ĠÙħØ³Øª ØŃØ³ÙĨ
ĠØ´Ø± Ø¹Ø§
ĠØ®Ø±ÛĮØ¯ ÙĨØ§
ĠØ¨Ø±Øª ÙĨÙĪÚº
ĠØ®Ø±Ø§Ø¨ÛĮ ÙĪÚº
ĠØ¬ÛĮÚ© Ù¹Ø³
ĠØ§ÙĨØ¯Ú¾ÛĮ Ø±Ø§
Ù¾ÙĦØ§ÙĨ Ù¹
ĠØ¢ÙĦØ§Ø¦Ø´ ÙĪÚº
Ú© ÙģØ§Ø±
ÙĪ Ú©ÙĦØ§Ø¡
ĠÙĨ ÙĨØ¯ÛĮ
ĠØ¯ Ú©ÛĮ
ÚĪ Ø¨ÙĦÛĮÙĪ
ÙĨÛĮ Ø§Ø²ÛĮ
Ø±Ø¨ Ø±ÛĮ
ĠØ¨Ú¾ ÛĮÙĨÙ¹
ĠÚĨÚ¾ Ø§Ø¦ÛĮ
Ø§Ø¦Ø² Ûģ
ĠØ¢Ø³ Ø§Ø¦Ø´
ĠØ§ÙĦÙħ Ø§Ø¦Ø¯Ûģ
ĠÙĤÙĦ Ø¨ÛĮ
ĠÙ¾Ú¾ÙĨØ³ Ø§
ĠÙħÚ©Ú¾ÛĮ ÙĪÚº
ĠÙģØ´ Ø§Úº
ĠØ§Ø¹Øµ Ø§Ø¨ÛĮ
ĠÚĨÚ©Ú¾ ÙĪ
Ø±ÛĮÙ¹Ø± ÙĨÙĨÚ¯
ĠÚ©Ø±Ø´ ÙħÛģ
ÙħØ³ÙĦ ØŃ
ĠØ®Ø¯Ø§Ø¯ Ø§Ø¯
Ø± ÙĪÙĨ
ĠÛģ ÚĨÚ©
ĠØ± ÙģÙĤ
ĠÚ©Ú¾ Ø±ÛĮ
ĠØ´Ùħ Ø´Ø§Ø¯
ĠÙĪÙĦ ÙĨ
Ú©ÛĮÙĨ Ø³Ø±
ĠÙħØ§Ø¦ÙĨ Ø²
ĠÚ©ÚĨÙĦ ÙĨÛĴ
ĠØ§ÙħØªÙĨ Ø§Ø¹
ĠØ§ÙĨÚ© ÙĦÛĮÙĪ
ĠÙĪÛĮÙĨØ² ÙĪÛĮÙĦØ§
ĠÛģ ÙħÛĮ
ĠÚ©ÛĮ ÙĪÛĮ
ĠØŃ ÙĦÛĮ
ĠØ² ÙĦÙħÛĴ
ĠÙħØª Ø´
ĠØ¨ÙĦ Øº
ĠØ±ÛĮ Ù¹Ø³
ĠÙ¹ÛĮ Ù¾ÙĪ
ĠØ³ÙĦ Ø§Ø¯
Ġ10 50
Ø³ÛĮÙħ ÛĮØ§
ĠØ¹ÙĦ ÙħØ§
ĠØ§ÙĦÙĤ Ø¯ÛĮØ±
ĠÚĨÙħ ÚĳÛĴ
ĠÛ´Û ´
ĠÚ©ÛĮÚĨ Úĳ
ØªÙħÛģ Ø§Ø±Ø§
ĠÙģØ§Ø±ÛĮ Ø³Ù¹
Ùħ Ú©Ø±ÙħÛģ
ĠÙĨ Ø§Øª
Ø´ ØªÛĮ
ĠÚ©Ø§ Ø§Ø¶Ø§ÙģÛģ
ÙĨÛĮ Ø´ÙĨ
Ø° Ø¨ÛĮÙĨ
ĠØ®Ø§ÙĨ Ù¾ÙĪØ±
Ø¯ÙĪ Ø³Ø±ÙĪÚº
ÙĪØ² Ø±
ĠØ¨Ø¯ Ø³ÙĦ
ĠÛģÙĦ Ø§ÙĦÛĮ
ĠÛĮÙĪÙĨ Ø§ÙĨ
ĠØ¨Ø§ ÚĳÛģ
ĠÚ©ÙĪÛģ ÙĦÙĪ
ĠØ¨Ø§Ø¨Ø± Ø§Ø¹Ø¸Ùħ
ĠØ³ÙģÛĮØ¯ ÛĮ
ĠÙħÙĪØ± ÙĪØ«ÛĮ
Ø¹ÙĦØ§ÙĤ Ø§Ø¦ÛĮ
ĠØ§ÙĨØ³Ù¹ Ø§ÙĦ
ĠØ«ÙĨØ§ Ø§ÙĦÙĦÛģ
ĠØ¬Ú¯ Ùħ
ĠÛĮÙĪØ³ ÙģÛĮ
Ú© ÙĦÛĮÙħ
ĠÙ ´
Ùħ ØµØ¨Ø§ØŃ
ĠØ¯ Ø®
ĠÙĪ Ø±ÛĮ
ĠÙĦ Ø·ÛĮ
ÙħÛĮ ÚĪØ±ÚĪ
ĠØ³Ùħ Ø§Úº
ĠØ·ÙĪØ± Ø®Ùħ
ĠÚ¯Ø± Ø§Ø¦ÛĴ
ĠØ®ÛĮØ§ÙĦ Ø§
ÙĨØ² ÛĮØ±
ĠÙħØ§ÙĨÚ¯ ÙĨØ§
ĠÙħØ´ÛĮØ± ÙĪÚº
Ø¨ Ø§Ù¾
ĠØª ÙĪØ±ÛĮØª
ÙĤ Ø§Ø¡
Ùģ ÛĮÚ©
ÛĮØ§ ÙĪØ±
ĠØ§ÙĨ ÚĨØ§Ø±
ĠØ® ÙĪÙĦ
ĠØ´ Ø§Ø¦Ø¯
ĠÙĤ Ø¯ÛĮ
ĠØ§ÙĦ Ø¯Ø±
ĠØªÚ¾ ÙĨÚ©
Ø¬Ûģ Ø§ÙĨÛĮ
ĠØ¬ÛĮ ÙĪÙĨ
ĠØ¨Ø§Ø± Ø§ÙĨÛĮ
ĠÙħØ§Ø± ÙĪ
ĠØ¦ Ø¯
ĠØ§Ù¹Ú¾ Ø§ØªØ§
ĠØ³Ûģ Ûģ
ĠØ³Ù¹ Ø§Ø¦ÙĦ
ĠÙħØ¬ÙħÙĪ Ø¹ÛĴ
ĠÚ¯Ø§Ûģ Ú©ÙĪÚº
ÙĨØ¸ Ø±ÛĮ
ĠÚĪØ³Ù¾ÙĨØ³ Ø±ÛĮ
ĠÚ© Ø´ÙĨ
Ùħ ØµØ±
ĠÙ¾ Ø§Ø¦ÙĪ
Ø§ÙĦ Ø§Ø³Ø¯
ĠØ§Ø³ Ø§ÙħÛĮÙĪÚº
Ø· Ø±ÛĮÙĤ
ĠØ±ÙĪ Ø§Ø¦ÛĮ
ĠØ¨ÛĮ ÚĳØ§
ĠØ§Ø³Øª ÙĤÙĦØ§ÙĦ
ĠÛĮØ§ ÙĪØ±
ĠÙ¾ÛĮØ¯ ÙĪØ§Ø±
ĠØ¹Ùħ Ø±Ú©ÙĪÙ¹
ĠÙ¾ÙĪÙĦÛĮØ³ ÙĨÚ¯
Ø±ÙĪÙģ ÛĮØ±ÙĪØ²
ĠØªÛĮÙħ Ø±
Ø¬ÙħÙĪÚº ÙĪ
ĠØ¬Ø¹ÙĦ Ø³Ø§Ø²ÛĮ
ĠÙ¹Ø§Ø¦ÛĮÚ¯Ø± Ø²
[...]
