{
  "version": "1.0",
  "truncation": null,
  "padding": null,
  "added_tokens": [
    {
      "id": 0,
      "content": "<s>",
      "single_word": false,
      "lstrip": false,
      "rstrip": false,
      "normalized": true,
      "special": true
    },
    {
      "id": 1,
      "content": "<pad>",
      "single_word": false,
      "lstrip": false,
      "rstrip": false,
      "normalized": true,
      "special": true
    },
    {
      "id": 2,
      "content": "</s>",
      "single_word": false,
      "lstrip": false,
      "rstrip": false,
      "normalized": true,
      "special": true
    },
    {
      "id": 3,
      "content": "<unk>",
      "single_word": false,
      "lstrip": false,
      "rstrip": false,
      "normalized": true,
      "special": true
    },
    {
      "id": 4,
      "content": "<mask>",
      "single_word": false,
      "lstrip": true,
      "rstrip": false,
      "normalized": true,
      "special": true
    }
  ],
  "normalizer": null,
  "pre_tokenizer": {
    "type": "ByteLevel",
    "add_prefix_space": false,
    "trim_offsets": true,
    "use_regex": true
  },
  "post_processor": {
    "type": "RobertaProcessing",
    "sep": [
      "</s>",
      2
    ],
    "cls": [
      "<s>",
      0
    ],
    "trim_offsets": true,
    "add_prefix_space": false
  },
  "decoder": {
    "type": "ByteLevel",
    "add_prefix_space": true,
    "trim_offsets": true,
    "use_regex": true
  },
  "model": {
    "type": "BPE",
    "dropout": null,
    "unk_token": null,
    "continuing_subword_prefix": "",
    "end_of_word_suffix": "",
    "fuse_unk": false,
    "vocab": {
      "<s>": 0,
      "<pad>": 1,
      "</s>": 2,
      "<unk>": 3,
      "<mask>": 4,
      "!": 5,
      "\"": 6,
      "#": 7,
      "$": 8,
      "%": 9,
      "&": 10,
      "'": 11,
      "(": 12,
      ")": 13,
      "*": 14,
      "+": 15,
      ",": 16,
      "-": 17,
      ".": 18,
      "/": 19,
      "0": 20,
      "1": 21,
      "2": 22,
      "3": 23,
      "4": 24,
      "5": 25,
      "6": 26,
      "7": 27,
      "8": 28,
      "9": 29,
      ":": 30,
      ";": 31,
      "<": 32,
      "=": 33,
      ">": 34,
      "?": 35,
      "@": 36,
      "A": 37,
      "B": 38,
      "C": 39,
      "D": 40,
      "E": 41,
      "F": 42,
      "G": 43,
      "H": 44,
      "I": 45,
      "J": 46,
      "K": 47,
      "L": 48,
      "M": 49,
      "N": 50,
      "O": 51,
      "P": 52,
      "Q": 53,
      "R": 54,
      "S": 55,
      "T": 56,
      "U": 57,
      "V": 58,
      "W": 59,
      "X": 60,
      "Y": 61,
      "Z": 62,
      "[": 63,
      "\\": 64,
      "]": 65,
      "^": 66,
      "_": 67,
      "`": 68,
      "a": 69,
      "b": 70,
      "c": 71,
      "d": 72,
      "e": 73,
      "f": 74,
      "g": 75,
      "h": 76,
      "i": 77,
      "j": 78,
      "k": 79,
      "l": 80,
      "m": 81,
      "n": 82,
      "o": 83,
      "p": 84,
      "q": 85,
      "r": 86,
      "s": 87,
      "t": 88,
      "u": 89,
      "v": 90,
      "w": 91,
      "x": 92,
      "y": 93,
      "z": 94,
      "{": 95,
      "|": 96,
      "}": 97,
      "~": 98,
      "¡": 99,
      "¢": 100,
      "£": 101,
      "¤": 102,
      "¥": 103,
      "¦": 104,
      "§": 105,
      "¨": 106,
      "©": 107,
      "ª": 108,
      "«": 109,
      "¬": 110,
      "®": 111,
      "¯": 112,
      "°": 113,
      "±": 114,
      "²": 115,
      "³": 116,
      "´": 117,
      "µ": 118,
      "¶": 119,
      "·": 120,
      "¸": 121,
      "¹": 122,
      "º": 123,
      "»": 124,
      "¼": 125,
      "½": 126,
      "¾": 127,
      "¿": 128,
      "À": 129,
      "Á": 130,
      "Â": 131,
      "Ã": 132,
      "Ä": 133,
      "Å": 134,
      "Æ": 135,
      "Ç": 136,
      "È": 137,
      "É": 138,
      "Ê": 139,
      "Ë": 140,
      "Ì": 141,
      "Í": 142,
      "Î": 143,
      "Ï": 144,
      "Ð": 145,
      "Ñ": 146,
      "Ò": 147,
      "Ó": 148,
      "Ô": 149,
      "Õ": 150,
      "Ö": 151,
      "×": 152,
      "Ø": 153,
      "Ù": 154,
      "Ú": 155,
      "Û": 156,
      "Ü": 157,
      "Ý": 158,
      "Þ": 159,
      "ß": 160,
      "à": 161,
      "á": 162,
      "â": 163,
      "ã": 164,
      "ä": 165,
      "å": 166,
      "æ": 167,
      "ç": 168,
      "è": 169,
      "é": 170,
      "ê": 171,
      "ë": 172,
      "ì": 173,
      "í": 174,
      "î": 175,
      "ï": 176,
      "ð": 177,
      "ñ": 178,
      "ò": 179,
      "ó": 180,
      "ô": 181,
      "õ": 182,
      "ö": 183,
      "÷": 184,
      "ø": 185,
      "ù": 186,
      "ú": 187,
      "û": 188,
      "ü": 189,
      "ý": 190,
      "þ": 191,
      "ÿ": 192,
      "Ā": 193,
      "ā": 194,
      "Ă": 195,
      "ă": 196,
      "Ą": 197,
      "ą": 198,
      "Ć": 199,
      "ć": 200,
      "Ĉ": 201,
      "ĉ": 202,
      "Ċ": 203,
      "ċ": 204,
      "Č": 205,
      "č": 206,
      "Ď": 207,
      "ď": 208,
      "Đ": 209,
      "đ": 210,
      "Ē": 211,
      "ē": 212,
      "Ĕ": 213,
      "ĕ": 214,
      "Ė": 215,
      "ė": 216,
      "Ę": 217,
      "ę": 218,
      "Ě": 219,
      "ě": 220,
      "Ĝ": 221,
      "ĝ": 222,
      "Ğ": 223,
      "ğ": 224,
      "Ġ": 225,
      "ġ": 226,
      "Ģ": 227,
      "ģ": 228,
      "Ĥ": 229,
      "ĥ": 230,
      "Ħ": 231,
      "ħ": 232,
      "Ĩ": 233,
      "ĩ": 234,
      "Ī": 235,
      "ī": 236,
      "Ĭ": 237,
      "ĭ": 238,
      "Į": 239,
      "į": 240,
      "İ": 241,
      "ı": 242,
      "Ĳ": 243,
      "ĳ": 244,
      "Ĵ": 245,
      "ĵ": 246,
      "Ķ": 247,
      "ķ": 248,
      "ĸ": 249,
      "Ĺ": 250,
      "ĺ": 251,
      "Ļ": 252,
      "ļ": 253,
      "Ľ": 254,
      "ľ": 255,
      "Ŀ": 256,
      "ŀ": 257,
      "Ł": 258,
      "ł": 259,
      "Ń": 260,
      "Ø§": 261,
      "ÛĮ": 262,
      "ĠØ": 263,
      "Ú©": 264,
      "ĠÙ": 265,
      "Ø±": 266,
      "ÙĪ": 267,
      "Ûģ": 268,
      "ÛĴ": 269,
      "ĠÚ©": 270,
      "ÙĨ": 271,
      "Ø§Ø": 272,
      "ÙĦ": 273,
      "Ùħ": 274,
      "ĠÙħ": 275,
      "Úº": 276,
      "ĠØ§": 277,
      "Øª": 278,
      "ĠÛģ": 279,
      "ÛĮÚº": 280,
      "Ø¯": 281,
      "ĠØ³": 282,
      "Ø³": 283,
      "Ú¯": 284,
      "ĠØ¨": 285,
      "Ú¾": 286,
      "ĠÙĨ": 287,
      "Ø¨": 288,
      "ĠÚ©ÛĮ": 289,
      "ÙĪØ±": 290,
      "ĠÙ¾": 291,
      "ĠÚ©ÛĴ": 292,
      "Ø§ÙĨ": 293,
      "ĠØª": 294,
      "Ø§Ø±": 295,
      "ĠØ§Ø": 296,
      "ĠØ¬": 297,
      "ĠÛ": 298,
      "Ù¹": 299,
      "ĠÛĶ": 300,
      "ĠØ¯": 301,
      "ÙĤ": 302,
      "Ùģ": 303,
      "ĠÙħÛĮÚº": 304,
      "Ø§Ø¦": 305,
      "Ø¹": 306,
      "ĠÙĪ": 307,
      "ÙĪÚº": 308,
      "ĠÚ©Ø±": 309,
      "ĠÚ¯": 310,
      "Ø¦": 311,
      "ĠØ±": 312,
      "ĠÚ©Ûģ": 313,
      "Ø§ÙĦ": 314,
      "Ø²": 315,
      "ĠÛģÛĴ": 316,
      "Ø´": 317,
      "ĠØ§ÙĪØ±": 318,
      "Ù¾": 319,
      "Ø±ÛĮ": 320,
      "Ø§Ùħ": 321,
      "ĠÚ©ÙĪ": 322,
      "ÚĨ": 323,
      "Ø¬": 324,
      "ĠÙĦ": 325,
      "ĠØ³ÛĴ": 326,
      "Ø§Øª": 327,
      "ĠØĮ": 328,
      "ÛĮØ§": 329,
      "ĠÙĨÛĴ": 330,
      "ĠØ¢": 331,
      "ØŃ": 332,
      "ĠÚ©Ø§": 333,
      "ÚĪ": 334,
      "ĠÛģÙĪ": 335,
      "ÙĨÛĴ": 336,
      "ĠØ§ÙĨ": 337,
      "ĠØ¹": 338,
      "ĠÙ¾Ø±": 339,
      "ĠØ§Ø³": 340,
      "ÛĮÙĨ": 341,
      "ĠØ®": 342,
      "ĠØŃ": 343,
      "ĠØ´": 344,
      "ÛĮÚ©": 345,
      "ĠÙģ": 346,
      "Ø§Ø¯": 347,
      "Ø¦ÛĴ": 348,
      "Øµ": 349,
      "Ú¾ÛĮ": 350,
      "Ø§Ø¨": 351,
      "Ø§Ûģ": 352,
      "ÙĦÛĮ": 353,
      "ÛĮØ±": 354,
      "ĠÙĤ": 355,
      "ĠÚĨ": 356,
      "Ø§Ø³": 357,
      "ĠÛģÛĮÚº": 358,
      "Ø®": 359,
      "ĠÛĮ": 360,
      "Ø¦ÛĮ": 361,
      "Ø·": 362,
      "ÙħÛĮ": 363,
      "ĠØ§ÙĦ": 364,
      "ÙĪÙĨ": 365,
      "Ø§Ø²": 366,
      "ĠÙĨÛģ": 367,
      "Úĳ": 368,
      "ĠØµ": 369,
      "ĠØ¨Ú¾ÛĮ": 370,
      "ÙĦÛģ": 371,
      "ĠØ§ÛĮ": 372,
      "ĠØ±Ûģ": 373,
      "Ø§Ø¦ÛĮ": 374,
      "ØªÛĴ": 375,
      "Ø§Ú©": 376,
      "ĠÚ©ÛĮØ§": 377,
      "ÙĦØ§": 378,
      "ÙĨØ§": 379,
      "Ú©ÛĮ": 380,
      "ĠÚ©ÛģØ§": 381,
      "ØªÛĮ": 382,
      "ĠØªÚ¾": 383,
      "ÙĪÙĦ": 384,
      "ÙĨÛĮ": 385,
      "Ġ)": 386,
      "ÛĮØ¯": 387,
      "ĠØ§Ù¾": 388,
      "ĠØ·": 389,
      "ĠÙ¹": 390,
      "ĠÚĪ": 391,
      "ĠØ²": 392,
      "ĠØ¯ÛĮ": 393,
      "Ø§Ø±ÛĮ": 394,
      "Ù¹ÛĮ": 395,
      "Ø¸": 396,
      "Ġ2": 397,
      "ÙĨØ¯": 398,
      "Ø±Ø¯": 399,
      "ĠÙĨÛģÛĮÚº": 400,
      "Ġ(": 401,
      "Ø³Øª": 402,
      "ĠÙĦÛĮ": 403,
      "ÙĨÙ¹": 404,
      "ĠÛĮÛģ": 405,
      "ĠÙħÙĦ": 406,
      "ÙĪÙħ": 407,
      "Ø¶": 408,
      "ĠØ§ÛĮÚ©": 409,
      "Ø§Ø¦ÛĴ": 410,
      "ØªØ§": 411,
      "ĠÙ¾ÛĮ": 412,
      "Ø³ÛĮ": 413,
      "Ø´ÙĨ": 414,
      "Ø¨Ø±": 415,
      "ÙĨÚ¯": 416,
      "âĢ": 417,
      "ĠØªÙĪ": 418,
      "ĠØ±ÙĪ": 419,
      "Ø±ÙĪ": 420,
      "ĠÙĪØ§ÙĦ": 421,
      "Ø±ÛĮÙĨ": 422,
      "ÙĪØ¯": 423,
      "Ú©ÛĴ": 424,
      "ĠÚ¯ÛĮØ§": 425,
      "Ú¯Ø±": 426,
      "ĠÙħÙĪ": 427,
      "Ø§ÙĨÛģ": 428,
      "Ù¹Ø±": 429,
      "ĠØ¬ÙĪ": 430,
      "ĠØ§Ø®": 431,
      "ĠÙĪÛģ": 432,
      "ÛĮÙħ": 433,
      "ÛĮÙĦ": 434,
      "Ø§ÙĨÛĮ": 435,
      "Ø§Ø±Øª": 436,
      "Ġ20": 437,
      "ĠÚ©Ø±ÙĨÛĴ": 438,
      "ĠÙ¾ÙĪ": 439,
      "ĠØ¬Ø³": 440,
      "ÙħØ¯": 441,
      "ĠÙħØŃ": 442,
      "ĠÙħÙĨ": 443,
      "Ø§Ùģ": 444,
      "ĠØªÚ¾Ø§": 445,
      "Ø§ÙĨÛĴ": 446,
      "ÛĮØª": 447,
      "Ø¹Ø¯": 448,
      "ĠÛģÙĪØ¦ÛĴ": 449,
      "Ú©Ûģ": 450,
      "ĠÙħØ¹": 451,
      "Ø§Ø¹": 452,
      "ĠÚ¯Ø§": 453,
      "ĠØ¯ÛĮØ§": 454,
      "Ú¾Ø±": 455,
      "ÙĦÛĴ": 456,
      "Ġ201": 457,
      "Ø§Ø¨ÙĤ": 458,
      "Ø«": 459,
      "ÙĪØ¨": 460,
      "ĠÙħØ·": 461,
      "Ø°": 462,
      "ĠÛģÙħ": 463,
      "Ġ1": 464,
      "Ø±Ùģ": 465,
      "ĠØ§ÙĦÙĦÛģ": 466,
      "Ø³ÙĦ": 467,
      "Ø¡": 468,
      "ĠØ³ÛĮ": 469,
      "Ø§ÙĤ": 470,
      "Ú©Ú¾": 471,
      "ĠØ¨ÛĮ": 472,
      "Ø§Ø¬": 473,
      "ÙħØ§ÙĨ": 474,
      "ĠØªØ±ÛĮÙĨ": 475,
      "Ø¢": 476,
      "ĠØªØ¹": 477,
      "ĠØŃÚ©": 478,
      "ĠÙģØ±": 479,
      "ĠÚ©Ø±ØªÛĴ": 480,
      "Ø§Ø²Ûģ": 481,
      "Ø§ØªÚ¾": 482,
      "ĠÙĦÛĮÛĴ": 483,
      "ĠÙģÛĮ": 484,
      "Øº": 485,
      "Ø§Ø¦ÙĨÙ¹": 486,
      "ĠØ§Ø±Ø¯": 487,
      "ĠØªÙħ": 488,
      "ĠØ§Ø¹": 489,
      "ĠØ§Ø®Ø¨": 490,
      "ÛĮÛģ": 491,
      "ĠØ§Ùħ": 492,
      "Ġ2018": 493,
      "ĠØ§Ø±Ø¯ÙĪ": 494,
      "ĠÙħÙĤ": 495,
      "ĠÚ¯ÛĴ": 496,
      "Ø§Úº": 497,
      "ĠØ¯ÙĪ": 498,
      "Ø±Ú©": 499,
      "ĠØ±ÛģÛĴ": 500,
      "ĠØ¬Ø§Ø¦ÛĴ": 501,
      "ÙħÙĦ": 502,
      "ĠÙ¾ÙĪØ§Ø¦ÙĨÙ¹": 503,
      "ÙģØ±": 504,
      "ĠØ³Ú©": 505,
      "ĠÙ¾Ûģ": 506,
      "ĠÙħÛĮ": 507,
      "ĠØ§Ø¨": 508,
      "Ú¯ÛĮ": 509,
      "ĠØ§Ø®Ø¨Ø§Ø±Øª": 510,
      "ĠØ§Ø®Ø¨Ø§Ø±ØªØ§Ø²Ûģ": 511,
      "ĠÛģÛĮ": 512,
      "âĢĺ": 513,
      "ĠØ§Ù¾ÙĨÛĴ": 514,
      "ĠØº": 515,
      "ĠÙħØ·Ø§Ø¨ÙĤ": 516,
      "Ø³Ø±": 517,
      "ĠØ¬ÙĨ": 518,
      "ĠØ¨ÙĨ": 519,
      "ĠØ¨Ø±": 520,
      "ÙĪÛĮ": 521,
      "ĠÙĦÙĪ": 522,
      "Ø¨Ø§Ø¯": 523,
      "Ø§ÙĦÛĮ": 524,
      "ĠØ¬Ø§ÙĨ": 525,
      "ĠØ¯Ø±": 526,
      "ÙĦØ§Ùħ": 527,
      "Ø´Øª": 528,
      "ĠØ§Ø¯": 529,
      "ÙĪØ±ÛĮ": 530,
      "Ú©Ø±": 531,
      "ĠØ¬Ø§": 532,
      "ĠÙĪØ²": 533,
      "ĠØªÚ©": 534,
      "ĠØ³Ø§ØªÚ¾": 535,
      "ĠØ¨Ûģ": 536,
      "Ø§ØŃ": 537,
      "Ø§ÙĨÛģÙĪÚº": 538,
      "ĠÙħØª": 539,
      "ĠØ¨Ø¹Ø¯": 540,
      "ĠÚ¯Ø¦ÛĮ": 541,
      "ĠØ§ÙĨÛģ": 542,
      "ÙĦØ¦ÛĴ": 543,
      "ĠØ¶": 544,
      "ĠÚ©Ùħ": 545,
      "ĠÙĦØ¦ÛĴ": 546,
      "ĠØ°": 547,
      "Ø¬Ûģ": 548,
      "Ø¯Ø±": 549,
      "ÙĤÛĮ": 550,
      "ĠÚ©ÛĮÙĦØ¦ÛĴ": 551,
      "ÙĪÛģ": 552,
      "ĠØ³Ø±": 553,
      "ĠØ¯ÙĪØ±": 554,
      "ÙĪØ§Ùħ": 555,
      "ÙħØ§": 556,
      "ĠÚ¯ÛĮ": 557,
      "Ø§Ø±ÛĴ": 558,
      "ĠÚ©Ø§Ø±": 559,
      "ÙĪØ§ÙĦ": 560,
      "ĠØ¢Ù¾": 561,
      "ĠÚ©Ø§Ùħ": 562,
      "Ú©Ø§": 563,
      "Ø®Øª": 564,
      "ĠÙ¾Ø§Ú©": 565,
      "ÙħÛĮÚº": 566,
      "Ø§ÙĪØ±": 567,
      "ĠØªØŃ": 568,
      "ĠÙĨÙĪ": 569,
      "ĠÙĪØ§ÙĦÛĴ": 570,
      "ĠØ®Ø§ÙĨ": 571,
      "Ø³Ù¹": 572,
      "ÙħÛģ": 573,
      "ĠØ¹ÙĦÛĮ": 574,
      "ÙĪÙħØª": 575,
      "Ø±Ø¨": 576,
      "ÙĦØ§Ùģ": 577,
      "ĠØ§ÛĮØ³": 578,
      "ĠØ´Ûģ": 579,
      "ĠØªÚ¾ÛĴ": 580,
      "Ø§Øµ": 581,
      "ĠØ§ØŃ": 582,
      "ĠÙĪØ²ÛĮØ±": 583,
      "ĠØ§Ù¾ÙĨÛĮ": 584,
      "ÙĤØª": 585,
      "Ø¦Ø±": 586,
      "ÛĮØ§Ø¯": 587,
      "ÙĴ": 588,
      "Ø§Ø´": 589,
      "ĠÙĦÙĪÚ¯": 590,
      "ĠØ¨Úĳ": 591,
      "Ø±ØŃ": 592,
      "ĠØ¨Ú¾": 593,
      "ĠÚ©Ø±ÛĮÚº": 594,
      "ĠÚ©Ú¾": 595,
      "ĠØ±Ú©Ú¾": 596,
      "ĠØ®ÙĪ": 597,
      "ĠÛģÙĪÙĨÛĴ": 598,
      "ĠØ¨ÛģØª": 599,
      "ÙĦØ§ÙĤ": 600,
      "Ø³ØªØ§ÙĨ": 601,
      "ĠØ¢Ø¨Ø§Ø¯": 602,
      "ÙĦÙĤ": 603,
      "ÚĨÚ¾": 604,
      "Ú©ÙĪ": 605,
      "ĠØ³Ø§ÙĦ": 606,
      "ĠÙħÙĦÚ©": 607,
      "ÙħØ±": 608,
      "ĠÙģÛĮØµ": 609,
      "ĠØ¬Ø¨": 610,
      "ĠØ§ÙĨØª": 611,
      "ĠÚ¯Ø¦ÛĴ": 612,
      "ĠØªØ±": 613,
      "Ø§Ø¡": 614,
      "Ø¯Ûģ": 615,
      "ĠÚ©ÙĪØ¦ÛĮ": 616,
      "Ġ:": 617,
      "Ø§Ø¦ÛĮÚº": 618,
      "ÚĪÛĮ": 619,
      "ĠØ¨ÙĦ": 620,
      "ĠØ±ÛĮ": 621,
      "Ø§Ø¶": 622,
      "Ø±Øª": 623,
      "ÙģÛĮ": 624,
      "ĠØ¢Ø¦ÛĮ": 625,
      "Ø¯ÛĮ": 626,
      "ĠØ§Ûģ": 627,
      "ĠØŃÚ©ÙĪÙħØª": 628,
      "ĠØ¹ÙĪØ§Ùħ": 629,
      "ØªÙħ": 630,
      "ÛĮØ§Úº": 631,
      "ĠÚ©ÛģÙĨØ§": 632,
      "ĠØ¬Ø§Øª": 633,
      "ĠØ®ÙĦØ§Ùģ": 634,
      "ĠØ¬Ø§Ø±ÛĮ": 635,
      "Ø§Ø±ÙĪÚº": 636,
      "ĠÚ©Ø³ÛĮ": 637,
      "Ø¬ÙĪØ¯": 638,
      "ĠÙħØ³": 639,
      "ĠØ³Ø¨": 640,
      "Ø³ÛĴ": 641,
      "Ø²ÛĮ": 642,
      "ÙģØª": 643,
      "Ġn": 644,
      "Ġr": 645,
      "Ø§Ø³Øª": 646,
      "ĠÙ¹ÛĮ": 647,
      "Ø¨ÙĦ": 648,
      "ĠÚĪÛĮ": 649,
      "ĠØ³ÙĪ": 650,
      "ĠÚĨÛĮ": 651,
      "ÙħØ§ÙĦ": 652,
      "Ø¨ÛĮ": 653,
      "ĠØ¨Ø§Øª": 654,
      "ÙĪØ±Øª": 655,
      "ÙĪØ±Ù¹": 656,
      "ĠØ±ÛģØ§": 657,
      "ĠÙħØŃÙħØ¯": 658,
      "ĠØ¬Ø§ÙĨØ¨": 659,
      "ĠØ¯ÙĨ": 660,
      "ĠØ§Ø³Øª": 661,
      "ĠÙ¾ÛĮØ´": 662,
      "ĠÙħØ´": 663,
      "ÙĪØ³": 664,
      "Ø¨Ûģ": 665,
      "Ø¬Ø¨": 666,
      "ĠÙĦÛĮØ§": 667,
      "ÙĦÙħ": 668,
      "ĠØªÚ¾ÛĮ": 669,
      "Ø§Ù¾": 670,
      "ĠÚĨØ§Ûģ": 671,
      "ĠÙĦÚ¯": 672,
      "ĠØªÙħØ§Ùħ": 673,
      "ĠØ¬Ùħ": 674,
      "Ù¹Ú¾": 675,
      "ĠØ¨ÚĨ": 676,
      "ĠÛģÙĪÚº": 677,
      "ĠÙĨÛĮ": 678,
      "ÛĮÚ©ÙĨ": 679,
      "ĠÛģØ±": 680,
      "ĠØ§Ø¬": 681,
      "ĠÚĨÚ¾": 682,
      "ÙĤØ¹": 683,
      "Ø¯Ø§Ø±": 684,
      "Ø§Ø¦ÙĦ": 685,
      "ĠØ§ÙĨÛģÙĪÚº": 686,
      "ĠØ§Ùģ": 687,
      "ĠÙĨØ§Ùħ": 688,
      "ĠÛĮØ§": 689,
      "Ø±Ûģ": 690,
      "ĠÚ©ÙħÛĮ": 691,
      "ĠØ±ÙĪØ²": 692,
      "ÙħØª": 693,
      "Ġ3": 694,
      "ĠØ±ÛģÛĮ": 695,
      "Ø§ÙĪ": 696,
      "Ø§ÛģÙħ": 697,
      "ĠØ²ÛĮØ§Ø¯": 698,
      "Ø¬Ú¾": 699,
      "ÙĨØ³": 700,
      "ĠÛģÙĪØ§": 701,
      "ÚĨÛĮ": 702,
      "Ø±ÛĮÚ©": 703,
      "Ø§Ø±Ûģ": 704,
      "ĠÙħØ²": 705,
      "Ø§Ø¤": 706,
      "ÙĪÙ¹": 707,
      "ĠÙħÛģ": 708,
      "ĠØ§ÛĴ": 709,
      "ÙħÛĮØ±": 710,
      "ĠØ§ÙĪ": 711,
      "ÛĮÙĨÛĮ": 712,
      "Ø§Ø¯ÛĮ": 713,
      "ĠØ®Ø·": 714,
      "ĠØ¯ÙĪØ±Ø§ÙĨ": 715,
      "ÙĪÙĨÛĮ": 716,
      "Ø¬ÛĮ": 717,
      "ĠØ·Ø±ØŃ": 718,
      "Ù¹Ø³": 719,
      "ĠÙĨÙħ": 720,
      "ĠÙĨØ¸": 721,
      "Ø¬ÙĪ": 722,
      "ÛģØ§Ø±": 723,
      "ĠÙħÙĪÙĤØ¹": 724,
      "ĠØªÛĮ": 725,
      "ĠÙħÙĪØ¬ÙĪØ¯": 726,
      "Ø¯Ø§": 727,
      "ĠØ§ÙĤ": 728,
      "ÙħÛĮÙĨ": 729,
      "ĠØ³ÛĮÚ©": 730,
      "Ø³Ùħ": 731,
      "ĠØ²ÛĮØ§Ø¯Ûģ": 732,
      "âĢĻ": 733,
      "ĠØ¯ÛĮÚ¯Ø±": 734,
      "ĠÙĪÙĤØª": 735,
      "Ø§ÙħØ§Øª": 736,
      "Ú©ÙĦ": 737,
      "Ø±ÛĮØ¨": 738,
      "ĠØ±ÙĪÙ¾": 739,
      "ĠØ¬ÛĮ": 740,
      "ĠÙĤØ±": 741,
      "ĠÚ©Ø±ÙĨØ§": 742,
      "ĠØ§ÙģØ±": 743,
      "Ø§Ø®": 744,
      "Ø±ÛĮÙģ": 745,
      "ĠØ§Ú©": 746,
      "ĠÙ¾Ø§Ú©Ø³ØªØ§ÙĨ": 747,
      "ĠØ³Ùħ": 748,
      "Ø§ØµÙĦ": 749,
      "Ø¯Ø§ÙĦ": 750,
      "Ø®ÙĪ": 751,
      "ĠØ¯ÛĴ": 752,
      "ĠÚ©Ø±ÙĪ": 753,
      "ĠØªÙĤ": 754,
      "ĠØ¹ÙĦØ§ÙĤ": 755,
      "Ø§ÙħÙĦ": 756,
      "ÚĳÛĮ": 757,
      "Ø§Ø³ÛĮ": 758,
      "ÙĪØª": 759,
      "ĠÚ©ÙĦ": 760,
      "ÙĨÚĨ": 761,
      "ĠÙ¾Ø§Ø±": 762,
      "ĠØ·ÙĪØ±": 763,
      "ĠØ§ÙģØ±Ø§Ø¯": 764,
      "ĠØ±ÙĪÙ¾ÛĴ": 765,
      "ĠÙħØ³ÙĦ": 766,
      "Ø³Ù¾": 767,
      "Ú©ÙĨ": 768,
      "ĠØ§Øª": 769,
      "ĠÙĦÙĪÚ¯ÙĪÚº": 770,
      "Ø´ÛĮ": 771,
      "ĠØ¨ØªØ§": 772,
      "ĠØ¨ÙĨØ§": 773,
      "ÙħÛĮØª": 774,
      "ĠØ§Ø¸": 775,
      "ÙĪÙĦÛĮ": 776,
      "ĠÙĪØ§ÙĦÛĮ": 777,
      "ĠØŃÙĪØ§ÙĦ": 778,
      "ĠÚ¯Ø²": 779,
      "ĠØ§Ú¯Ø±": 780,
      "ĠÙħØ¯": 781,
      "Ù¹Ø±ÛĮ": 782,
      "ĠØµØŃ": 783,
      "ĠÙ¾ÙĪØ±": 784,
      "Ø§Ø¦Ø¯": 785,
      "ÙĦÙģ": 786,
      "Ø¸Ùħ": 787,
      "Ø¹Ûģ": 788,
      "Ø§ÛģØ±": 789,
      "ĠÙĦÛĮÚ©ÙĨ": 790,
      "Ø§Ø¹Øª": 791,
      "Ø®Øµ": 792,
      "ĠÙħØªØ¹": 793,
      "ÙħÙĨ": 794,
      "ĠØ³Ø§Ùħ": 795,
      "ĠØ¨Ú¾Ø±": 796,
      "ĠØ¹ÙħÙĦ": 797,
      "ĠØ¶Ø±": 798,
      "Ú©Ø§Ø±": 799,
      "ØµÛĮÙĦ": 800,
      "ĠÙħØ®Øª": 801,
      "ĠØ§ÛĮÙĨ": 802,
      "ĠÙĪÛĮ": 803,
      "ĠØ¨ØªØ§ÛĮØ§": 804,
      "ĠØ§Ø¸ÛģØ§Ø±": 805,
      "ĠÚ©Ø´": 806,
      "ĠØ·Ø±Ùģ": 807,
      "Ø§ØªÛĮ": 808,
      "ĠØ¯ÛĮÚ©": 809,
      "ĠÙĪØ¬Ûģ": 810,
      "ĠØ§ÙĨØ³": 811,
      "ĠØ¹Ø¨": 812,
      "ĠØµÙĪØ¨": 813,
      "ĠØŃØ§ØµÙĦ": 814,
      "ĠØ³ÙĦ": 815,
      "ĠÙħÚ©": 816,
      "Ø¯ÙĪ": 817,
      "ĠØ¯Ûģ": 818,
      "ĠØŃÙĤ": 819,
      "ĠÛģÙĪØ¦ÛĮ": 820,
      "ĠØŃÙĪØ§ÙĦÛĴ": 821,
      "ĠÙħØ²ÛĮØ¯": 822,
      "ĠØ§ÛĮÙħ": 823,
      "ĠÙ¾ÛģÙĨÚĨ": 824,
      "ĠÙħÛĮÙĨ": 825,
      "Ø§ÙĨØ§": 826,
      "Ø§ÛĮØ§": 827,
      "ĠØ¹ÙĦÛĮÛģ": 828,
      "ĠØ§Ø³ÙĦØ§Ùħ": 829,
      "ĠØŃØ³": 830,
      "ÙĦØ§Ø³": 831,
      "Ġ4": 832,
      "ĠÙ¾ÛģÙĦÛĴ": 833,
      "Ø±ÙĦ": 834,
      "ĠØ§ÙĨÛģÛĮÚº": 835,
      "Ø±Ø²": 836,
      "ĠØ«": 837,
      "Ø±Ùħ": 838,
      "ĠÙ¹ÛĮÙħ": 839,
      "Ø´ØªÛģ": 840,
      "ĠØºÛĮØ±": 841,
      "Ø§ÛĮ": 842,
      "Ø§Ø¦ÙĨ": 843,
      "ĠØ®ÛĮ": 844,
      "Ù¾ÙĪØ±Ù¹": 845,
      "Ġ5": 846,
      "ĠØµØ¯Ø±": 847,
      "ĠØ¯ÛĮÚ©Ú¾": 848,
      "ĠÛģØ²": 849,
      "ĠÙħÛĮÚĪ": 850,
      "ĠÙħØªØ¹ÙĦÙĤ": 851,
      "ĠÙ¾Úĳ": 852,
      "ĠØ´Ø§Ûģ": 853,
      "Ø¬ÙĨ": 854,
      "ĠØ§Ø³ØªØ¹": 855,
      "ØªØ±": 856,
      "ÙĪØµ": 857,
      "ĠØ¢Ø±": 858,
      "Ù¾ÛĮ": 859,
      "Ø±ÙĪØ¹": 860,
      "ÛģØ±": 861,
      "Ø§Ø¨ÛĮ": 862,
      "ĠØ´ÛĮ": 863,
      "ĠØ¬Ø§Ø¦ÛĮÚº": 864,
      "ĠØ§Ø¶": 865,
      "ĠÙĦÛĴ": 866,
      "Ø§Ø¦Ùħ": 867,
      "Ø¯Ùħ": 868,
      "ĠØªÙĨ": 869,
      "ĠÚ©ÚĨÚ¾": 870,
      "ĠØ±Ø³": 871,
      "ĠØ¨ÙĨØ¯": 872,
      "ĠØ¢Ø¦": 873,
      "ÙģØµÛĮÙĦ": 874,
      "ĠØ¹ÙħØ±": 875,
      "ĠÙ¾Ø±ÙĪ": 876,
      "Ø§ÚĨÛĮ": 877,
      "ĠÙħØ±": 878,
      "ĠØ´Ø±ÙĪØ¹": 879,
      "ĠØŃØ¶": 880,
      "Ø±ÙģØª": 881,
      "ÙĪØ²": 882,
      "ĠØ¨ÛĮØ§ÙĨ": 883,
      "ĠØ¨Ø¯": 884,
      "Ù¾Ø±": 885,
      "ĠÙħØ®ØªÙĦÙģ": 886,
      "Ø¹ÛĮ": 887,
      "ĠØ³ÙĨ": 888,
      "Ø¬Ø¨Ú©Ûģ": 889,
      "ĠÙħÙĦØ²": 890,
      "ĠØ¢Ú¯": 891,
      "ĠØ¨Ø§Ø±": 892,
      "ĠÚ©Ø±ÛĴ": 893,
      "ĠØµØ±Ùģ": 894,
      "ØµÙĪØ¨": 895,
      "ĠØ¯ÙĦ": 896,
      "ĠÙ¾Ú¾Ø±": 897,
      "ĠâĢĺ": 898,
      "ÙĦØ§ÙĨ": 899,
      "ĠÙĤØ§ÙĨ": 900,
      "Ø§ÛģÙĪØ±": 901,
      "ĠØŃØ§ÙĦ": 902,
      "ØªÙĪ": 903,
      "ĠÙĤÙĪ": 904,
      "ĠØ´Ø§ÙħÙĦ": 905,
      "ĠÚ¯Ø±ÙģØª": 906,
      "ĠØ§ØŃÙħØ¯": 907,
      "ĠØ¬Ø¨Ú©Ûģ": 908,
      "ĠØ³Ú©ØªØ§": 909,
      "ĠÛģÙĪØªØ§": 910,
      "ĠØ¬ÙĦ": 911,
      "ĠØ§Ø³ØªØ¹ÙħØ§ÙĦ": 912,
      "ĠÙħÛĮØ±": 913,
      "ĠØ¸": 914,
      "ĠØ¢Ùģ": 915,
      "ĠØ¬Ø§ÙĨÛĴ": 916,
      "ĠÙ¾ÛĮØ¯": 917,
      "Ùĳ": 918,
      "ĠØ´Ø®Øµ": 919,
      "ĠÛģØ¯Ø§": 920,
      "ĠØŃØµ": 921,
      "ĠØ¢Ø¬": 922,
      "ĠØªØ±ÙĤÛĮ": 923,
      "Ø§Ø³ÙĦØ§Ùħ": 924,
      "ÙģØµÛĮÙĦØ§Øª": 925,
      "ÙĪÙĨÙĪÚº": 926,
      "ĠÙĪÙģ": 927,
      "ĠÚ©Ø¦ÛĴ": 928,
      "ĠØ¨ÛĴ": 929,
      "ĠÙģÛĮØµÙĦÛģ": 930,
      "ĠØ³ÙħÛĮØª": 931,
      "ĠÙĪØ§ÙĤ": 932,
      "ĠØ§Ø³ÛĴ": 933,
      "ĠØ¯Ú¾": 934,
      "ĠÙĨØ´": 935,
      "ĠØªØ¹Ø§ÙĦÛĮ": 936,
      "ĠÙħØ°": 937,
      "Ø¯ÛĮØ¯": 938,
      "ĠØªØ¨": 939,
      "ĠÙħØ§Ø±": 940,
      "ÙĨÚĪ": 941,
      "ØŃÚ©": 942,
      "ĠÛģØ²Ø§Ø±": 943,
      "ĠØ¬Ûģ": 944,
      "ÙĪØ±Ø³": 945,
      "ÙĪÙĤ": 946,
      "Ġ6": 947,
      "ĠØ§ÙħÛĮ": 948,
      "ÙĦØ¨": 949,
      "Ø§ÙħÛĮ": 950,
      "ÙĦÛĮÙħ": 951,
      "ĠØªØ¬": 952,
      "ĠÙģØ±ÙħØ§": 953,
      "Ú¯ÙĪ": 954,
      "Ø§Ú©Ú¾": 955,
      "Ú©Ù¹": 956,
      "ĠØªÛĮÙĨ": 957,
      "ĠØ¯ÙĪØ³Ø±": 958,
      "ĠÚ¯Ú¾Ø±": 959,
      "ĠØ¬Ø§ØªØ§": 960,
      "00": 961,
      "ĠØ®ÙĪØ¯": 962,
      "Ø±ÛĮÙĦ": 963,
      "ĠØ³Ø§Ø¨ÙĤ": 964,
      "ĠÙħØ³Øª": 965,
      "Ø´Ûģ": 966,
      "ØªØ§ÙĦ": 967,
      "ĠØ§Ø¶Ø§Ùģ": 968,
      "ĠÙħØ§Ûģ": 969,
      "ĠØ´Ø±ÛĮÙģ": 970,
      "ĠØ§Ø¹ÙĦÛĮ": 971,
      "ĠØ¨ÚĳÚ¾": 972,
      "ĠØ¯ÛĮÚº": 973,
      "ĠØ¨Ø¬": 974,
      "Ø¨Øª": 975,
      "ĠÙģÙĪ": 976,
      "ĠØµÙĪØ±Øª": 977,
      "ÙĨØ¬": 978,
      "ĠÙħØ¬": 979,
      "Ø§ÙĤÛĮ": 980,
      "ĠØ¢Ø²": 981,
      "ĠÙħÚ©ÙħÙĦ": 982,
      "ĠÚ©ÛĮÛĴ": 983,
      "ĠØŃØ¶Ø±Øª": 984,
      "ĠØ¨ÙĨÛĮ": 985,
      "ĠØ§ÙĨØªØ¸": 986,
      "Ø³ÙĦÙħ": 987,
      "ĠØ¨Ø§ÙĦ": 988,
      "ĠÛĮÙĤ": 989,
      "ĠÙħÛĮÚĪÛĮØ§": 990,
      "ĠØ¨ØŃ": 991,
      "ØºÛĮØ±": 992,
      "ĠØ§ÙħØ±ÛĮ": 993,
      "ĠÙĦØ§Ú©Ú¾": 994,
      "ÛĮØ§Øª": 995,
      "ĠÚ¯Ø±": 996,
      "ĠÙ¾Ø§Ø±Ù¹ÛĮ": 997,
      "ĠØ¯ÛĮÙĨÛĴ": 998,
      "ĠØ´ÛģØ±": 999,
      "ĠÙ¾Ø§Ø³": 1000,
      "Ø§Ø¦Ø±": 1001,
      "ĠØ¦": 1002,
      "ÙĦÙĪÙħ": 1003,
      "ĠØ§Ø´": 1004,
      "ĠÚ©Ø§ÙħÛĮ": 1005,
      "Ø§Ú©Ûģ": 1006,
      "ĠØ§Ø¯Ø§": 1007,
      "Ø§Ø¶ØŃ": 1008,
      "ĠØ§Ù¹Ú¾": 1009,
      "ĠØ´Ø±Ú©": 1010,
      "Ø³ØªØ§ÙĨÛĮ": 1011,
      "ĠÚ¯Ú¾": 1012,
      "Ø¹ÛĴ": 1013,
      "ĠÚ¯Ø±Ø¯": 1014,
      "ĠØ±ÛģÙĨ": 1015,
      "ĠØ¨ÛĮÙĨ": 1016,
      "Ø¹ÙĤ": 1017,
      "ĠØ²ÙĨØ¯": 1018,
      "ĠØ§Ú¯": 1019,
      "ÛģÙħ": 1020,
      "ĠÚ©ÙĪØ´": 1021,
      "ÙĪÙĨÚ©Ûģ": 1022,
      "ĠØ³Ûģ": 1023,
      "ĠØ§Ø±": 1024,
      "Ø§Ø«": 1025,
      "ÛĮÚ©ÙĦ": 1026,
      "Ø´ÙĨÙĦ": 1027,
      "ĠØ§Ø¬ÙĦØ§Ø³": 1028,
      "ĠÙĨØ¸Ø±": 1029,
      "Ø³ÙĨØ¯": 1030,
      "ĠØ¯ÙĪÙĨÙĪÚº": 1031,
      "Ø§Ø¦Ø²": 1032,
      "ĠÙħØ§ÙĦ": 1033,
      "ĠØ³Ø§ÙħÙĨÛĴ": 1034,
      "ĠÛģØ¯Ø§ÛĮØª": 1035,
      "ĠØ®Ø·Ø§Ø¨": 1036,
      "ĠØ§ÛģÙĦ": 1037,
      "ĠÙģØ±ÙħØ§ÛĮØ§": 1038,
      "ĠÙĤØ¨": 1039,
      "ĠØ¯Ø¹": 1040,
      "ĠØ¹Ø§Ùħ": 1041,
      "ĠØ¬ÙĪÙĦ": 1042,
      "ÚĪØ±": 1043,
      "ĠÚ©ÛĮØ³": 1044,
      "ĠÙħÙĨØµÙĪØ¨": 1045,
      "Ø§ØªÛĴ": 1046,
      "ÙĨÙĪ": 1047,
      "ĠÙĤÙĪÙħÛĮ": 1048,
      "ĠØ¬ÙĪÙĦØ§Ø¦ÛĮ": 1049,
      "Ø¬Ø³": 1050,
      "ĠØ´Ø¹": 1051,
      "ĠØ³ÛĮÙĨ": 1052,
      "ĠØ¹Ùħ": 1053,
      "ĠØ§ÙĤØ¯": 1054,
      "ĠÚĪØ§ÙĦ": 1055,
      "ÙĤÙĦ": 1056,
      "ĠÚ¯Ø±ÙģØªØ§Ø±": 1057,
      "Ġ7": 1058,
      "ÛĮÚ©Ø³": 1059,
      "Ø¢ÙħØ¯": 1060,
      "Ø§ÙĪÙĨ": 1061,
      "Ø§Øº": 1062,
      "Ø±ÛĮØ´ÙĨ": 1063,
      "ĠâĢ": 1064,
      "ĠØ¶ÙĦ": 1065,
      "ĠÙĨÙĪØ§Ø²": 1066,
      "ĠØ®ÛĮØ§ÙĦ": 1067,
      "ĠØ±Ù¾ÙĪØ±Ù¹": 1068,
      "ØªÙģØµÛĮÙĦØ§Øª": 1069,
      "ĠØ¨ÙĨØ§ÙĨÛĴ": 1070,
      "Ø§Ø¦Ø¹": 1071,
      "ĠØ§Ù¾ÙĨØ§": 1072,
      "ĠØŃÙĦ": 1073,
      "ĠÚ©ÙĪØ´Ø´": 1074,
      "ĠØµÙĦÛĮ": 1075,
      "ĠØ¨Ø§Ø¹": 1076,
      "ĠÙĪØ¢": 1077,
      "ĠØŃÚ©Ùħ": 1078,
      "ĠØ§Ø³ÛĮ": 1079,
      "ÙĦØ§ÛģÙĪØ±": 1080,
      "ĠÙĪØ³ÙĦÙħ": 1081,
      "ĠÙħØµ": 1082,
      "ÙĨÛģ": 1083,
      "ÙĪÚ©": 1084,
      "ĠØ§Ø²": 1085,
      "ĠÙĤØ±Ø§Ø±": 1086,
      "ĠÚ¯ÙĪ": 1087,
      "Ø§ÙĨÙĪÚº": 1088,
      "ĠÙħÙĨØª": 1089,
      "ĠÙĨÚ©": 1090,
      "ĠØ¯ÛģØ´Øª": 1091,
      "ĠØ¨Ø§Ø¹Ø«": 1092,
      "ĠÙĤÙĪÙħ": 1093,
      "ĠÙĪØ¢ÙĦÛģ": 1094,
      "ĠØ¯Ø§Ø±": 1095,
      "ĠØ¬ÙĨØ±ÙĦ": 1096,
      "Ø§Ø¸": 1097,
      "Ø®ÙĪØ§Ø³Øª": 1098,
      "ĠØªØ¹ÙĦÙĤ": 1099,
      "ĠÚĨÛĮØ¦Ø±": 1100,
      "ĠÙ¾Ø§Ú©Ø³ØªØ§ÙĨÛĮ": 1101,
      "ĠØ®Øµ": 1102,
      "ĠØ³Ø§Ø¦": 1103,
      "ĠÙĤØ¨ÙĦ": 1104,
      "ĠÙħØŃÚ©": 1105,
      "ĠÙħØ³Ø§Ø¦ÙĦ": 1106,
      "ĠØ³ÛĮØ§Ø³ÛĮ": 1107,
      "ĠØ®Ø§Øª": 1108,
      "ĠØ¬Ú¾": 1109,
      "ĠØ°Ø±ÛĮ": 1110,
      "ĠØªÙĤØ±ÛĮØ¨": 1111,
      "ĠØ§ÛģÙħ": 1112,
      "ĠØ§ÙĦØŃ": 1113,
      "Ù¾ÙĦ": 1114,
      "ĠÚ©Ø±ØªØ§": 1115,
      "ĠØ´ÛģØ±ÛĮ": 1116,
      "ĠÙħÙħ": 1117,
      "Ûĥ": 1118,
      "ĠâĢĻ": 1119,
      "ĠØªØµ": 1120,
      "ĠÚĨÙĦ": 1121,
      "ĠÙģØ±Ø§ÛģÙħ": 1122,
      "Ø±ÙĪØ§Ø¦ÛĮ": 1123,
      "ĠØ¹Ø§ÙĦ": 1124,
      "ĠØªØ´": 1125,
      "ĠØ®ØµÙĪØµ": 1126,
      "ĠØ¨Ø§Ø±ÛĴ": 1127,
      "ĠÛģÙĪØªÛĮ": 1128,
      "ÙĦØ§ÙĤØ§Øª": 1129,
      "Ø§ÛģÛĮ": 1130,
      "ĠØ§Ø·": 1131,
      "ĠÙħØ¦ÛĮ": 1132,
      "ĠÙĦÛĮÚ¯": 1133,
      "ĠØ¯Ø±ÙħÛĮ": 1134,
      "ĠØ³ÙĦØ³": 1135,
      "ĠØ±Ø¶": 1136,
      "Ġ8": 1137,
      "ĠØ¯ÛĮØªÛĴ": 1138,
      "ĠØ§Ø¹ÙĦØ§ÙĨ": 1139,
      "ĠÙĤØ§Ø¦Ùħ": 1140,
      "ĠØ§ÙĨØªØ®": 1141,
      "ĠÚ©Ø±Ø¯Ø§Ø±": 1142,
      "ĠÚ©ÙħÛĮÙ¹ÛĮ": 1143,
      "ĠÙģØ±ÙĪ": 1144,
      "Ø§Ø·": 1145,
      "ĠÙĪØ§ÙĦÙĪÚº": 1146,
      "ĠÙģÛĮØµØ¯": 1147,
      "ĠØ¹Ø¯Ø§ÙĦ": 1148,
      "Ø±ÛĮÙĤ": 1149,
      "ĠÙħØ¸": 1150,
      "Ø§ÙĨÚĨ": 1151,
      "ÙĪØ±Ù¹ÛĮ": 1152,
      "ĠØ³Ú©ØªÛĴ": 1153,
      "ĠÙ¾ÛĮØ¯Ø§": 1154,
      "ÙħÙĨÙ¹": 1155,
      "ĠØ§Ø±Ø¨": 1156,
      "ĠØ²ÛĮØ±": 1157,
      "ØªÛĮØ§Ø±": 1158,
      "ĠØ¬ÙħØ§Ø¹Øª": 1159,
      "ĠØ¨ÚĳÛĮ": 1160,
      "Ø§ØªÛĮÙĨ": 1161,
      "ĠØ§Øµ": 1162,
      "ĠÙĪØ§ÙĦØ§": 1163,
      "ĠÚ¯Ø²Ø´ØªÛģ": 1164,
      "ÙħØ¨": 1165,
      "ØªÙĪÚº": 1166,
      "ĠØ¯ÙĪØ³Ø±ÛĴ": 1167,
      "Ú©Ø±Ø§ÚĨÛĮ": 1168,
      "ĠØ¯Ø§Ø®": 1169,
      "ÙĤÛĮÙĤ": 1170,
      "ĠØ³Ø±Ú©": 1171,
      "ĠØªØŃØª": 1172,
      "ĠØ§ÙģØ³Ø±": 1173,
      "ĠÚ©ÙĪÙĨ": 1174,
      "ØªÙĪØ¨Ø±": 1175,
      "ĠØªÙħÛģ": 1176,
      "ĠØ§Ø¹Ø¸Ùħ": 1177,
      "ĠØ¯Ø±ÙħÛĮØ§ÙĨ": 1178,
      "ĠÙħÙĦÚ©ÛĮ": 1179,
      "ĠØ¯ÙĨÛĮØ§": 1180,
      "ĠÙ¾Ø±ÛĮ": 1181,
      "Ø§Ø±ØªÛĮ": 1182,
      "ĠÙ¾Ú¾": 1183,
      "Ø±Ø§Øª": 1184,
      "ĠÚ©Ø§ÙĨ": 1185,
      "Ø§Ø¨Ø·": 1186,
      "Ù¾ÙĨ": 1187,
      "ĠÚ©Ø§ÙĦ": 1188,
      "ĠÚĨØ§Ø±": 1189,
      "ĠØ§Ú©ØªÙĪØ¨Ø±": 1190,
      "Ø³ÙĨ": 1191,
      "ĠØ¢ÙĨÛĴ": 1192,
      "ÛĮÙĨÚĪ": 1193,
      "Ø¨ÙĪ": 1194,
      "ĠÛģÙħØ§Ø±ÛĴ": 1195,
      "ĠÙħÙĤØ§Ø¨": 1196,
      "ĠØ¢Ø¦ÛĴ": 1197,
      "ĠØªÙģ": 1198,
      "ĠØ§ÙħÛĮØ¯ÙĪ": 1199,
      "ĠÚ©Ø´ÙħÛĮØ±": 1200,
      "ĠØ±Ø³ÙĪÙĦ": 1201,
      "ĠÚ©Ø§Ø±Ø±ÙĪØ§Ø¦ÛĮ": 1202,
      "ĠØ·ÙĦØ¨": 1203,
      "Ø±ÛĴ": 1204,
      "ĠØ±ÙĤ": 1205,
      "ĠØ¹Ø¨Ø¯Ø§ÙĦ": 1206,
      "ÙĪÚĳ": 1207,
      "ÙĦÙĪ": 1208,
      "ĠØ²ÙĨØ¯Ú¯ÛĮ": 1209,
      "ĠÙħØ¹ÙĦÙĪÙħ": 1210,
      "Ø´ÙĦ": 1211,
      "ĠÚ©Ú¾ÛĮ": 1212,
      "ĠÚĨØ§ÛģÛĮ": 1213,
      "Ø§Ø²ÛĮ": 1214,
      "ĠØ¯Ø±Ø®ÙĪØ§Ø³Øª": 1215,
      "ÙĦØ§ÙĪÛģ": 1216,
      "ĠÙħÙĦØ§ÙĤØ§Øª": 1217,
      "Ú©Ø´": 1218,
      "ĠÙĤÛĮ": 1219,
      "Ø³ÙħØ¨Ø±": 1220,
      "ĠÙħÛĮÚĨ": 1221,
      "ĠÙ¾ÙĪÙĦÛĮ": 1222,
      "Ø¯Ú¯ÛĮ": 1223,
      "ĠØ¯ÛĮÙĨ": 1224,
      "ĠØ®ØªÙħ": 1225,
      "Ø¬Ú¾ÛĴ": 1226,
      "ĠØ³ØªÙħ": 1227,
      "ĠØªØ§ÛģÙħ": 1228,
      "ĠØµÙĪØ¨Ø§Ø¦ÛĮ": 1229,
      "Ø¦ÛĮÚº": 1230,
      "ĠÙ¾Ø³ÙĨØ¯": 1231,
      "ĠØ¯Ø³ÙħØ¨Ø±": 1232,
      "ĠÚĨÛĮØ²": 1233,
      "ĠØ´Ø±Ú©Øª": 1234,
      "ĠÚ©Ù¾": 1235,
      "ĠÚ©ÙħØ´ÙĨ": 1236,
      "ĠÙģØ§Ø±": 1237,
      "ÙĨØ¯Ûģ": 1238,
      "ÙĨØ²": 1239,
      "Ø±Ù¹Ø±ÛĮ": 1240,
      "ĠØµØŃØª": 1241,
      "ĠÙħÙĨØ¸": 1242,
      "Ø±Ø§ÙĨ": 1243,
      "Ú¯Ûģ": 1244,
      "ĠØ¢ÛĮØª": 1245,
      "Ġ-": 1246,
      "ĠÙħØ¨": 1247,
      "ĠØ®ÙĪØ§ØªÛĮÙĨ": 1248,
      "Ø³Ø±ÛĮ": 1249,
      "ÛĮÙĪÚº": 1250,
      "ĠØ§ÙĤØ¯Ø§ÙħØ§Øª": 1251,
      "ÙĦØ§Ø¹": 1252,
      "ĠØ®ØµÙĪØµÛĮ": 1253,
      "ĠØ§Ø¶Ø§ÙģÛģ": 1254,
      "ĠØ¬ÙĪÙĨ": 1255,
      "ÙĪØ§Ø±": 1256,
      "ÙĦØ§ØŃ": 1257,
      "ĠØ¹ÙĦØ§ÙĤÛĴ": 1258,
      "Ø¹Ø¯Ø§Ø¯": 1259,
      "Ø§ÙĪÙĦ": 1260,
      "ĠÛģÙĪÚ¯ÛĮ": 1261,
      "Ø§ÛĮÚ©": 1262,
      "Ø§Ø¹Ø¸Ùħ": 1263,
      "ĠØ¨ÛģØªØ±": 1264,
      "Ġ10": 1265,
      "ĠØ´Ùħ": 1266,
      "ĠØ³ØªÙħØ¨Ø±": 1267,
      "ĠÚ©Øª": 1268,
      "ĠØ§Ú¯Ø³Øª": 1269,
      "ĠØ¬ÙħØ¹": 1270,
      "ĠØ²ÙħÛĮÙĨ": 1271,
      "ĠØ§Ø®ØªÛĮØ§Ø±": 1272,
      "ĠØ§ÙĨØ¯": 1273,
      "ĠØ¬ÙĨÚ¯": 1274,
      "ĠØ¢Ø®": 1275,
      "ĠØŃØµÛģ": 1276,
      "ÙħØ§ÙĦÚ©": 1277,
      "ØµØ§Ùģ": 1278,
      "Ø±Ø§Ø¦Ø¹": 1279,
      "ĠØ¨ÚĨÙĪÚº": 1280,
      "ÙĪÛĮØ²": 1281,
      "ĠÚ©Ø¦ÛĮ": 1282,
      "ĠØ®Ø¨Ø±": 1283,
      "ĠØ³ÙħØ¬Ú¾": 1284,
      "ĠØ´Ø±": 1285,
      "ĠÙĤÛĮÙħ": 1286,
      "ĠØ®Ø±": 1287,
      "Ġ9": 1288,
      "ĠØ³Ùģ": 1289,
      "ĠÙĨÙĪÙħ": 1290,
      "ĠØ§ÙĨØ¬": 1291,
      "Ø¹ÙĨÛĮ": 1292,
      "ĠØªØŃÙĤÛĮÙĤ": 1293,
      "ĠØ¨ÙĨØ§ÛĮØ§": 1294,
      "ĠÙħØ®": 1295,
      "ĠÚ©Ø±ÙĪÚĳ": 1296,
      "Ø§Ø¬ÛĮ": 1297,
      "ĠØŃØ³ÛĮÙĨ": 1298,
      "ÙģÛĮØ³Ø±": 1299,
      "ĠØ§ÛĮØ³ÛĴ": 1300,
      "Ø§Ø±Ùģ": 1301,
      "Ø§Ú¯Ø±": 1302,
      "Ø§Ø±Ú©": 1303,
      "ĠÙĤØ§ÙĨÙĪÙĨ": 1304,
      "Ø§ÙĦØ¨": 1305,
      "Ù¾Ù¹ÛĮ": 1306,
      "ĠÙĪØ±": 1307,
      "ÙģØ±ÙĨØ³": 1308,
      "ĠØ¬Ø§ØªÛĮ": 1309,
      "ĠØ³ÛĮÚ©Ø±Ù¹Ø±ÛĮ": 1310,
      "ĠØ¶Ø±ÙĪØ±Øª": 1311,
      "ĠØ¹ÙĦÙħ": 1312,
      "Ø¯Ø±ÛĮ": 1313,
      "ĠØ§ÙħÙĨ": 1314,
      "ĠØ¢ÛĮØ§": 1315,
      "ĠØ®ÙĪØ´": 1316,
      "ĠØ°Ø±ÛĮØ¹ÛĴ": 1317,
      "Ø§Ú©Ù¹Ø±": 1318,
      "Ø¢ÙĨ": 1319,
      "ĠÚ©ÙħØ´ÙĨØ±": 1320,
      "ĠÚĪØ§Ø¦": 1321,
      "ÛĮÙĨÛģ": 1322,
      "Ú¾Ø§": 1323,
      "ĠØªØ¹Ø¯Ø§Ø¯": 1324,
      "ĠÙħÙħØ§ÙĦÚ©": 1325,
      "ĠØ³Ø±Ø¨Ø±": 1326,
      "ĠÙħØ¯Ø¯": 1327,
      "ĠØ¹ÙĦØ§ÙĪÛģ": 1328,
      "ĠÙ¾ÙĪÙĦÛĮØ³": 1329,
      "ĠØ§Ø¯Ø§Ø±ÙĪÚº": 1330,
      "ĠØ±Ú©Ú¾ÙĨÛĴ": 1331,
      "ĠØ§ÛĮÙģ": 1332,
      "ÙĪØ±Ûģ": 1333,
      "ĠÚĨÛĮÙģ": 1334,
      "ĠÙĤØ§Ø¨": 1335,
      "ĠÙĨÙĤ": 1336,
      "Ø§ÛģØ¯": 1337,
      "Ø¬ÛĴ": 1338,
      "Ø¨Ø§ÙĦ": 1339,
      "ĠØªÛĮØ§Ø±": 1340,
      "ĠØŃÙħ": 1341,
      "ĠÛģÙĪØªÛĴ": 1342,
      "ĠÙħØ±Ú©": 1343,
      "Ú©ÛĮÙĦ": 1344,
      "Ø¨Ú¾ÛĮ": 1345,
      "ĠØ³Ú©ÛĴ": 1346,
      "ĠÚĨØ§ÛģÛĮÛĴ": 1347,
      "Ø§Ø¦Ø´": 1348,
      "Ø§Ø±Ù¹ÛĮ": 1349,
      "ØŃØ§ÙĦ": 1350,
      "ĠØ³ÙĪØ§ÙĦ": 1351,
      "Ú¯Ø¦ÛĴ": 1352,
      "Ø¸ÛĮÙħ": 1353,
      "ĠØ³ÛĮØ¯": 1354,
      "Ø§Ø´Øª": 1355,
      "ĠÙħØ¶": 1356,
      "ĠÙħÙĦØ²ÙħØ§ÙĨ": 1357,
      "ÚĳÛĴ": 1358,
      "ĠÙĨÙĪÙħØ¨Ø±": 1359,
      "ĠÙĪØ§Ù¾": 1360,
      "ĠØ¬Ú¯Ûģ": 1361,
      "Ø±ÛĮÚ©Ù¹Ø±": 1362,
      "ĠÙĤØ³Ùħ": 1363,
      "ĠÙħÚ¯Ø±": 1364,
      "ĠØ¬ÙĦØ¯": 1365,
      "ĠÚĪØ±": 1366,
      "ĠØ¹ÙĦØ§ÙĤÙĪÚº": 1367,
      "ĠØ§Ù¾Ø±ÛĮÙĦ": 1368,
      "ĠÙħØ´Øª": 1369,
      "Ø§ÛģÙħÛĮ": 1370,
      "ĠÙĨÙĪØ¬ÙĪ": 1371,
      "ĠØ§ÙĦØ²": 1372,
      "ĠØ§ÙĨØ¯Ø±": 1373,
      "ĠØªØŃØ±ÛĮÚ©": 1374,
      "ĠØ±ÙĤÙħ": 1375,
      "ĠØ²Ø§Ø¦Ø¯": 1376,
      "ĠÙĨØ¹": 1377,
      "ĠØ°ÙħÛģ": 1378,
      "Ø³Ù¾ØªØ§ÙĦ": 1379,
      "ĠÙħØ³ÙĦÙħ": 1380,
      "Úĺ": 1381,
      "ĠÙħØŃÚ©ÙħÛģ": 1382,
      "ĠÙĦÚĳ": 1383,
      "ÙĪØ±ÚĪ": 1384,
      "Ú©Ø§ÙĨ": 1385,
      "ĠÙĪÙģØ§ÙĤÛĮ": 1386,
      "Ú¯Ø²": 1387,
      "ĠØ´Ø¯ÛĮØ¯": 1388,
      "ĠØ§ØŃØª": 1389,
      "Ø§Ø¬Ûģ": 1390,
      "Ø§Ø¨Øª": 1391,
      "ÙĪØ±ÙĨ": 1392,
      "Ø²Ø§": 1393,
      "ĠØ§Ø¯Ø§Ú©": 1394,
      "ĠØ§ÙħØ±ÛĮÚ©ÛĮ": 1395,
      "ĠØ§ÙĨØªÛģ": 1396,
      "ĠÙħØ¹Ø§Ùħ": 1397,
      "ĠØ¹ÙħØ±Ø§ÙĨ": 1398,
      "ÙģØ¸": 1399,
      "ĠØ§ÙĨØµØ§Ùģ": 1400,
      "ÙĪØ§": 1401,
      "ĠÛģÙħÛĮÚº": 1402,
      "ĠØ§Ø¯Ø§Ø±ÛĴ": 1403,
      "ĠØ¨ÙĦÚ©Ûģ": 1404,
      "ĠÚ¯ÙģØª": 1405,
      "ĠØ¶ÙĦØ¹": 1406,
      "ĠØ¢Øº": 1407,
      "ĠÙħØ§ÙĨ": 1408,
      "ĠØ¢Ø³": 1409,
      "Ø³ØªÛĮ": 1410,
      "Ø²ÛĮØ´ÙĨ": 1411,
      "ĠØ§ÛĮÙħØ§ÙĨ": 1412,
      "ĠÙħÙģ": 1413,
      "ÙĪØ§ÙĨ": 1414,
      "±Û": 1415,
      "Ø§Ø¯Ûģ": 1416,
      "ĠÙ¹Ú¾": 1417,
      "Ù¹ÙĪ": 1418,
      "ÙĨØ¯ÛĮ": 1419,
      "ØªØŃ": 1420,
      "ĠÙĤÛĮØ§Ùħ": 1421,
      "ĠÚ©Ú¾ÙĦØ§": 1422,
      "ĠÚ¯ÙģØªÚ¯ÙĪ": 1423,
      "Ù¾Ø§Ú©": 1424,
      "ĠÙħØ³ÙĦÙħØ§ÙĨ": 1425,
      "ĠØ¹Ûģ": 1426,
      "ĠØªØ¹ÙħÛĮØ±": 1427,
      "Ø¯ÛĮÙĨ": 1428,
      "ĠØ¦ÛĴ": 1429,
      "ĠÙĪØ§Ø±": 1430,
      "Ú¯Ø±Ø§Ùħ": 1431,
      "Ø¨Ú¾": 1432,
      "ĠÙĨØ§": 1433,
      "ĠÛĮÛģØ§Úº": 1434,
      "Ø³ÙĦØ§Ùħ": 1435,
      "ĠÙ¾Ø§ÙĨÚĨ": 1436,
      "ĠÚ©ÙĨ": 1437,
      "ÙĪØ±Ø³Ù¹ÛĮ": 1438,
      "Ú¯Ø§": 1439,
      "ĠÛģØ§ØªÚ¾": 1440,
      "ĠÙĪØ²ÛĮØ±Ø§Ø¹Ø¸Ùħ": 1441,
      "ĠØ±Ú©Ú¾Ø§": 1442,
      "ÙģÙĪ": 1443,
      "ĠØ³Ø¹": 1444,
      "ĠØ§ÙĨØªØ¸Ø§Ùħ": 1445,
      "ĠØ¹Ø¯Ø§ÙĦØª": 1446,
      "ÚĳÚ¾": 1447,
      "ĠÛģØ³Ù¾ØªØ§ÙĦ": 1448,
      "ĠØ³ÙĨØ¯": 1449,
      "ĠÛĮÙĪÙĨÛĮ": 1450,
      "ĠØ§ÛĮÙĨÚĪ": 1451,
      "ĠØ³Ø±Ú©Ø§Ø±ÛĮ": 1452,
      "ĠØ¯Ùģ": 1453,
      "ĠÙģØ±Ùħ": 1454,
      "Ġ19": 1455,
      "ĠØ³Ú©ØªÛĮ": 1456,
      "ĠØ¶Ø±ÙĪØ±ÛĮ": 1457,
      "ĠØ±Ú©": 1458,
      "Ø±Ø¯Ø§Ø±": 1459,
      "ĠØ¢Ø²Ø§Ø¯": 1460,
      "ĠØ¨Ø®": 1461,
      "Ø·ØŃ": 1462,
      "Ø¯ÙħØ§Øª": 1463,
      "Ġ12": 1464,
      "ĠÙĦØ§": 1465,
      "ĠØ§Ø«": 1466,
      "ĠÙħÛģÙħ": 1467,
      "ĠØ§ÙģØ³Ø±Ø§ÙĨ": 1468,
      "Ø§Ø±ÛĮØ®": 1469,
      "ĠÙħØ¬Ú¾ÛĴ": 1470,
      "ØªÚ¾": 1471,
      "ØŃÚ©ÙĪÙħØª": 1472,
      "ĠØ§ÙĨØ³Ø§ÙĨÛĮ": 1473,
      "ĠÚĨÙĪÛģ": 1474,
      "Ø³ÛĮÙħ": 1475,
      "ĠÙħØ±Øª": 1476,
      "ÙĦÙĪÚº": 1477,
      "ĠØµÙģ": 1478,
      "ĠÙ¾ÛĮØ±": 1479,
      "ÙħÙĪ": 1480,
      "ĠØ¯Ø±Ø¬": 1481,
      "ĠØ³Ø·ØŃ": 1482,
      "ØµÙģ": 1483,
      "Ø³Ù¹Ø±": 1484,
      "Ø¯ÛĮØ«": 1485,
      "ĠÚ¯ÙĦ": 1486,
      "Ú©ÛĮÙ¹": 1487,
      "ĠÙĨÙħØ¨Ø±": 1488,
      "Ø§ÛĮØª": 1489,
      "Ø¶Ûģ": 1490,
      "ĠÚĪÙ¾Ù¹ÛĮ": 1491,
      "Ø±ÛĮÙħ": 1492,
      "Ù¹Ø§": 1493,
      "ĠØ¨ÚĳÛĴ": 1494,
      "ĠÙĤØ§ÙĨÙĪÙĨÛĮ": 1495,
      "ÚĳÛĮÙĪÚº": 1496,
      "ĠØ³Ø®Øª": 1497,
      "ĠÛģÙĪÚ¯Ø¦ÛĴ": 1498,
      "ĠÙĪØ§ÙĤØ¹": 1499,
      "ĠØ§ÛĮØ³Ø§": 1500,
      "ĠØ³Ù¾": 1501,
      "ĠÙ¾ÙĪØ±ÛĮ": 1502,
      "ĠÙħÙĨØ¹ÙĤ": 1503,
      "ĠÙĨØ¸Ø§Ùħ": 1504,
      "ĠÙħØ¹Ø§Ø´": 1505,
      "ĠÙħØ¹ÛĮ": 1506,
      "ĠÙģÙĪØ±ÛĮ": 1507,
      "ĠÙĦÚ©Ú¾": 1508,
      "ØªÛģ": 1509,
      "Ø±Ø§Ûģ": 1510,
      "ĠØ¨ÙĨÛĮØ§Ø¯": 1511,
      "Ú¯ÙĦ": 1512,
      "ĠØ§ÙĦØ³ÙĦØ§Ùħ": 1513,
      "ĠØ¯ÛĮØ¦ÛĴ": 1514,
      "ĠØªØ§Ø±ÛĮØ®": 1515,
      "ĠÛģÙĦ": 1516,
      "ĠØ¯Ú©Ú¾": 1517,
      "ĠØŃÚ©Ø§Ùħ": 1518,
      "ĠÙĦÛĮÚº": 1519,
      "ĠÚĪØ§Ø¦Ø±ÛĮÚ©Ù¹Ø±": 1520,
      "ĠØ¹Ø§ÙĦÙħÛĮ": 1521,
      "ÛĮØ¨": 1522,
      "ĠÙĨØªÛĮ": 1523,
      "ĠÛĮÙĪÙĨ": 1524,
      "ĠÙħØ´Ú©ÙĦ": 1525,
      "ØŃÛģ": 1526,
      "ĠØªØ¹Ø§ÙĪÙĨ": 1527,
      "ĠØ§ÙħÛĮØ¯ÙĪØ§Ø±": 1528,
      "ĠÙħÛĮØ±ÛĴ": 1529,
      "ĠÙģÙĦ": 1530,
      "ÙĪØ²ÛĮØ±": 1531,
      "ĠØ¢ØºØ§Ø²": 1532,
      "ĠØ·Ø±ÛĮÙĤ": 1533,
      "Ø¯Ø§Ø¯": 1534,
      "ÙĪÙĦØª": 1535,
      "ĠØ¬Ø§ØªÛĴ": 1536,
      "ĠÙħÙĦØ²Ùħ": 1537,
      "Ġ15": 1538,
      "ĠÙĨÛĮØ¨": 1539,
      "ĠØ±ØŃ": 1540,
      "ĠØ±ÙĪÚ©": 1541,
      "ĠÙħØ«": 1542,
      "Ù¹ÙĨ": 1543,
      "ĠØ®Ø§Ø±": 1544,
      "ĠÚ©ÙĪÙĨØ³ÙĦ": 1545,
      "ÛģÙĪ": 1546,
      "ĠØ±ÛģÙĨÙħØ§": 1547,
      "ÙĪØ¯ÛĮ": 1548,
      "ÛĮØ§Ø¯Øª": 1549,
      "ĠÛĮÙĤÛĮÙĨÛĮ": 1550,
      "ĠØ¬Ø³Ù¹Ø³": 1551,
      "ÙĪØ§Ø¶ØŃ": 1552,
      "ĠÚ©Ø§ÙħÛĮØ§Ø¨": 1553,
      "ĠÙħÙĦØ§Ø²": 1554,
      "ÙħÛĮØ±ÛĮ": 1555,
      "Ú©ÛĮÙĪÙĨÚ©Ûģ": 1556,
      "ĠØ¨Ø§ÛģØ±": 1557,
      "ĠÛĮÙĪÙĨÛĮÙĪØ±Ø³Ù¹ÛĮ": 1558,
      "ÙĨØ¬Ø§Ø¨": 1559,
      "ĠÙģØ¶": 1560,
      "ĠØµØ¯": 1561,
      "ĠÚ¯Ø±ÙĪ": 1562,
      "ĠÛģÙħØ§Ø±ÛĮ": 1563,
      "ĠÙģÙĦÙħ": 1564,
      "ĠØ¢Ù¾Ø±ÛĮØ´ÙĨ": 1565,
      "ĠØ±Ø§Ø¦ÛĴ": 1566,
      "ĠÙĨØ¦ÛĴ": 1567,
      "ĠØ±ÙĨØ²": 1568,
      "ĠØ¨Øª": 1569,
      "Ġ11": 1570,
      "ĠÙĤØ±ÛĮØ¨": 1571,
      "ĠÙĤØ¯Ø±": 1572,
      "ĠÙħØ·Ø§ÙĦ": 1573,
      "Ø§Ø±Ø§": 1574,
      "ĠØŃÙĤÙĪÙĤ": 1575,
      "ĠØ«Ø§Ø¨Øª": 1576,
      "ĠÙ¾Ø§Ø¨": 1577,
      "ĠØ±Ø¨": 1578,
      "ĠØ¹ÙĪØ§ÙħÛĮ": 1579,
      "ĠÛĮÙĤÛĮÙĨ": 1580,
      "ĠØ´Ú©": 1581,
      "ĠØªÚ¾ÛĮÚº": 1582,
      "ĠÚ©Ø±Ø§ÚĨÛĮ": 1583,
      "ĠÚĪØ§Ú©Ù¹Ø±": 1584,
      "ĠØªØ§Ú©Ûģ": 1585,
      "ĠÙħØ±Ø¯": 1586,
      "ĠÙħÙĤØµ": 1587,
      "Ø§Ø¶ÛĮ": 1588,
      "ĠØ§ÙĨØ³Ø§ÙĨ": 1589,
      "Ø±ÙĪÙģ": 1590,
      "ĠØ§Ø³Ù¹ÛĮ": 1591,
      "ĠØ²Ø¨": 1592,
      "Ø¹Ø¶": 1593,
      "Ø±ÛĮØ²": 1594,
      "Ø§ÙĨÛģÙĪÚºÙĨÛĴ": 1595,
      "ĠÚĨÚ¾ÙĪÚĳ": 1596,
      "ĠâĢĿ": 1597,
      "ĠØ§ÙĨÚĪ": 1598,
      "ĠÛĮÙĪ": 1599,
      "ĠØ®Ø¯": 1600,
      "ĠØ¢ÙħØ¯": 1601,
      "ĠØ¹Ø²": 1602,
      "ĠÙĤÛĮØ§Ø¯Øª": 1603,
      "ĠØ§ÙĨØªØ®Ø§Ø¨": 1604,
      "ĠÙħÙħÚ©ÙĨ": 1605,
      "ĠØ¨ÙĪØ±ÚĪ": 1606,
      "Ø±Ø§": 1607,
      "ĠÛģÙĪÙĨØ§": 1608,
      "ÙħØ¹": 1609,
      "ÚĳØ§": 1610,
      "Ø¬Ø±": 1611,
      "ĠÙĨØ§Ú©": 1612,
      "ĠÙĨØµ": 1613,
      "ĠØ¨ÛĮØ±": 1614,
      "ĠØ³ÙĨØ¯Ú¾": 1615,
      "ĠØ¬Ø§Ø¦Ø²": 1616,
      "ĠÚ©Ø³": 1617,
      "ĠÚĨÙĪÛģØ¯Ø±ÛĮ": 1618,
      "ĠØ¨ØºÛĮØ±": 1619,
      "ÙĤØ±": 1620,
      "ÚĺÙĨ": 1621,
      "ĠÙĪØ§Ù¾Ø³": 1622,
      "ĠØ§ÙĨØªØ¸Ø§ÙħÛĮÛģ": 1623,
      "ĠÙħØªØ§Ø«": 1624,
      "ĠØŃØ±": 1625,
      "ĠÚ©Ø§Ø±Ú©ÙĨ": 1626,
      "ĠÙĨØ¦ÛĮ": 1627,
      "ĠØ§Ø³Ú©": 1628,
      "ĠÙĪØ³": 1629,
      "ĠØ±Ø§Ø¨Ø·": 1630,
      "ĠÙĤØ±Ø¢ÙĨ": 1631,
      "ĠØ³Ø§ÙĦÛģ": 1632,
      "ĠØ§ÙĨØªÛģØ§Ø¦ÛĮ": 1633,
      "ĠØ³Ø§Øª": 1634,
      "ĠØ¨Ø±Ø¢ÙħØ¯": 1635,
      "ĠÙĦÚ¯Ø§": 1636,
      "ĠÚ©Ø§ÙħÛĮØ§Ø¨ÛĮ": 1637,
      "ĠÚº": 1638,
      "âĢĺâĢĺ": 1639,
      "Ø±ÙĪÚº": 1640,
      "ĠÙ¾ÛģÙĦÛĮ": 1641,
      "Ø±ÙĪØ³": 1642,
      "ÙĨØ§Ûģ": 1643,
      "Ù¾ÙĨÚĪÛĮ": 1644,
      "ĠØ§ÛĮÙĦ": 1645,
      "Ø§Ø¤Úº": 1646,
      "ÙĪØ¨ÛĮ": 1647,
      "ĠÙ¾Ø±ÙĪÚ¯Ø±Ø§Ùħ": 1648,
      "ĠØ±ÛģÙĨÙħ": 1649,
      "Ø¹Øª": 1650,
      "ĠØ³Ú©ÛĮ": 1651,
      "Ú¯ÛĴ": 1652,
      "Ø§Ù¹": 1653,
      "ĠØ§ÛĮØ³ÛĮ": 1654,
      "ĠØ§Ø³Ù¾": 1655,
      "ĠØ®ÛĮØ§ÙĦØ§Øª": 1656,
      "ĠØ³Ø±Ø¨Ø±Ø§Ûģ": 1657,
      "ĠØ¬ÙĨÙĪØ±ÛĮ": 1658,
      "ĠÚ©ØªØ§Ø¨": 1659,
      "ĠØ¢ÙĨ": 1660,
      "ĠØ¯ÙĪØ³Ø±ÛĮ": 1661,
      "ØªÙĦ": 1662,
      "ĠØ§Ø·ÙĦØ§Ø¹": 1663,
      "Ú©Ø³": 1664,
      "ĠØ§ÛĮÚĨ": 1665,
      "ĠØ¹Ø±": 1666,
      "ĠØ¨Ø§ÙĪ": 1667,
      "ĠÚĨÚ©ÛĮ": 1668,
      "ÙģØ§Ø¸": 1669,
      "ĠÚĨÚ©Ø§": 1670,
      "ĠØ¬ÛģØ§Úº": 1671,
      "Ø·Ø§ÙĨ": 1672,
      "ĠØ³ÙĨÚ¯": 1673,
      "Ù¹Ø±Ø²": 1674,
      "Ø§ÙĪÙĦÙ¾ÙĨÚĪÛĮ": 1675,
      "ĠØ±Ø§Øª": 1676,
      "ÙĪÙģ": 1677,
      "ÛĮÚ©Ø´ÙĨ": 1678,
      "ĠÙħØ·Ø§ÙĦØ¨Ûģ": 1679,
      "ØªÙħØ§Ùħ": 1680,
      "ĠØ¨Ø±Ø§Ø¦ÛĴ": 1681,
      "ĠØ¹Ø°": 1682,
      "ĠÙ¾Ø®Øª": 1683,
      "ÙĪØ«": 1684,
      "ĠÚĨÚ©ÛĴ": 1685,
      "ĠÚ¯Ø¦ÛĮÚº": 1686,
      "ĠÙĪØ§Ø¶ØŃ": 1687,
      "ÛĮÚ©Ø±": 1688,
      "ĠØŃØ¯": 1689,
      "ÙħÙ¾": 1690,
      "ĠØ³Ø²Ø§": 1691,
      "ĠÛĮØ¹ÙĨÛĮ": 1692,
      "ĠÙģØ±Ø§ÛģÙħÛĮ": 1693,
      "ĠØ³Ù¹": 1694,
      "ĠØ¸Ø§ÛģØ±": 1695,
      "ĠØ§ÙĨÙ¹Ø±": 1696,
      "Ø¬ÙħØ§ÙĨ": 1697,
      "ĠØ´Ú©Ø§Ø±": 1698,
      "ĠÙ¹ÛĮÚ©Ø³": 1699,
      "ĠÙ¾Ø§ÙĨÛĮ": 1700,
      "ĠØ§ÚĨ": 1701,
      "Ø³ÙĪ": 1702,
      "ĠÙĦÛĮÙĨÛĴ": 1703,
      "ĠÙħØ§": 1704,
      "ĠØ²Ø®": 1705,
      "ĠÚ©Ø±ØªÛĮ": 1706,
      "Ø§Ø¯Ø±": 1707,
      "Ø´ÛĮØ¯": 1708,
      "ÙħÙĪØ¯": 1709,
      "ĠÙħÙĤØ¯": 1710,
      "ĠÚ©Ø±Ø¯Ú¯ÛĮ": 1711,
      "ÙģØ§Ø±": 1712,
      "ĠØ¨Ø§Ø²": 1713,
      "ĠØ§ÛĮÚĪ": 1714,
      "ĠØ³Ù¹ÛĮ": 1715,
      "ĠØ±Ø§Ûģ": 1716,
      "ĠÙĨÚ©Ø§ÙĦ": 1717,
      "Ù¾ÙĦØ²": 1718,
      "ĠØ¢Ø¦ÙĨØ¯Ûģ": 1719,
      "ÚĨÚ¾ÛĴ": 1720,
      "ĠØ¯ÙĪØ±Ûģ": 1721,
      "ÙħØŃ": 1722,
      "ĠÙĦØ§Ø¦ÙĨ": 1723,
      "ĠØ®ÙĪØ§Ûģ": 1724,
      "ĠØ§ÙĪÙĦ": 1725,
      "ÙħÙĦÚ©": 1726,
      "Ø¨ÛĴ": 1727,
      "ĠÙħØ§ÙĦÛĮ": 1728,
      "ĠØ¬Ø§Ø¦ÛĮ": 1729,
      "ĠØ§ÙĨØ¯Ø§Ø²": 1730,
      "ĠØ´ÛĮØ®": 1731,
      "ÙĨÙ¹Ø³": 1732,
      "Ø¤": 1733,
      "ÛĮÚ©ÛĮ": 1734,
      "Ú©Ø§Ø±ÙĪÚº": 1735,
      "Ú¯Ø§Ø±": 1736,
      "ÛĮØŃ": 1737,
      "ĠÛ±Û": 1738,
      "Ø¯Ø§ÙĨ": 1739,
      "ĠØ±ÙĪÚĪ": 1740,
      "ĠÚ¯Ø±Ø¯ÛĮ": 1741,
      "ĠØ¨ÛģØªØ±ÛĮÙĨ": 1742,
      "ĠØµÙĪØ±ØªØŃØ§ÙĦ": 1743,
      "ÙĪÚĨ": 1744,
      "ĠØ¯Ø§Ø±ÛĮ": 1745,
      "ÙĪÛĮÙĦ": 1746,
      "ĠØ¨Ø§ÙĪØ¬ÙĪØ¯": 1747,
      "Ø¨ØŃ": 1748,
      "ĠØ¨ÚĳØ§": 1749,
      "ĠÙģÛĮØµÙĦÛĴ": 1750,
      "Ø«Ø±": 1751,
      "ĠØ¯Ø³Øª": 1752,
      "ĠÙĨØ¨ÛĮ": 1753,
      "ĠÙĨÙħØ§Ø¦": 1754,
      "ĠÙ¾ÛĮØº": 1755,
      "ÚĪÛĮÙĪ": 1756,
      "Ø§ÙĦÙĦÛģ": 1757,
      "ĠØ³ÛĮØ§Ø³Øª": 1758,
      "20": 1759,
      "ÙħÙĪÚº": 1760,
      "ĠØ´ÛģØ±ÛĮÙĪÚº": 1761,
      "ĠØªØ¹ÛĮÙĨ": 1762,
      "ĠØ°Ú©Ø±": 1763,
      "ĠØ³Ú©ÙĪÙĦ": 1764,
      "Ø´Ø§ÙĪØ±": 1765,
      "ĠØ³Ú©ÛĮÚº": 1766,
      "ĠÙ¾Ø§ÙĦÛĮ": 1767,
      "ØµÙĦ": 1768,
      "Ø§Ø±ÚĪ": 1769,
      "Ø°Ø§": 1770,
      "ĠÙħÙĤØ±": 1771,
      "ĠÚ©ÙħÛĮØ´ÙĨ": 1772,
      "Ø§Ø¯Ø±ÛĮ": 1773,
      "ĠØ§Ø®Øª": 1774,
      "ÙĪÙĦÛĮØ§Øª": 1775,
      "Ú¾ÙĪÚº": 1776,
      "ĠÙĤØªÙĦ": 1777,
      "Ġ14": 1778,
      "ĠØ³ÙĦØ³ÙĦÛĴ": 1779,
      "Ø³Ø§": 1780,
      "Ø§ÙģÛĮ": 1781,
      "ĠØ¨ÙĪ": 1782,
      "ĠÚ¾": 1783,
      "Ø§Ø¦ÙĪÙĨ": 1784,
      "ĠÚ©Ø§ÙĨÙģØ±ÙĨØ³": 1785,
      "ØºØ§ÙĨ": 1786,
      "ĠØºÙĦ": 1787,
      "ĠÙħØªØŃ": 1788,
      "ĠØ²Ø±": 1789,
      "Ø§Ø¨Ø±": 1790,
      "ĠÙĨÚ¯Ø±": 1791,
      "ĠØ¨Ø¹Ø¶": 1792,
      "Ġ25": 1793,
      "ĠÛĮÛģÛĮ": 1794,
      "Ø§ÙĨØ³": 1795,
      "ÚĨÛĴ": 1796,
      "ĠØ¹Ø°Ø§Ø¨": 1797,
      "ĠÙħØ³Ø¦": 1798,
      "ĠÙ¾ÙĨØ¬Ø§Ø¨": 1799,
      "ĠØ¹Ø±Ø¨": 1800,
      "ĠÙħÙĨØªÙĤÙĦ": 1801,
      "ĠÙħÙĤØµØ¯": 1802,
      "ĠÙħØ±Ú©Ø²ÛĮ": 1803,
      "Ġ13": 1804,
      "ÙĤÛĮØ¯": 1805,
      "ĠÙħÛĮØ±ÛĮ": 1806,
      "Ù¹ÛĴ": 1807,
      "ĠØ®Ø§ØªÙĪÙĨ": 1808,
      "ĠÙĨÙĪÙ¹Ø³": 1809,
      "ĠÙ¾ÚĳÚ¾": 1810,
      "ĠÙĪÙĤ": 1811,
      "ĠÚ©Ø¨Ú¾ÛĮ": 1812,
      "ĠØ³ÙĦØ³ÙĦÛģ": 1813,
      "ĠÚ©ÙħÙ¾": 1814,
      "Ø®ÛĮ": 1815,
      "ÙĪØ§ÙħÛĮ": 1816,
      "ĠÚĨØ§ÛģØªÛĴ": 1817,
      "ÙĨÙ¹Ø±": 1818,
      "ĠØ¨ÚĨÛĴ": 1819,
      "ĠØ¬Ø§Ùħ": 1820,
      "Ø±ÛĮØ¯": 1821,
      "Ø®Ø¨": 1822,
      "..": 1823,
      "ĠØ¨Ø¬Ø§": 1824,
      "ÛģÛĮ": 1825,
      "ĠØ¨Ø±Ø³": 1826,
      "ĠØªØŃÙģØ¸": 1827,
      "Ø§Ø¦Ø¨": 1828,
      "ĠÙ¹ÛĮØ³Ù¹": 1829,
      "Ø§Ø²Øª": 1830,
      "Ø¬Ø¯": 1831,
      "ĠÙĤÛĮÙħØª": 1832,
      "ĠÚĨÙĨØ¯": 1833,
      "ÙħÛĮØ´Ûģ": 1834,
      "ĠØ®Ø§Ø±Ø¬Ûģ": 1835,
      "ĠÙħØªØ¹ÙĦÙĤÛģ": 1836,
      "Ú©ÙĪØ±Ûģ": 1837,
      "ÚĨØ±": 1838,
      "ĠÚ©Ø´ÙħÛĮØ±ÛĮ": 1839,
      "Ø§ØªØ§": 1840,
      "ĠØ¯ÙĪØ¨": 1841,
      "ÛĶ": 1842,
      "ÙĨØª": 1843,
      "ĠØŃÙĤÛĮ": 1844,
      "Ú¯Ø±ÛĮ": 1845,
      "Ø§ØŃØ¨": 1846,
      "Ø§Ø¦Ø³": 1847,
      "ĠÛģØ§Ø¦ÛĮ": 1848,
      "ĠÙħÙĨØ¹ÙĤØ¯": 1849,
      "ĠØ·Ø§ÙĦØ¨": 1850,
      "ĠØµÙĪØ¨ÛĴ": 1851,
      "ĠØ±ÛģÛĮÚº": 1852,
      "ĠØŃØ³ÙĨ": 1853,
      "ĠâĢĻâĢĻ": 1854,
      "ÙħØ§ÛĮÛģ": 1855,
      "Ø³ÙĪØ³": 1856,
      "ĠØ§Ø¬Ø§Ø²Øª": 1857,
      "ĠØ¹Ø§Ø¦Ø¯": 1858,
      "ÙĪØ´": 1859,
      "Ø²Ø¯": 1860,
      "ĠÙħØŃÙħÙĪØ¯": 1861,
      "ĠÛĮØ§Ø¯": 1862,
      "ÙĤÛģ": 1863,
      "ĠØ§ÙĤØª": 1864,
      "ĠÙ¾Ø§ÙĦÛĮØ³ÛĮ": 1865,
      "ĠÙħÙĦÛĮ": 1866,
      "ÙĦØª": 1867,
      "ĠØ¨ÛĮÙĨÚ©": 1868,
      "ĠØ§ÙħÙĪØ±": 1869,
      "ĠØ¨ÙĦØ§": 1870,
      "Ø±Ø³": 1871,
      "ĠÙħØ±Ø§Ø¯": 1872,
      "ĠØ¨Ú¾Ø§Ø±ØªÛĮ": 1873,
      "Ù¾Ø§Ú©Ø³ØªØ§ÙĨ": 1874,
      "ĠØ±Ø§Ø³Øª": 1875,
      "ØªØ§Ú©Ûģ": 1876,
      "Ø®ÙĦØ§Ùģ": 1877,
      "ĠØ±Ú©Ú¾ØªÛĴ": 1878,
      "ĠØ¹ÛģØ¯": 1879,
      "ĠÛģÙħÛĮØ´Ûģ": 1880,
      "Ø³Ø§Ø¨": 1881,
      "ĠÙĪÛģØ§Úº": 1882,
      "Ù¹Ûģ": 1883,
      "ĠÙĤØ§Ø¨ÙĦ": 1884,
      "ĠÙĨÙģ": 1885,
      "ĠØ§ÙĤØ¨Ø§ÙĦ": 1886,
      "Ø·ÛĮ": 1887,
      "ĠØ²Ø®ÙħÛĮ": 1888,
      "Ø¢Ù¾": 1889,
      "ĠÙ¾ÙĪØ±Ø§": 1890,
      "Ø¹ÙĦÛĮ": 1891,
      "Ø³Ù¹Ø±ÛĮ": 1892,
      "ÚĳÚ©": 1893,
      "ĠØ¯Ú¾Ùħ": 1894,
      "Ġ30": 1895,
      "ĠØ¨Ú¾Ø§Ø±Øª": 1896,
      "ĠÚ©Ø±Ø¯Ûģ": 1897,
      "ĠÚ©ÙħÙ¾ÙĨÛĮ": 1898,
      "ĠÙĨÚ©ÙĦ": 1899,
      "ĠÙĪØ²Ø§Ø±Øª": 1900,
      "ØªØ§ÙĨ": 1901,
      "Ø¨ÛĮØ±": 1902,
      "ĠÚ¯Ú¾ÙĨÙ¹": 1903,
      "ĠØ¢Ú¯ÛĴ": 1904,
      "ĠÚ©ÙĪØ±Ù¹": 1905,
      "ĠÚ©Ø§Ø±ÛĮ": 1906,
      "ĠÙħØ¸Ø§Ûģ": 1907,
      "ĠÙ¾Ø®ØªÙĪÙĨ": 1908,
      "ÙħØ¨ÙĦÛĮ": 1909,
      "Ù¾Ú¾Ø±": 1910,
      "ĠØ§ÙĦØ²Ø§Ùħ": 1911,
      "ĠÛģÙĦØ§Ú©": 1912,
      "ĠÙĤØ±Ø¨": 1913,
      "ĠÚ©ÛģØªÛĴ": 1914,
      "ÙĪÙĦÙĨÚ¯": 1915,
      "ĠØ¨Ú¾Ø§Ø¦ÛĮ": 1916,
      "Ø¯ÛĮÙĦÛĮ": 1917,
      "ĠØ±ÛĮÙĦÛĮ": 1918,
      "ĠÙħÙĤØ§Ùħ": 1919,
      "Ø¹Ø§ÙĦ": 1920,
      "ĠØ§ÙĨÙĪÚº": 1921,
      "ÙĤØ¨ÙĦ": 1922,
      "ĠØ¬Ø±": 1923,
      "ĠØ§Ø³Ù¹": 1924,
      "Ù¾ÙĪÙĦÛĮ": 1925,
      "Ø¯ÙĪØ³": 1926,
      "ĠØªØŃÙĤÛĮÙĤØ§Øª": 1927,
      "ĠØ³Ø±ÙħØ§ÛĮÛģ": 1928,
      "ĠÙĨÙħØ§Ø²": 1929,
      "ĠØ¨ÛĮÙ¹Ú¾": 1930,
      "ÛĮØ¯Ø±": 1931,
      "ĠØªÙħÛģØ§Ø±ÛĴ": 1932,
      "ĠØŃÙĦÙĤ": 1933,
      "ĠÙĪØ±Ú©": 1934,
      "ĠÙģØ±ÙĪØº": 1935,
      "ĠØ¯ÛĮØªØ§": 1936,
      "ĠØ³ÛģÙĪÙĦÛĮØ§Øª": 1937,
      "ĠØ¯ÙĪØ¨Ø§Ø±Ûģ": 1938,
      "²Û": 1939,
      "ĠÙĨØªÛĮØ¬ÛĴ": 1940,
      "ÚĨÛģ": 1941,
      "ÙĪÛĮÚĺÙĨ": 1942,
      "ĠØ¨Ø§": 1943,
      "ĠÚ©ÙĦÙĪ": 1944,
      "ĠâĢľ": 1945,
      "Ú©Úĳ": 1946,
      "ĠØ³Ø§ÙħÙĨØ§": 1947,
      "ĠÛĮÚ©": 1948,
      "ĠØ¨Ø¬ÛĴ": 1949,
      "ĠØ§ÙħØ§Ùħ": 1950,
      "ĠÙħÙĤØ§ÙħÛĮ": 1951,
      "Ø§ÙĤØª": 1952,
      "ĠØ¨Ø±ÙĪ": 1953,
      "Ø¯Ø¯": 1954,
      "Ø°Ø±Ø§Ø¦Ø¹": 1955,
      "ĠØªÙĦ": 1956,
      "Ø¨ÙĦÚ©Ûģ": 1957,
      "ĠØ¢ØµÙģ": 1958,
      "ÙħÛĴ": 1959,
      "ÙĪØ²ÛĮØ´ÙĨ": 1960,
      "Ù¹ÙĨÚ¯": 1961,
      "Ø§ÙĨØ¯": 1962,
      "Ø§Ø¬ÙĦØ§Ø³": 1963,
      "Ù¹ÙĦ": 1964,
      "ĠÙħÙĨØµÙĪØ¨Ûģ": 1965,
      "ÙĪØ§Ø¦ÛĮ": 1966,
      "ÚĨÚ¾Ø§": 1967,
      "ĠØªØ¨Ø¯ÛĮÙĦÛĮ": 1968,
      "ĠÙħÙĦØ§Ø²ÙħÛĮÙĨ": 1969,
      "ĠØ¢Ø²Ø§Ø¯ÛĮ": 1970,
      "ÙģØªÛģ": 1971,
      "ĠÙħÙĤØ§Ø¨ÙĦÛĴ": 1972,
      "Ø§ØµØ±": 1973,
      "ĠØ¹Ø·": 1974,
      "ĠØªÙĪØ¬Ûģ": 1975,
      "ÛĮØ±Ûģ": 1976,
      "ĠØ¯Ø´": 1977,
      "ĠØ¢ÙģÛĮØ³Ø±": 1978,
      "18": 1979,
      "ĠÙģÙĪØ±Ø³": 1980,
      "ĠÙħÙĤØ¯ÙħÛģ": 1981,
      "ĠØµØ§ØŃØ¨": 1982,
      "ĠØªØ¹ÙĦÙĤØ§Øª": 1983,
      "ĠØ¨Ú©": 1984,
      "ĠÙ¹ÙĪ": 1985,
      "ĠØ¯Ø¨": 1986,
      "ĠØ§ÙģØºØ§ÙĨ": 1987,
      "ĠØ³Øª": 1988,
      "ĠØ¬Ø³Ùħ": 1989,
      "ĠÙĨÙħØ§Ø¦ÙĨØ¯": 1990,
      "ĠÙĨÛĮØ´ÙĨÙĦ": 1991,
      "ĠÙģÙĪÙĨ": 1992,
      "ÙģÙĪØ¸": 1993,
      "ĠÚ©ÛĮÙĪÙĨÚ©Ûģ": 1994,
      "ĠØŁ": 1995,
      "ĠÚ¯Ø±ÙĪÙ¾": 1996,
      "ĠÙģØ§Ø¦": 1997,
      "Ø±ÛĮØª": 1998,
      "ĠØ¨Ø³": 1999,
      "ĠØ§ÙĨÛĴ": 2000,
      "ĠØ®ÛĮØ¨Ø±": 2001,
      "ĠÙĪÙĨ": 2002,
      "Ø²ÛĮØ²": 2003,
      "Ġ18": 2004,
      "ĠØ¯Ø§Ø®ÙĦÛģ": 2005,
      "ĠÙħÙĨØµÙĪØ¨ÛĴ": 2006,
      "Ø§ÙĦØª": 2007,
      "ÙħÙĤ": 2008,
      "ĠÙħØ¹Ø§ÙħÙĦÛĴ": 2009,
      "ĠØªÙĨØ¸ÛĮÙħ": 2010,
      "Ø¦ÙĨ": 2011,
      "ĠØ²ÙĪØ±": 2012,
      "ĠØ®Ø§ÙĦ": 2013,
      "ĠÙħØŃÙģÙĪØ¸": 2014,
      "ĠØ¯Ø§Ø®ÙĦ": 2015,
      "ĠØ¯ÛĮÙĨØ§": 2016,
      "ĠØ§ØŃÚ©": 2017,
      "ĠÙģÛĮØ³": 2018,
      "ĠÙħØ³ÙĦÙħØ§ÙĨÙĪÚº": 2019,
      "ĠÙ¾Ø§Ø¨ÙĨØ¯ÛĮ": 2020,
      "ĠÙħÙĨØ§": 2021,
      "ĠÙħÙĪÙĦ": 2022,
      "ĠØ®Ø§Øµ": 2023,
      "ĠÙĦØ§ÛģÙĪØ±": 2024,
      "ĠØ¨Ú¾ÛĮØ¬": 2025,
      "ĠØ¨ÙĦÙĪÚĨ": 2026,
      "ĠÚ©ÛĮÙĪÚº": 2027,
      "ĠÙĤØ±ÛĮ": 2028,
      "ĠØ¹ÙĨ": 2029,
      "ĠÙĤØ§Ø¦Ø¯": 2030,
      "ĠÙħÙĦÛĴ": 2031,
      "ÙĪØ³ÛĮ": 2032,
      "ĠØ¬ÛĮØ³ÛĴ": 2033,
      "Ø¨ÙĪØª": 2034,
      "Ø¯ÙĪØ³Ø±ÛĮ": 2035,
      "Ø§ØŃØª": 2036,
      "ĠØ§Ø³ÙĦØ§ÙħÛĮ": 2037,
      "ÙĪØ±ÙĪÚº": 2038,
      "ĠÙ¾Ø®ØªÙĪÙĨØ®ÙĪ": 2039,
      "ĠÙ¾ÛĮÙ¾ÙĦØ²": 2040,
      "ÙĪÙ¹ÛĮ": 2041,
      "Ø¬ÛģØ§Úº": 2042,
      "ĠÙħÛĮØ§Úº": 2043,
      "ĠØªØ±Ø¨": 2044,
      "ĠÙģØ±ÙĪØ®Øª": 2045,
      "ĠØ§Ø¨ÙĨ": 2046,
      "ĠØ¢ÙĦ": 2047,
      "Ù¾Ø§Ø±Ù¹ÛĮ": 2048,
      "Ù¾ÙĪÙĦÛĮØ³": 2049,
      "ĠÙ¾Ú¾ÛĮ": 2050,
      "Ø§Ø¦ÙĪÚº": 2051,
      "Ø§Ø¦ÙĪ": 2052,
      "Ø³Ú©": 2053,
      "ĠØ¬Ø±Ùħ": 2054,
      "ĠÙħØ¹ÙĦÙĪÙħØ§Øª": 2055,
      "ĠØ§Ø³ÙħØ¨ÙĦÛĮ": 2056,
      "ĠÙħÙĪÙ¹Ø±": 2057,
      "Ø¨Ø§Ø²": 2058,
      "ĠÙħÙĪØ¬ÙĪØ¯Ûģ": 2059,
      "ĠÚ©ÙĪØ±": 2060,
      "ĠÙĪÙĪ": 2061,
      "Ú¯Øª": 2062,
      "Ù¹Ø±ÙĪ": 2063,
      "ĠÙ¾Ø±ÛĮØ³": 2064,
      "ĠÙĨØ´Ø§ÙĨÛģ": 2065,
      "Ø¬ÙĨØ³ÛĮ": 2066,
      "ĠÚĨÛĮÙĨ": 2067,
      "ĠØ³Ø±ÙĪØ³": 2068,
      "Ø¨Ø§Ø±": 2069,
      "ÙĨØ¯Ø±": 2070,
      "ĠÙģÙ¹": 2071,
      "ĠØªÙĤØ³ÛĮÙħ": 2072,
      "ĠØ´ÛĮØ¦Ø±": 2073,
      "ĠØ§ÙĨØ¹ÙĤ": 2074,
      "Ġ16": 2075,
      "Ø®Ø±": 2076,
      "ĠÚ¯ÙĪØ±ÙĨ": 2077,
      "ĠØŃØ§ÙĦØª": 2078,
      "Ø±Ø§Ø¦ÛĮ": 2079,
      "ĠØ³ÙĪØ±": 2080,
      "ĠÙ¾ÙĦØ§ÙĨ": 2081,
      "ĠØ§ØŃØªØ³Ø§Ø¨": 2082,
      "ÚĪÙĦ": 2083,
      "ĠØ´Ø§ÙĨ": 2084,
      "ĠÙħØ®Ø§ÙĦ": 2085,
      "ÙħØ²": 2086,
      "ĠØ¬Ø§Ø¦Ø²Ûģ": 2087,
      "Ø¹Ø§Ùħ": 2088,
      "ĠØ¢Ø®Ø±ÛĮ": 2089,
      "ĠØ¢Ú¯Ø§Ûģ": 2090,
      "ĠØ§ÙĨØ¹ÙĤØ§Ø¯": 2091,
      "ÙħÛĮÙĦ": 2092,
      "ĠØµÙĦØ§ØŃ": 2093,
      "ĠÙħÙĪØª": 2094,
      "Ø§Ø¦ÛĮÚ©": 2095,
      "ĠØ¬Ø§ÙĪ": 2096,
      "ÙĦÛĮÙħÛĮ": 2097,
      "ĠØ¨ÛĮÙħ": 2098,
      "Ø¬Ø²": 2099,
      "Ø¹Ø¯Ø¯": 2100,
      "ĠØ³ÛĮÚ©ÛĮ": 2101,
      "ĠØ®ÙĪØ¨": 2102,
      "ĠØ´Ø¹Ø¨Ûģ": 2103,
      "ĠØ´Ú©Ø±": 2104,
      "Ø¯ÛĮÙĦ": 2105,
      "ĠÙĪØ§ÙĤØ¹Ûģ": 2106,
      "Ġ2019": 2107,
      "ĠÙĤØ¨ÙĪÙĦ": 2108,
      "ĠØ³ÛĮÙĦ": 2109,
      "ĠØ³Ø§Ø¦ÛĮÚ©ÙĦ": 2110,
      "ĠÚ©ÛĮØ®ÙĦØ§Ùģ": 2111,
      "ĠÛģÙħØ±Ø§Ûģ": 2112,
      "ĠÚ©ÛĮÙĪ": 2113,
      "Ù¹Ú©": 2114,
      "ĠÙħØº": 2115,
      "ĠØ´Ú©Ø§": 2116,
      "ĠØ¯ÙĪØ³Øª": 2117,
      "ĠØµØŃÛĮØŃ": 2118,
      "ÙĦÛĮÙĦ": 2119,
      "ØµÙĪÙĦ": 2120,
      "ØĮ": 2121,
      "Ú©ÛĮØ´ÙĨ": 2122,
      "ĠØ§ÙĨØ¬Ø§Ùħ": 2123,
      "ĠÙĤÛĮØ¯": 2124,
      "Ú©Ùħ": 2125,
      "ĠØ¯Ø³": 2126,
      "ĠØ§ÙĨØªØ®Ø§Ø¨ÛĮ": 2127,
      "ĠÙħÙĦÙĪØ«": 2128,
      "ĠÙĪØ·": 2129,
      "ĠØ°Ø±Ø§Ø¦Ø¹": 2130,
      "ĠØ§ÛĮØ´ÙĨ": 2131,
      "ĠÙħØ§Ø±Ú©ÛĮÙ¹": 2132,
      "ĠØŃÛĮ": 2133,
      "Ø´Ú©": 2134,
      "ĠØ³ÛĮÚ©ÛĮÙĪØ±Ù¹ÛĮ": 2135,
      "ĠØ±ÙĪØ§Úº": 2136,
      "ÛĮÙĨØ§": 2137,
      "ĠÙĪØ§": 2138,
      "ĠÚĪÙĪÛĮÚĺÙĨ": 2139,
      "Ø«Ø§Ø±": 2140,
      "ĠØ³Ø±Ø¯Ø§Ø±": 2141,
      "ÛģÙĪÚº": 2142,
      "ĠØ§ÙħØ±ÛĮÚ©Ø§": 2143,
      "ĠØ´Ú©Ø³Øª": 2144,
      "ĠØ³ÙĪØ´ÙĦ": 2145,
      "Ø²Ø§Ø¯": 2146,
      "ĠØŃÙħÙĦÛĴ": 2147,
      "ĠØ±ÛĮØ§Ø³Øª": 2148,
      "Ġ!": 2149,
      "ĠÙģÙĨÚĪ": 2150,
      "ĠÙħØ¶Ø¨ÙĪ": 2151,
      "ĠØºÙĦØ§Ùħ": 2152,
      "ĠØ®Ø²": 2153,
      "ĠØ¨Ø´": 2154,
      "ĠÙħÙħØ¨Ø±": 2155,
      "Ø¦ÛĮÛĴ": 2156,
      "ĠØªØ¹ÙĦÛĮÙħÛĮ": 2157,
      "ĠÙģÛĮØµÙĦ": 2158,
      "ĠØ´Ø±ÛĮÚ©": 2159,
      "Ø³Ù¹Ø±Ú©Ù¹": 2160,
      "ĠÙ¹Ø±": 2161,
      "Ú©ÛĮØ§": 2162,
      "ĠØ³Ø§": 2163,
      "Ø¹Ø§Øª": 2164,
      "Ø¯ÛĮÙĤ": 2165,
      "ĠÙĨÙĤØµ": 2166,
      "ĠÙħÙĤØ§Ø¨ÙĦÛģ": 2167,
      "ĠØ´Ùģ": 2168,
      "ĠØªÙģØªÛĮ": 2169,
      "ÚĪÙĨÚ¯": 2170,
      "ĠØ§Ø¨Ú¾ÛĮ": 2171,
      "Ú¯Ø±Ø¯": 2172,
      "Ø±Ú©Ûģ": 2173,
      "ĠØ§Ø¹ØªØ±": 2174,
      "ÙĨÚ¯ÛĮ": 2175,
      "ĠØ±ÛĮÚ©": 2176,
      "ĠÙħØªØ¹Ø¯Ø¯": 2177,
      "ĠØ¨ÙĨØ§Ø¦ÛĴ": 2178,
      "ĠØµÙĨ": 2179,
      "ĠÙĨØ§Ø²": 2180,
      "ĠØµØ§Ùģ": 2181,
      "ĠÙ¾ÙĦ": 2182,
      "ÙĪØ§Ø²": 2183,
      "Ø§Ø¦Ø¬": 2184,
      "ĠØ¯ÛĮÚ©Ú¾Ø§": 2185,
      "Ù¾ÙĪØ±": 2186,
      "Ø§ÙĦÛģ": 2187,
      "ĠÚ¯Ø°": 2188,
      "ĠØ³Ø§Ø²": 2189,
      "Ø§Ø±Ù¹": 2190,
      "ĠØŃØ§ÙĦØ§Øª": 2191,
      "ĠÙħØ§ØŃ": 2192,
      "ĠÙģÙĪØ¬ÛĮ": 2193,
      "ĠØ¬ÙħØ§Ø¹ØªÙĪÚº": 2194,
      "19": 2195,
      "ĠØ¹ÙĪØ±Øª": 2196,
      "ĠØªÛĮØ²": 2197,
      "ĠØ¨ÙĨÛĮØ§Ø¯ÛĮ": 2198,
      "ĠÙĨØª": 2199,
      "ĠØ³ÛĮÙĨØ¦Ø±": 2200,
      "ĠÙħØ±ÛĮ": 2201,
      "ÙĨØ§Ú©": 2202,
      "ĠØªØ¨Ø¯ÛĮÙĦ": 2203,
      "ĠØ®Ø§ÙĨØ¯Ø§ÙĨ": 2204,
      "ĠØ§ÙħØ±": 2205,
      "ĠÙ¾ÛĮØºØ§Ùħ": 2206,
      "ĠØ§Ø®Ø¨Ø§Ø±": 2207,
      "Ø§Ø¯Ø«": 2208,
      "ĠÙħØ±ØªØ¨Ûģ": 2209,
      "ĠØ§ØªÚ¾": 2210,
      "Ø³Ûģ": 2211,
      "Ø³ÛĮÙĨ": 2212,
      "ĠØ®Ø¯ÙħØª": 2213,
      "ĠÙ¾ÙĪØ±ÛĴ": 2214,
      "ĠØ³Ø±Ú¯Ø±": 2215,
      "ĠØ±ÛģÙĨÛĴ": 2216,
      "ÙĤÛĮÙĨ": 2217,
      "ĠØ±ÙĪØ²Ûģ": 2218,
      "´Û": 2219,
      "ĠØ´Ø§Ùħ": 2220,
      "ĠØ§ÙģØª": 2221,
      "ĠØ§ÙĦØ§ÙĤ": 2222,
      "ĠÙĨØ´Ø§ÙĨ": 2223,
      "ĠØ§Ù¾ÙĪØ²ÛĮØ´ÙĨ": 2224,
      "ĠÙĪÙĦ": 2225,
      "Ġ17": 2226,
      "ĠØ®Ø¯Ø§": 2227,
      "ĠÙħÙĨØ¸ÙĪØ±": 2228,
      "ĠØ§ÙĦØ±ØŃ": 2229,
      "ĠØ§ÙħÛĮØ¯": 2230,
      "ĠÚĨÛĮØª": 2231,
      "ĠÙĨÙĤØµØ§ÙĨ": 2232,
      "ÙĦØ²": 2233,
      "ĠØ§ØªØŃ": 2234,
      "ÙĦÛĮÚ©ÙĨ": 2235,
      "ĠÚĨØ§ÛģØ¦ÛĴ": 2236,
      "ĠÙģÙĪØ¬": 2237,
      "Ø§Ø¯Øª": 2238,
      "10": 2239,
      "Ø§ÙĨÚ¯": 2240,
      "ĠØ¬ÛĮØª": 2241,
      "ĠØ®ÙĪØ§ÛģØ´": 2242,
      "ĠØ§ÙĦØŃØ¯ÛĮØ«": 2243,
      "ĠØ¹ÙĦØ§ÙĤÛģ": 2244,
      "ĠØµØ§Ø±Ùģ": 2245,
      "ĠØ³ÙĦØ§Ùħ": 2246,
      "ĠØ¬ÛĴ": 2247,
      "ĠÚ©Ø§Ø±ÙĪØ§Ø¦ÛĮ": 2248,
      "ĠØ§ÙħØ¯": 2249,
      "ĠØ§Ø³Ù¾ØªØ§ÙĦ": 2250,
      "ĠØµØ¯Ø§Ø±Øª": 2251,
      "ÙģØªÛĴ": 2252,
      "ĠØ¬Ø§ÙĪÛĮØ¯": 2253,
      "ĠÚ©Ø§Ø´Øª": 2254,
      "ĠØªØ±Ø¬ÙħØ§ÙĨ": 2255,
      "ĠØºÙĦØ·": 2256,
      "ĠØ´ÙĪ": 2257,
      "ĠÙģØ§Ø¦Ø¯Ûģ": 2258,
      "ÙĪØ¯Ú¾": 2259,
      "ĠØ¶ÙĦØ¹ÛĮ": 2260,
      "ĠØ¹ÙħÙĦÛĮ": 2261,
      "ĠØªØ§Ø¬": 2262,
      "ĠÙħØ°Ûģ": 2263,
      "ĠÙħØ³Ø¦ÙĦÛģ": 2264,
      "ÙĨÛĮØ´ÙĨÙĦ": 2265,
      "ĠØ³ÛĮÙĨÛĮ": 2266,
      "ĠØªØ§": 2267,
      "ĠØ¨Ø±ÛĮ": 2268,
      "ĠØ§ÙĦØ§ÙĤÙĪØ§ÙħÛĮ": 2269,
      "ĠØ¨ÛģØªØ±ÛĮ": 2270,
      "ĠØ¨Ø±Ø¯": 2271,
      "ĠØ±Ø§ÙĪÙĦÙ¾ÙĨÚĪÛĮ": 2272,
      "Ġ24": 2273,
      "Ø¦Ù¹Ûģ": 2274,
      "ĠØ±Ú©ÙĨ": 2275,
      "ÙĦÛĮÛģ": 2276,
      "ĠÙħØ°Ú©ÙĪØ±Ûģ": 2277,
      "ÛĮØ§Ø¡": 2278,
      "ĠÙħÙĨØªØ®Ø¨": 2279,
      "ÙĪÛĴ": 2280,
      "Ù¾Ûģ": 2281,
      "ĠØ®Ø±ÛĮØ¯": 2282,
      "ĠÛģÛĮÙĦ": 2283,
      "ĠØ®Ø¯ÙħØ§Øª": 2284,
      "ĠÙħØ¬ÙħÙĪ": 2285,
      "ĠÙģØ§Ø¦Ø±": 2286,
      "ĠØ¢Ø¯": 2287,
      "ĠØ§ØªÚ¾Ø§Ø±Ù¹ÛĮ": 2288,
      "ĠÙħÙĦÛĮÙĨ": 2289,
      "ÙĨØ¯ÙĨ": 2290,
      "ÙĪÛĮØ±": 2291,
      "ĠØ¹ÙĦ": 2292,
      "ĠÙħÙĨØ¸ÙĪØ±ÛĮ": 2293,
      "ĠÙħÙĪØ³ÛĮ": 2294,
      "ĠÙħÙĦØ§": 2295,
      "ĠØªØ±Ø¬ÛĮ": 2296,
      "ĠØ¯Ø±ÛĮ": 2297,
      "ĠØªØ±ÙĤÛĮØ§ØªÛĮ": 2298,
      "ĠØ¹Ø¨Ø§Ø³": 2299,
      "ĠØ¹Ø±Øµ": 2300,
      "ĠØ¯Ø¹Ø§": 2301,
      "ÙĨÙ¹Ø±ÙĪÙĦ": 2302,
      "Ø®ØµÙĪØµ": 2303,
      "ĠØŃÛĮØ¯Ø±": 2304,
      "ĠØ®ÙĪØ±": 2305,
      "ĠØªØ§Ø²Ûģ": 2306,
      "ĠØŃÙħØ§": 2307,
      "³Û": 2308,
      "22": 2309,
      "Ø§ÙĨÚĪ": 2310,
      "ØµØ±": 2311,
      "ĠÙħÛĮÙ¹Ø±": 2312,
      "ĠÚ©Ú¾ÙĦØ§ÚĳÛĮÙĪÚº": 2313,
      "ĠÙħØ±ØŃ": 2314,
      "ĠØ§Ø±Ø´": 2315,
      "ÙĪÙħÙĨ": 2316,
      "ØªØ§ÛģÙħ": 2317,
      "ØŃØ¶": 2318,
      "ĠØ¯ÛĮÛĴ": 2319,
      "ĠÚ©ÛģÛĮÚº": 2320,
      "ĠÛģÙģØªÛĴ": 2321,
      "ĠØ±ÙĨÚ¯": 2322,
      "ĠØªÙģØµÛĮÙĦØ§Øª": 2323,
      "Ø³Ù¹Ùħ": 2324,
      "ĠÚ©Ø±ÛĮÙħ": 2325,
      "ĠØ¨Ø§Ø¯": 2326,
      "ĠØªØ±Ø¬ÛĮØŃ": 2327,
      "ĠÚĪØ³Ù¹Ø±Ú©Ù¹": 2328,
      "ĠØ·Ø¨ÛĮ": 2329,
      "ÙħØ±Ø§ÙĨ": 2330,
      "ĠØ§Ù¾ÛĮÙĦ": 2331,
      "ÛģÛĮÚº": 2332,
      "ĠØ¨Ø²": 2333,
      "ØµÙĪØ±": 2334,
      "Ø±Ø§Ø¬": 2335,
      "ĠØ±Ø§Ø¨Ø·Ûģ": 2336,
      "ĠÚĪÚ¾": 2337,
      "ĠØµØ¨ØŃ": 2338,
      "ĠØ³ÙģØ±": 2339,
      "Ø¶ÙĪÚº": 2340,
      "ĠÙĪÚ©Ù¹": 2341,
      "ĠÙħÙĨØ¯": 2342,
      "Ø¹ÙĦ": 2343,
      "Ġ.": 2344,
      "Ù¾Ø´Ø§ÙĪØ±": 2345,
      "Ø±ÛĮÙ¹Ø±ÛĮ": 2346,
      "ĠÚ¯ÙĨØ§Ûģ": 2347,
      "Ø«ÛĮØª": 2348,
      "ĠØªØ³": 2349,
      "ĠØ¢Ø¦ÛĮÚº": 2350,
      "Ø¬Ø³Ù¹": 2351,
      "ĠØ¬ÙĨÙĪØ¨ÛĮ": 2352,
      "ĠÙħØ¶Ø¨ÙĪØ·": 2353,
      "ĠØ¶Ø±ÙĪØ±": 2354,
      "ĠØµÙĦØ§ØŃÛĮØª": 2355,
      "ĠÙħÙĤØ±Ø±": 2356,
      "ĠØ¯ÙģØ§Ø¹": 2357,
      "ĠØ±Ú©Ú¾ÛĮ": 2358,
      "Ø§ÙĨÛĮÛģ": 2359,
      "ĠÚ¯Ø²Ø§Ø±": 2360,
      "ĠØ³ÙħØ§Ø¹Øª": 2361,
      "ĠØ´Ø§ÛģØ¯": 2362,
      "ĠÙĪØ¹Ø¯": 2363,
      "Ø°Ûģ": 2364,
      "Ø§ÙĨØª": 2365,
      "ĠØ§ØŃØªØ¬": 2366,
      "ÙĤÙģ": 2367,
      "ĠÙĪØ±Ø²ÛĮ": 2368,
      "ĠØ§Ø³Ùħ": 2369,
      "ĠØ±Ú©Ú¾ÛĴ": 2370,
      "ĠÙ¾ÛĮØ¯Ø§ÙĪ": 2371,
      "ĠÙħØ´ØªÙħÙĦ": 2372,
      "ĠØŃÙħØ§ÛĮØª": 2373,
      "Ø¬Ùħ": 2374,
      "ĠÚ¯Ø±ÛĮ": 2375,
      "ĠÙħØ¸Ø§ÛģØ±Ûģ": 2376,
      "Ġ50": 2377,
      "ĠØ³Ø¹ÛĮØ¯": 2378,
      "ĠÙĦØ§ÙĨÛĴ": 2379,
      "ĠØ¬Ø¯ÛĮØ¯": 2380,
      "ĠÙħØ³ØªÙĤØ¨ÙĦ": 2381,
      "ÙħÛĮÙĪÚº": 2382,
      "ĠØ§Ø·ÙĦØ§Ø¹Ø§Øª": 2383,
      "ĠÚ¯ÙĪÙĦ": 2384,
      "ĠÙĨØªØ§Ø¦Ø¬": 2385,
      "ĠÙħØ¹Ø§ÙħÙĦÛģ": 2386,
      "ĠÚ©ÙĨÙ¹Ø±ÙĪÙĦ": 2387,
      "Ø²Ûģ": 2388,
      "ĠÙħØ´ØªØ±Ú©Ûģ": 2389,
      "ÙĪØ³Ùģ": 2390,
      "ĠØ¹ÙĦØ§Ùħ": 2391,
      "ĠØ§ÙĨÚ©Ø§Ø±": 2392,
      "ĠÙĤÙĪØª": 2393,
      "ĠÙħØ´Ú©ÙĦØ§Øª": 2394,
      "Ø§ÙģØª": 2395,
      "ĠÚĨÛĮÙħ": 2396,
      "ĠÙĦÛĮÙĨÚĪ": 2397,
      "ÙģØªØ±": 2398,
      "ĠØ§ÛĮØ¦Ø±": 2399,
      "ĠØ§Ø³Ú©ÙĪÙĦ": 2400,
      "ĠÙħÙĤØ¯ÙħØ§Øª": 2401,
      "ÙĨÙħ": 2402,
      "Ġ/": 2403,
      "ĠÙħØ§ÛģØ±ÛĮÙĨ": 2404,
      "ĠØ§ÙĨØªØ®Ø§Ø¨Ø§Øª": 2405,
      "ĠÚ©Ú¾ÛĮÙĦ": 2406,
      "Ø´ÛĮØ§": 2407,
      "13": 2408,
      "ĠØ¨ÙĪÙĦ": 2409,
      "ĠÙħÙĪÙĦØ§ÙĨØ§": 2410,
      "ĠØ³ÛģÙĪÙĦØª": 2411,
      "ĠÙĦÛĮØªÛĴ": 2412,
      "ĠØ±ÙģØª": 2413,
      "ĠÙħØ¹Ùħ": 2414,
      "ÙĶ": 2415,
      "ĠÙħØªØŃØ¯Ûģ": 2416,
      "15": 2417,
      "ĠÙħÙĨÛĮ": 2418,
      "ĠÚĨÛĮÚ©": 2419,
      "ØŃÙĤ": 2420,
      "ĠØ¨ÙĦÙĨØ¯": 2421,
      "ÛĮÚ©Ù¹": 2422,
      "ĠØ±ÙĪØ´": 2423,
      "ĠÙħÙĤØ§ÙħØ§Øª": 2424,
      "ĠØ§ÚĨÚ¾ÛĮ": 2425,
      "ĠØ¹Ø§ÙĦÙħ": 2426,
      "12": 2427,
      "Ø§ÙħÙĦØ§Øª": 2428,
      "ÙģØ§ÙĤ": 2429,
      "ĠÙĨÛĮÚ©": 2430,
      "Ġ200": 2431,
      "ĠÙģÙĨ": 2432,
      "ĠØªØ¨Ø§Ø¯": 2433,
      "Ù¹ÙĨÛĴ": 2434,
      "ĠØ¯Ùħ": 2435,
      "ĠÙħÙĨÛģ": 2436,
      "Ø¶ÛĮ": 2437,
      "ĠÙĨØ§Ú©Ø§Ùħ": 2438,
      "ĠÙħØªØ§Ø«Ø±": 2439,
      "ÙħÛĮÚĪ": 2440,
      "ĠØ³ÛĮØ±ÛĮØ²": 2441,
      "ĠÚĨÛĮÙĨÛĮ": 2442,
      "Ø¶ÙĦ": 2443,
      "ĠØ§ÙħÚ©Ø§ÙĨ": 2444,
      "ĠÚ¯Ø±ÙģØªØ§Ø±ÛĮ": 2445,
      "ĠÚ©Ú¾ÙĦØ§ÚĳÛĮ": 2446,
      "ĠØ¢ÙĪØ§Ø²": 2447,
      "ĠØ§Ø³Ø±Ø§Ø¦ÛĮ": 2448,
      "Ú©Ø´ÙħÛĮØ±": 2449,
      "ĠÙĪØ·ÙĨ": 2450,
      "ĠØ¯Ø´ÙħÙĨ": 2451,
      "ĠØ¨ÙĨØ¯ÛĮ": 2452,
      "ĠÚ©ÙħÙĨÙ¹Ø³": 2453,
      "ĠØ§Ø¯Ø§Ú©Ø§Ø±Ûģ": 2454,
      "ĠÙħØ¹ÙĨÛĮ": 2455,
      "ĠØ·ÛĮ": 2456,
      "ĠÙħØŃØ¨Øª": 2457,
      "ĠÙĨØ¬ÛĮ": 2458,
      "ĠÙħØ¬ÙħÙĪØ¹ÛĮ": 2459,
      "ĠØ´Ø§Ø¯ÛĮ": 2460,
      "11": 2461,
      "ĠØ¹Ø¨Ø§Ø¯": 2462,
      "ĠØ§ÙĨØªØ¸Ø§ÙħØ§Øª": 2463,
      "ĠÙĨÛĮÚĨÛĴ": 2464,
      "ĠØ®ÙĪØ§Ø¬Ûģ": 2465,
      "ĠÙħØ¨Ø§Ø±Ú©": 2466,
      "ĠÙħØ¹Ø§ÙħÙĦØ§Øª": 2467,
      "Ġ0": 2468,
      "ĠÙĦÚ¯ÛĴ": 2469,
      "30": 2470,
      "ĠÙħÙĨØµÙĪØ¨ÙĪÚº": 2471,
      "ĠÙ¾ÙĪÙĦÙĨÚ¯": 2472,
      "Ø¦ÛĮØ±": 2473,
      "Ø´Ø±": 2474,
      "ĠØªÙħÛģÛĮÚº": 2475,
      "ĠÚ©Ú¾Ø§ÙĨÛĴ": 2476,
      "ĠÙģØ§Ø¦ÙĨ": 2477,
      "ĠÙĪÚ©ÛĮÙĦ": 2478,
      "Ø§ÛģÙĪÚº": 2479,
      "ĠÚ©Ø§ÙĦØ¬": 2480,
      "ĠØ§ÙĦÙħ": 2481,
      "ĠØ³Ø¹ÙĪØ¯ÛĮ": 2482,
      "ĠØªÙĦØ§Ø´": 2483,
      "ĠØ·ÙĦ": 2484,
      "ĠØ´Ù¾": 2485,
      "ĠØ³ÙħØ§Ø¬ÛĮ": 2486,
      "ĠØªØ´Ú©ÛĮÙĦ": 2487,
      "ĠØªÙģØªÛĮØ´": 2488,
      "ĠØµÙģØ§Ø¦ÛĮ": 2489,
      "ĠÚ©ÙĦØ¨": 2490,
      "Ø§ÙĨÚ©": 2491,
      "Ø§ÙħÛģ": 2492,
      "ĠØ¹Ø¯": 2493,
      "ĠÙħÛĮØ¯": 2494,
      "Ø¹ÙĪØ§Ùħ": 2495,
      "ÙĪÙĨÙ¹": 2496,
      "ĠØ¯ÙĨÙĪÚº": 2497,
      "ĠÙ¾Ø§Ø±ÙĦÛĮÙħ": 2498,
      "ÙĪÙħØªÛĮ": 2499,
      "ĠØ³ÙĪÚĨ": 2500,
      "ĠÚ©ÛĮÚº": 2501,
      "ĠØ¬Ø°": 2502,
      "ĠÛģÛĮÚĪ": 2503,
      "ĠÙĪÙģØ¯": 2504,
      "ĠÙĨØ«Ø§Ø±": 2505,
      "âĢľ": 2506,
      "ĠÛĮÙĪØ³Ùģ": 2507,
      "Ø§Úĳ": 2508,
      "ĠØ¨Ø·": 2509,
      "ĠØ¯Ø§Ø±Ø§ÙĦ": 2510,
      "Ú¾Ùħ": 2511,
      "ĠØ§ÛģØªÙħØ§Ùħ": 2512,
      "ĠØŃÙģØ§Ø¸": 2513,
      "ĠÙĪÛģÛĮ": 2514,
      "ĠÙģÙĪØ±": 2515,
      "Ġ100": 2516,
      "ĠØªØ¹ÛĮÙĨØ§Øª": 2517,
      "ĠØªØ´Ø¯Ø¯": 2518,
      "ĠØ§Ø¶Ø§ÙģÛĴ": 2519,
      "14": 2520,
      "ØªÙħØ§Ø¯": 2521,
      "ØµÛĮ": 2522,
      "ĠØ´ÛģØ¨Ø§Ø²": 2523,
      "ĠÙħØ°ÙħØª": 2524,
      "25": 2525,
      "ÛĮØ±Ø§ÙĨ": 2526,
      "ĠÙĪØ³Ø§Ø¦ÙĦ": 2527,
      "ĠØ§ÙĦÛĮÚ©Ø´ÙĨ": 2528,
      "ĠÙĨØ§Ùģ": 2529,
      "ĠØ·Ø§ÙĤØª": 2530,
      "ĠØ¯ÙģØªØ±": 2531,
      "ĠÛģÙħØ§Ø±Ø§": 2532,
      "ÛĮØ¯Ûģ": 2533,
      "ĠÚ¯Ø²Ø±": 2534,
      "ÙħØŃÙħØ¯": 2535,
      "ĠØ§ÛĮÚĪÛĮ": 2536,
      "ÙĪÙ¹ÛĴ": 2537,
      "ĠØ¯Ø§Ø¦Ø±": 2538,
      "ĠØ¨Ø§Øº": 2539,
      "ØŃÚ©Ø§Ùħ": 2540,
      "ĠØ³ÛĮÚ©Ø±ÛĮÙ¹Ø±ÛĮ": 2541,
      "ĠØ®ÙĪÙģ": 2542,
      "ĠØ§ÙĦÚ¯": 2543,
      "ĠÙ¾ÙĪØ±Ù¹": 2544,
      "ĠØ¨Ø±Ø§Ø¯Ø±ÛĮ": 2545,
      "ĠÙħØ¹Ø§Ø´ÛĮ": 2546,
      "ĠÚ©Ø±Ú©Ù¹": 2547,
      "ĠØ¹Ø§ÙħØ±": 2548,
      "ĠÙ¾ÚĳÛĴ": 2549,
      "Ø¯Ø¹": 2550,
      "Ġ)-": 2551,
      "ĠØ®Ø§ØªÙħÛģ": 2552,
      "ĠÙĨÙĪØ±": 2553,
      "ĠØ§ÛģÙħÛĮØª": 2554,
      "ÙĦÛģØ°Ø§": 2555,
      "ĠØŃØ¯ÛĮØ«": 2556,
      "ĠØ¹Ø¸ÛĮÙħ": 2557,
      "ĠØ§ÙĦØ¹": 2558,
      "ĠØ³Ø¨Ø¨": 2559,
      "Ø§Ø¨ÙĦ": 2560,
      "ĠØµØ§Ø±ÙģÛĮÙĨ": 2561,
      "ĠØ§ÙħÛĮØ±": 2562,
      "ĠØ´ÛĮØ±": 2563,
      "ĠØ®Ø±ÚĨ": 2564,
      "ĠØ´Ø¯Ûģ": 2565,
      "ĠØ¯Ø¹ÙĪØª": 2566,
      "Ø§ÙħØ±ÛĮ": 2567,
      "ĠØ¬Ø¯ÙĪ": 2568,
      "ĠØŃÙĤÛĮÙĤØª": 2569,
      "ĠØ¨ÛĮÙħØ§Ø±ÛĮ": 2570,
      "ĠÙ¾ÛĮÚĨÚ¾ÛĴ": 2571,
      "ĠÙħØ¹Ø±ÙĪÙģ": 2572,
      "ĠØŃØµÙĪÙĦ": 2573,
      "ĠÚ©ÛģÛģ": 2574,
      "ĠÙ¾Ø§": 2575,
      "ĠØ§Ø¹ØªÙħØ§Ø¯": 2576,
      "Ø¨ÙĪÚº": 2577,
      "ĠØ¨Ø§Ø²ÛĮ": 2578,
      "ĠØ®ÛĮØ±": 2579,
      "ĠÛ²Û": 2580,
      "ĠÚ¯Ú¾Ø±ÙĪÚº": 2581,
      "ĠÙħÛĮÙĦ": 2582,
      "ĠØ§ØŃØ³": 2583,
      "ĠÙĪØ§ÙĤØ¹Ø§Øª": 2584,
      "ĠØ·Ø±ÛĮÙĤÛģ": 2585,
      "ĠØ±Ú©Ú¾ÛĮÚº": 2586,
      "Ø¶ÛĴ": 2587,
      "ĠÙħÛĮÚĪÛĮÚ©ÙĦ": 2588,
      "ĠÙĪÙĪÙ¹": 2589,
      "ĠØ§ÙħÛĮØ¯ÙĪØ§Ø±ÙĪÚº": 2590,
      "ĠØ·Ø±ÛĮÙĤÛĴ": 2591,
      "ĠØ¨Ø®Ø´": 2592,
      "ĠÚ¯Ø°Ø´ØªÛģ": 2593,
      "ÛĮÙĨÚ©": 2594,
      "ĠØ§Ø¨Øª": 2595,
      "ØŃØ¶Ø±Øª": 2596,
      "ĠÛģØ§Ø±": 2597,
      "ĠÙ¹Ø±ÛĮÙĨ": 2598,
      "ĠØºÙĪØ±": 2599,
      "ĠØ¨Ø§ÙĤÛĮ": 2600,
      "Ø§ÙĪØ²": 2601,
      "Ø°ÛĮ": 2602,
      "ĠÙħØªÙĪ": 2603,
      "Ø§ÛģÙĦ": 2604,
      "ĠÙħØ³ØªØ±Ø¯": 2605,
      "ĠØ±ÙĪØ§ÛĮØª": 2606,
      "ĠØ¬Ø§ÙĨØ§": 2607,
      "ĠØ§Ø¯Ø§Ú©Ø§Ø±": 2608,
      "ĠØ³ÙĪÙĦ": 2609,
      "ĠÙħÙĦÙĨÛĴ": 2610,
      "ĠÙ¾Ø±ÙĪÙģÛĮØ³Ø±": 2611,
      "ĠØªØµØ¯ÛĮÙĤ": 2612,
      "ĠØŃÚ©ÙħØª": 2613,
      "Ù¾ÙĪ": 2614,
      "ĠØ§ÙĦØŃÙĤ": 2615,
      "ĠÙģØ§Ø±ÙĪÙĤ": 2616,
      "ĠØ±ÙĪØ´ÙĨÛĮ": 2617,
      "16": 2618,
      "ĠØµÙĪØ¨Ûģ": 2619,
      "ĠØ§ÛĮÙĪØ§ÙĨ": 2620,
      "ÙĦÛĮÙģ": 2621,
      "ĠÚ¯Ú¾ÙĨÙ¹ÛĴ": 2622,
      "ĠØŃØ§Ø¯Ø«": 2623,
      "Ø³Ù¹ÙĨÙ¹": 2624,
      "Ø§ÙģØ¸": 2625,
      "ĠØªÙĪÚĳ": 2626,
      "ĠÙ¹Ø±Ø§ÙĨ": 2627,
      "Ø§ÙĪÛĮØ²": 2628,
      "17": 2629,
      "ĠØ¢ÙĨÚ©Ú¾": 2630,
      "ĠØ¨Ø±ÛĮÙģ": 2631,
      "ĠØ§ÙĦØ¯ÛĮÙĨ": 2632,
      "ĠØ¹Ø²ÛĮØ²": 2633,
      "ĠØ¨ÙĨÙĨÛĴ": 2634,
      "ĠØ±Ø¶Ø§": 2635,
      "ĠØ³Ø§ØªÚ¾ÛĮ": 2636,
      "ĠÚĨØ§ÛģØªØ§": 2637,
      "ĠÚ©Ø±Ù¾": 2638,
      "Ø±ÛĮØ³": 2639,
      "Ø±Ø¨ÛĮ": 2640,
      "ĠÙĦØ§Ø¦ÛĮ": 2641,
      "ĠØ¬Ø¬": 2642,
      "ĠÛģØ¯Ø§ÛĮØ§Øª": 2643,
      "ĠÙģØ§Ø¦ÙĨÙĦ": 2644,
      "Ø§Ø¦Ø´ÛĮ": 2645,
      "ĠØ¢Ø³ÙħØ§ÙĨ": 2646,
      "ØºÛĮØ±Ûģ": 2647,
      "ĠÙĨØ§Ø¦Ø¨": 2648,
      "ĠÙĦÚĳÚ©ÛĮ": 2649,
      "ĠØ§Ø¯Ø§Ø¦ÛĮ": 2650,
      "Ø³Ù¹Ø±ÛĮÙĦ": 2651,
      "ĠÙĨØ³": 2652,
      "ĠØ¨ÙĨØ§Ø¦ÛĮÚº": 2653,
      "Ø³ØªÛģ": 2654,
      "Ø¬ÛģØ¯": 2655,
      "ĠÚĪØ§ÙĦØ±": 2656,
      "ĠÙĪØŃ": 2657,
      "Ú¾ÛĴ": 2658,
      "Ø§ÙĨÚ¾ÙĪÚº": 2659,
      "ÙĤØ±Ø§Ø±": 2660,
      "ĠÙħØ³Ø§Ùģ": 2661,
      "ÙħÙĨÛĮ": 2662,
      "ĠØ§ØµÙĦ": 2663,
      "ĠÙħÛĮØ²": 2664,
      "ĠØ§ÙĪÙ¾Ø±": 2665,
      "ĠØ¢Ø¨": 2666,
      "Ø§Ø³Ø¨": 2667,
      "ÙĨÚ¯ÙĦ": 2668,
      "ĠØ±ÛĮÙħ": 2669,
      "ĠÙħØ§ÙĦÚ©": 2670,
      "Ø³Ø±ÛĴ": 2671,
      "ĠØ®ÙĪÙĨ": 2672,
      "ĠØ§ÛĮØ³ÙĪØ³ÛĮ": 2673,
      "ĠØ´ÙħØ§Ø±": 2674,
      "ÙħÙĪÙĨ": 2675,
      "ĠØ±ÛĮÚ©Ø§Ø±ÚĪ": 2676,
      "ĠÙĪÛĮØ¨": 2677,
      "ÙħØ§ÙĨØª": 2678,
      "ĠØªÙĤØ±ÛĮØ¨Ø§": 2679,
      "ĠÙ¾Ø®ØªÙĪÙĨØ®ÙĪØ§": 2680,
      "ÙģÛĮÙĤ": 2681,
      "ĠÙħØ³ÙĦØ³ÙĦ": 2682,
      "ĠØŃÛĮØ«ÛĮØª": 2683,
      "ĠØ´ÙĨ": 2684,
      "ÙĦÛĮÙ¹": 2685,
      "Ø²Ø§Ø²": 2686,
      "ÙĦØ³": 2687,
      "Ġ22": 2688,
      "Ø³ÛĮØ¹": 2689,
      "ÙĪÙĦÛĮØª": 2690,
      "ĠØ¸ÙĦÙħ": 2691,
      "ĠÙħØ¹ÛĮØ´Øª": 2692,
      "ĠÙĨØ§ÙĤ": 2693,
      "ĠÙĨØ³ÙĦ": 2694,
      "ĠØ³Ú©ÛĮÙĪØ±Ù¹ÛĮ": 2695,
      "ĠØ¨Ú¾Ø§Ø±ÛĮ": 2696,
      "ĠØ·ÛĴ": 2697,
      "ĠØ§Ø¨ÙĪ": 2698,
      "ĠÙĨØ§ÙħÛĮ": 2699,
      "ĠØ¯Ø§Ø¯": 2700,
      "ĠØŃØ§Ø¶": 2701,
      "Ø¯Ø§Ø¦ÛĮ": 2702,
      "ĠØ¬ÙħÛģ": 2703,
      "ĠÙ¾ÛĮØ¯Ø§ÙĪØ§Ø±": 2704,
      "ØªÙĤ": 2705,
      "Ø¯Øª": 2706,
      "ĠÙħØ§ÚĪÙĦ": 2707,
      "ĠÙħØŃÙĨØª": 2708,
      "Ø§Ú©ÛĮÙĨ": 2709,
      "ĠØ¬Ø¯ÙĪØ¬ÛģØ¯": 2710,
      "ĠÙĨØ§Ø²ÙĦ": 2711,
      "ĠÛģØ§ØªÚ¾ÙĪÚº": 2712,
      "ĠÚ©ÛĮÙħÙ¾": 2713,
      "ĠÙĦÚ©Ú¾Ø§": 2714,
      "ĠØªØ±Ø¨ÛĮØª": 2715,
      "ĠÙĤØ·": 2716,
      "ĠØªØ¹ÙĦÛĮÙħ": 2717,
      "ĠØ§Ø±Ú©": 2718,
      "Ø§Ø¤ÙĨ": 2719,
      "ĠØ¬ÛĮÙĦ": 2720,
      "ÛĮÙĨØ¦Ø±": 2721,
      "ĠÙħÛģÙħØ§ÙĨ": 2722,
      "ĠØ¨ÙĨØ§Ø¦ÛĮ": 2723,
      "ĠÙħØ®Ø§ÙĦÙģ": 2724,
      "ĠÙĦÚ¯Ø§ÙĨÛĴ": 2725,
      "ĠÙ¾ÛģÙĦØ§": 2726,
      "ĠØ§Ø¦": 2727,
      "ĠØ¯Ø¹ÙĪÛĮ": 2728,
      "ĠÙĤØ¨Ø¶Ûģ": 2729,
      "ĠÙĪÛĮÚĪÛĮÙĪ": 2730,
      "ĠØ¨Ø·ÙĪØ±": 2731,
      "ĠØªÙĨÙĤÛĮØ¯": 2732,
      "ĠØ±Ø§Ø¬Ûģ": 2733,
      "ĠØ¢ÙģØ³": 2734,
      "ĠØ§ÛģÙĦÚ©Ø§Ø±ÙĪÚº": 2735,
      "ÛĮÙĨÚ¯ÛĴ": 2736,
      "ĠØ±ÙĪØŃ": 2737,
      "Ø§Ú©ÛĴ": 2738,
      "Ø§ÙĦÙħ": 2739,
      "ĠÙħØ¹Ø§ÛģØ¯": 2740,
      "ĠØ´Ø±ØŃ": 2741,
      "ĠÙħÛĮØ¯Ø§ÙĨ": 2742,
      "ĠØ·ÙĦØ¨Ø§Ø¡": 2743,
      "ĠÙĦØ§Ø¦": 2744,
      "ĠØ¹Ø¯Ùħ": 2745,
      "Ø·Ø§ÙĨÙĪÛĮ": 2746,
      "ĠØ¯Ø¦ÛĮÛĴ": 2747,
      "ĠØ§Ø±Ú©Ø§ÙĨ": 2748,
      "ĠÚ©Ù¾ØªØ§ÙĨ": 2749,
      "ĠØ°Ûģ": 2750,
      "ĠÙĨØ¬": 2751,
      "ĠØ§ÛģÙĦÚ©Ø§Ø±": 2752,
      "ĠØ¯ÛĮÚ©Ú¾ÙĨÛĴ": 2753,
      "ĠÙģØ±ÛĮ": 2754,
      "ĠÚ©Ø§Ø±ÙĪØ¨": 2755,
      "ĠØ§ØªØŃØ§Ø¯": 2756,
      "Ø¨ÙĪÙĦ": 2757,
      "Ø§ØªØ°Ûģ": 2758,
      "Ø®ÛĮØ§ÙĦ": 2759,
      "ÙħÛĮÚĪÛĮØ§": 2760,
      "ÙĨÚ¯ÛĴ": 2761,
      "ĠØªØ¬Ø§ÙĪØ²": 2762,
      "Ù¾ÛĮØ´": 2763,
      "ĠØ§Ø¯Ø§Ø¦ÛĮÚ¯ÛĮ": 2764,
      "ĠÙħØ¹Ø§ÙĪÙĨ": 2765,
      "ĠØ§Ø¶ÙĦØ§Ø¹": 2766,
      "24": 2767,
      "ĠØ±Ø´ÛĮØ¯": 2768,
      "ĠÚ©Ø±ÙĨÛĮ": 2769,
      "ĠÙħÙģØ§Ø¯": 2770,
      "Ø§Ø¬Ø¯": 2771,
      "Ø·ÙĦ": 2772,
      "ĠÚĨÙĦØ§": 2773,
      "ĠÙħÙĪÙĤÙģ": 2774,
      "ĠØ§ÙħØ¯Ø§Ø¯": 2775,
      "Ú¯ÙĪØ¯": 2776,
      "ÛĮØ¹ÙĨÛĮ": 2777,
      "ĠØ¹Ø¨Ø§Ø¯Øª": 2778,
      "ĠÙħØ³Ø¬Ø¯": 2779,
      "Ø¨Ø§Øª": 2780,
      "ĠØ²Ø¨Ø§ÙĨ": 2781,
      "ĠØ¯Ø±Ø³Øª": 2782,
      "ĠØ¨Ø±ÛĮÙģÙĨÚ¯": 2783,
      "ØªØ§ØŃ": 2784,
      "Ø´Ø§Ûģ": 2785,
      "ĠÙĦÛĮÚĪØ±": 2786,
      "ĠØ§ØŃÚ©Ø§ÙħØ§Øª": 2787,
      "ĠÙ¹Ú¾ÛĮÚ©": 2788,
      "ĠØ¯ÙĪØ±ÛĴ": 2789,
      "ĠØªÛģ": 2790,
      "Ġ\\": 2791,
      "Ú©Ø´Ø§Ùģ": 2792,
      "ĠØ³Ø§Ø¦Ù¹": 2793,
      "ĠÙĦÚ¯Ø§Ø¦ÛĴ": 2794,
      "ÙĪÙħÛĮ": 2795,
      "ĠØ§Ø³Ø³Ù¹ÙĨÙ¹": 2796,
      "ĠÙĤÛĮØ§ÙħØª": 2797,
      "Ø³Ù¹ÛĮ": 2798,
      "ĠÙĪÛĮÚº": 2799,
      "ĠØ³Ø§Ø¦ÙĨØ³": 2800,
      "ĠÙĪØ¶": 2801,
      "ĠØªØ¨Ø§Ûģ": 2802,
      "ĠÙĪØ§ÙĦØ¯": 2803,
      "ĠÙĪØºÛĮØ±Ûģ": 2804,
      "ÙĪÛĮÙ¹": 2805,
      "ĠÙģØ§Ø±Ùħ": 2806,
      "ĠÙ¾Ø³": 2807,
      "27": 2808,
      "Ø±ÛĮÛģ": 2809,
      "ĠØ¨Ø±Ø¯Ø§Ø´Øª": 2810,
      "ĠØ§Ø®ØªØ±": 2811,
      "Ø§Ù¾ÙĨÛĴ": 2812,
      "ÙģÙĤ": 2813,
      "ĠÚ¯Ø§ÚĳÛĮÙĪÚº": 2814,
      "ÚĨØ³Ù¾": 2815,
      "ĠØ¹Ø±Ùģ": 2816,
      "Ø²ÙĨ": 2817,
      "Ø´ÙĪÚº": 2818,
      "ĠÙĤØ±Ø¨Ø§ÙĨÛĮ": 2819,
      "ĠØ¯ÛģØ´ØªÚ¯Ø±Ø¯": 2820,
      "ĠØ§ÙĦÛĮ": 2821,
      "ĠØ±ÛģØªÛĴ": 2822,
      "ĠØ¢Ø®Ø±Øª": 2823,
      "ĠØ·Ø¨": 2824,
      "ĠÛģÙ¹": 2825,
      "ÛĮÙĨØ¬": 2826,
      "ĠØ§Ø®Ø±Ø§Ø¬": 2827,
      "ĠØ§ÙĨÚ©Ø´Ø§Ùģ": 2828,
      "ĠÚ¯Ø±Ø¯ÙĪÚº": 2829,
      "ĠÙĨØ´Ø³Øª": 2830,
      "ĠÚ©Ø´ÙħÛĮØ±ÛĮÙĪÚº": 2831,
      "ĠØ¬Ø§Ø¦ÛĮÚ¯Ø§": 2832,
      "Ø¨ÙĦÚ©": 2833,
      "ĠØªØŃØµÛĮÙĦ": 2834,
      "ĠÙħØŃØ±": 2835,
      "Ø§Ø¨ÛĮÙĨÛģ": 2836,
      "ĠÚ©Ø§Ø±Ú©ÙĨÙĪÚº": 2837,
      "ĠØ®Ø²Ø§ÙĨÛģ": 2838,
      "ĠØ§Ø®ØªÙĦØ§Ùģ": 2839,
      "ĠØ³Ø¬": 2840,
      "ĠØ³Ù¾Ø±ÛĮÙħ": 2841,
      "Ø§Ø±Ø´": 2842,
      "ĠØŃÚ©ÙĪÙħØªÛĮ": 2843,
      "ĠÙģØ§Ø¦Ø±ÙĨÚ¯": 2844,
      "ĠØ¢ØªÛĴ": 2845,
      "ĠØ¯ÙĪØ³Ø±Ø§": 2846,
      "ĠØ´Ø¹Ø¨ÛĴ": 2847,
      "ĠØŃØ¬": 2848,
      "ØªÙħÛĮ": 2849,
      "ĠØ±ÛĮÙģØ±ÙĨØ³": 2850,
      "Ø§Ø±ÙĤ": 2851,
      "ĠÚ©Ú¾ÙĪÙĦ": 2852,
      "ĠØ§Ø³Ù¹ÛĮØ´ÙĨ": 2853,
      "Ø°ÛĮØ±": 2854,
      "ĠÚ©Ø±ÙĨ": 2855,
      "Ø¨ÙĪØ¯": 2856,
      "ĠÙĪØ§ÙĦØ¯ÛĮÙĨ": 2857,
      "Ġ40": 2858,
      "ĠØ³Ø³Ù¹Ùħ": 2859,
      "ĠØ§Ø±Ø§Ú©ÛĮÙĨ": 2860,
      "ĠØ²ÙĨØ¯Ûģ": 2861,
      "Ø¢Ø¬": 2862,
      "Ú©ÙĪØ¦Ù¹Ûģ": 2863,
      "ĠÙħØ«Ø§ÙĦ": 2864,
      "ĠÙģÙĪØ±Ø³Ø²": 2865,
      "ĠØ³Ù¾Ø±": 2866,
      "ĠÛĮÙĪÙĨÛĮÙĨ": 2867,
      "ĠØ¹ÛĮ": 2868,
      "ĠØ³ÚĳÚ©": 2869,
      "ĠØ§ÙĨÙ¹Ø±ÙĨÛĮØ´ÙĨÙĦ": 2870,
      "Ø§Ø¤Ø³": 2871,
      "ĠÙ¾ÛģÙĨÚĨØ§": 2872,
      "Ø±Ø§Ø¡": 2873,
      "ĠÚ©Ø§ÙģØ±": 2874,
      "ÚĪØ²": 2875,
      "Ú©ÛĮÙĪ": 2876,
      "ĠÙ¹Ú©Ù¹": 2877,
      "ĠØ³ÙĪØ§": 2878,
      "ØµØ§Ø¯ÛĮ": 2879,
      "26": 2880,
      "ĠØ¯Ú¾ÙĪ": 2881,
      "Ø§Ø°": 2882,
      "ĠÙ¹ÛĮÙħÙĪÚº": 2883,
      "ÛģØ±ÛĴ": 2884,
      "ĠÙħØ¹ÛĮØ§Ø±": 2885,
      "ĠØµØ¯ÛĮ": 2886,
      "Ø³Ø·": 2887,
      "ĠØ³Ø§ÙħØ§ÙĨ": 2888,
      "ĠØ¨ÛĮÙ¹ÛĴ": 2889,
      "Ø´Ø§ÙĨ": 2890,
      "ĠØ§Ø³Ø§ØªØ°Ûģ": 2891,
      "ĠØ§ÙĨØªÙĤ": 2892,
      "Ø²Ùħ": 2893,
      "ĠØ¢ØªØ§": 2894,
      "ĠÙĨÙħØ§": 2895,
      "ĠØ§Ø®ØªØª": 2896,
      "ĠÙ¾ÛĮÙ¾ÙĦØ²Ù¾Ø§Ø±Ù¹ÛĮ": 2897,
      "28": 2898,
      "ĠØ®ÙĪØ´ÛĮ": 2899,
      "ÛģØ±Ø³Øª": 2900,
      "ĠÚĨÛĮÙĦ": 2901,
      "ĠØ³Ø±Ø§Ûģ": 2902,
      "ĠØ®Ø§ÙĦØ¯": 2903,
      "ĠØ§ÛĮØ¬ÙĨØ³ÛĮ": 2904,
      "ĠØŃÙħÙĦÛģ": 2905,
      "ĠÙħØ°ÛģØ¨ÛĮ": 2906,
      "ĠÙ¹ÛĮÚ©": 2907,
      "ĠØ®Ø§ØªÙħÛĴ": 2908,
      "ĠØ¨Ù¹": 2909,
      "ĠØ§Ù¹Ú¾Ø§": 2910,
      "Ø±Ø§ÛģÛĮÙħ": 2911,
      "ĠØ³Ø±Ø¨Ø±Ø§ÛģÛĮ": 2912,
      "ĠØ¹Ø²Øª": 2913,
      "ĠØ¯Ø³ØªÛĮ": 2914,
      "Ø³Ø¨": 2915,
      "ĠØ³ÙĦÙħØ§ÙĨ": 2916,
      "ĠÙħØ§ØŃÙĪÙĦ": 2917,
      "ĠÛģÛĮÙĦØªÚ¾": 2918,
      "29": 2919,
      "ĠÙĤÙĦ": 2920,
      "ĠØªÛĮØ§Ø±ÛĮ": 2921,
      "ĠØ¯Ø±Ø¢ÙħØ¯": 2922,
      "ĠØ¹Ø·Ø§": 2923,
      "Ú¾ÛĮÚº": 2924,
      "ĠÙĦØ¨": 2925,
      "ĠÙģÛĮÚĪ": 2926,
      "Ø«ÙħØ§ÙĨ": 2927,
      "âĢĻâĢĻ": 2928,
      "ĠÙĨÛģØ§ÛĮØª": 2929,
      "ÛģØ±ÛĮ": 2930,
      "ĠÚĨØ§ÙĨ": 2931,
      "ĠØ¢ÛĮØ§Øª": 2932,
      "ĠØŃØ§Ø¬ÛĮ": 2933,
      "âĢĿ": 2934,
      "ĠØ¬ÙĨØª": 2935,
      "ĠØ´Ú©ÙĦ": 2936,
      "ĠØ§ÙĪÙĪØ±": 2937,
      "ĠØ¯ÙĦÚĨØ³Ù¾": 2938,
      "Ø§Ú¯": 2939,
      "ĠÛĮÙĪÙħ": 2940,
      "Ø¯Ùģ": 2941,
      "ĠØ²Ø±Ø§Ø¹Øª": 2942,
      "°Û": 2943,
      "Ø®ÙĪØ§Ûģ": 2944,
      "ĠØ³ÛĮÚ©ÙĪØ±Ù¹ÛĮ": 2945,
      "ĠÙģØ¶ÙĦ": 2946,
      "ÙĦÚĪ": 2947,
      "Ø§ÙĤØ¹": 2948,
      "ÙĤØ§Øª": 2949,
      "ĠØ¨Ø§ØªÛĮÚº": 2950,
      "ĠØ§ÛĮØ¬ÙĪ": 2951,
      "Ø¶Ø§ÙĨ": 2952,
      "ĠØ§ÙģØ³ÙĪØ³": 2953,
      "23": 2954,
      "Ø§ÛĴ": 2955,
      "Ú©Ù¹Ø±": 2956,
      "ĠÙĦÙĪÙ¹": 2957,
      "ĠÙĨÛĮØ§": 2958,
      "Ø¢Ø¨Ø§Ø¯": 2959,
      "ĠØ§ÙĤØ¯Ø§Ùħ": 2960,
      "ÙĨÙĪÚº": 2961,
      "Ø¬Ø³ÛĴ": 2962,
      "ĠØ¢Ø±ÙħÛĮ": 2963,
      "ĠØ§ØµÙĦØ§ØŃ": 2964,
      "ĠØ´ÛģÛĮØ¯": 2965,
      "ĠØ´ÙĨØ§Ø®": 2966,
      "ĠÙĦØ§Ø´": 2967,
      "ĠØ¯ÛĮØ±": 2968,
      "ĠÙħÙĦØª": 2969,
      "ĠØªØµÙĪÛĮØ±": 2970,
      "ĠÙĪÛĮÙĦ": 2971,
      "ĠÙħØ¨Øª": 2972,
      "ÛģÙĪØ±": 2973,
      "ĠÙ¾Ú¾ÛĮÙĦ": 2974,
      "ĠØ§Ø²ÛĮÚº": 2975,
      "ĠÛģÙĪÙĨÛĮ": 2976,
      "Ú¯Ø²Ø´ØªÛģ": 2977,
      "ĠØ¨Ø§ÙĦÚ©ÙĦ": 2978,
      "ÛĮÙĨØ¯": 2979,
      "ĠØ§ÛĮÚĪÙĪ": 2980,
      "ĠØ§Ø¹Ø²Ø§Ø²": 2981,
      "ĠØ¯Ú¾Ø±": 2982,
      "ĠØ¹Ø¨Ø§Ø³ÛĮ": 2983,
      "Ø±ÛĮØ±": 2984,
      "Ø±ÛĮØ¯ÛĮ": 2985,
      "Ù¹ÛĮÙģ": 2986,
      "ĠÙħØµÙĨÙĪ": 2987,
      "ĠØ§ÙĤØªØ¯Ø§Ø±": 2988,
      "ĠØ³ÛĮÙģ": 2989,
      "ĠØ§ÛĮÚĪÛĮØ´ÙĨÙĦ": 2990,
      "ĠÙĦØ§Ø²": 2991,
      "Ú©Ø³ÛĮ": 2992,
      "Ø§ÙĦÙĪ": 2993,
      "ĠØ¨Ø¯ÙĦ": 2994,
      "ĠØ¨Ø§ÙĤ": 2995,
      "ĠÚĪÛĮÙħ": 2996,
      "ĠÙħÙĨÙ¹": 2997,
      "ĠÚ©Ø±ÛĮ": 2998,
      "ĠØ±Ú©ÙĨÛĮ": 2999,
      "ĠØ¯Ø±Ø¬Ûģ": 3000,
      "ĠØ±ÛĮÙ¹": 3001,
      "ĠØ§Ø¯Ø§Ø±Ûģ": 3002,
      "ĠØ±ÛģØ§Ø¦Ø´ÛĮ": 3003,
      "ĠØ§ÙĦÙģØ§Ø¸": 3004,
      "Ø§ÙģÛĮÙĪÚº": 3005,
      "ÙĪÙĨÚ¯": 3006,
      "ĠØªØ¨Ø§Ø¯ÙĦÛģ": 3007,
      "ĠÚ©ÛĮØ³ÛĴ": 3008,
      "ĠÚĨÛĮÙĦÙĨØ¬": 3009,
      "ĠØ¬Ø±Ø§Ø¦Ùħ": 3010,
      "ĠØ¨Ø±ÙĤØ±Ø§Ø±": 3011,
      "ĠØ§Ø¨Ø±Ø§ÛģÛĮÙħ": 3012,
      "ÙģÛģ": 3013,
      "ĠÙĪØ§ÙĤØ¹ÛĴ": 3014,
      "ĠÚ©ÛĮÙĨ": 3015,
      "ĠÙĴ": 3016,
      "ÙĨÚ¯Ø²": 3017,
      "Ø¬Ø§Ø²": 3018,
      "Ù´": 3019,
      "ĠØ¨Ø±Ø§Ø¨Ø±": 3020,
      "ĠÚĨÙĪØ±ÛĮ": 3021,
      "ĠÚ©Ø±Ø§Ø¦ÛĮ": 3022,
      "ĠÙ¾ÙĪØ³Ù¹": 3023,
      "ĠØ³ÛĮÙĨÙ¹Ø±": 3024,
      "Ġ2017": 3025,
      "Ø§ÙĤØ¨": 3026,
      "ĠØ¨ÛĮÙ¹ÛĮ": 3027,
      "ĠÚĨÚ¾Ù¾": 3028,
      "ĠÙ¾ÛģÙĨÚĨØ§ÙĨÛĴ": 3029,
      "ĠÙģØªØŃ": 3030,
      "ĠØ§ÙĨØ¬ÛĮÙĨØ¦Ø±": 3031,
      "ĠØ²Ùħ": 3032,
      "Ø±ÛĮØ§": 3033,
      "ĠÙħØ¶ÙħÙĪÙĨ": 3034,
      "Ø³ÛĮØ±": 3035,
      "ĠØ³Ø§ÙĨ": 3036,
      "ĠØ¹Ø²Ùħ": 3037,
      "Ġ23": 3038,
      "ĠØ§ÛĮÚ©Ø´ÙĨ": 3039,
      "ĠØ¨Ø§Ù¾": 3040,
      "ĠØ¢Ø¨Ø§Ø¯ÛĮ": 3041,
      "Ú¯ÙĪØ¯Ú¾Ø§": 3042,
      "ĠØ´Ø§ÙĨØ¯Ø§Ø±": 3043,
      "ĠØ§ÙĦØ²Ø§ÙħØ§Øª": 3044,
      "ĠÛĮÙĪØ±": 3045,
      "ĠÙħØŃØ±ÙĪÙħ": 3046,
      "ĠÙħØ§Úº": 3047,
      "µÛ": 3048,
      "ĠÙĦÛģ": 3049,
      "Ġ27": 3050,
      "ĠØ§ÙĤØªØµØ§Ø¯ÛĮ": 3051,
      "ĠÙ¾ÛĮØ³ÛĴ": 3052,
      "ĠØ¢Ù¹Ú¾": 3053,
      "ĠØ®Ø§Ùħ": 3054,
      "ĠÙ¾Ø¨ÙĦÚ©": 3055,
      "ĠÙĤØ¯": 3056,
      "ĠÙħØ¹Ø§Ø´Ø±ÛĴ": 3057,
      "ĠÙħØ«Ø¨Øª": 3058,
      "Ø¯ÛĮÛģ": 3059,
      "ĠÚ©ÙĪÛģ": 3060,
      "ØŃØ§ÙĦÛĮ": 3061,
      "ĠØ·ÙĪÛĮÙĦ": 3062,
      "ĠÙĪØ§Ø¦Ø³": 3063,
      "....": 3064,
      "Ø²ÙĦ": 3065,
      "ĠØ§ÙĨØ³Ø¯Ø§Ø¯": 3066,
      "Ú¯ÙĨ": 3067,
      "Ø§Ø¦ÙĪØ³": 3068,
      "Ø®Ø·": 3069,
      "ĠÚ©Ø«": 3070,
      "ĠØ¨ÙĤ": 3071,
      "ĠÙħØ¨ØªÙĦØ§": 3072,
      "ĠØ®Ø§ÙĨÛģ": 3073,
      "ĠÙ¾ÙĪØ¯": 3074,
      "ĠØŃÛĮØ§Øª": 3075,
      "ĠØ§ÙĦÙĨ": 3076,
      "ĠØ§ÙģØªØªØ§ØŃ": 3077,
      "ĠÙħØ¹Ø§ÛģØ¯ÛĴ": 3078,
      "ĠÙħØ¬Ø¨": 3079,
      "ĠØ§ÙĨØ§Ø¦ÛĮ": 3080,
      "ĠØ³Ù¾ÙĪØ±Ù¹": 3081,
      "ĠÙĪÙĦØ¯": 3082,
      "ĠØ±ÛĮØ³": 3083,
      "ĠØ´Ø¹Ø¨ÙĪÚº": 3084,
      "ĠØ±Ùħ": 3085,
      "ĠØªØ¬Ø±Ø¨": 3086,
      "Ġ26": 3087,
      "ĠÙ¾ÛģÙĨ": 3088,
      "ÛĮÛģØ§Úº": 3089,
      "ĠØ¨Ø®Ø§Ø±ÛĮ": 3090,
      "ĠØ°Ø±ÛĮØ¹Ûģ": 3091,
      "ĠÚ©Ø§Øº": 3092,
      "ÛĮÙĪ": 3093,
      "ĠÙĦÙĨØ¯ÙĨ": 3094,
      "ĠØ§Ú©Ø±": 3095,
      "ĠÚ©Ø§Ø±ÙĪÚº": 3096,
      "ĠØ¨Ú¾Ù¹ÙĪ": 3097,
      "ĠØ§ÙĨÚ¯ÙĦ": 3098,
      "Ø§ÙĨÛĮÙĨ": 3099,
      "Ø§Ø³Ú©": 3100,
      "ĠØ§ÚĨÚ¾Ø§": 3101,
      "Ġ]": 3102,
      "ØµÙĪØ±Øª": 3103,
      "ÙħÙĦÚ©Øª": 3104,
      "ĠÚĨÙĦÛĴ": 3105,
      "ĠØ¬Ø¹ÙĦÛĮ": 3106,
      "ĠØªÛĮØ²ÛĮ": 3107,
      "Ú¯Ø§Ûģ": 3108,
      "ĠÙ¾ÛģÙĨÚĨÛĴ": 3109,
      "ĠÙĤÙĪØ§ÙĨÛĮÙĨ": 3110,
      "ĠÛģÙĨØ¯": 3111,
      "ĠÙħÙĪØ§ÙĤØ¹": 3112,
      "ĠÙĨØ¹ÙħØª": 3113,
      "Ø¹ÙĪØ¯": 3114,
      "ĠØ¨ÙĨÛĴ": 3115,
      "ĠÙ¾ÙĨ": 3116,
      "Ø§Ø¹Ø¯Ûģ": 3117,
      "ĠØ±Ú©Ú¾ØªØ§": 3118,
      "Ø§ÛĮÙħ": 3119,
      "ĠÙĪØ±ÙĦ": 3120,
      "ĠØ¡": 3121,
      "ĠÙĨØ§Ø±": 3122,
      "ĠØ¸ÙģØ±": 3123,
      "ĠÙħØ¯Øª": 3124,
      "ĠØ«Ø¨ÙĪØª": 3125,
      "ĠÙĪØ±ÙĦÚĪ": 3126,
      "ĠÚ©Ø§Ø¨ÛĮÙĨÛģ": 3127,
      "Ġ35": 3128,
      "ĠØ±Ø§Ø³": 3129,
      "ĠØ§ÛĮØ¬ÙĪÚ©ÛĮØ´ÙĨ": 3130,
      "ĠÚ©ÙħÙ¾ÙĨÛĮÙĪÚº": 3131,
      "ĠØ¬Øª": 3132,
      "ĠÙĤØ¯Ùħ": 3133,
      "ĠØ®ÙĦ": 3134,
      "ĠÙħØ§Ø±ÚĨ": 3135,
      "ÛĮÙĨÙĪÚº": 3136,
      "Ø§Ø³Ù¹": 3137,
      "09": 3138,
      "ĠÙĤØ§Ø¨ÙĪ": 3139,
      "ĠÙĨÛĮÙĪ": 3140,
      "ĠÙ¾ÚĳØ§": 3141,
      "ĠÚĪÛĴ": 3142,
      "ĠÙĤÛĮÙħØªÙĪÚº": 3143,
      "ĠØ§ØªÙģØ§ÙĤ": 3144,
      "ÙĪØ§ÙĦÛģ": 3145,
      "07": 3146,
      "ĠÙĦØ§Ø¦ÛĴ": 3147,
      "Ø±ÛĮØŃ": 3148,
      "ĠØªØ´ÙĪÛĮ": 3149,
      "ĠØ¢Ø¯ÙħÛĮ": 3150,
      "ĠØ§ÙĦÙĤ": 3151,
      "ĠØŃØ§ÙħÙĦ": 3152,
      "ĠØ¨ÛĮØ±ÙĪÙĨ": 3153,
      "ĠÚĨÙħ": 3154,
      "ĠØ´ÛģØ±ÙĪÚº": 3155,
      "ĠØ³ÙĦØ§ÙħØªÛĮ": 3156,
      "ĠØ§ÛĮÚ¯Ø²": 3157,
      "ĠÙ¾Ø§Ø¦ÛĮ": 3158,
      "ĠÙħÛģØ±Ø¨": 3159,
      "ĠØ¢Ø®Ø±": 3160,
      "ÚĨÛĮÙģ": 3161,
      "ĠØŃØªÙħÛĮ": 3162,
      "ĠØ§ÙħØª": 3163,
      "ĠØ§ÙħØªØŃ": 3164,
      "ĠØ¢ØªÛĮ": 3165,
      "ĠÙĨÚ¯Ø±Ø§ÙĨÛĮ": 3166,
      "Ø°Ø§Øª": 3167,
      "ĠØ³Ø§ÙĦØ§ÙĨÛģ": 3168,
      "ĠÙ¾ÛĮØ´Ûģ": 3169,
      "ĠÙģÙĦØ§ØŃ": 3170,
      "ĠÚ©Ø§ÙħÙĪÚº": 3171,
      "ÚĳÙĪÚº": 3172,
      "ĠØ¹Ø«ÙħØ§ÙĨ": 3173,
      "ĠÚ©Ú¾ÚĳÛĴ": 3174,
      "Ø±Ø¯Ø§Ø±ÛĮ": 3175,
      "Ø¯ÙĦ": 3176,
      "ĠØ¹ÙħØ§Ø±Øª": 3177,
      "ĠÙħØ§Ø¶ÛĮ": 3178,
      "ĠÙ¾Ø§Ø±Ú©": 3179,
      "ĠØªÙģØµÛĮ": 3180,
      "Ġ28": 3181,
      "ĠÚ©ÙħØ²": 3182,
      "ÙĪØ±ÙĨØ§Ùħ": 3183,
      "ĠÚ©ÙģØ±": 3184,
      "ĠØ¹Ø¨Ø¯Ø§ÙĦÙĦÛģ": 3185,
      "ĠØ²ÛĮØ§Ø¯ØªÛĮ": 3186,
      "ĠØ§Ø®ØªØªØ§Ùħ": 3187,
      "Ø³ÙħÛĮ": 3188,
      "ĠØ§Ø±Ø´Ø§Ø¯": 3189,
      "ĠØ´ÛģØ¯": 3190,
      "ĠØ¨Ùħ": 3191,
      "ĠØ¨ÛĮÙĪÛĮ": 3192,
      "Ø¨ÙĪØ¶Ûģ": 3193,
      "ĠÙħØ´Ø§ÙĪØ±": 3194,
      "ĠÙģÙĨÚĪØ²": 3195,
      "ĠØ¶ÙħØ§ÙĨØª": 3196,
      "ĠØ³ÙģØ§Ø±Ø´": 3197,
      "Ø±Ø§ÙĪÙĦÙ¾ÙĨÚĪÛĮ": 3198,
      "ĠÙħØ¬ÛĮØ¯": 3199,
      "ĠØ³ÙĨØ§": 3200,
      "Ø§ÙĦØŃ": 3201,
      "ĠØ³Ø§ÙĦÙĪÚº": 3202,
      "ĠØ¦ÛĮ": 3203,
      "ĠØ³ÙĪÙĨ": 3204,
      "ĠØ±ØŃÙħØª": 3205,
      "ĠØµØŃØ§ÙģÛĮÙĪÚº": 3206,
      "Ø¹ÙħØ±Ø§ÙĨ": 3207,
      "Ø§ÙĨÛģÛĮÚº": 3208,
      "ĠÙĦÙģØ¸": 3209,
      "ĠÙĨØªÛĮØ¬Ûģ": 3210,
      "ĠÙ¾Ø±ÙĪÛĮØ²": 3211,
      "ĠÚ©Ø§Ø±Ú©ÙĨØ§ÙĨ": 3212,
      "ØªÚ¾ÛĮ": 3213,
      "ÛģØ§": 3214,
      "ĠØ¹ÙħÙĦØ¯Ø±": 3215,
      "ĠØªØ¬ÙĪÛĮØ²": 3216,
      "ĠØ¹ÙĨØ§ØµØ±": 3217,
      "¶Û": 3218,
      "ĠØŃÙģØ§Ø¸Øª": 3219,
      "ĠØªØ¬Ø§ÙĪØ²Ø§Øª": 3220,
      "ĠÙ¾ÙĪØ²ÛĮØ´ÙĨ": 3221,
      "ĠÛģÙĨÚ¯": 3222,
      "Ù¹Ø±Ú©": 3223,
      "ĠØ³Ø±Ú¯Ø±ÙħÛĮÙĪÚº": 3224,
      "ÙĪØ·": 3225,
      "ĠØ¨ÛĮÚ¯": 3226,
      "ĠØ¹ÙĦØ§ÙħÛģ": 3227,
      "ĠÚ©Ø±Ø§Ùħ": 3228,
      "Ø±Ú©Øª": 3229,
      "ĠÙĤØµ": 3230,
      "ĠÛģÙĪÚ©Ø±": 3231,
      "ĠØ´ÛģØ²Ø§Ø¯": 3232,
      "Ø¨Ú¾Ø±": 3233,
      "ĠØ¹ÙĤÛĮØ¯": 3234,
      "ĠØ§Ø¹ÙħØ§ÙĦ": 3235,
      "ĠØ¯Ø±ÙĪ": 3236,
      "ĠØ±ÙĪÚ©ÙĨÛĴ": 3237,
      "ĠØ³ÙĪØ±Ûĥ": 3238,
      "Ø¯ÙĪÙĨÙĪÚº": 3239,
      "ĠÙħØŃØ³ÙĪØ³": 3240,
      "ĠØ³ÛĮÙĨÛĮÙ¹Ø±": 3241,
      "ĠØ®Ø±Ø§Ø¨": 3242,
      "08": 3243,
      "ĠØ·Ø§ÛģØ±": 3244,
      "Ġ\\&": 3245,
      "03": 3246,
      "05": 3247,
      "ÙĪÛĮÚº": 3248,
      "ĠØ¯Ø±Ø®Øª": 3249,
      "ĠÙ¾ÙĨØ§Ûģ": 3250,
      "ĠÙħØ¬Ú¾": 3251,
      "Ø®Ø¨Ø±": 3252,
      "ĠÙ¾Ø§Ø¨ÙĨØ¯": 3253,
      "ĠØ§ÙĨÛĮ": 3254,
      "ĠØ¨ØŃÙĤ": 3255,
      "ÚĪØ§Ú©Ù¹Ø±": 3256,
      "ĠØ§Ú©Ø¨Ø±": 3257,
      "ĠÙĪÙĪÚĪ": 3258,
      "ĠØ´ÙģØ§Ùģ": 3259,
      "ĠØ¨Ø§Ø¨": 3260,
      "ĠØ¹ÛģØ¯ÛĴ": 3261,
      "04": 3262,
      "ĠØªØ¬Ø§Ø±ØªÛĮ": 3263,
      "ĠØ¨Ø§ÛģÙħÛĮ": 3264,
      "ĠÙĨØ±": 3265,
      "ĠÚ¯Ø±Ø§Ùħ": 3266,
      "ĠØªØ±Ú©": 3267,
      "ÚĪØ§": 3268,
      "ĠØŃÚ©ÙħØ±": 3269,
      "ĠØ¢Ø¦ÛĮÙĨ": 3270,
      "ĠÙģØ±Ø§Ø±": 3271,
      "ĠÙħØ®ÙĦ": 3272,
      "ĠØ³ÙģÛĮØ±": 3273,
      "ÚĪÛĮØ´ÙĨ": 3274,
      "ĠÙħØ§ÙĨÚ¯": 3275,
      "ĠØ¨ÙĨÛĮØ§Ø¯ÙĪÚº": 3276,
      "ÙħØ¨Ø±": 3277,
      "ĠØ±ÙĪÙħ": 3278,
      "ÙĪØ§Ø¬": 3279,
      "ĠØŃÙĪØµ": 3280,
      "ÙĪØ±ÙĨØ§ÙħÙĨÙ¹": 3281,
      "ĠØ¯ÛĮØ¯": 3282,
      "ĠØ¬ÙħØ¹Ûģ": 3283,
      "ĠÙħØ¨ÛĮÙĨÛģ": 3284,
      "ĠØ§Ø¹Ø¬Ø§Ø²": 3285,
      "Ġ21": 3286,
      "ÙĪØ¹": 3287,
      "ĠØ¶ÙħÙĨ": 3288,
      "02": 3289,
      "Ø§Ø¦Ø¶": 3290,
      "ĠÙĦØ§ÛĮØ§": 3291,
      "ĠØ³Ø±ØŃ": 3292,
      "ĠÙ¾Øª": 3293,
      "ĠÙħÙĪÙħÙĨ": 3294,
      "ĠÚ©Ø±ÙĪÚº": 3295,
      "ĠØ§Ø«Ø±": 3296,
      "ĠÙģÙĪÚĪ": 3297,
      "ÙĪÛģØ±": 3298,
      "ĠØ¬Ø²": 3299,
      "ÙĨØ§Ùħ": 3300,
      "Ø®Ø§ÙĨ": 3301,
      "ĠÙĨØ§ÙģØ°": 3302,
      "ĠØ·Ø§ÙĦØ¨Ø§Øª": 3303,
      "Ø¬Ø§Ùħ": 3304,
      "ĠÚ©ÛĮÙ¾": 3305,
      "Ġ'": 3306,
      "ĠØ±Ø§Ø¬": 3307,
      "ĠÙħÙħÙĦÚ©Øª": 3308,
      "ĠÙħÛĮØ±Ø§": 3309,
      "ĠÙħØ±ÛĮÙħ": 3310,
      "ĠØ§Ø¹ØªØ±Ø§Ø¶": 3311,
      "Ù¹Ú¾ÛĮ": 3312,
      "ĠØ§Ø³Ú©ÛĮ": 3313,
      "Ø¹Ø¨": 3314,
      "ĠØ§Ø¨ØªØ¯Ø§Ø¦ÛĮ": 3315,
      "ĠØ±Ø§Ø³ØªÛģ": 3316,
      "ĠØ·Ø§Ø±ÙĤ": 3317,
      "ĠÙħØ·ÙĦØ¨": 3318,
      "ĠÙħØ±Ú©Ø²": 3319,
      "ĠÚ©Ø§Ø±ÚĪ": 3320,
      "ĠØ§Ø²Ø§Úº": 3321,
      "ĠØ¢Ú¯Ø§ÛģÛĮ": 3322,
      "ĠØ´ÙħØ§ÙĦÛĮ": 3323,
      "ĠØ´Ú©Ø§ÛĮØ§Øª": 3324,
      "ĠØ·ÙĦØ¨Ûģ": 3325,
      "ĠØªØ¬Ø§Ø±Øª": 3326,
      "ĠÙħØ±ÛĮØ¶ÙĪÚº": 3327,
      "ĠØªÙģØµÛĮÙĦÛĮ": 3328,
      "ĠÙħØµØ±ÙĪÙģ": 3329,
      "ĠØŃØ§ÙģØ¸": 3330,
      "ĠØ³Ø±Ùģ": 3331,
      "ĠÚ©Ø±Ø§": 3332,
      "ĠØ¬ÙĨÛģÛĮÚº": 3333,
      "ÙĦÛĮÙĪ": 3334,
      "ĠØ§Ú©Ø«Ø±": 3335,
      "ĠÙħÙĤØ¯Ø§Ø±": 3336,
      "ØªÙĤØ±ÛĮØ¨": 3337,
      "ĠÙĪØ¹Ø¯Ûģ": 3338,
      "ĠØ¨Ø¬ÙĦÛĮ": 3339,
      "ĠØ³ÙĦÛĮÙħ": 3340,
      "ĠÛģÙĪÙĨÚ¯ÛĴ": 3341,
      "ĠÚĨÚ¾Ø§Ù¾": 3342,
      "ĠÙĨØ§ÙħØ²Ø¯": 3343,
      "ĠØ´Ø¯Øª": 3344,
      "Ø¨Ø¹Ø¯": 3345,
      "ĠØ¨ÙĨØ§ÙĨØ§": 3346,
      "ĠØ¯Ø§Ø±Ø§ÙĦØŃÚ©ÙĪÙħØª": 3347,
      "Ø§Ø·Ø±": 3348,
      "ĠØ´ÛģØ§Ø¯Øª": 3349,
      "Ø§ÙĪÛĮØ±": 3350,
      "Ø³Ú©ÛĴ": 3351,
      "ĠÙĦÚ¯Ø§ÛĮØ§": 3352,
      "ĠÙħØ¬Ø¨ÙĪØ±": 3353,
      "ĠÚ¯ÙĨØ¯": 3354,
      "ĠØªÚ©ÙħÛĮÙĦ": 3355,
      "Ø§ØŃØ¯": 3356,
      "ĠØ¬Ø§Úº": 3357,
      "ĠØ§ÙĨÚ©ÙĪ": 3358,
      "ĠÙĪØµÙĪÙĦ": 3359,
      "ĠÙħØ¬Ø±Ùħ": 3360,
      "ĠÙģÛģØ±Ø³Øª": 3361,
      "ĠÚĨÙĪÚ©": 3362,
      "ĠØ¹ÙħÙĦØ¯Ø±Ø¢ÙħØ¯": 3363,
      "ĠØ¬Ø³ÛĴ": 3364,
      "ĠÙģØ±Ø§Ø¦Ø¶": 3365,
      "ĠÙ¹Ø±Ùħ": 3366,
      "ĠÚĨÚĳÚ¾": 3367,
      "Ø¯Ø§ÙĨÙĪÚº": 3368,
      "Ø´ÙĪØ±": 3369,
      "ĠØ§ÙĨØ³Ù¾": 3370,
      "Ø²Ø§Ø¯Ûģ": 3371,
      "06": 3372,
      "Ø§Ø¦ÛĮØ§Úº": 3373,
      "ĠÚ©ÙĪÚĨ": 3374,
      "ĠÚ©ÛĮØ³Ø§ØªÚ¾": 3375,
      "Ø³Ø§Ø¦": 3376,
      "ĠØ³Ø§Ø²ÛĮ": 3377,
      "ĠØ§ÙĨÚĪØ³Ù¹Ø±ÛĮ": 3378,
      "Ø§Ø¨Ø·Ûģ": 3379,
      "ĠØªÙħÛģØ§Ø±ÛĮ": 3380,
      "ĠÛģØ²Ø§Ø±ÙĪÚº": 3381,
      "ĠÙĨØ²Ø¯": 3382,
      "ĠÛģØ§Ø¤Ø³": 3383,
      "ØªØ¨": 3384,
      "ĠØ³ÙĪØ§Ø±": 3385,
      "ĠØµØŃØ§ÙģÛĮ": 3386,
      "ĠØ±Ø®": 3387,
      "ÙĦØ§ÛĮØ§": 3388,
      "ĠÙħØŃØ¶": 3389,
      "ĠØ±ÙħØ¶Ø§ÙĨ": 3390,
      "Ø±Ø§Ø±": 3391,
      "ĠØ¬Ú¾ÙĪÙ¹": 3392,
      "Ø§ÛģØ¯Ûģ": 3393,
      "ĠÙħÙĨØ¹ÙĤØ¯Ûģ": 3394,
      "ĠÙ¹Ø±ÛĮ": 3395,
      "ĠØ§Ø´ÛĮØ§Ø¡": 3396,
      "ÙħØ²ÛĮØ¯": 3397,
      "Ø±Ø¯ÛĮ": 3398,
      "ĠØ¬ÙħÙĪÚº": 3399,
      "ĠÚ©ÙħØ§ÙĨ": 3400,
      "ĠÛ³Û": 3401,
      "ĠÙĪØ§Ø±Ø¯": 3402,
      "ĠÙģÛĮÙĦ": 3403,
      "Ø¯Ú¾": 3404,
      "ĠØ°Ø§ØªÛĮ": 3405,
      "ÙģÛĮØµÙĦ": 3406,
      "ĠØªÛĴ": 3407,
      "ÙĦÙĪØ¨": 3408,
      "Ø§ÙħØ±ÛĮÚ©ÛĮ": 3409,
      "Ø§ÙħÙĨ": 3410,
      "Ú¯Ø§ÙĨ": 3411,
      "ĠÙģÙĦØ³Ø·": 3412,
      "ØªØ±Ø¬ÙħØ§ÙĨ": 3413,
      "01": 3414,
      "Ø³Ø§Ø¨ÙĤ": 3415,
      "Ø§ÛģØ±ÛĮÙĨ": 3416,
      "ĠØ´ÙħÙĪÙĦÛĮØª": 3417,
      "ĠØ±Ø§Ø¨Ø·ÛĴ": 3418,
      "ĠÛĮØ§Ø³": 3419,
      "ĠÙħÙĤØ¯Ùħ": 3420,
      "ÙħØ§Ø±": 3421,
      "·Û": 3422,
      "ĠØ¬ÛģØ§Ø²": 3423,
      "ĠÙĨÙħØ§Ø¦Ø´": 3424,
      "ĠÙ¾Ú©": 3425,
      "ĠÙ¾Ú©Úĳ": 3426,
      "ĠØ¯Ø§ÙĨ": 3427,
      "ĠØªØµØ§ÙĪÛĮØ±": 3428,
      "ĠØŃØ±Ø§Ùħ": 3429,
      "ĠÙĪØ¬": 3430,
      "ĠØªØ®": 3431,
      "ĠØ±ÙĪØ²Ú¯Ø§Ø±": 3432,
      "Ø²Ø®": 3433,
      "21": 3434,
      "ØªÙħØ§Ø¹": 3435,
      "ĠØ¯Ø±Ù¾ÛĮØ´": 3436,
      "ĠØªÙģØ³ÛĮØ±": 3437,
      "ĠÙħØ´Ø±Ú©": 3438,
      "ĠØ¨ØŃØ«": 3439,
      "ÙĪØ§ÙĦÛĴ": 3440,
      "ĠØ¨ÛĮÙĦ": 3441,
      "ĠØ®Ø·Ø±Ûģ": 3442,
      "Ø¨Ø§ÙĨ": 3443,
      "ĠØ³ÛĮÙħ": 3444,
      "Ø¢Ø¦ÛĮ": 3445,
      "ĠÙħØ³Ø¹ÙĪØ¯": 3446,
      "ĠØŃÙĤÛĮÙĤÛĮ": 3447,
      "Ø±Ø§Ùģ": 3448,
      "ĠØ®Ø±Ø§Ø¬": 3449,
      "ĠÚĨÙĪ": 3450,
      "ĠØªØ³ÙĦÛĮÙħ": 3451,
      "ĠØ¢Ø³Ù¹Ø±ÛĮÙĦ": 3452,
      "Ú©Ø±ÛĮ": 3453,
      "ĠØ³Ú©Ø§": 3454,
      "ĠØ§Ø³ØªØŃÚ©Ø§Ùħ": 3455,
      "ĠÚĨÚ¾ÙĪÙ¹ÛĴ": 3456,
      "Ø§Ø¦Ù¹": 3457,
      "ÙģÛĮÛģ": 3458,
      "ĠØ±Ù¾ÙĪØ±Ù¹Ø³": 3459,
      "ĠØ®Ø·ÛĴ": 3460,
      "Ø±Ø§Ø²": 3461,
      "Ø³Ù¾ÙĪØ±Ù¹": 3462,
      "Ø³Ø§ÙĦ": 3463,
      "ĠÙĨÛĮÙĪØ²": 3464,
      "ÙħØ´": 3465,
      "ĠÙĨØ§Ø¸": 3466,
      "ĠØ§ÙĨÚ©ÛĴ": 3467,
      "ĠÚ©ÙĪØ§Ø±": 3468,
      "ĠØ§Ø¹Øª": 3469,
      "ĠÙĨÙħØ§ÛĮØ§Úº": 3470,
      "ĠÙħÙĨØ¸Ø±": 3471,
      "ĠØ¢Ø¤": 3472,
      "ĠØ¢Ø³Ø§ÙĨ": 3473,
      "ÚĨØ§Ø±": 3474,
      "ĠØ¢ÙģØ±ÛĮØ¯ÛĮ": 3475,
      "ĠÙħÙħØ¨Ø±Ø§ÙĨ": 3476,
      "ĠØ±ÛģØ§Ø¦Ø´": 3477,
      "ĠØ±ÙĪØ´ÙĨ": 3478,
      "ÙħØ³ÙĦÙħ": 3479,
      "ĠØ¹Ø¸": 3480,
      "ĠÙĤØ±ÛĮØ´ÛĮ": 3481,
      "ĠÙĪØ§Ù¹Ø±": 3482,
      "Ø³ÙĨØ¯Ú¾": 3483,
      "ÛģØ§Ø±Ø§": 3484,
      "ĠÙ¹Ø±ÙħÙ¾": 3485,
      "ĠÚ©ÙĦØ§Ùħ": 3486,
      "ÙĪÙ¹Ø±": 3487,
      "ĠÙ¾Ø§Ø±ÙĦÛĮÙħØ§ÙĨÛĮ": 3488,
      "ĠØ®Ø§Ø·Ø±": 3489,
      "ĠÙĨØ¬Ø§Øª": 3490,
      "ĠØ¨Ø±Ø·Ø§ÙĨÙĪÛĮ": 3491,
      "ĠØ§Ø«Ø±Ø§Øª": 3492,
      "ĠØµÙĨØ¹Øª": 3493,
      "ØŃØª": 3494,
      "Ø§Ø¹ÛĮÙĦ": 3495,
      "ÛĮÙħÙĨ": 3496,
      "ĠÙħØ¨ÙĨÛĮ": 3497,
      "ØµÙĪØ¨Ø§Ø¦ÛĮ": 3498,
      "ĠØ±ÛĮÙĨØ¬": 3499,
      "ĠÛģØ§Úº": 3500,
      "Ú©ÙĪÙ¹": 3501,
      "ĠÛģÙģØªÛģ": 3502,
      "ĠØªÙĪÙĤØ¹": 3503,
      "Ø§Ú©Ø±": 3504,
      "ĠØŃØ±Ø§Ø³Øª": 3505,
      "ĠÙħØªØ¹Ø§Ø±Ùģ": 3506,
      "ĠÚ¯Ø§Ûģ": 3507,
      "ĠÙħÙĪØ¨": 3508,
      "ĠØ§ÙĦØ±ØŃÙħÙĨ": 3509,
      "ĠØ§Ø³ØªÙĤ": 3510,
      "ĠØ±Ø§ÙĨØ§": 3511,
      "ĠØ±Ø§Ø³ØªÛĴ": 3512,
      "ĠØ¨ÚĳÚ¾Ø§ÙĨÛĴ": 3513,
      "ĠØ§Ø«Ø§Ø«": 3514,
      "ĠÙģØ±ÙĤ": 3515,
      "ĠÛģØ±ÛĮ": 3516,
      "ĠÙģÚ©Ø±": 3517,
      "Ø±Ø¶": 3518,
      "Ø±Ù¾ÙĪØ±Ù¹": 3519,
      "ĠÚ©Ø±Ø¯": 3520,
      "ĠØ®ÙĪØ´ØŃØ§ÙĦÛĮ": 3521,
      "ĠÙĦÙĨ": 3522,
      "ÚĨØ§": 3523,
      "ĠØ§ÙĨÚ¾ÛĮÚº": 3524,
      "ÙħÛĮÙħ": 3525,
      "ĠÙ¹ÛĮÙħÛĮÚº": 3526,
      "Ù¾ÙħÙĨÙ¹": 3527,
      "Ú©Ø§ÙĪÙ¹": 3528,
      "ĠØ¹ÙĦÙħØ§Ø¡": 3529,
      "Ø¨ÙĨ": 3530,
      "ĠÙħØµÙĨÙĪØ¹Ø§Øª": 3531,
      "Ù¾ÙĪØ§Ø¦ÙĨÙ¹": 3532,
      "Ø²Ø¦ÛĮ": 3533,
      "Ø§ØªØ±": 3534,
      "ĠÚĨÛĮØ²ÙĪÚº": 3535,
      "Ø¹Ø¯Ø§ÙĦØª": 3536,
      "Ø§Ø´ÛĮ": 3537,
      "ĠÚ©Ø§Ø±ÙĪØ¨Ø§Ø±ÛĮ": 3538,
      "ĠÙħØ´Ø§ÙĪØ±Øª": 3539,
      "ĠÚ©ÛģÛĮ": 3540,
      "ĠÙ¾Ø§Ø¦ÛĴ": 3541,
      "Ø¬ÙĨÛģÙĪÚº": 3542,
      "ĠÚ©Ù¾ÙĪØ±": 3543,
      "ĠØ¯Ú©Ú¾Ø§Ø¦ÛĮ": 3544,
      "ÙģØ³": 3545,
      "ÙħØ¸": 3546,
      "ĠÙħÙĨØ§Ø³Ø¨": 3547,
      "ĠØ¯ÛģØ§ÙĨÛĮ": 3548,
      "ĠØ§Ø¬ØªÙħØ§Ø¹": 3549,
      "ĠÙħØ¨Ø§Ø±Ú©Ø¨Ø§Ø¯": 3550,
      "ĠÙ¾Ø´Ø§ÙĪØ±": 3551,
      "ÙĨÙĪØ§Ø²": 3552,
      "Ġ29": 3553,
      "Ø²Ø¯Ú¯ÛĮ": 3554,
      "ĠØ±ÙĪÙĨ": 3555,
      "ĠØ¹ÛģØ¯ÛĮØ¯": 3556,
      "ĠØ³ÙĨÚ¯Ú¾": 3557,
      "ĠØ§ÙĨÙĪØ±": 3558,
      "ĠÙħÙĨØ§Ùģ": 3559,
      "ĠÙ¾ÛĮÙĨÛĴ": 3560,
      "ĠØ§Ø³ÙħØ§Ø¹ÛĮÙĦ": 3561,
      "ĠØ§Ù¹Ú¾Ø§Ø¦ÛĴ": 3562,
      "ĠÚĪØ±Ø§Ø¦ÛĮ": 3563,
      "ĠØ±ÙĪØ§ÛĮ": 3564,
      "ĠÙĦÛĮÙĨØ§": 3565,
      "¸Û": 3566,
      "Ù¾ÙĪØ±ÛĮ": 3567,
      "ĠÙ¾ØªÛģ": 3568,
      "ĠØ§ÛĮØ±": 3569,
      "ÙģØ±Øª": 3570,
      "ĠÙħØªØ§Ø«Ø±Ûģ": 3571,
      "ĠÚ¯Ø§ÚĳÛĮ": 3572,
      "ÙħØŃÚ©": 3573,
      "ĠØ¬Ø§ÙħØ¹": 3574,
      "ĠØ¯ÛĮÚ©Ú¾ØªÛĴ": 3575,
      "ĠØ´Ø®ØµÛĮØ§Øª": 3576,
      "ĠØ¹Ø±ØµÛģ": 3577,
      "ĠÛĮÙĪÚº": 3578,
      "ĠØ§ÛĮÚ¯Ø²ÛĮÚ©": 3579,
      "Ġ70": 3580,
      "ĠÙģØ±Ø¯": 3581,
      "ĠØŃØ§ÙĦÛĮÛģ": 3582,
      "ĠÙħØ§ÙĨÛĮ": 3583,
      "ĠØªÙĨØ§Ø²": 3584,
      "Ø§Ø³ÛĴ": 3585,
      "ĠØ±ÛĮÙĦÛĮØ²": 3586,
      "ĠØ³ÙĪØ¯": 3587,
      "ĠØ§ÚĨÚ¾ÛĴ": 3588,
      "ÙħØ¨Ø¦ÛĮ": 3589,
      "ĠÙ¾ÛĮÙĨ": 3590,
      "ĠØ§ÙĨÛģÙĪÚºÙĨÛĴ": 3591,
      "Ø¹ÙĦÙĪÙħ": 3592,
      "ĠØ¨Ø§Ø±Ø´": 3593,
      "ĠØ§Ø´Ø±Ùģ": 3594,
      "ĠØ§Ø±Ø¯ÙĪÙ¾ÙĪØ§Ø¦ÙĨÙ¹": 3595,
      "ØµØ¨": 3596,
      "Ø§Ú©ÙĪ": 3597,
      "Ø§ÙħØ§": 3598,
      "ĠÚ©ÛģÙĨÛĴ": 3599,
      "ĠØŃÙħÙĦ": 3600,
      "ØªÙĨ": 3601,
      "ĠØ§Ú©ÛĮ": 3602,
      "ĠØ³ÙĨÛĮ": 3603,
      "ÙĨÚ¯Ø±": 3604,
      "ĠØ²Ø¨Ø±Ø¯": 3605,
      "ÙĨÛģÛĮÚº": 3606,
      "ĠØ³ÙĨØ¨Ú¾": 3607,
      "ĠÙħÛģØ±Ø¨Ø§ÙĨÛĮ": 3608,
      "ĠØ±ÙĪØ§ÙĨÛģ": 3609,
      "Ø§Ø±Ù¹ÙħÙĨÙ¹": 3610,
      "ĠÙħÙĪØ¨Ø§Ø¦ÙĦ": 3611,
      "ĠÚĪØ§Ø±": 3612,
      "ĠØ¬Ø§ÙĨØªÛĴ": 3613,
      "ĠØªÛĮØ±": 3614,
      "ĠÙģØµÙĦ": 3615,
      "ĠØ¨Ø±ÙĪÙĤØª": 3616,
      "Ø¬ÛĮØ³ÛĴ": 3617,
      "ĠØ¨Ø¯Ú¾": 3618,
      "ĠÙĨÙħØ§Ø¦ÙĨØ¯ÙĪÚº": 3619,
      "ĠØ´Ø±Ø§Ø¨": 3620,
      "ÙĪØ±ÙĪ": 3621,
      "ĠØ¯ÙĪØ¯Ú¾": 3622,
      "ĠÚ©Ú¾ÙĦ": 3623,
      "ĠØ®Ø·Ø±": 3624,
      "ĠÙĤØ¨Ø¶ÛĴ": 3625,
      "ĠØ³ÙħØ¬Ú¾ØªÛĴ": 3626,
      "ĠØ¨Ø§ÙĤØ§Ø¹Ø¯Ûģ": 3627,
      "Ø§ÚĪ": 3628,
      "ĠÙħØ§ÙĦÛĮØª": 3629,
      "Ø¯Ø§Ø±ÛĮ": 3630,
      "ĠØ¯ÙĦØ§Ø¦ÙĦ": 3631,
      "ĠØ±ÙģØªØ§Ø±": 3632,
      "Ø¬Ø³Ù¹Ø³": 3633,
      "ĠÙĪÙĦÛĮ": 3634,
      "ĠØ§ØŃØªØ¬Ø§Ø¬": 3635,
      "ĠØµØ¯ÛĮÙĤÛĮ": 3636,
      "ĠÚ©Ø«ÛĮØ±": 3637,
      "ĠØ¢Ø±Ûģ": 3638,
      "Ø§Ø¦ÛĮÙĪÚº": 3639,
      "ĠÙħØ¹ÙħÙĪÙĦÛĮ": 3640,
      "Ø¨Ú¾Ø§Ø±ØªÛĮ": 3641,
      "Ø¢Ø±": 3642,
      "ÙħÙħØ¨Ø¦ÛĮ": 3643,
      "ĠØ§ÙħØªØŃØ§ÙĨ": 3644,
      "Ù¾Ø±ÙĪ": 3645,
      "ĠØ¨Ø±Ø·": 3646,
      "ĠØ³ÛĮÚ©Ù¹Ø±": 3647,
      "ĠÙħÙĪØ³ÙħÛĮ": 3648,
      "ĠÚ¯Ø±ÛĮÙĨ": 3649,
      "ĠÙ¾Ø±ÙĪØ§Ø²": 3650,
      "ĠÛģÙĪØ¦ÛĮÚº": 3651,
      "Ġ60": 3652,
      "ĠØ§ØªØ±": 3653,
      "ÛĮÙĨÚ¯": 3654,
      "ĠØ¯ÛĮØªÛĮ": 3655,
      "ĠÚĪÛĮÙĪÙ¹ÛĮ": 3656,
      "ĠÙĨØ²Ø¯ÛĮÚ©": 3657,
      "Ø§Ø¦ÙĨÛģ": 3658,
      "ĠÙħÙĪØ¬ÙĪØ¯Ú¯ÛĮ": 3659,
      "ĠÙĪØ§Ù¾Ø³ÛĮ": 3660,
      "ĠÙħÛĮÚĨØ²": 3661,
      "ĠØŃØ¯ÙĪØ¯": 3662,
      "ĠØªØ¹Ø±ÛĮÙģ": 3663,
      "ĠØ¹Ø±ØµÛĴ": 3664,
      "ĠÚ©Ø§ØºØ°Ø§Øª": 3665,
      "ÙĪØ§ÙĦÛĮ": 3666,
      "ĠØ§ÚĨØ§ÙĨÚ©": 3667,
      "ĠÙĪØ§Ø±Ø¯Ø§Øª": 3668,
      "ĠØ¢Ûģ": 3669,
      "Ø§Ø³Ùħ": 3670,
      "ĠÙħØ¹Ø·ÙĦ": 3671,
      "ĠÙħØ±ØªØ¨": 3672,
      "ĠÙħÙĪØ«Ø±": 3673,
      "ĠØ¨ØŃØ§ÙĦÛĮ": 3674,
      "ĠÙħØ´ÛĮØ±": 3675,
      "ĠØ§Ú©Ø§Ø¤": 3676,
      "ĠØ²Ø±Ø¹ÛĮ": 3677,
      "ĠØ¨ØŃØ±Ø§ÙĨ": 3678,
      "ĠØ§Ú¯ÙĦÛĴ": 3679,
      "ĠØ§Ø³Ø¯": 3680,
      "ĠÚ¯Ø±ÛĮÚĪ": 3681,
      "ĠÙĨØ§ØµØ±": 3682,
      "ĠÚ¯ÙĪØ±ÙĨÙħÙĨÙ¹": 3683,
      "ĠØŃÙĦÙģ": 3684,
      "Ø¬Ø³Ù¹Ø±": 3685,
      "ĠØ±ÙĪØ²Ø§ÙĨÛģ": 3686,
      "ĠÙĦÙĪÚĪ": 3687,
      "ĠØ§ÙĦÛģÛĮ": 3688,
      "ÛģÙħÛĮÚº": 3689,
      "ĠØ®ÙĪØ§Ø¨": 3690,
      "ĠÚ¯ÛĮØ³": 3691,
      "ĠØªÚ©ÙĦÛĮÙģ": 3692,
      "ĠÙģØ¶Ø§Ø¦ÛĮ": 3693,
      "ĠØ§ÙĨÚ¾ÙĪÚº": 3694,
      "ÚĳÚ¾ÛĴ": 3695,
      "Ġ\"": 3696,
      "ĠØ§ÙĨØ¹Ø§Ùħ": 3697,
      "ĠÛĮØ§Ø±": 3698,
      "ĠØ§Ø³Ø±Ø§Ø¦ÛĮÙĦ": 3699,
      "Ø³Ù¾ÙĦ": 3700,
      "Ø¬ÙĨÚ¯": 3701,
      "ĠÙĪØ§Ø¨": 3702,
      "ĠØ³ÛĮÙ¹": 3703,
      "ĠÚ©Ø±Ø§ÛĮØ§": 3704,
      "ĠØ²Ø±Ø¯Ø§Ø±ÛĮ": 3705,
      "ĠÚĨÙĦÙĨÛĴ": 3706,
      "Ø³ÙĦØ±": 3707,
      "ĠØ§ÙĪÙĦØ§Ø¯": 3708,
      "ÙĪÛĮØ§Øª": 3709,
      "ĠÚ©Ú¾Ø§ÙĨØ§": 3710,
      "ĠØªØ§Ø±ÛĮØ®ÛĮ": 3711,
      "ĠÙĤØ¨Ø±": 3712,
      "ĠÙħØ²Ø¯": 3713,
      "Ø·ÙģÛĮ": 3714,
      "ĠÙ¾Ø±Ø§Ø¬": 3715,
      "ĠÙħÙĪØµÙĪÙĦ": 3716,
      "ĠÙģØ±ÙħØ§Ø¦ÛĮ": 3717,
      "ĠÚĨØ§ÛģÛĴ": 3718,
      "Ø§Ø¦Ø±ÛĮ": 3719,
      "ĠÙħÙĤØ¨ÙĪØ¶Ûģ": 3720,
      "ĠØªØŃØ³ÛĮÙĨ": 3721,
      "ĠÙ¾Ø§ÛĮØ§": 3722,
      "ĠÚ©ÙĪÙ¹": 3723,
      "ÙĨÛĮØ¨": 3724,
      "ĠØµØ¨Ø±": 3725,
      "ÙħØŃÚ©ÙħÛģ": 3726,
      "ĠØ´Ú©Ø§ÛĮØª": 3727,
      "ĠØ±ÛģÙĨÙħØ§Ø¤Úº": 3728,
      "Ø¹ÙĪÙĨ": 3729,
      "ĠÛĮØ§ÙģØªÛģ": 3730,
      "ĠØ§ÛĮÙĪÙĨÙ¹": 3731,
      "ĠÚ©Ø±ÛĮÙĨÚ¯ÛĴ": 3732,
      "ĠØ§ØŃØ³ÙĨ": 3733,
      "ĠØŃØ³Ø§Ø¨": 3734,
      "ÛĮÙĨØ³": 3735,
      "ĠØ¨ÛĮØ³": 3736,
      "ĠØ¨ØŃØ§ÙĦ": 3737,
      "ĠØ³Ø§Ø±ÛĮ": 3738,
      "ĠÙħØŃÚ©ÙħÙĪÚº": 3739,
      "ĠÚĨÙĪØª": 3740,
      "ĠØ±ÛĮÙĦ": 3741,
      "ĠÚ©Ú¾ÛĮÙĦÛĴ": 3742,
      "ĠØ¯ÙĦÚĨØ³Ù¾ÛĮ": 3743,
      "ĠØ±ÛģØªØ§": 3744,
      "ĠÙĨØ¨ÙĪØª": 3745,
      "ĠÚĪÚ¯Ø±ÛĮ": 3746,
      "ĠØ¨ÙĦÙĪÚĨØ³ØªØ§ÙĨ": 3747,
      "ĠØµÙĪØ¨ÙĪÚº": 3748,
      "ĠØ¹ÙĦØ§Ø¬": 3749,
      "ÙĤØ±Ø¢ÙĨ": 3750,
      "ĠØ³Ø±ÛĮ": 3751,
      "ĠØ§Ø³ÙĦÙħ": 3752,
      "ĠØ§ÙĦØ±": 3753,
      "ĠÙĦÛĮÚ©Ø±": 3754,
      "ĠØ³Ø±Ø§ÛģØ§": 3755,
      "ĠØ¨ÚĨØ§ÙĨÛĴ": 3756,
      "ĠØªÛĮØ³Ø±ÛĴ": 3757,
      "ĠÙ¾Ø§ÙĪØ±": 3758,
      "ÚĪÛĴ": 3759,
      "ĠÙ¾Ø±Ø§Ø¦ÛĮ": 3760,
      "ĠØ±Ú©Ú¾ÙĨØ§": 3761,
      "ĠØ§ÙĨÙ¹Ø±ÙĪ": 3762,
      "ĠØ§ÛĮÙ¾": 3763,
      "ĠÙ¾ÛĮÚ©": 3764,
      "ĠØŃÙĦÙĤÙĪÚº": 3765,
      "ĠÙ¾ÙĪØ§Ø¦ÙĨÙ¹Ø³": 3766,
      "ĠÚ¯ÙĨ": 3767,
      "ĠØ§Ø¹ØªØ±Ø§Ùģ": 3768,
      "ĠÚ©ÙĦÛĮ": 3769,
      "ĠÙĤÙĪÙĦ": 3770,
      "ĠÙħÙĦØªÙĪÛĮ": 3771,
      "ĠØ±ÛĮÙĨØ¬Ø±Ø²": 3772,
      "ĠÙħØ®ØµÙĪØµ": 3773,
      "ĠÙ¾Ø§Ú©Ø³ØªØ§ÙĨÛĮÙĪÚº": 3774,
      "ĠØ§ÙĨÚ©ÛĮ": 3775,
      "ĠÙģØ±ÙħØ§ØªÛĴ": 3776,
      "ĠØ§ÙĦØ±ØŃÙħØ§ÙĨ": 3777,
      "ĠÙĪØ§ØŃØ¯": 3778,
      "ĠÙģØ®Ø±": 3779,
      "ĠØ¨ÙĪØ¬Ú¾": 3780,
      "ĠØºÙģ": 3781,
      "ĠØ®Ø§ÙĦÛĮ": 3782,
      "ĠÙĤØ±Ø¨Ø§ÙĨ": 3783,
      "ÙĪÙģØ§ÙĤÛĮ": 3784,
      "Ø¨Ø±Ø¯Ø§Ø±": 3785,
      "ĠØ¯ÙĦÛĮÙĦ": 3786,
      "Ø§Ú©ÛĮ": 3787,
      "ĠØ³ÙħÙĨØ¯Ø±": 3788,
      "ĠØŃÙĪØµÙĦÛģ": 3789,
      "ÚĪÛĮÙħ": 3790,
      "ĠÛģÙĨØ¯ÙĪ": 3791,
      "ØŃÚ©Ùħ": 3792,
      "Ø§Ø®ÛĮØ±": 3793,
      "Ú©Ø´ÙĨ": 3794,
      "¹Û": 3795,
      "ĠØ±ÛģÙĨÙħØ§Ø¦ÙĪÚº": 3796,
      "Ø¸Ø±": 3797,
      "ĠÙħØªÙĨ": 3798,
      "ĠØ¨ÙĦØ¯ÛĮÛģ": 3799,
      "ĠØ¯ÙĪÙĦØª": 3800,
      "ĠØ¬ÛĮØ³Ø§": 3801,
      "Ø§Ø¨ÛĮÙĨ": 3802,
      "ĠØ¨Ø§Ø²Ø§Ø±": 3803,
      "ÙĨÙĨÚ¯": 3804,
      "ĠØ®ÙģÛĮÛģ": 3805,
      "ØªÛĮÚº": 3806,
      "ĠØ¹ÙħÙĦÛĴ": 3807,
      "ĠØ¨Ú¾ÛĮØ¬Ø§": 3808,
      "ĠÙģØ±ÛĮÙĤ": 3809,
      "Ø¹ÛĮØª": 3810,
      "ĠÙ¾ÚĨÚ¾": 3811,
      "ĠÙ¾Ú¾ÙĦ": 3812,
      "ĠÙħØ´ÛģÙĪØ±": 3813,
      "ĠØ³Ú©Ú¾Ø±": 3814,
      "ĠÙħÛģØ§Ø¬": 3815,
      "ĠÙ¾Ø§ÙĨÛĴ": 3816,
      "ĠØ±Ú©Ø§ÙĪÙ¹": 3817,
      "ĠØ´Ø±Ú©Ø§Ø¡": 3818,
      "ĠØ¯Ú¾ÙħØ§Ú©ÛĴ": 3819,
      "ÙĨØ§Ø¡": 3820,
      "ÙħÛĮØ§Úº": 3821,
      "ĠÙĨÚ¯Ø±Ø§ÙĨ": 3822,
      "ĠÛĮÙĪÙĨÙ¹": 3823,
      "ĠÛ´Û": 3824,
      "ĠØ²ÛĮ": 3825,
      "ĠØµÙĨØ¹": 3826,
      "ĠØ¬Ø§ÙĨÛĮ": 3827,
      "ĠÛģØ¯Ùģ": 3828,
      "ØŃØ§ÙĨ": 3829,
      "ĠÙ¾ÛģÚĨ": 3830,
      "Ġ45": 3831,
      "ĠÚ©Ø±Ø§Ø¦ÛĴ": 3832,
      "ĠØ³Ø²": 3833,
      "ÙĦÚ©": 3834,
      "Ø§Ø¯ÙĤ": 3835,
      "Ø§ÙĨÚ©Ûģ": 3836,
      "ĠØ³Ø§Ø²Ø´": 3837,
      "ĠØ§Ø´Øª": 3838,
      "ĠØ§ÛĮÚ©Ø³": 3839,
      "ĠØ§ØµÙĪÙĦ": 3840,
      "ĠÙħÚ©Ûģ": 3841,
      "ĠØ³ÚĳÚ©ÙĪÚº": 3842,
      "ĠØ¨ÛĮÙ¹Ú¾ÛĴ": 3843,
      "ÙĨÛĮØ§": 3844,
      "ĠØ±Ø¬Ø³Ù¹Ø±": 3845,
      "ĠØ´ÙĪÛģØ±": 3846,
      "ĠÙĪÛĴ": 3847,
      "ĠØ§ÛģÙĦÛĮÛģ": 3848,
      "ĠØ§ÙĤÙĪØ§Ùħ": 3849,
      "Ø³ÙħÛĮØª": 3850,
      "ĠÙħÙĨÚĪÛĮ": 3851,
      "ĠØ¹Ø¯Ø§ÙĦØªÛĮ": 3852,
      "Ø§Ø¤ÙĨÚĪ": 3853,
      "ĠØ±Ø´": 3854,
      "ĠØ§Ø¨ÙĦ": 3855,
      "ĠÙģÙĦØ³Ø·ÛĮÙĨÛĮ": 3856,
      "ĠÙ¾ÙĪÚĨÚ¾Ø§": 3857,
      "ĠÚ©ÙĪØ±ÛĮØ§": 3858,
      "ĠØ¯Ø§Ø¦": 3859,
      "Ġï": 3860,
      "ĠØ§ØŃÚ©Ø§Ùħ": 3861,
      "ĠØ§Ø¯ÙĪÛĮØ§Øª": 3862,
      "ĠÚ¯ÙĪØ´Øª": 3863,
      "ĠÙĦØ§Ú©Ú¾ÙĪÚº": 3864,
      "ÚĪÙĪÙĦ": 3865,
      "ĠØ§ÙĦØ¨": 3866,
      "ĠÙħØ³ÙĦØŃ": 3867,
      "ĠØ§Úĳ": 3868,
      "ĠÚ¯Ø±Ùħ": 3869,
      "ĠØªÙĨØ®ÙĪØ§Ûģ": 3870,
      "ĠØªØµÙĪØ±": 3871,
      "ĠÚ¯ÙħØ±": 3872,
      "ĠÙħÙĨÚ¯ÙĦ": 3873,
      "ĠØ¨Ø§ÙĦØ§": 3874,
      "ĠØŃÙĦÙĤÛĴ": 3875,
      "Ø´Ø§Ø¡": 3876,
      "ĠÙ¾Ø±Ø³Øª": 3877,
      "ĠØ¯Ø±Ø¯": 3878,
      "ĠØ§Ú©Ø±Ùħ": 3879,
      "ĠØ§ÙģØºØ§ÙĨØ³ØªØ§ÙĨ": 3880,
      "Ø§Ø¯Ùħ": 3881,
      "ĠØ§Ø¦ÛĮØ±": 3882,
      "ĠØ´Ø§": 3883,
      "ĠØ³ÙģØ§Ø±Øª": 3884,
      "Ø§ÙĦÛĴ": 3885,
      "ĠØ¨ÚĨÛĮ": 3886,
      "ĠØ§ØªÙĨÛĮ": 3887,
      "ĠØªØ§ØŃ": 3888,
      "Ø¬ÙĦ": 3889,
      "ĠÙĤØ±ÛĮØ¨ÛĮ": 3890,
      "Ø¬ÙħÙĨÙ¹": 3891,
      "Ø¨Ù¹": 3892,
      "ĠÙģÙĪØ§Ø¯": 3893,
      "ĠØ§ÙħØªÛĮ": 3894,
      "ĠØ§Ø³ØªÙĤØ¨Ø§ÙĦ": 3895,
      "ĠÚ©Ú¾ÛĮÙĦØ§": 3896,
      "Ø§Ø¦ÛĮÚĪ": 3897,
      "ĠÛģØ§Ø¦ÙĪØ³": 3898,
      "ĠØ¨Ø±Ø§Ûģ": 3899,
      "ĠÛģØªÚ¾ÛĮ": 3900,
      "Ø°Ø±": 3901,
      "ĠØªÚ¾Ø§Ùħ": 3902,
      "ĠØ§ØŃØªØ¬Ø§Ø¬ÛĮ": 3903,
      "ĠØ§Ø®Ø±Ø§Ø¬Ø§Øª": 3904,
      "ĠØ¯ÛĮÙĨÛĮ": 3905,
      "ĠÚ©ÙħÛĮÙĪÙĨ": 3906,
      "ĠÚ©Ø§ÙĦÙĪÙĨÛĮ": 3907,
      "ĠØ¯Ú©Ø§ÙĨ": 3908,
      "ĠØ´Ø§ÛģØ±": 3909,
      "ĠØ§ÛĮÙħØ±": 3910,
      "ĠÙħØ´Ø±": 3911,
      "ÙħØ°": 3912,
      "ĠØ±Ú©Ú¾ØªÛĮ": 3913,
      "ĠÙ¾ÙĪÚĨÚ¾": 3914,
      "Ø§ÙĦÛĮØ³": 3915,
      "ĠÚ©Ø±ÙĪØ§ÙĨÛĴ": 3916,
      "ĠÙĨØ§Ø¸Ùħ": 3917,
      "ÙĪØ§Ø±ÚĪ": 3918,
      "ĠØ§ÙĪÙĤØ§Øª": 3919,
      "ĠØ¯ÙĦÙĪÚº": 3920,
      "ĠØ§ÙĨØ³Ù¾Ú©Ù¹Ø±": 3921,
      "ĠØ´ÙĪÚ©": 3922,
      "ÙģÛĴ": 3923,
      "ĠÚ¯ÙĦÚ¯Øª": 3924,
      "ĠØ§ÙĦÙĦ": 3925,
      "ĠØ®Ø·Ø±ÙĨØ§Ú©": 3926,
      "ĠØ¯ÙģØ¹Ûģ": 3927,
      "ĠØªÙĤØ§Ø¶": 3928,
      "ĠØ§ÙģÙĪØ§Ø¬": 3929,
      "ĠÙ¾Ø´Øª": 3930,
      "ĠÙĪØ§Ùħ": 3931,
      "Ø§Ø¦ÙĦÛĮ": 3932,
      "ĠÚ©ÙħØ§ÙĦ": 3933,
      "ĠØŃÙĪØ§ÙĦÛģ": 3934,
      "ÛĮØ±Øª": 3935,
      "ĠØ¢Ú©Ø±": 3936,
      "Ø±ÛĮÙĪÚº": 3937,
      ":-": 3938,
      "ĠÙĨØ§ÙħØ²Ø¯Ú¯ÛĮ": 3939,
      "Ø®Ø§Ø±": 3940,
      "ĠÙ¹ÛĮÚ©ÙĨ": 3941,
      "ĠØ®ÙĪØ±Ø§Ú©": 3942,
      "ĠØ³ÛĮØ´ÙĨ": 3943,
      "ĠÙħØ¹Ø°": 3944,
      "ĠØ¬ÙħÛģÙĪØ±ÛĮ": 3945,
      "ĠØ®Ø§ÙĨÛĴ": 3946,
      "ĠÚ©ÙħØ²ÙĪØ±": 3947,
      "ĠØ¨ÙĦØª": 3948,
      "Ø§Ø¨Ûģ": 3949,
      "ĠØ°Ø®": 3950,
      "Ù¾ÛĮØ´ÙĦ": 3951,
      "ĠØµÙĪ": 3952,
      "Ø¨Ø§": 3953,
      "ĠØ§Ø´Ø§Ø±Ûģ": 3954,
      "ĠÙĨØ¯": 3955,
      "ØªØ±Ø§Ùħ": 3956,
      "ÙħÚ¯Ø±": 3957,
      "ĠÙħÙĪØ¶": 3958,
      "ĠÚ©Ø±Ù¾Ø´ÙĨ": 3959,
      "ĠÙħÙĦÚ©ÙĪÚº": 3960,
      "ĠÚ©ÛĮÙħØ±": 3961,
      "ĠÚĨÛĮØ²ÛĮÚº": 3962,
      "Ù¾Ø§Ø±Ù¹ÙħÙĨÙ¹": 3963,
      "ÙĪØªÚ¾": 3964,
      "ĠÚĨÚ©": 3965,
      "ĠÙĨÚ©Ø§ØŃ": 3966,
      "ĠØ³ÙĨÚ¯ÛĮÙĨ": 3967,
      "ĠØ³Ú©ÙĪÙĦÙĪÚº": 3968,
      "ĠØ¬ÙĨÛģÙĪÚº": 3969,
      "ĠØ²ÙĪÙĨ": 3970,
      "ĠØ§ÙĦÛĮÚ©": 3971,
      "Ø§ÛģÙĦÛĮ": 3972,
      "ĠØ³ÛģÛĮÙĦ": 3973,
      "ĠØ³Ø±ØŃØ¯": 3974,
      "ĠØªØ´ÙĪÛĮØ´": 3975,
      "Ø´Ø§": 3976,
      "ĠÙĦØ§ÙĨ": 3977,
      "ĠÙĦÚ¯ÛĮ": 3978,
      "ĠØ§ÙĨÚ©ÙĪØ§Ø¦Ø±ÛĮ": 3979,
      "ĠØ±ÛĮØ³Ú©ÛĮÙĪ": 3980,
      "Ø¹ÛĮØ¨": 3981,
      "ĠÙħØ§Ø¨ÛĮÙĨ": 3982,
      "ĠÛģÛĮØ±": 3983,
      "Ø§ÙĨØ³ÛĮ": 3984,
      "ØµØ¯Ø±": 3985,
      "Ø§Ø¦ÛĮÚ©ÙĪØ±Ù¹": 3986,
      "ĠØ°ÛĮ": 3987,
      "ĠØ§ÙĨÚ¯ÙĦÛĮÙĨÚĪ": 3988,
      "ĠØ¨ÙĦØªØ³ØªØ§ÙĨ": 3989,
      "ÙĪÚ©ÛĮÙ¹": 3990,
      "ĠÙģØ¹Ø§ÙĦ": 3991,
      "ÙħØ§ÛģØ±ÛĮÙĨ": 3992,
      "ĠÙ¹Ø§Ø¦ÙĪÙĨ": 3993,
      "ĠØ¨ÛĮØ´Ú©": 3994,
      "ĠÙĪÛĮØ³Ù¹": 3995,
      "ĠÚ¯ÙĦÛĮ": 3996,
      "ĠØ§ÙĨØªÙĤØ§ÙĦ": 3997,
      "ĠØ¢Ø¤Ù¹": 3998,
      "ĠØ¨ÚĨÛģ": 3999,
      "ĠØ¯Ø³ØªØ§ÙĪÛĮØ²": 4000,
      "ĠÙģØ±Ø¶": 4001,
      "ĠØ¨ÛĮÚ©": 4002,
      "ÙĪÛĮÙĦÙ¾ÙħÙĨÙ¹": 4003,
      "ĠØ¨Ø²ÙĨØ³": 4004,
      "ĠØ§ÙĨÙĨÚ¯Ø²": 4005,
      "Ø³Ø±Ø§": 4006,
      "ĠØ§ØªÙĪØ§Ø±": 4007,
      "Ø¨ØªÛģ": 4008,
      "ĠÙĨØ§ÙħØ¹ÙĦÙĪÙħ": 4009,
      "ÚĨÛĮØ¦Ø±": 4010,
      "ĠÚ©ÙģØ§Ø±": 4011,
      "ĠÙħØ®ÙĦÙĪÙĤ": 4012,
      "ĠØ¨Ø§Ø±Ûģ": 4013,
      "Ø¹ÙĦÙħ": 4014,
      "ÙĪØ¯Ú¾Ø±ÛĮ": 4015,
      "ĠÙħØ³Ø¦ÙĦÛĴ": 4016,
      "ÙģØ±ÙĪ": 4017,
      "ĠÙĨÛĮÙĦ": 4018,
      "ĠØ¨Ø§ÙĦÛĮ": 4019,
      "ØŃÛĮØ¯": 4020,
      "ĠØ§Ø¨ÙĦØ§Øº": 4021,
      "Ø¬Ø§": 4022,
      "ĠØ¨ÙĨÚ¯": 4023,
      "ĠÚĨØ§ÙĨØ³ÙĦØ±": 4024,
      "Ø¨Ø§Ø¨": 4025,
      "ĠØ¬ÙħØ¹Ø±Ø§Øª": 4026,
      "ĠØ¬Ø³ÙħØ§ÙĨÛĮ": 4027,
      "ĠÚ©ÙĪØ´Ø´ÙĪÚº": 4028,
      "ĠØ§ØªÙĨØ§": 4029,
      "ĠÙĪØ§ÙĦØ¯Ûģ": 4030,
      "ĠØ§ÛĮÚ©Ù¹": 4031,
      "ĠØ§Ù¹Ú¾Ø§ÙĨÛĴ": 4032,
      "Ú©ÛĮÙĦØ¦ÛĴ": 4033,
      "Ø§Ø¦ÙĤ": 4034,
      "ĠØ§Ø³Ø±Ø§Ø¦ÛĮÙĦÛĮ": 4035,
      "ÙĪØ¯Ûģ": 4036,
      "ĠØªØ§Ø®ÛĮØ±": 4037,
      "ĠØ§Ú©Ø«": 4038,
      "ĠÙħØ´ÛĮÙĨ": 4039,
      "ĠÙħØ·ÙĦÙĪØ¨": 4040,
      "ĠÚ©ÙĨÙ¹": 4041,
      "Ø´ØªØ±": 4042,
      "ĠØ¨ÛĮØª": 4043,
      "ĠØ«ÙĤ": 4044,
      "ĠØŃØ¶ÙĪØ±": 4045,
      "ĠØªÙĪØ³ÛĮØ¹": 4046,
      "Ù¾Ø³": 4047,
      "ĠØ³ÙĨÙĨ": 4048,
      "ĠØ³Ø±ÙģØ±Ø§Ø²": 4049,
      "ĠÚĨÙĨ": 4050,
      "ĠØ¹ÙĦÛĮØŃ": 4051,
      "Ø§ÙĦÙĪØ¬ÛĮ": 4052,
      "ĠÛ±": 4053,
      "ĠÙĪØ§Ø¬": 4054,
      "ĠØ¯Ø³ØªÛĮØ§Ø¨": 4055,
      "ĠØ§ØŃØ³Ø§ÙĨ": 4056,
      "ÙĨØ±": 4057,
      "ÛĮÛģÛĮ": 4058,
      "Ġ31": 4059,
      "Ø§Ø¦Ùģ": 4060,
      "ĠØ³Ø§Ø¨ÙĤÛģ": 4061,
      "ĠÚ©ÛĮÙ¾Ù¹ÙĨ": 4062,
      "ĠØ³Ø®": 4063,
      "ØŃØ§ÙĤ": 4064,
      "ĠÙ¾Ø°ÛĮØ±": 4065,
      "ĠØ§Ø®ØªÛĮØ§Ø±Ø§Øª": 4066,
      "ÛĮØ¯Ú¯ÛĮ": 4067,
      "ĠØ§ÛĮÚ¯Ø²ÛĮÚ©Ù¹ÙĪ": 4068,
      "ÚĪÛĮØ²": 4069,
      "ĠØ´Ø¨": 4070,
      "ĠÚĨØ§ÛģØªÛĮ": 4071,
      "ĠØ³ÛĮØ§ØŃ": 4072,
      "ĠØ³Ù¹Ø§Ùģ": 4073,
      "ĠÙĪØ¶Ø§ØŃØª": 4074,
      "ĠÙħØ±Ø¯ÙĪÚº": 4075,
      "ÙĪØ³Ú©": 4076,
      "ÙħÛĮØ´ÙĨ": 4077,
      "ĠÙħÙĨØ³ÙĪ": 4078,
      "Ø¨ÛĮØ§Ø¡": 4079,
      "ĠØ¬ÙĦÙĪØ³": 4080,
      "ĠØ³ÙĨØ¨Ú¾Ø§ÙĦ": 4081,
      "ĠØ¹Ø§Ø±Ùģ": 4082,
      "Ø§ÙĦØ¨Ø§Øª": 4083,
      "ĠØ¨Ø§Ø¨Ø±": 4084,
      "ĠØ§Ø¶Ø§ÙģÛĮ": 4085,
      "ĠØ§ØŃØ³Ø§Ø³": 4086,
      "ĠÙħÙģØª": 4087,
      "Ø¯ÛģÛĮ": 4088,
      "ĠØ§ÙĨØªØ¸Ø§Ø±": 4089,
      "ĠØ§ÙħØ±ÛĮÚ©Ûģ": 4090,
      "ĠØªÛĮÙĦ": 4091,
      "ĠÙĤØ¯Ø±Øª": 4092,
      "ĠÙħØ¸Ø§ÛģØ±": 4093,
      "ĠÛģØ§ÙĦ": 4094,
      "ĠÚ©ÚĨ": 4095,
      "ĠÙħØ§ÛĮ": 4096,
      "Ù¹ÛĮÙĨ": 4097,
      "ÙĨÚ¯Ù¹ÙĨ": 4098,
      "Ø§Ø±Ú©Ø³": 4099,
      "ĠØªÙģØµÛĮÙĦ": 4100,
      "ÙĦØ§Øª": 4101,
      "ĠØ¹Ø¨Ø¯": 4102,
      "ĠØ¹ÙĤ": 4103,
      "ÙħØªØ§Ø²": 4104,
      "ĠÚ¯ÙĪØ±ÙĨØ±": 4105,
      "ĠØ¬ÙĨØ³ÛĮ": 4106,
      "ĠØ³Ú©Ú¾": 4107,
      "ĠØ§ÛĮØ¬": 4108,
      "ÚĪÙ¹": 4109,
      "ĠÚĪØ§ÙĦØ§": 4110,
      "ĠÚ©ÛģØ§Úº": 4111,
      "ĠÙĦØŃ": 4112,
      "ÙĦÛĮÙħØ§ÙĨ": 4113,
      "ĠÙħØ¹ÛĮØ§Ø±ÛĮ": 4114,
      "ĠÚ¯ÙĪØ§Ûģ": 4115,
      "ØªØ¹": 4116,
      "ĠØ¯ÙħØ§Øº": 4117,
      "ÙĤÙĪÙħÛĮ": 4118,
      "Ø§Ø¦ÙĨØ§Øª": 4119,
      "ÙħØ³": 4120,
      "Ġ2016": 4121,
      "ĠÙħØ¬ÙĦØ³": 4122,
      "ĠØ«Ø§ÙĤØ¨": 4123,
      "ĠØ®ÙĪØ¨ØµÙĪØ±Øª": 4124,
      "ĠØ¨ÚĳÚ¾Ø§": 4125,
      "Ø§ÙĪÛĮ": 4126,
      "ĠØ§Øº": 4127,
      "ĠØ±Ø¬": 4128,
      "ĠØ¯Ø§Ø±ÙĪÚº": 4129,
      "ĠÙħØ±Ø¶": 4130,
      "ĠØ®Ø³": 4131,
      "ĠØ§Ø®ÙĦØ§ÙĤ": 4132,
      "ĠØ³ÛĮØ§": 4133,
      "ĠØ³Ù¾ÛĮÚ©Ø±": 4134,
      "ĠØ¹ÛĮØ¯": 4135,
      "ĠØ§ÙĨÙ¹Ø±ÙĪÛĮÙĪ": 4136,
      "ÛĮÚ©Ø§": 4137,
      "ĠÙĨØ¹ÛĮÙħ": 4138,
      "ÛģÛĴ": 4139,
      "ĠØ§ÙģØ¶ÙĦ": 4140,
      "ĠØ²ÛĮÙĨ": 4141,
      "Ú¯ÙĪØ§Ø±": 4142,
      "ĠØªÛĮÙĨÙĪÚº": 4143,
      "Ø³Ø¹": 4144,
      "ĠÚ©ÛĮÙĪØ³Ú©": 4145,
      "ÙĪÙĨÛĮÙĪ": 4146,
      "ĠØ¨Ø§Ø¦ÛĮ": 4147,
      "ĠØ´ÙĨØ§Ø®Øª": 4148,
      "Ù¹ÙĪÚº": 4149,
      "Ø¯Ø³": 4150,
      "ĠØ§ÙħØ±Ø§Ø¶": 4151,
      "ÚĨÚ©ÛĴ": 4152,
      "ĠÙħØ¹Ø§Ùģ": 4153,
      "ĠØ¹Ø§Ø¨": 4154,
      "Ø¯ÙĪØ¯": 4155,
      "ĠØ¯ÛģØ´ØªÚ¯Ø±Ø¯ÛĮ": 4156,
      "ĠØ¢Ùħ": 4157,
      "ĠÙĪØ³ÛĮÙħ": 4158,
      "ĠÙħÛģØ±": 4159,
      "ĠØ³ÙĪÙĨÛĴ": 4160,
      "ĠÙ¾ÛģÙĨÚĨÙĨÛĴ": 4161,
      "ĠØ§ÙĨØ³Ø§ÙĨÙĪÚº": 4162,
      "ĠÙħÙĤØ¨ÙĪÙĦ": 4163,
      "ĠÙħØ³Ø§ÙģØ±": 4164,
      "ĠÙħØ¹Ø§ÙĪÙĨØª": 4165,
      "Ø³Ú©ÙĪ": 4166,
      "Ø±ÛĮØ±ÛĮ": 4167,
      "ĠÙĨØ§ÙĤØ§Ø¨ÙĦ": 4168,
      "Ø´ÛĮÙĨ": 4169,
      "ĠØ§Ø³ÙĦ": 4170,
      "ĠÙħØ¹Ø§ÛģØ¯Ûģ": 4171,
      "Ø³ÛĮØ¯": 4172,
      "ĠÙħÙĨÙģÛĮ": 4173,
      "ĠÙħØ·Ø¨ÙĪ": 4174,
      "ĠØµØ§Ø¯ÙĤ": 4175,
      "ĠØ§Ø°": 4176,
      "ĠØ±ÛĮÙħØ§Ø±Ú©Ø³": 4177,
      "ĠÛĮÛģÙĪØ¯": 4178,
      "ĠÙĨØ¹Ø±ÛĴ": 4179,
      "ÚĪÙ¾Ù¹ÛĮ": 4180,
      "ĠØ³ÚĨ": 4181,
      "ĠÙĨÙĤÙĦ": 4182,
      "ĠÚ©Ú¾ÚĳØ§": 4183,
      "ĠÙĤÛĮÙħØªÛĮ": 4184,
      "Ø³Ø§Ùħ": 4185,
      "ĠØ´ÛĮÚĪÙĪÙĦ": 4186,
      "ĠØ§Ù¹Ú¾Ø§ÛĮØ§": 4187,
      "ĠÙħØµØ·ÙģÛĮ": 4188,
      "ĠÙ¾ÚĨ": 4189,
      "ĠÙħØ´ÙĨ": 4190,
      "ĠØ¨Ú¾Ø¬ÙĪ": 4191,
      "ĠÙħÛģÛĮØ§": 4192,
      "ĠØ³Ø§ÙĨØŃÛģ": 4193,
      "ĠÚĨÙĦØ§ÙĨÛĴ": 4194,
      "Ø§Ø¦Ø´Ûģ": 4195,
      "ĠÙ¾ÛģÙĦÙĪ": 4196,
      "ĠÚ©Ø§Ø¦ÙĨØ§Øª": 4197,
      "ĠØ¹ÙħÙĦÛģ": 4198,
      "31": 4199,
      "ĠØ±Ø§Ø´": 4200,
      "ĠØ¨Ø±Øª": 4201,
      "ÛģÙħØ§Ø±ÛĴ": 4202,
      "ĠØ§Ø³Ù¾ÛĮÚ©Ø±": 4203,
      "ĠØ§ØµÙĦØ§ØŃØ§Øª": 4204,
      "Ø§ÛĮØ³ÛĴ": 4205,
      "Ø´Ø§ÙĨÛĮ": 4206,
      "ĠØ§ØŃØªØ±Ø§Ùħ": 4207,
      "ĠÙħØ·Ø¨ÙĪØ¹Ûģ": 4208,
      "ĠØ³ÙĪØ³Ø§Ø¦": 4209,
      "ĠÙģÛĮÚĪØ±ÛĮØ´ÙĨ": 4210,
      "Ø§Ø±Ø§Øª": 4211,
      "ĠÙħØ¸ÙģØ±": 4212,
      "ĠØªÙĨØ¸ÛĮÙħÙĪÚº": 4213,
      "ĠÚ©ÛĮÙĨØ³Ø±": 4214,
      "ĠØ¢Ø²Ø§Ø¯Ú©Ø´ÙħÛĮØ±": 4215,
      "ĠÙĦÚ©": 4216,
      "Ø§ÙĨØ¯ÙĦÛĮ": 4217,
      "ĠÙģÛĮÚ©": 4218,
      "ĠÙħØ¤": 4219,
      "Ø§Ø¬Ø§Ø¦Ø²": 4220,
      "ĠÙħØ®ØªØµ": 4221,
      "ĠØ³ÙĪØ±Ø¬": 4222,
      "ĠØ´Ø®ØµÛĮØª": 4223,
      "ĠÙĪØ±Ø«": 4224,
      "ĠØ¬Ø§Ø±": 4225,
      "Ø§ÛĮØ³": 4226,
      "ĠØ§ÙĨØ§": 4227,
      "ĠØ¢ÙĨÚ©Ú¾ÙĪÚº": 4228,
      "ĠØŃØ³Ø§Ø³": 4229,
      "ĠØ§ÙģØ²": 4230,
      "ĠÙħØ±ØŃÙĦÛĴ": 4231,
      "ĠÙ¹Ø§Ø¤ÙĨ": 4232,
      "ĠÙħÚĨ": 4233,
      "ĠÙĨÛĮÙ¹": 4234,
      "ĠÚ©Ø±ÙĪØ§": 4235,
      "Ù¹Ø±ÛĮÙ¹": 4236,
      "ĠØªÛĮØ³Ø±ÛĮ": 4237,
      "ĠÙ¹Ú©Ø±": 4238,
      "ÙĮ": 4239,
      "ĠØ§ÛĮÚ©Úĳ": 4240,
      "ĠÙģÛĮÙĦÚĪ": 4241,
      "ĠØ§ÙĨØ¹": 4242,
      "ĠØ§ÛĮÚĪÙĪÙĪÚ©ÛĮÙ¹": 4243,
      "ĠÙģÙĦÙħÙĪÚº": 4244,
      "ĠÙĪØ§Ø¦ÛĮ": 4245,
      "ĠØŃØµÛĴ": 4246,
      "ĠØ³ÙĪØ³Ø§Ø¦Ù¹ÛĮ": 4247,
      "ĠÙĪØ²ÙĨ": 4248,
      "ĠÚ©Ú¾ÙĪ": 4249,
      "ĠØ§ÙĨØªÛģØ§": 4250,
      "ĠÙ¹ÙĪØ±ÙĨØ§ÙħÙĨÙ¹": 4251,
      "ÙĪØ´ÙĨ": 4252,
      "ĠÛģØ§Ø´": 4253,
      "ĠÙĪØµ": 4254,
      "ĠØ§ÙĦØ®": 4255,
      "Ø§ÙħØª": 4256,
      "ĠÙħØŃØ¨": 4257,
      "ĠÙĪÚĪ": 4258,
      "ĠØ³Ø§ÚĳÚ¾ÛĴ": 4259,
      "Ú¯ÙĪÚº": 4260,
      "ĠØ±ÙģÛĮÙĤ": 4261,
      "ĠÙħÙĤØ±Ø±Ûģ": 4262,
      "ĠÙħØ³ØªÙĤÙĦ": 4263,
      "ĠØ¬Ø§Ø¦ÛĮØ¯Ø§Ø¯": 4264,
      "Ø§ÛĮÙĨ": 4265,
      "ĠØ¬Ø§ÙĨØªØ§": 4266,
      "ĠÚ©ÙĪØ§Ø±Ù¹Ø±": 4267,
      "ĠØ°ÛģÙĨÛĮ": 4268,
      "ĠÙħØ¯ÛĮÙĨÛģ": 4269,
      "ĠØ°Ø§Øª": 4270,
      "ĠØŃØ§Ø¯Ø«ÛĴ": 4271,
      "ĠØ§Ø±Ø§Ø¯Ûģ": 4272,
      "ĠØ¬Ú¾Ú¯": 4273,
      "ĠØ³ÙĦØ·Ø§ÙĨ": 4274,
      "ĠØ³Ø§Ø±ÛĴ": 4275,
      "Ø§Ø´ÙĨÚ¯Ù¹ÙĨ": 4276,
      "ĠØ§ÙĨØ³Ø§ÙĨÛĮØª": 4277,
      "ĠØºÙĨÛĮ": 4278,
      "ĠÙģÛģ": 4279,
      "ĠØ¢Ù¾Ø³": 4280,
      "ĠÚ¯ÛĮÙĦ": 4281,
      "ĠÙħØ®Ø§ÙĦÙģØª": 4282,
      "ĠØ¨Ø¯ÙĪÙĦØª": 4283,
      "ĠØ·Ø±Ø²": 4284,
      "ĠÙģØ±ÙħØ§Ø¦ÛĴ": 4285,
      "ĠØ±ØŃÙħ": 4286,
      "ĠØ·ÛĮØ§Ø±ÛĴ": 4287,
      "ĠØ¬Ø§ÙħØ¹Ûģ": 4288,
      "ÙħÙĪÙĦ": 4289,
      "Ø±ÛĮÙģÚ©": 4290,
      "ĠØ§ÙĪÙĦÛĮÙĨ": 4291,
      "ĠØ§Ø¨ÛĮ": 4292,
      "Ø§Ø²ÛĴ": 4293,
      "ĠØ±Ø³Ø§Úº": 4294,
      "ĠØ¹Ø±ÙģØ§ÙĨ": 4295,
      "Ø±Ú©Ø§Ø±ÛĮ": 4296,
      "ĠÙ¾ÛģØ§Úĳ": 4297,
      "ĠâĢĺâĢĺ": 4298,
      "Ú©ÚĳÙĪÚº": 4299,
      "ĠÛģØ³Ù¾ØªØ§ÙĦÙĪÚº": 4300,
      "ĠÚ¯Ø±ÙĪÛģ": 4301,
      "Ġ80": 4302,
      "ĠØ¨Ú¯": 4303,
      "ĠØ¨ÙĦØ§Ú©": 4304,
      "Ø§ÙħØ¯": 4305,
      "ĠØªØ§Ø¬Ø±": 4306,
      "ĠØºØ±ÛĮØ¨": 4307,
      "ĠÙ¾ÛĮÙħ": 4308,
      "Ø¢Ø¦": 4309,
      "ĠØ§ÙħÛĮÙĨ": 4310,
      "Ù¹Ø±ÙĨÚ¯": 4311,
      "ĠØ±ÛĮØ¬ÙĨ": 4312,
      "ĠØ´ÛģØ¯Ø§Ø¡": 4313,
      "ĠÙĦÚ¯ØªØ§": 4314,
      "ĠØ¢Ø±Ù¹": 4315,
      "ĠØ³Ø§ØªÚ¾ÛĮÙĪÚº": 4316,
      "ĠÚ©Ù¹": 4317,
      "ĠØ§Ø±Ø§Ø¶ÛĮ": 4318,
      "ĠÙģØ±ÙĪØ±ÛĮ": 4319,
      "ĠØ¬Ø§ÙĨÙĪØ±ÙĪÚº": 4320,
      "ĠØ¨Ø§ØªÙĪÚº": 4321,
      "·º": 4322,
      "ĠØµÙĦØ§ØŃÛĮØªÙĪÚº": 4323,
      "ĠØ±Ø¯": 4324,
      "ĠØŃØ§Ø¶Ø±": 4325,
      "ĠØµÙģØ¯Ø±": 4326,
      "Ø§ØŃÙħØ¯": 4327,
      "ĠÙĦÛĮÙ¹Ø±": 4328,
      "ĠØ´Ø±ÛĮ": 4329,
      "ĠØ¬Ø§Ù¾": 4330,
      "ĠØ²ÙħØ§ÙĨ": 4331,
      "ĠØ¬ÛĮØ³ÛĮ": 4332,
      "ĠÙĨØ´Ø§ÙĨØ¯ÛģÛĮ": 4333,
      "ĠØ¯ÙĪØ²Ø®": 4334,
      "ĠÚ©Ø´ÛĮ": 4335,
      "ÙĪØ²ÛĮØ±Ø§Ø¹Ø¸Ùħ": 4336,
      "ĠØ¨Ø§Ú©": 4337,
      "ĠÙ¹ÛĮÙĨ": 4338,
      "ĠØ§ØªØ§Ø±": 4339,
      "ĠØ§ÛĮØ¬ÙĨ": 4340,
      "ĠÙ¾Ø±Ø§Ø¬ÛĮÚ©Ù¹": 4341,
      "Ø¨ÙĦÛĮÙĪ": 4342,
      "ĠØ³Ø±Ú¯ÙĪØ¯Ú¾Ø§": 4343,
      "ĠÚ©ÙħØ±": 4344,
      "ĠØ§Ø±Ø´Ø¯": 4345,
      "Ø¯Ø¹Ø§": 4346,
      "ĠÙħÛĮÙ¹ÙĨÚ¯": 4347,
      "ĠÙĤØ¨Ø§Ø¦ÙĦÛĮ": 4348,
      "ĠÙħÙħØªØ§Ø²": 4349,
      "ĠÙ¾ÚĳÚ¾ÛĮÚº": 4350,
      "ĠØ¹Ø§Ø¯": 4351,
      "ĠØ´ÙĪÚ©Øª": 4352,
      "Ù¾ÛģÙĨÚĨ": 4353,
      "ĠÙħÙĤÛĮÙħ": 4354,
      "Ø±Ø¨Øª": 4355,
      "ĠÚ©ÙĪØ´Ø´ÛĮÚº": 4356,
      "ĠÙħØ¸Ø§ÛģØ±ÛĮÙĨ": 4357,
      "ĠØ§ÙĪÙĨ": 4358,
      "ĠØ°ÙĪØ§ÙĦ": 4359,
      "ĠÙħØ§Ùģ": 4360,
      "ĠØ¨Ø§Ø·": 4361,
      "ĠØ¨ÙĦÛĴ": 4362,
      "ĠØ³ÙĨØ¬": 4363,
      "ĠÙĪØ§Ø¨Ø³ØªÛģ": 4364,
      "ĠØ´Ø¹ÛĮØ¨": 4365,
      "ĠØ§ÙĪØ²": 4366,
      "ĠØ¯Ø³ØªØ®Ø·": 4367,
      "ĠØ§Ø¬Ø§Ú¯Ø±": 4368,
      "ĠÚĪÛĮØ±Ûģ": 4369,
      "ĠØªØ§Ø¨": 4370,
      "ĠØ§ÙĪÙ¾ÙĨ": 4371,
      "ĠØ¢Ø³Ù¹Ø±ÛĮÙĦÛĮØ§": 4372,
      "Ø¹Ø¯Ùħ": 4373,
      "Ġ199": 4374,
      "ĠØ³Ø±ÙĪ": 4375,
      "ĠØªÙĪØ¨Ûģ": 4376,
      "Ù¾ÛĮØ±": 4377,
      "ĠØ±ÛĮÙ¹Ø§Ø¦Ø±": 4378,
      "ĠØ§Ú©Ø«Ø±ÛĮØª": 4379,
      "ĠÙħØ±Ø§Ú©": 4380,
      "ĠØ§Ù¹": 4381,
      "ĠÙĨØ¸Ø±ÛĮ": 4382,
      "ĠÙĪØ²Ø±Ø§Ø¡": 4383,
      "ĠØ§Ø±Ø¨ÙĪÚº": 4384,
      "ĠÙĦÙħ": 4385,
      "ÙħØ°Ú©ÙĪØ±Ûģ": 4386,
      "ĠÙħØ³Ø§ÙģØ±ÙĪÚº": 4387,
      "Ø³ÛĮÚ©": 4388,
      "Ù¾Ø§Ú©Ø³ØªØ§ÙĨÛĮ": 4389,
      "Ù¾ÙĨØ¬Ø§Ø¨": 4390,
      "Ù¹Ø±ÙĪÙĦÛĮÙħ": 4391,
      "ĠÙ¾Ø±Ø§Ø¦ÛĮÙĪÛĮÙ¹": 4392,
      "Ù¹ÚĪ": 4393,
      "ĠØ§Ø³ØŃØ§ÙĤ": 4394,
      "ĠÙħØ±Ø²": 4395,
      "ĠØ±Ø´ØªÛģ": 4396,
      "ĠØ¶ÙħÙĨÛĮ": 4397,
      "ĠØªØ§ØŃØ§ÙĦ": 4398,
      "ÙĨÚĪØ§": 4399,
      "ĠÙĤÙħØ±": 4400,
      "ÛģÙĪÙĨÛĴ": 4401,
      "Ø¬Ø§ÙĨ": 4402,
      "ØºØ±": 4403,
      "ĠÙħÛĮØ³Ø±": 4404,
      "ĠÛĮÚ©Ùħ": 4405,
      "Ø´ÛģØ±": 4406,
      "ĠÚ©ÙĦØ§Ø³": 4407,
      "ĠØ®Ø´Ú©": 4408,
      "ÙĪÛģØ§Úº": 4409,
      "ĠÚ©Ú¾ÙĦÛĮ": 4410,
      "Ú©Ø±ÙĨÛĴ": 4411,
      "50": 4412,
      "ĠØŃØ¶Ø±Ø§Øª": 4413,
      "ĠØ¹ÙĪØ±ØªÙĪÚº": 4414,
      "ÙģÛĮØ¸": 4415,
      "ĠØ§ÛĮØ±Ø§ÙĨÛĮ": 4416,
      "Ø²ÙħÛĮÙĨ": 4417,
      "Ø¯Ø±Ø®ÙĪØ§Ø³Øª": 4418,
      "ĠØ±ÛģØªÛĮ": 4419,
      "ĠØ¢Ø¦ÛĮÙĨÛĮ": 4420,
      "ĠØ±ÛĮÙĦÛĮÙģ": 4421,
      "ĠØ§ÛĮÙħØ±Ø¬ÙĨØ³ÛĮ": 4422,
      "ĠÚ¯ÛĮÙħ": 4423,
      "ĠÚ©Ø±ÙĪØ§Ø¦ÛĮ": 4424,
      "ĠÙħØ´Ø±Ùģ": 4425,
      "Ø§Ù¾ÙĨÛĮ": 4426,
      "Ø¬Ø±Ø§ÙĨ": 4427,
      "ĠØŃÙħÙĦÙĪÚº": 4428,
      "Ú¾ÛĮØ±": 4429,
      "ĠØ¶Ø±ÙĪØ±ÛĮØ§Øª": 4430,
      "ĠÙħØ´Ø±Ú©ÛĮÙĨ": 4431,
      "ĠÚĪØ§ÙĦÙĨÛĴ": 4432,
      "ĠÛ²": 4433,
      "ĠØ³ÙĨØ§Ø¦ÛĮ": 4434,
      "ĠÙħØ¹Ø§Ø¦ÙĨÛģ": 4435,
      "Ù¾Ø§": 4436,
      "ĠÙĦÛĮÚ¯ÛĮ": 4437,
      "ĠÙĪØ³ÛĮØ¹": 4438,
      "ĠØ¬ÙĦØ³ÛĴ": 4439,
      "Ġ2013": 4440,
      "ĠØ¬Ø§Ø¦ÛĮÚ¯ÛĮ": 4441,
      "ØªØ´": 4442,
      "ĠÙħØ´ÙĪØ±Ûģ": 4443,
      "ĠØªÙħÛģØ§Ø±Ø§": 4444,
      "ĠØ¬ÙĪØ´": 4445,
      "ĠÙĦØŃØ§Ø¸": 4446,
      "ÚĳÛģ": 4447,
      "ĠØ±ÛģÙĨÙħØ§Ø¡": 4448,
      "ĠØ¹ÛĮØ³ÛĮ": 4449,
      "ĠØŃØ±ÛĮØª": 4450,
      "Ø§Ø¯Ø§Ú©": 4451,
      "ĠØ¨Ø±Ø·Ø§ÙĨÛĮÛģ": 4452,
      "ĠÙħØ¹ÙħÙĪÙĦ": 4453,
      "ĠÙģØ±ÙħØ§ÙĨ": 4454,
      "ĠØºØ°": 4455,
      "ĠØ±Ø³Ø§Ø¦ÛĮ": 4456,
      "Ú©ÙĪØ¦ÛĮ": 4457,
      "ĠÙħÛģÛĮ": 4458,
      "ĠØ§ÙħØªÛĮØ§Ø²": 4459,
      "Ø§ØŃÙĦ": 4460,
      "ĠÙ¾ÚĳØªØ§": 4461,
      "ĠÙħÙĪØ§Ø¯": 4462,
      "ĠÙĨØ§Ø¬Ø§Ø¦Ø²": 4463,
      "ĠØ§ÙĦÙģ": 4464,
      "ĠÙ¹ÙĨ": 4465,
      "ĠÙĨØµØ¨": 4466,
      "Ù¹ÛĮØ§Úº": 4467,
      "ĠØ¨Øº": 4468,
      "ĠØ§ÛĮÙĪØ§Ø±ÚĪ": 4469,
      "ĠØ§ÙĨÙĤÙĦ": 4470,
      "ĠÙĦØ§Ú¯Øª": 4471,
      "ĠØŃØ±Ú©Øª": 4472,
      "ĠÙĨÙĪÙ¹ÛĮÙģ": 4473,
      "ĠÙ¾Ø±ÛĮØ´Ø§ÙĨ": 4474,
      "Ø²ÙħØ§ÙĨ": 4475,
      "ĠØ¨ÛĮÙħØ§Ø±ÛĮÙĪÚº": 4476,
      "Ġ*": 4477,
      "ĠÙģÛĮÙħ": 4478,
      "ĠÚ¯Ø§Ø±ÚĪ": 4479,
      "ĠØ§Ø¹ÙĦØ§Ùħ": 4480,
      "ĠØ³Ù¾ÙĪØ±Ù¹Ø³": 4481,
      "ĠÙĨÙĪØ¹ÛĮØª": 4482,
      "ĠÙħÛĮØ±Ù¹": 4483,
      "ĠÙħÚ©Ø§ÙĨ": 4484,
      "ĠÙ¾Ø§ÙĨ": 4485,
      "|\"": 4486,
      "ĠÙĨØ¯ÛĮÙħ": 4487,
      "ĠØ³Ø±ÙĪØ³Ø²": 4488,
      "ĠÚ©ÛĮØ³Ø²": 4489,
      "ØªØ±ÛĮÙĨ": 4490,
      "ĠØ¨ÙĪØ±": 4491,
      "Ú©ÛĮÙĪÚº": 4492,
      "Ø§Ø¯ÙĪ": 4493,
      "ĠØŃÚ©ÙħØ±Ø§ÙĨÙĪÚº": 4494,
      "ĠÙĦÚ©Ú¾ØªÛĴ": 4495,
      "ĠØ¯ÙĪØ³Ø±ÙĪÚº": 4496,
      "ĠØ¨ÚĨØ§": 4497,
      "ĠÙ¾Ú©Ø§Ø±": 4498,
      "ĠØ³Ø¨Ø²": 4499,
      "ĠØ¹Ø¯Ø§ÙĦØªÙĪÚº": 4500,
      "ĠÙħØ³ØªØŃÚ©Ùħ": 4501,
      "ÙĨØ§ÙĨ": 4502,
      "ĠÙ¹ÛĮÙĦÛĮ": 4503,
      "Ġ36": 4504,
      "ĠÙħØ¹Øµ": 4505,
      "ÛĮØªÛĮ": 4506,
      "ÙĦÙĨØ¯ÙĨ": 4507,
      "ĠÙħØ³ØªØŃÙĤ": 4508,
      "Ø§ØµØ¯": 4509,
      "ĠÚ¯ÙĨØ¬": 4510,
      "ĠÚĨØ§ÙĨØ¯": 4511,
      "ĠÙĨØ³Ø¨Øª": 4512,
      "ĠØ§ÛĮÙĨÙ¹ÛĮ": 4513,
      "ĠÙģÙĪØ±Ùħ": 4514,
      "ĠÙħÙ¹ÛĮ": 4515,
      "Ø±ÙĪÛĮ": 4516,
      "ĠÙħØ§ÙĦÚ©Ø§ÙĨ": 4517,
      "000": 4518,
      "ĠØ§ÙĨØ¨ÛĮØ§Ø¡": 4519,
      "ĠØ¨ÙĨØ§ØªÛĴ": 4520,
      "Ø§Ú©Ø±Ø§Øª": 4521,
      "ĠØ¯ÛģÙĦÛĮ": 4522,
      "Ø³ÙĪÚº": 4523,
      "ĠØ³ÙĪØ§ÙĦØ§Øª": 4524,
      "ĠØ§Ø¹ØªØ¨Ø§Ø±": 4525,
      "ĠÚĨÙĪØ¯Ú¾Ø±ÛĮ": 4526,
      "ĠÙħØ§ÙģÛĮØ§": 4527,
      "ÙĪÙĨØ³Ù¾ÙĦ": 4528,
      "âĢĺÛĶ": 4529,
      "ĠØ¨Ø§Ø¬": 4530,
      "ĠØ¹ÙĤÛĮØ¯Øª": 4531,
      "Ú©ÙĪØ±": 4532,
      "Ø·ÛĮÙģ": 4533,
      "ĠØ³Ø®ØªÛĮ": 4534,
      "ĠÙħÙĨØ³ÙĪØ®": 4535,
      "ĠÙ¾Ø±ÙĪØ±": 4536,
      "ĠÚ©Ùģ": 4537,
      "ĠØ¢ÙĨØ§": 4538,
      "Ø¬Ø±Ø§ÙĨÙĪØ§ÙĦÛģ": 4539,
      "âĢĮ": 4540,
      "ØªØ§ÙĤ": 4541,
      "ĠÙĦÚ¯ÙĨÛĴ": 4542,
      "ĠÙħÛĮØ¦Ø±": 4543,
      "Ù¾ÛĮÙ¾ÙĦØ²": 4544,
      "Ø§ÙĨØ¬Ø§Ùħ": 4545,
      "ĠØªÙĨÚ¯": 4546,
      "ĠÙ¾Ø§Ø±ÙĦÛĮÙħÙĨÙ¹": 4547,
      "ĠÙħÙģØ§Ø¯Ø§Øª": 4548,
      "ÙĨØ¯ÙĪÚº": 4549,
      "ĠØ¯Ú¾Ø§ÙĨØ¯ÙĦÛĮ": 4550,
      "ĠØ¨Ø´ÛĮØ±": 4551,
      "Ø³Ø§ÙĨÛĮ": 4552,
      "ÙĦØ§ÙĤÛĮ": 4553,
      "ĠÙĪÙģØ§ÙĤ": 4554,
      "ĠØ§ÛĮØ±Ø§ÙĨ": 4555,
      "ĠØ¹Ø§Ø¦Ø´Ûģ": 4556,
      "ĠØ²Ø¨Ø±Ø¯Ø³Øª": 4557,
      "ĠÙ¹ÙĪÙ¹": 4558,
      "ÙģÙĤØ§Ø±": 4559,
      "ĠØ¨ÙĦØ§ÙĦ": 4560,
      "ĠÙħØ¯Ø§Ø®": 4561,
      "ĠØ¨Ú¾Ø±ØªÛĮ": 4562,
      "ĠÙħØªÙĪÙģÛĮ": 4563,
      "ĠÙħØ§Ø±ÛĴ": 4564,
      "ĠØ¨ØŃØ±ÛĮÛģ": 4565,
      "ĠØµØ§ÙĦØŃ": 4566,
      "ĠÙħØ¹Ø§ÙģÛĮ": 4567,
      "ÙħÛĮØ²": 4568,
      "ĠÚ©Ø§Ø±Ù¾ÙĪØ±ÛĮ": 4569,
      "ĠØŃÙĦÙĤÛģ": 4570,
      "ĠÙĦØ§Ø¦ÛĮÚº": 4571,
      "ĠØ²Ø§ÛģØ¯": 4572,
      "ĠØºÙħ": 4573,
      "ĠØ¢Ù¾Ø±ÛĮ": 4574,
      "ĠÙĦÚ¯Ø§Ø¦ÛĮ": 4575,
      "Ø¬Ø³Ù¹Ø±ÛĮØ´ÙĨ": 4576,
      "ĠÛģØ¬": 4577,
      "ĠÙħØŃØ¯ÙĪØ¯": 4578,
      "ĠØ¯Ø±Ø¬ÙĨ": 4579,
      "ĠØ´Ø§Ø¦Ø¹": 4580,
      "ĠÛģØ§Ø¦ÛĮÚ©ÙĪØ±Ù¹": 4581,
      "ĠØªØ¹ÛĮÙĨØ§ØªÛĮ": 4582,
      "ĠÚ©Ø§ÙģØ±ÙĪÚº": 4583,
      "ĠØ§Ø¹ÙĪØ§ÙĨ": 4584,
      "ĠØ²Ø®ÙħÛĮÙĪÚº": 4585,
      "ĠÙħØ±Ø²Ø§": 4586,
      "ĠÙ¾Ø±ÙĨØ³": 4587,
      "ĠØ³ÛĮØ§ÙĦ": 4588,
      "ĠØ¨ÛģÙĨ": 4589,
      "ĠØ¬ÙħÛĮÙĦ": 4590,
      "ĠØ³Ø¹Ø¯": 4591,
      "ĠÙĪØ§Ø³": 4592,
      "ÙĪÙĨÙĦÚĪ": 4593,
      "ĠÚĪØ§Ú©Ù¹Ø±Ø²": 4594,
      "Ø¯ÙĨÛĮØ§": 4595,
      "ĠØªØ±ÙħÛĮÙħ": 4596,
      "ĠØ³Ø±Ø§ÙĨØ¬Ø§Ùħ": 4597,
      "ĠÚĨØ±": 4598,
      "ĠØ¬ÛģØ§Ø¯": 4599,
      "ĠÚĪÙĪÛĮÙĦÙ¾ÙħÙĨÙ¹": 4600,
      "ĠÙĨÙħÙ¹ÙĨÛĴ": 4601,
      "ĠØ§Ø¹Ø¯Ø§Ø¯": 4602,
      "ĠÙĪÙĤØ§Ø±": 4603,
      "ĠÚ¯Ú¾ÙĨÙ¹ÙĪÚº": 4604,
      "ÙħØ¬Ú¾ÛĴ": 4605,
      "ĠØ¹Ø¯ÙĦÛĮÛģ": 4606,
      "ĠÙħØ¯Ø§Ø®ÙĦØª": 4607,
      "ĠÙħÙħÚ©ÙĨÛģ": 4608,
      "ĠØ§ÛĮÚ©Ø³Ù¾": 4609,
      "ĠØ´ÛĮØ·Ø§ÙĨ": 4610,
      "ÚĪÙĪ": 4611,
      "Ø§Ø¦ÙħÛģ": 4612,
      "ĠÚ©Ø§Ø±Ø±ÙĪØ§Ø¦ÛĮÙĪÚº": 4613,
      "Ø®ÙĦ": 4614,
      "ĠØ§Ø³Ù¹ÛĮÙ¹": 4615,
      "ØªÚ©": 4616,
      "ĠÚĨÛĮÙħÙ¾": 4617,
      "ÙĪØ§Ø¨": 4618,
      "ĠÚĪØ¨ÙĦÛĮÙĪ": 4619,
      "ĠØ¯ÛģÛĮ": 4620,
      "ĠÙ¾Ø§ÙĦ": 4621,
      "ĠÚ¯ÛĮÙĨØ¯": 4622,
      "ĠÙħØ®Ø§ÙĦÙģÛĮÙĨ": 4623,
      "ĠÙ¾ÙĪÙĦ": 4624,
      "Ø´Ùħ": 4625,
      "Ø¹ÙĪØ§ÙħÛĮ": 4626,
      "Ù¹ÛĮØ´ÙĨ": 4627,
      "ÙģÛĮØ¦Ø±": 4628,
      "ĠØ´Ø¹ÙĪØ±": 4629,
      "ĠØ¬ÙħÛģÙĪØ±": 4630,
      "ĠÙĪØ¬ÙĪÛģ": 4631,
      "ĠÛģÙĨÚ¯Ø§ÙħÛĮ": 4632,
      "ĠÙĤØ¯Ø±ØªÛĮ": 4633,
      "ĠÙħÚ©Ø±": 4634,
      "ĠØ¹Ø³Ú©": 4635,
      "ĠÙ¾Ø±ÚĨ": 4636,
      "Ø±ÛĮÙĨÛģ": 4637,
      "ĠÙħÙĪØ³Ùħ": 4638,
      "--": 4639,
      "ĠÙģÛĮÙħÙĦÛĮ": 4640,
      "ĠÙħØ±ÛĮØ¶": 4641,
      "ØŃÛĮ": 4642,
      "ÚĪÛĮÙ¹": 4643,
      "ĠÙ¾Ø±ÛĮØ´Ø§ÙĨÛĮ": 4644,
      "ĠÙ¾ÛĮØºÙħØ¨Ø±": 4645,
      "Ø§Ø±Ø«": 4646,
      "ĠÙħØ±ØŃÙĪÙħ": 4647,
      "ĠØ§ÙĨÙģØ±": 4648,
      "ĠÙģØ±Ø¹ÙĪÙĨ": 4649,
      "ĠÙĤØµÙĪØ±": 4650,
      "ĠØŃØ§Ø¶Ø±ÛĮ": 4651,
      "ĠÚĪÛĮÙ¾Ø§Ø±Ù¹ÙħÙĨÙ¹": 4652,
      "ĠØªÙĪØŃÛĮØ¯": 4653,
      "ĠØŃÙĤØ§Ø¦ÙĤ": 4654,
      "ĠØ³ÛĮÙĨÚ©ÚĳÙĪÚº": 4655,
      "ĠØ´ÙĪØ±": 4656,
      "ĠÛĴ": 4657,
      "ĠØ§ÙĦØ·": 4658,
      "ĠØ¨ÛĮØ±ÙĪØª": 4659,
      "ÙģÙĦÙħ": 4660,
      "Ġ90": 4661,
      "ĠÙħÙĤØ¯ÙħÛĴ": 4662,
      "Ġ2015": 4663,
      "ÙħÙĦØ²Ùħ": 4664,
      "Ø¯Ø§Ø±ÙĪÚº": 4665,
      "ĠØŃÚ©ÙĪÙħØªÙĪÚº": 4666,
      "ĠØ¨Ø±Ø§": 4667,
      "ÙĪÛĮØ§Ø±Ú©": 4668,
      "ĠØªØ¬Ø§ÙĪÛĮØ²": 4669,
      "ĠÙģÛĮÚ©Ù¹Ø±ÛĮ": 4670,
      "ĠÚ©Ø±ÙĪÚĳÙĪÚº": 4671,
      "ĠÙ¾Ú¾ÙĪÙĦ": 4672,
      "ĠÚĨÙĪÙĨÚ©Ûģ": 4673,
      "ĠØ§ÙĨØªØ¸Ø§ÙħÛĮ": 4674,
      "ĠÙ¾ÙĦØ§": 4675,
      "ĠÙħÙĦØªÛĮ": 4676,
      "ĠØªÙĤØ±": 4677,
      "Ø¨ÛĮÙĨ": 4678,
      "ĠØŃÛĮØ±Ø§ÙĨ": 4679,
      "ĠØ¨ÙĨØ¯ÙĪÚº": 4680,
      "ĠÚ©Ú¾ÛĮÙĦÙĨÛĴ": 4681,
      "ÙħÛĮØ¯": 4682,
      "ĠÙ¾ÙĦÛĮÙ¹": 4683,
      "ĠØ§ÙĨÚ¯": 4684,
      "Ø¨ÙĨØ¯": 4685,
      "ÛģÙħØ§Ø±ÛĮ": 4686,
      "ĠÚĨØ§ÛģÛĮØ¦ÛĴ": 4687,
      "ÙħÛĮÙĨØ§ÙĨ": 4688,
      "ĠÚ©ÛĮÙħ": 4689,
      "ĠÙ¹Ø±ÛĮÙĨÙĨÚ¯": 4690,
      "ÙĨÚ©": 4691,
      "ĠÙ¹Ø±ÛĮÙģÚ©": 4692,
      "ÙĪØ±ÛĮØ¬": 4693,
      "Ú©ÙĦØ§Ø¡": 4694,
      "ĠØ¨Ø§Ø±ÛĮ": 4695,
      "ĠÙħÛĮÙĨØ¬ÙħÙĨÙ¹": 4696,
      "Ø¢Ø®Ø±": 4697,
      "ĠÙĨØ§ÙĤØµ": 4698,
      "ĠÚ©Ø¨": 4699,
      "ĠÙĨÙĪÛĮØ¯": 4700,
      "Ø§ÙħÛĮØ¯": 4701,
      "ÙģÙĦ": 4702,
      "ĠÚ©Ø§Ù¹": 4703,
      "ĠÚ©Ø±ÙĪØ§ÛĮØ§": 4704,
      "ĠØ¨Ø§ÙĨ": 4705,
      "ĠØ¨Ú¾Ø§Ú¯": 4706,
      "Ø¬ÙħÛģ": 4707,
      "Ø§Ø±ÛĮÙĪÚº": 4708,
      "ĠØ±Ø²": 4709,
      "Ø¨Ø¦ÛĮ": 4710,
      "ĠØ¹Ø¯Ø¯": 4711,
      "ĠØ¯Ø³ØªØ§ÙĪÛĮØ²Ø§Øª": 4712,
      "ĠØ§Ø³ØªØ¯Ø¹Ø§": 4713,
      "Ø´ØªÙĪÚº": 4714,
      "ĠÙħÛģÛĮÙĨÛĴ": 4715,
      "ĠØ±ÛģØ§Ø¦ÛĮ": 4716,
      "Ø³ÙĦÚ©": 4717,
      "ĠØ±ÛģÙĨØ§": 4718,
      "Ù¾ÛģÙĦÛĴ": 4719,
      "ĠØ¯ÙģØ§ØªØ±": 4720,
      "ØªÛĮØ¨": 4721,
      "ĠØ¶Ø§Ø¨Ø·Ûģ": 4722,
      "ĠØ¨ÛĮØ§ÙĨØ§Øª": 4723,
      "ĠØ§ÙĨØ³Ù¹ÛĮ": 4724,
      "ĠØ¨ÛĮÙĨÚĨ": 4725,
      "ĠØ±Ø¬Ø³Ù¹Ø±ÛĮØ´ÙĨ": 4726,
      "Ø¤Úº": 4727,
      "ÙĦÛĮÛĴ": 4728,
      "ĠÚĨÛģØ±ÛĴ": 4729,
      "Ġ33": 4730,
      "ĠÙħØ§Ø³": 4731,
      "2018": 4732,
      "ĠÙ¾ÙĪØ¯ÛĴ": 4733,
      "Ġ[": 4734,
      "ĠØ®Ø±ÛĮØ¯Ø§Ø±ÛĮ": 4735,
      "ĠØ¢Ø¦ÙĦ": 4736,
      "ĠØ´Ø¬": 4737,
      "ĠØ±ÛĮÙĪÙĨÛĮÙĪ": 4738,
      "Ù¹ÛĮÙħ": 4739,
      "ĠØ±Ø¬ÙĪ": 4740,
      "ĠØ³Ù¹ÛĮØ´ÙĨ": 4741,
      "ĠÛģÚĳ": 4742,
      "ĠÙĨØ¨": 4743,
      "ĠØ¨ÛĮÙ¹ÙĨÚ¯": 4744,
      "ĠØŃØ±Ø§Ø±Øª": 4745,
      "ĠØ§Ø·Ø§Ø¹Øª": 4746,
      "ĠØªØ¬Ø±Ø¨Ûģ": 4747,
      "Ø¨ÛĮØ¨": 4748,
      "ĠÚĨØ±Ø³": 4749,
      "ĠØ¹ÙĦØ§ÙĤØ§Ø¦ÛĮ": 4750,
      "Ø³Ø±ÚĨ": 4751,
      "ĠØ³Ø¨Ø²ÛĮ": 4752,
      "ĠÙħÙĨØ³ÙĦÚ©": 4753,
      "ĠÙĦØ³Ù¹": 4754,
      "ĠÙħÙĨÚ¯": 4755,
      "Ú©ÙĪÛĥ": 4756,
      "ĠØ§ÙģØªØ®Ø§Ø±": 4757,
      "ĠØ¯ÙĪÚĳ": 4758,
      "ĠØ¢Ø¦ÙĪÙ¹": 4759,
      "Ø§Ø«Ø±": 4760,
      "ĠÚ©Ø§ÙĪØ´": 4761,
      "Ġ34": 4762,
      "ĠØºÙģÙĦØª": 4763,
      "ĠÚ©ÙħÛĮÙĪÙĨÙ¹ÛĮ": 4764,
      "ĠØ³ÙĨÙĨÛĴ": 4765,
      "ĠØŃÚ©ÙħØ±Ø§ÙĨ": 4766,
      "ĠÙħØ²Ø§ØŃ": 4767,
      "ĠØ³ÙĨÙ¹Ø±": 4768,
      "ÙĨØ¯Ø±Ûģ": 4769,
      "ĠÙħØ±Ø§Ú©Ø²": 4770,
      "ØŃØµ": 4771,
      "Ø¹ÙĦØ§ÙĪÛģ": 4772,
      "Ø¨Ø·": 4773,
      "ĠØ¶Ø§Ø¦Ø¹": 4774,
      "Ø¨Ú¾Ø§Ø±Øª": 4775,
      "ĠØŃÙģÛĮØ¸": 4776,
      "Ø²Ø±": 4777,
      "ĠÙħØ¹Ø¬Ø²": 4778,
      "ĠÙĨØ°Ø±": 4779,
      "ĠØ¯Ø¨Ø¦ÛĮ": 4780,
      "ĠØ¬ÛģÙĨÙħ": 4781,
      "ĠØ¯Ø§Ø¹": 4782,
      "ĠÚ©Ú¾ÙĦÛĴ": 4783,
      "ĠÙ¹Ø§Ø¦Ùħ": 4784,
      "ĠÙħØ°ÛģØ¨": 4785,
      "ĠÙ¾ÛģÙĨÚĨØ§ÛĮØ§": 4786,
      "ĠÚ©Ø§ÙĦØ¹Ø¯Ùħ": 4787,
      "ĠØ¨Ø§Ø¯Ø´Ø§Ûģ": 4788,
      "ĠÙģÙĤ": 4789,
      "ĠØ¯Ø±ÛĮØ§ÙģØª": 4790,
      "ĠØ§ÙĨØ¯Ø§Ø²Ûģ": 4791,
      "ĠØ§Ø³Ú©ÙĪØ±": 4792,
      "ĠÙħØŃØª": 4793,
      "Ø¯Ø¹ÙħÙĦ": 4794,
      "ĠÙĦÛĮØ§ÙĤØª": 4795,
      "ĠØ¨Ú¾Ù¹ÛĮ": 4796,
      "ĠÚ¯ÙĨØ¯Ùħ": 4797,
      "ĠØ§ÙĦØŃØ³ÙĨ": 4798,
      "Ú©ÛĮØ³": 4799,
      "ĠØ´ÛĮÚĪÙĨÚ¯": 4800,
      "ÙĪØ§Ø´ÙĨÚ¯Ù¹ÙĨ": 4801,
      "ĠÚĨØ§Ø¦ÛĴ": 4802,
      "ÚĨØ§Ø±Ø¬": 4803,
      "Ø§Ø¦ÙĪÙĨÚĪ": 4804,
      "ĠØ¨Ú¾ÙĪÙĦ": 4805,
      "Ù¹Ø±ÙĪÙĦ": 4806,
      "ĠÚ©Ø§Ø´": 4807,
      "ĠØ±Ø¯Ø¹ÙħÙĦ": 4808,
      "Ġ,": 4809,
      "ĠØªÙĤØ±ÛĮØ±": 4810,
      "ĠØ§Ø·ÙħÛĮÙĨØ§ÙĨ": 4811,
      "ĠÙħÙĨØ§ÙģØ¹": 4812,
      "Ø±Ø³Ø§Úº": 4813,
      "ĠÙĨÙħØ§Ø¦ÙĨØ¯Ú¯ÛĮ": 4814,
      "ĠÚ©ÛģØªØ§": 4815,
      "ĠØ¹Ø§Ø±": 4816,
      "ĠØ§Ø®ÙĦØ§ÙĤÛĮ": 4817,
      "ÙģØ§Ø±Ùħ": 4818,
      "ĠÙ¾Ø®ØªÙĪÙĨØ®ÙĪØ§Ûģ": 4819,
      "Ú©ÛĮÙħ": 4820,
      "ĠÙĦØ§ÙĦ": 4821,
      "ĠÛµÛ": 4822,
      "ÙĤØ§ÙĨ": 4823,
      "ĠÙĨØ´Ø³ØªÙĪÚº": 4824,
      "ĠÙ¾ØªÚ¾Ø±": 4825,
      "Ø®Ø§ÙĦ": 4826,
      "ØªØŃØ±ÛĮÚ©": 4827,
      "Ġ37": 4828,
      "ĠØ§ÙĦØ§": 4829,
      "ĠÙħØºØ±Ø¨ÛĮ": 4830,
      "ĠÚ©Ø§Ù¾": 4831,
      "ĠÙħØ¹Ø¨ÙĪØ¯": 4832,
      "ĠÛĮÙĪÙĨØ³": 4833,
      "ĠØ¢Ø¯Ùħ": 4834,
      "ĠÙħÛĮÙĪÙĨØ³Ù¾ÙĦ": 4835,
      "ĠÙĪØ³Ø·ÛĮ": 4836,
      "ĠØ¹ÛģØ¯ÛĮØ¯Ø§Ø±": 4837,
      "ĠÙĨÚ©Ø§ÙĦÙĨÛĴ": 4838,
      "Ø¸Ø§Ùħ": 4839,
      "ĠÚĨØ§Ø±ÙĪÚº": 4840,
      "ĠÙħÛĮÚ¯Ø§": 4841,
      "ÙĪØ³Ø·": 4842,
      "ÙħØ¬": 4843,
      "ĠÙģØ±Ø´": 4844,
      "ĠØ³Ø±ÙĪØ±": 4845,
      "Ø§ÙĨÚ¯ÛĮØ±": 4846,
      "ĠÙģØ§Øª": 4847,
      "ĠÙ¹Ø§Ù¾": 4848,
      "ĠÙ¾ÛĮÙ¹": 4849,
      "ĠØ±ÙĪÛĮÛģ": 4850,
      "ÛĮÛĴ": 4851,
      "ĠØ³ÙħØ¬Ú¾Ø§": 4852,
      "ĠØ¶ÛĮØ§Ø¡": 4853,
      "ĠØ¢ÙģØª": 4854,
      "ĠØ¹Ø§Ø¨Ø¯": 4855,
      "ĠØ¬Ø§Ø¤": 4856,
      "ĠÚ¯ÛĮØ§Ø±Ûģ": 4857,
      "ĠØ¯ÙĦÛĮ": 4858,
      "ĠØ±ÙĪØ³ÛĮ": 4859,
      "ĠØ¨Ø¯Ø¹": 4860,
      "ĠÙĦØ§Ù¾": 4861,
      "ĠØ¯Ø¨Ø§Ø¤": 4862,
      "Ø§ØŃÙĤÛĮÙĨ": 4863,
      "ĠØ¢Ø²Ùħ": 4864,
      "ĠÙħÙĤØ§ØµØ¯": 4865,
      "ĠØªØ§Ø¬Ø±ÙĪÚº": 4866,
      "ĠØ²ÙħØ§ÙĨÛģ": 4867,
      "ĠØ¯ÙĪØ³ØªÛĮ": 4868,
      "ĠØ¹ÙĤÙĦ": 4869,
      "ĠÚ©Ø±Ù¾Ù¹": 4870,
      "ĠÚ©Ú¾ÚĳÛĮ": 4871,
      "ĠÙħÛģØ§Ø¬Ø±ÛĮÙĨ": 4872,
      "ĠØ§ÙĨØ¹Ø§ÙħØ§Øª": 4873,
      "ĠØ¨ØªØ§Ø¦ÛĮ": 4874,
      "Ø§Ø³ØªÛĮ": 4875,
      "ÙģØ±ÛĮ": 4876,
      "ĠØ³Ø±ÚĨ": 4877,
      "ĠÙ¹Ø±Ø§ÙĨØ³Ù¾ÙĪØ±Ù¹": 4878,
      "ĠÚĨØ§ÙĦ": 4879,
      "ĠÙĨØ±Ø®": 4880,
      "ĠÚĪÛĮÙ¹Ø§": 4881,
      "ĠÙĪØ¬ÙĪØ¯": 4882,
      "ĠØ¬Ø§ÙĨÙĪØ±": 4883,
      "ĠÚĨÛģ": 4884,
      "ĠØ§ÙĨÛģÛĮ": 4885,
      "ĠØ§Ø´ØªÛģ": 4886,
      "ĠØºÙĦØ·ÛĮ": 4887,
      "ĠÙĤØ§Ø¯Ø±": 4888,
      "Ú©ÚĨÚ¾": 4889,
      "ĠÙħÙĤØª": 4890,
      "Ù¹Ú¾Ø§": 4891,
      "ĠØªØ§Ø±": 4892,
      "ĠÚ©ÙħÙ¾ÛĮ": 4893,
      "ÚĪØ±ÙĨÚ¯": 4894,
      "ĠÚ©ÛĮÙģ": 4895,
      "ĠØ¢Ú¯Ø¦ÛĮ": 4896,
      "ĠÛģÙħØ¯": 4897,
      "ĠØ¨Ø±ÙĪØ¦ÛĴ": 4898,
      "ĠØŃÙĦØ§ÙĦ": 4899,
      "Ø¬ÛģØªÛĮ": 4900,
      "ĠÙ¾ÚĳÛĮ": 4901,
      "ĠØ³Ù¾ÙĦ": 4902,
      "Ġ38": 4903,
      "ĠØ¯ÛĮÚ©Ú¾ÛĮÚº": 4904,
      "ĠÙħÙĤØµÙĪØ¯": 4905,
      "ĠØ³ÙħÛĮ": 4906,
      "ĠØ³Ú©ÙĨÛģ": 4907,
      "Ø§ÙģØ±": 4908,
      "ĠØ¯Ø±ÙĪØ§Ø²ÛĴ": 4909,
      "ĠØ®Ø·Ø±ÛĴ": 4910,
      "Ú©ÙĪÚ©": 4911,
      "ĠÙħÛĮØ¬Ø±": 4912,
      "ĠØ¨Ø±Ø¢ÙħØ¯Ø§Øª": 4913,
      "ĠØ¨ÛĮØ´ØªØ±": 4914,
      "Ø§ÙĨÚ©Ø§": 4915,
      "ÚĪÛĮÙĨ": 4916,
      "ĠØ±ÛĮÙ¹Ø§Ø¦Ø±ÚĪ": 4917,
      "ĠÙĤØ±Ø¨Ø§ÙĨÛĮØ§Úº": 4918,
      "ĠØ±Ø¬ÙĪØ¹": 4919,
      "ÙĨØ¦ÛĮ": 4920,
      "ÙĨÛĮÙ¹": 4921,
      "ĠÚ¯Ø±ÛĮØ²": 4922,
      "ĠØ¹Ø´": 4923,
      "Ø§Ø¸Ø±": 4924,
      "ÙħÙĦØ²ÙħØ§ÙĨ": 4925,
      "Ø·Ø±": 4926,
      "ĠÙħØ´ØªØ§ÙĤ": 4927,
      "ĠÛĮÚ©Ø³": 4928,
      "ĠÙĪÚ©ÙĦØ§Ø¡": 4929,
      "ĠØ¨ÛģØ¨ÙĪØ¯": 4930,
      "Ø°ÛĮØ¨": 4931,
      "ÙĪØ±Ø§Øª": 4932,
      "ĠØ¨ÙĦØ¯ÛĮ": 4933,
      "ĠÙĨÙħØ§Ø¦ÙĨØ¯ÛĴ": 4934,
      "ĠØ³ÙģÛĮØ¯": 4935,
      "ĠÚĪØ§Ú©ÙĪ": 4936,
      "ĠÙħØ§ÙĨÛĮÙ¹Ø±ÙĨÚ¯": 4937,
      "ĠÙħØ°Ø§Ú©Ø±Ø§Øª": 4938,
      "ĠØ¯ÙģØ§Ø¹ÛĮ": 4939,
      "ĠØªÙĤØ±ÛĮØ¨Ø§Øª": 4940,
      "ĠØ¬Ø§Ø¯ÙĪ": 4941,
      "ĠØ¢ÙĦÙĪØ¯": 4942,
      "ĠÙħØ§ÛģØ±": 4943,
      "ĠÙħÙģØªÛĮ": 4944,
      "ÛģÛĮÙĨ": 4945,
      "ĠØ³ÛĮÙħÛĮÙĨ": 4946,
      "ĠØ´Ø±Ùħ": 4947,
      "ĠÚ©Ø§Ø´ØªÚ©Ø§Ø±ÙĪÚº": 4948,
      "ĠÙ¾ÛĮÙħØ§ÙĨÛĴ": 4949,
      "Ø§ØŃÙĤ": 4950,
      "ĠÛģØ§Ø±ÙĪÙĨ": 4951,
      "ĠÚ©Ú¾Ø§": 4952,
      "ĠØ§ÙħØ¬Ø¯": 4953,
      "ĠØ§ÙĦØª": 4954,
      "ĠØ¨ÛĮÙĪØ±ÙĪ": 4955,
      "ĠØ³ÙĨØª": 4956,
      "ĠÙ¾Ø±ÙĪÙ¹": 4957,
      "ĠÙĪÚ©Ù¹ÙĪÚº": 4958,
      "ĠÙĪÙĪÙ¹Ø±Ø²": 4959,
      "ĠØ§ÙĦÛģ": 4960,
      "ĠØ¯ÛĮÙĪØ§Ø±": 4961,
      "ÙĨÙĪØ§ÙĨÛĮ": 4962,
      "ĠØ§Ø³ÙĦØŃÛģ": 4963,
      "Ùĵ": 4964,
      "ĠØ±ÙĪÚ©Ø§": 4965,
      "ØµØ±Ùģ": 4966,
      "ÚĨÙĪÛģ": 4967,
      "ĠØ¬ÙĨØ§Ø²Ûģ": 4968,
      "ĠØ§ÙĤÙĦÛĮ": 4969,
      "ĠÙ¾ÛĮØ³Ûģ": 4970,
      "ĠØ±Ø§Ø´Ø¯": 4971,
      "ĠØªØ¯": 4972,
      "Ù¹ÛĮÙĦÛĮ": 4973,
      "ĠÙħØªÙĪÙĤØ¹": 4974,
      "ĠØªØ±Ø¯": 4975,
      "ĠÙĤØ§Øª": 4976,
      "ÙĪØ±Ø²": 4977,
      "ĠØ§Ø¸ÛģØ±": 4978,
      "ĠÙ¾ÚĨØ§Ø³": 4979,
      "Ø¬Ø¦ÛĴ": 4980,
      "ĠØ³ÙĦÙĪÚ©": 4981,
      "ĠØ®ÛĮØ²": 4982,
      "ĠØºØ±Ø¨Øª": 4983,
      "ĠÚ©ÙĪØ¦Ù¹Ûģ": 4984,
      "ĠØ¨Ø±ÙĪØ²": 4985,
      "ĠÚ©Ø§Ø±Ù¾ÙĪØ±ÛĮØ´ÙĨ": 4986,
      "ĠÚ©Ø±ÚĨÚ©ÛĴ": 4987,
      "ĠÛģÙĪØ³Ú©ÛĴ": 4988,
      "ĠØ¬ÙĨÚ¯ÙĦØ§Øª": 4989,
      "ĠØ¨Ø±Ûģ": 4990,
      "ĠØ®Ø¯Ø´Ûģ": 4991,
      "ĠÚ©Ú¾ÛĮÙĦÙĪÚº": 4992,
      "ĠØ¬Ø§ÙĨÙĪÚº": 4993,
      "ĠØ³ÛĮÙħÛĮÙĨØ§Ø±": 4994,
      "ĠØ§ÙĨÚ¯ÛĮ": 4995,
      "ĠØ±ÛĮÚ¯": 4996,
      "Ø§ÙģØ³Ø±": 4997,
      "ĠØµÙĨØ¹ØªÛĮ": 4998,
      "ĠÛ±Û´Û": 4999,
      "ĠØ§ÛĮØ´ÛĮ": 5000,
      "ĠÚĪÛĮØ²": 5001,
      "ĠØ¨ÚĳÚ¾ØªÛĮ": 5002,
      "ĠÙ¹ÙĪØ¦": 5003,
      "ĠÚĨÚ¾Ù¹ÛĮ": 5004,
      "ĠÚ©ÛģØ§ÙĨÛĮ": 5005,
      "Ø§Ø¯ÛĮØª": 5006,
      "Ø´ÛĮØ®": 5007,
      "ĠÙħØ¯Ø§ØŃ": 5008,
      "ĠØ«Ø§ÙĨÛĮ": 5009,
      "ĠØ§ÙĨØµ": 5010,
      "Ġ32": 5011,
      "ĠÙĦØ§ÙĨÚĪØ±ÙĨÚ¯": 5012,
      "ĠØ³ÛĮÙĨÙ¹": 5013,
      "ĠÙħØ±Ø¯Ø§ÙĨ": 5014,
      "ĠÙ¾ÙĨØ¯Ø±Ûģ": 5015,
      "ĠØªÙĪÛģÛĮÙĨ": 5016,
      "Ø¨Ø¹Ø¶": 5017,
      "ĠØ¬Ø´ÙĨ": 5018,
      "ĠÙħØªØ§Ø«Ø±ÛĮÙĨ": 5019,
      "ÚĳÚ©Ø§ÙĨÛģ": 5020,
      "ĠÙħÙģÛĮØ¯": 5021,
      "ĠØ¨ÙĦØ§ÙĪÙĦ": 5022,
      "Ú©ÙħÛĮ": 5023,
      "Ø¢Ø²Ø§Ø¯": 5024,
      "ĠÙĦÙĪØ§ØŃÙĤÛĮÙĨ": 5025,
      "ĠÚĨÛĮÚ©ÙĨÚ¯": 5026,
      "ĠØ¹Ø§Øµ": 5027,
      "ĠØ¹ÙħØ¯": 5028,
      "ĠÙĤØ§Ø¶ÛĮ": 5029,
      "ÙĪØ¹Ûģ": 5030,
      "ÙħÙĦØ§ÙĤØ§Øª": 5031,
      "Ø¯Ø§Ø±ØªÛĮ": 5032,
      "ĠØºØ§ÙĦØ¨": 5033,
      "ĠÙħÙĪÙĨ": 5034,
      "ĠØ¯ÙĪÚº": 5035,
      "ĠØ¬ÙĨØ³": 5036,
      "ĠØ³ÛĮØ§ØŃØª": 5037,
      "ĠØ¢ÙĪØ±": 5038,
      "Ø±ÛĮÚ©Ù¹": 5039,
      "ĠÙĪØŃÛĮ": 5040,
      "Ø¨ÛĮÛģ": 5041,
      "ĠØ¢Ø±ÛģÛĮ": 5042,
      "Ø¹Ø§ÙĦÙħÛĮ": 5043,
      "ĠÙĨÙģØ³": 5044,
      "ĠÙĤØ±Ø¶": 5045,
      "ĠÙĦØ§Ø²ÙħÛĮ": 5046,
      "ĠØ¨Ø§ÙĨÛĮ": 5047,
      "ĠØ¬ÙĨÚ¯ÛĮ": 5048,
      "ĠØ±ÛģÙĨÙħØ§Ø¦ÛĮ": 5049,
      "Ø±Ø§Ùħ": 5050,
      "ĠÙħØ¬Ø§ÛģØ¯": 5051,
      "Ø¹Ø¨Ø¯Ø§ÙĦ": 5052,
      "ĠÙħØ¹ØµÙĪÙħ": 5053,
      "ÙĦØ§Ø¦ÛĮ": 5054,
      "Ø¹Ùħ": 5055,
      "ÙĨÛĮØ²": 5056,
      "ĠÙĤØ³ÙħØªÛĮ": 5057,
      "Ø§Ø¦Ø³ÙĨØ³": 5058,
      "ĠÙ¹Ú¾Ú©": 5059,
      "ĠØ¨Ø²Ø±": 5060,
      "Ø§ÛĮÙģ": 5061,
      "ĠÙĨÛĮÙĨØ¯": 5062,
      "ĠØ®Ø²Ø§ÙĨÛĴ": 5063,
      "Ø§Ø¯ÛĮØ§": 5064,
      "ĠØ¨ÚĨÙĨÛĴ": 5065,
      "ĠÙħÙĨØ²ÙĦ": 5066,
      "ĠÙħØ§Øª": 5067,
      "ÚĪÙĨ": 5068,
      "ÙħÙĪØ¬ÙĪØ¯": 5069,
      "Ø¶Ø±": 5070,
      "ĠÚĪÛĮÙĪ": 5071,
      "ĠÙħÚĨÚ¾": 5072,
      "ĠÙ¾Ø³Øª": 5073,
      "ĠØ®Ø¨Ø±Ø±Ø³Ø§Úº": 5074,
      "ĠÙ¹Ø§Ø±": 5075,
      "ĠÙĤØ§Ø³Ùħ": 5076,
      "ĠØªØ±Ú©ÛĮ": 5077,
      "ĠÚ©ÙħØ§ÙĨÚĪØ±": 5078,
      "ĠÙħÙĪØ³ÙħÛĮØ§Øª": 5079,
      "ĠÙ¾ÛĮØ¯Ø§Ø¦Ø´": 5080,
      "Ø®Ø§ÙĨÛģ": 5081,
      "Ø³Ø±Ú¯ÙĪØ¯Ú¾Ø§": 5082,
      "ĠØ¬Úĳ": 5083,
      "ĠÙħØ´Ø±ÙĪ": 5084,
      "ĠÚĪÙĪ": 5085,
      "ĠÙĤØ±Ø¶ÙĪÚº": 5086,
      "Ø²Ø¨": 5087,
      "Ú©ÛĮØ§Úº": 5088,
      "ĠÚĨÚ¾ÙĪÙ¹ÛĮ": 5089,
      "ĠØ³ØªÚ¾Ø±": 5090,
      "ĠØ§Ú¯Ø±ÚĨÛģ": 5091,
      "Ú©Ø¨": 5092,
      "ĠÚ¯ÙĪÙĦÛĮ": 5093,
      "ĠÛĮÙĪØ±Ù¾ÛĮ": 5094,
      "ĠÙħÙĪØ¶ÙĪØ¹": 5095,
      "Ø§Ú©Øª": 5096,
      "ĠÛģÙĦØ§Ú©Øª": 5097,
      "ĠØ±ÙĨ": 5098,
      "ĠØ´Ø§Ø¹": 5099,
      "Ø§ÙĪØª": 5100,
      "ĠØºØ±Ø¶": 5101,
      "ĠØ¨Ø¯ÙĦÛģ": 5102,
      "ĠÙĤØ±Ø¨Ø§ÙĨÛĮÙĪÚº": 5103,
      "Ġ:-": 5104,
      "ĠÙĨÚ©Ø§ÙĦØ§": 5105,
      "ĠØ¨ÛĮÚĨ": 5106,
      "ĠÚĪÛĮÙĦ": 5107,
      "Ø·Ûģ": 5108,
      "Ø±Ú©Ø§Ø±": 5109,
      "ĠÙĪÙģØ§Øª": 5110,
      "ĠØ±Ø³Ø§ÙĦØª": 5111,
      "Ø¬ÛĮØ³Ø§": 5112,
      "ĠØ´Ø§Ø¦": 5113,
      "ĠÙĪØ±Ú©Ø±Ø²": 5114,
      "ĠØ¨ÛĮØ±ÙĪÙĨÛĮ": 5115,
      "ĠÙĨÙĪØ§ØŃ": 5116,
      "ÙģØ±Ø¯": 5117,
      "Ø´ÙĪ": 5118,
      "Ú¯Ø§Ø±ÛĮ": 5119,
      "ÙħØ¸ÙģØ±": 5120,
      "ĠÙ¾ÚĨÚ¾ÙĦÛĴ": 5121,
      "ĠØ¨ÛĮØ¬": 5122,
      "Ú¯ÛĮØ§": 5123,
      "ĠØŃØ¨ÛĮØ¨": 5124,
      "ĠÙĦØ§ØªÛĴ": 5125,
      "ĠÚ¯Ø§Ùħ": 5126,
      "ĠØ´ÙĪØ§ÛģØ¯": 5127,
      "ĠØ§ÙĤØ³Ø§Ùħ": 5128,
      "ĠØ¯ÙĦØ§ÛĮØ§": 5129,
      "ÙĨØ§ÚĨÛģ": 5130,
      "ĠØ¹Ø³Ú©Ø±ÛĮ": 5131,
      "........": 5132,
      "ĠÙĨØ²": 5133,
      "ĠÚ¯ÙĪØ§Ø¯Ø±": 5134,
      "ĠÙĨÛĮÙĪØ²ÛĮ": 5135,
      "ØµÙĪØ¨ÛĴ": 5136,
      "ĠÙĪØ¬ÙĪÛģØ§Øª": 5137,
      "ĠØ§Ù¾ÙĨ": 5138,
      "ĠØ´ÙĨØ§Ø®ØªÛĮ": 5139,
      "ĠØŃØ§Ø¯Ø«Ø§Øª": 5140,
      "ÙĪÚ©Ø±ÛĮ": 5141,
      "ĠØ´Ø±ÛĮØ¹Øª": 5142,
      "ĠÚ©Ø±Ùħ": 5143,
      "ĠÙĦÛģØ±": 5144,
      "ĠØ®Ø§Ú©": 5145,
      "ĠÙĨÙĪÚ©Ø±ÛĮ": 5146,
      "ĠØ¬Ø°Ø¨Ûģ": 5147,
      "ĠØ³Ù¾ÙĦØ§Ø¦ÛĮ": 5148,
      "ĠØ®Ø¨Ø±Ø¯Ø§Ø±": 5149,
      "ĠÙģØ±ÙħØ§ØªØ§": 5150,
      "ĠÚĨÛĮÙħØ¨Ø±": 5151,
      "ĠÙ¾Ø±ÙĨØ³Ù¾ÙĦ": 5152,
      "ĠØ·ÙĦØ§ÙĤ": 5153,
      "ÙħÛģÙħ": 5154,
      "Ġ48": 5155,
      "Ú©Ø§Ø±ÛĮ": 5156,
      "ĠÚ¯ÙĦÙĪ": 5157,
      "ĠØ¨Ø±Ùģ": 5158,
      "ĠØ¢Ø³Ø§ÙĨÛĮ": 5159,
      "ĠÙħÛĮØ²Ø§Ø¦ÙĦ": 5160,
      "Ø®ÛĮØ¨Ø±": 5161,
      "ĠØ¨ÛĮÙ¹Ø§": 5162,
      "ĠØŃØ§Ø±Ø«": 5163,
      "ĠÙĪÚ©Ù¹ÛĮÚº": 5164,
      "Ø´ÛĴ": 5165,
      "ĠØ¸Ø§ÙĦÙħ": 5166,
      "ĠÙĦÛĮØ¦ÛĴ": 5167,
      "ĠâĢľÛĶ": 5168,
      "Ø§ÙĦØ§": 5169,
      "ĠÚĪØ§Ú©Ù¹Ø±ÙĪÚº": 5170,
      "ĠØªØ±Ø¯ÛĮØ¯": 5171,
      "ĠØ§Ø³Ú©ÙĪ": 5172,
      "ĠØ¨ÚĳÚ¾ÙĨÛĴ": 5173,
      "ĠÙĨØ°ÛĮØ±": 5174,
      "ĠÙħÙĨØ¹": 5175,
      "ĠØ±ÛĮØ³Ø±ÚĨ": 5176,
      "ĠÚĪÙĪÙĨÙĦÚĪ": 5177,
      "ĠÚĨØ§Ø±Ø¬": 5178,
      "ĠÙ¹Ø±Ú©": 5179,
      "ĠØ²ÛĮØ¯": 5180,
      "ĠÙĦÚĳØ§Ø¦ÛĮ": 5181,
      "ĠØ§ØªØŃØ§Ø¯ÛĮ": 5182,
      "ĠØ±ÙĪØ³": 5183,
      "ĠØ±ÙĪÙĦ": 5184,
      "ĠØµØŃØ§Ø¨Ûģ": 5185,
      "ĠÚĨØ§ÛģÛĮÚº": 5186,
      "ĠØ§Ø³ØªØ¹ÙģÛĮ": 5187,
      "Ø¶Ùħ": 5188,
      "ĠØ¨Ø§ÙĨØ¯": 5189,
      "ÛĮÚ©Ùħ": 5190,
      "ĠØ²Ø¨ÛĮØ±": 5191,
      "ĠÚ©ÙħÙ¾ÙĦ": 5192,
      "ĠÙĤÙĪÙĨ": 5193,
      "ĠØ¯ÛĮÙĪ": 5194,
      "ĠÙħØ¸Ø§ÙĦÙħ": 5195,
      "ĠØ§Ù´": 5196,
      "ĠÙģØ·": 5197,
      "ĠÛ³": 5198,
      "ÚĪÛĮØ´ÙĦ": 5199,
      "ÙħØ§ÛĮØ§": 5200,
      "ĠÙ¾Ø§ÙĦÛĮØ³ÛĮÙĪÚº": 5201,
      "ĠØ§ÙħØ§ÙĨ": 5202,
      "ĠØ¹ÙĦÛĮØŃØ¯Ûģ": 5203,
      "ĠÙħØ³ÛĮ": 5204,
      "ĠØ´Ø§ÛĮØ¯": 5205,
      "ĠÙħØ¯Ø§Ø±": 5206,
      "ĠÛ¶Û": 5207,
      "ĠÙħÛĮÙħÙĨ": 5208,
      "ÙĪÛĮÙ¹Ø±": 5209,
      "ĠØ¨Ú¾Ø§Ø¦ÛĮÙĪÚº": 5210,
      "ĠØ³ÛĮÚ©ÙĨ": 5211,
      "ĠØ³ÙĪØ¦": 5212,
      "ØªØŃÙĤÛĮÙĤ": 5213,
      "ĠÛģØ§Ø´ÙħÛĮ": 5214,
      "ĠØ§ÙģØ²Ø§Ø¦ÛĮ": 5215,
      "ĠÚĨÚ¾Ø§Ù¾Ûģ": 5216,
      "Ø³Ø¹ÙĪØ¯ÛĮ": 5217,
      "ĠØ§ÙĨÚĨØ§Ø±Ø¬": 5218,
      "ĠØ²ÙĦØ²": 5219,
      "ĠÙħÛĮÚ¯": 5220,
      "ĠÛģØ§": 5221,
      "Ø²Ø²": 5222,
      "ĠØ¢Ø±Ø§Ùħ": 5223,
      "ĠØªØŃÙģØ¸Ø§Øª": 5224,
      "ĠÚĨÚ¾ÙĪÙ¹": 5225,
      "ĠÚĪÛĮÚĳÚ¾": 5226,
      "ĠØ³Ø±ÙĪÛĴ": 5227,
      "ĠÙħÙĪØ±": 5228,
      "ĠÙ¹Ú©": 5229,
      "ĠÙĦÛĮØªØ§": 5230,
      "ĠØ®Ø¨Ø±ÛĮÚº": 5231,
      "ĠÙ¾Ø³ÙħØ§ÙĨ": 5232,
      "ĠØ¹Ø¸ÙħÛĮ": 5233,
      "ĠØ®Ù¹Ú©": 5234,
      "ÙģÙĪÙĨ": 5235,
      "Ø§ÛģÛĮÙĪØ§ÙĦ": 5236,
      "Ø²ÛĮØ¨": 5237,
      "Ø¬ÛĮØ¨": 5238,
      "ÙĪÙħÙĨÙ¹": 5239,
      "ĠÚ©Ø§Ø±Ø±ÙĪ": 5240,
      "ĠÙħØ®ØªØµØ±": 5241,
      "ĠÙĨØ§ÙħÛģ": 5242,
      "ĠØ¨Ø§ÙĦØ®ØµÙĪØµ": 5243,
      "ĠÚ©ÙħØ§Ø±": 5244,
      "ĠØ§Ø³Ú©ÛĮÙħ": 5245,
      "ĠÛģÙĪÙĦ": 5246,
      "ĠØ¨Ø¯ØªØ±ÛĮÙĨ": 5247,
      "ĠØ±Ø¹": 5248,
      "ĠØ³ÛĮØ¯ÙĨØ§": 5249,
      "ĠØ®Ø·Ø±Ø§Øª": 5250,
      "ĠÙģØ³": 5251,
      "ĠØ®Ø§ÙĦÙĤ": 5252,
      "ÙĹ": 5253,
      "ÚĨÙĪÛģØ¯Ø±ÛĮ": 5254,
      "ĠÙħÙĨØµØ¨": 5255,
      "Ø§ÙĦØ±": 5256,
      "ĠÙĦØ§Ø¦Ø³ÙĨØ³": 5257,
      "ĠÚ©ÛĮÙĨÙ¹": 5258,
      "ÛĮØ¯Ø§Ø±": 5259,
      "ĠØ¬ÛģØ§ÙĨÚ¯ÛĮØ±": 5260,
      "ÛĮÚ©ÛĮØ´ÙĨ": 5261,
      "ÙģØ§Ø±ÙħÛĮØ´ÙĨ": 5262,
      "ĠØ¨ÙĨÙĪ": 5263,
      "ĠÚ©Ø±Ø³Ú©ÛĴ": 5264,
      "ĠÙĤÛĮØ¯ÛĮÙĪÚº": 5265,
      "ĠÙ¾ÙĦØ§ÙĨÙ¹": 5266,
      "ĠÙĨÙĪØ§Ø¨": 5267,
      "ĠØ¨Ø§Ø·ÙĦ": 5268,
      "ĠØ´ÛģØ±Øª": 5269,
      "Ø±ÛĮÙĦÙĪ": 5270,
      "Ġ2014": 5271,
      "ÛĮÙĨÛĮÙ¹Ø±": 5272,
      "Ø¬ÙħØ¹": 5273,
      "ĠÙħØ·Ø§ÙĦØ¨Ø§Øª": 5274,
      "ĠÛĮÚ©Ø¬ÛģØªÛĮ": 5275,
      "ĠØŃØ§ÙħØ¯": 5276,
      "Ġ44": 5277,
      "ÙĪØ³Ûģ": 5278,
      "Ø§ÙĦÛĮÚ©Ø´ÙĨ": 5279,
      "ĠØ¯ÛĮÚ©Ú¾ÙĨØ§": 5280,
      "ÙħÛĮÛģ": 5281,
      "ĠÙĪÛĮØ²": 5282,
      "ĠØµØ¯Ø§Ø±ØªÛĮ": 5283,
      "ĠØ§ÛĮÙĪØ¨": 5284,
      "ĠØ§ÙħØ¯Ø§Ø¯ÛĮ": 5285,
      "ĠÙħØ°Ø§ÙĤ": 5286,
      "ĠÙĤØ§Ø¨Ø¶": 5287,
      "ĠØ¨Ø¯Ø±": 5288,
      "ĠÙħÙĤØ§Ø¨ÙĦÙĪÚº": 5289,
      "ĠØ°ÙĪØ§ÙĦÙģÙĤØ§Ø±": 5290,
      "ĠØ§Ø·Ø±Ø§Ùģ": 5291,
      "ĠÚ¯ÙħØ±Ø§Ûģ": 5292,
      "ĠØªØ¹Ø¨ÛĮØ±": 5293,
      "Ù¹Ú¾ÛĴ": 5294,
      "ĠÙħÛĮÚĨÙĪÚº": 5295,
      "Ø§ÚĳÛĮ": 5296,
      "ĠØ³Ú©ÛĮÙħ": 5297,
      "ĠÙĪØ§Ø¦": 5298,
      "ÙħØ«": 5299,
      "ĠÙĨØ§Ú©Ø§ÙħÛĮ": 5300,
      "ØµØŃ": 5301,
      "ĠÙģØ±Ø´ØªÛĴ": 5302,
      "ÙĨÛĮÙģ": 5303,
      "ÙħØ®Øª": 5304,
      "ĠØªØ¹Ø²": 5305,
      "ĠØ¬ÙħØ§Ø¹ØªÛĮÚº": 5306,
      "ĠØŃÙģØ§Ø¸ØªÛĮ": 5307,
      "ĠÙĪÛĮÙĦÙģÛĮØ¦Ø±": 5308,
      "ĠÚ©Ø±Ø¯ÛĴ": 5309,
      "ĠØ¹Ø§ÙħÛģ": 5310,
      "ĠÙħÙĨØ§ÛĮØ§": 5311,
      "ÙģÙĪØ±Ø³": 5312,
      "ĠÚĪÛĮÙģ": 5313,
      "ĠØ·ÙĦØ¨Ø§": 5314,
      "ĠÙħÙĦØ§Ø²ÙħØª": 5315,
      "ĠØ³ÙĦÛĮÙħØ§ÙĨ": 5316,
      "ĠÙģÙĪØ±Ø§": 5317,
      "ĠØªØŃÙĤÛĮÙĤØ§ØªÛĮ": 5318,
      "ĠØ¬Ø§Ù¾Ø§ÙĨ": 5319,
      "Ġ55": 5320,
      "ĠÙ¾Ú¾ÛĮÙĨÚ©": 5321,
      "Ø§ÙĦÙĪÚº": 5322,
      "ĠØ¨ÛĮÚ¯Ùħ": 5323,
      "ĠØ´Ø¨Ûģ": 5324,
      "ĠÛģÚĳØªØ§ÙĦ": 5325,
      "ĠÙģØª": 5326,
      "ĠÚ¯Ø§Ø±": 5327,
      "ĠÚ¯ÙĪÙĨ": 5328,
      "ĠØªÚ¾Ø±ÛĮ": 5329,
      "ĠÙ¾ÛģÚĨØ§ÙĨ": 5330,
      "ÙĦØ§Ø¦ÙĨ": 5331,
      "ĠØ´ÙĪÚ¯Ø±": 5332,
      "ĠØ³ÛĮÙģÙ¹ÛĮ": 5333,
      "ĠÙħØ¹Ø¯": 5334,
      "ĠÙģØ±Ø´ØªÙĪÚº": 5335,
      "ÙĨÚĪÛĴ": 5336,
      "ĠØ¨Ø¹": 5337,
      "Ø²Ø§Ø¯ÛĮ": 5338,
      "Ġ|\"": 5339,
      "ĠÚ¯ÙĨØ§ÛģÙĪÚº": 5340,
      "ĠÚ©Ø§ÙħØ±Ø§ÙĨ": 5341,
      "ĠÚ¯Ø±ÙĦ": 5342,
      "Ø¶ÙĦØ¹": 5343,
      "ĠÙ¾Ø±Ø³ØªÛĮ": 5344,
      "ĠØºØµ": 5345,
      "ĠÛĮØ§Ø³Ø±": 5346,
      "Ú¯Ù¹": 5347,
      "ĠÙģÙĦØ§": 5348,
      "ĠÚ©Ú¾Ø±": 5349,
      "ĠØ±ÙĪØ§ÛĮØ§Øª": 5350,
      "Ġ39": 5351,
      "ĠÙĪÙĪÙ¹ÙĪÚº": 5352,
      "ĠØºØ°Ø§Ø¦ÛĮ": 5353,
      "ĠÙħØªÙĨØ§Ø²": 5354,
      "ĠØ¨ÛĮÙħØ§Ø±": 5355,
      "ĠØ³ÛĮÙĨÛĮÙ¹": 5356,
      "ĠÙ¾ÛģÙĨÚĨÛĮ": 5357,
      "ĠØªÛĮØ³Ø±Ø§": 5358,
      "ĠØ³ÙģØ§Ø±Ø´Ø§Øª": 5359,
      "ĠÚĨÚ¾ÛĮÙĨ": 5360,
      "Ø³Ø±ÛĮÙĨÚ¯Ø±": 5361,
      "ĠÙĦØ·ÛĮÙģ": 5362,
      "ĠÙ¹Ø§Ø¦": 5363,
      "Ø§ÙģÙ¹": 5364,
      "ĠÚ¯Ø§ÙħØ²ÙĨ": 5365,
      "ĠÙĤØ³": 5366,
      "ĠÙħÙĦØªØ§": 5367,
      "ĠØ¯ÙĪØ³ØªÙĪÚº": 5368,
      "Ø¯Ø§Ùģ": 5369,
      "ĠØ¯Ø§Ø±ÛĮØ§Úº": 5370,
      "ĠØ¨Ø±ÛĴ": 5371,
      "ĠÙħØŃØ¨ÙĪØ¨": 5372,
      "ĠÙ¹ÛĮÚ©ÙĨØ§ÙĦÙĪØ¬ÛĮ": 5373,
      "ĠÚ¯ÛĮØ´ÙĨ": 5374,
      "ĠØ´Ø§ÙħÛĮ": 5375,
      "ĠÙĦØ¨Ø§Ø³": 5376,
      "ÙĪØ§Úº": 5377,
      "ĠÙĤÛĮØµØ±": 5378,
      "Ġï·º": 5379,
      "ĠØ¨Ø§Ø´": 5380,
      "ĠÚĪÛĮÙĨ": 5381,
      "ĠØ§Ú©Ø§Ø¤ÙĨÙ¹": 5382,
      "Ù¾ÛĮÙ¾ÙĦØ²Ù¾Ø§Ø±Ù¹ÛĮ": 5383,
      "ĠÙĪÙĨÚ¯": 5384,
      "ĠÙĨØµÛĮØŃ": 5385,
      "ĠØ·Ø§ÙĦØ¨Ø§ÙĨ": 5386,
      "Ø§ÙħÙĪÚº": 5387,
      "ĠØ³Ù¾ÛĮØ´ÙĦ": 5388,
      ")-": 5389,
      "ĠØ§Ø³Ú©ÛĴ": 5390,
      "ĠÚ©ÛĮØ±ÛĮ": 5391,
      "Ø³ÛĮÙĦ": 5392,
      "ØªØ±ÙĤÛĮ": 5393,
      "ĠØ¯ÛĮØ¯ÛĮ": 5394,
      "ĠØ±ÙĪØ§ÛĮØªÛĮ": 5395,
      "ĠØ§Ø³ÛĮÚ©ÛĮ": 5396,
      "ĠØ¯Ø±Ø¬ÙĨÙĪÚº": 5397,
      "ĠØ¬ÛģÙĦÙħ": 5398,
      "ĠÙĪØ¹Ø¯ÛĴ": 5399,
      "ØªÛĮØ³": 5400,
      "ĠØ±Ø§Ø³ØªÙĪÚº": 5401,
      "ĠÙĨÛĮØª": 5402,
      "ĠÙħÛģÙĦØª": 5403,
      "ĠÙĪØ§Ø¯ÛĮ": 5404,
      "ĠÛģØ²Ø§Ø±Ûģ": 5405,
      "ĠÙħØªØŃØ¯": 5406,
      "ÚĳÛĮØ§Úº": 5407,
      "ĠÛģÛĮÙĦÛĮ": 5408,
      "ØŃØ§ÙĦØ§ÙĨÚ©Ûģ": 5409,
      "ĠÚ©ÙĪÛģØ§Ù¹": 5410,
      "ĠÚ¯Ø±ÙĨÛĴ": 5411,
      "Ø³Ø§ÙĨ": 5412,
      "ĠÚ©ÙħÙ¾ÛĮÙĪÙ¹Ø±": 5413,
      "ĠÛĮÙĤÛĮÙĨØ§": 5414,
      "ĠÚ©ÛĮÙĦÛĮÛĴ": 5415,
      "ĠÙĪÛĮÙĨ": 5416,
      "ĠØ¨Ú¾ÛĮØ¬ÛĴ": 5417,
      "ĠØ¢Ø±Ú¯ÙĨ": 5418,
      "ĠØªØ±Ø¨ÛĮØªÛĮ": 5419,
      "ĠØ¨ÙĦÚĪ": 5420,
      "ĠÙħÛĮØª": 5421,
      "ĠÙ¾ÙĨØ¬": 5422,
      "ĠØ§ÛģØ¯Ø§Ùģ": 5423,
      "ĠÚ©Ø§Ø±Ø±ÙĪØ§Ø¦ÛĮØ§Úº": 5424,
      "ĠØ²ÛĮØ¨": 5425,
      "Ø§Ø¯ÛĮØ«": 5426,
      "ĠØ®Ø§Ø±Ø¬": 5427,
      "ÙĦØ±": 5428,
      "ĠØ¢ÙĦØ§Øª": 5429,
      "ĠØ³ÙħØª": 5430,
      "ĠØ±ØŃÛĮÙħ": 5431,
      "Ø¯ÛĮØ±": 5432,
      "Ø§Ø¦Ø²ÛĮØ´ÙĨ": 5433,
      "ĠÙ¹Ú¾ÛģØ±": 5434,
      "ĠØ§ÛĮÙĪÙĨ": 5435,
      "Ø§Ø·Ø¨": 5436,
      "Ú¾ÛĮÙĦ": 5437,
      "ĠØ§ÙĦÙħØ¹": 5438,
      "ĠÚĪØ§ÙĦÛĮ": 5439,
      "Ø¯Ú¯Ø§Ø±": 5440,
      "ĠÙĦØ§ÙĨØ§": 5441,
      "ĠØ¢Ù¾Ø±ÛĮØ´ÙĨØ²": 5442,
      "ÙĨØ¯ÛĴ": 5443,
      "ĠØ¬Ø§ÙĨÙĨÛĴ": 5444,
      "ĠÙħØ¹Ø§ÙĪ": 5445,
      "ÛĮØ±ÛĴ": 5446,
      "ÙĤÙĪÙħ": 5447,
      "Ø¬ÛĮÙĦ": 5448,
      "ĠØ±Ø¦ÛĮ": 5449,
      "ĠÙ¾ÛĮØ´Ú©Ø´": 5450,
      "ĠØ§Ø¹ÙĦØ§ÙħÛĮÛģ": 5451,
      "Ø§ÙĦØ¨ØªÛģ": 5452,
      "ĠÙ¹Ø§Ø³Ú©": 5453,
      "ĠØ§ÙĨÙģØ§Ø±ÙħÛĮØ´ÙĨ": 5454,
      "ĠØ¨ÛģØ§Ø¯Ø±": 5455,
      "ÙĪØ¶": 5456,
      "ĠÙĨØ§Ù¾": 5457,
      "ĠØ§ÙĨÚĪØ±": 5458,
      "ĠØ±ÛģÙĪ": 5459,
      "ĠØ³ØªØ§Ø±": 5460,
      "ĠØ§ÙĦÙĤØ±Ø¢ÙĨ": 5461,
      "ĠÚ©Ø´ØªÛĮ": 5462,
      "Ø§ÙĦÛĮÙģ": 5463,
      "ĠØ³Ø±Ø¯": 5464,
      "Ø¨ÛĮØ§ÙĨ": 5465,
      "ĠØ¯Ø§Ø¹Ø´": 5466,
      "ÙĨÙĪØ¬ÙĪ": 5467,
      "Ø·Ø±Ùģ": 5468,
      "ĠÙĨÚ©ÙĦÙĨÛĴ": 5469,
      "Ú¾ÙĪ": 5470,
      "ĠÙĨØ§Ø§ÛģÙĦ": 5471,
      "Ø¯ÛģØ´Øª": 5472,
      "ĠØ«ÙĪØ§Ø¨": 5473,
      "ĠØ³ÛĮØ§Ûģ": 5474,
      "ĠØªØ³ÙĦ": 5475,
      "ĠØ¢Ø¬Ø§Ø¦ÛĴ": 5476,
      "ĠØ®ÙĪØ§ÛģØ´Ø§Øª": 5477,
      "ÛģÙĪÙħ": 5478,
      "ĠÚĨÙĪØ±": 5479,
      "ÙĪÙĦÛĮØ§ØªÛĮ": 5480,
      "ĠØ§Ø³Ù¹Ø§Ùģ": 5481,
      "ĠÙģØ±ÛĮÙĤÛĮÙĨ": 5482,
      "ĠÙĨØ§Ø§ÛģÙĦÛĮ": 5483,
      "ĠØ¬Ø±ÙħØ§ÙĨÛĴ": 5484,
      "ĠØ§Ú©ÛĮÚĪ": 5485,
      "ĠÚ©ÙĪØª": 5486,
      "ĠÙĨØ´Ø§ÙĨÛĮ": 5487,
      "ØŃÛĮØ¯Ø±": 5488,
      "ĠÙģÙĦÛĮ": 5489,
      "Ø·ÙĦØ¨": 5490,
      "ĠØ§Ø¬Ø±": 5491,
      "ÙĨÙĦ": 5492,
      "ØºÛĮ": 5493,
      "ĠÙħØ±Ø¶ÛĮ": 5494,
      "ĠÙħØ§ÛĮÙĪØ³": 5495,
      "Ø¨Ø§ÙĨÛĮ": 5496,
      "ĠØ´Ø±Ø·": 5497,
      "ĠØ¢ÙĦÙĪØ¯Ú¯ÛĮ": 5498,
      "ĠØªØ®ÙĦÛĮ": 5499,
      "ĠÙĨÙĪÙ¹ÛĮÙģÚ©ÛĮØ´ÙĨ": 5500,
      "ĠØ´ÙģÛĮÙĤ": 5501,
      "ĠØ§ÙħØ§Ø±Ø§Øª": 5502,
      "ĠØ±ÛĮÙħØ§ÙĨÚĪ": 5503,
      "ĠÙĦØ§Ø²Ùħ": 5504,
      "ĠØ³Ø±Ù¹ÛĮÙģ": 5505,
      "Ġ75": 5506,
      "ĠØ§Ø®ØªÙĦØ§ÙģØ§Øª": 5507,
      "ĠÙħØ³ÙĨØ¯": 5508,
      "Ø·Ø¨ÛĮ": 5509,
      "Ù¾Ø§Ø±": 5510,
      "ĠØªÛĮØ§Ø±ÛĮØ§Úº": 5511,
      "ÙĨØ¸Ø±": 5512,
      "ÙħÛĮØ±ÛĴ": 5513,
      "ĠÙħØºÙģØ±Øª": 5514,
      "ĠÚ©Ø±Ø§Ø¦Ùħ": 5515,
      "ĠØ´Ø§ÛģØ±Ø§Ûģ": 5516,
      "ĠØºØ§Ø¦Ø¨": 5517,
      "ĠÙĦØ§Ø¦ÛĮÙĪ": 5518,
      "ĠØ¹ÙħØ¯Ûģ": 5519,
      "Ø¯Ø±ÛĮÚº": 5520,
      "ĠØ§ÙĨÙĪ": 5521,
      "Ø¸Ûģ": 5522,
      "ĠÚ¯Ø±ÚĪ": 5523,
      "ĠÙħÙĦÛĮØ±": 5524,
      "ĠÙĨØµÛĮØŃØª": 5525,
      "ĠØ«ÙĤØ§ÙģØª": 5526,
      "ĠØ¨Ø±ØªØ±ÛĮ": 5527,
      "ĠÙĦØ¹": 5528,
      "ĠØ§ÛĮÚĪÙħÙĨ": 5529,
      "ĠØ³ÛĮÚ©ÙĨÚĪ": 5530,
      "ĠÙĤØ¯ÛĮÙħ": 5531,
      "ĠØºØ§Ø²ÛĮ": 5532,
      "ÙĪÙĨÚĪ": 5533,
      "ĠÙħØ±ØŃÙĦÛģ": 5534,
      "Ø±ÙĪØ²": 5535,
      "ÙĤÙĦÛĮ": 5536,
      "ĠÙĦØº": 5537,
      "ĠØ¬ÙĪÚĪÛĮØ´ÙĦ": 5538,
      "Ø¸Ø§ÛģØ±": 5539,
      "ĠØ§ØªÙĨÛĴ": 5540,
      "ĠÚ¯ÛĮØ±": 5541,
      "ĠØ®Ø±Ø§Ø¨ÛĮ": 5542,
      "ÙĪØ²Ø§Ø±Øª": 5543,
      "Ø§ÛģÛĴ": 5544,
      "ĠØ§ÛĮØ´ÛĮØ§": 5545,
      "ĠØ§Ø³Ù¹Ø§Ø±": 5546,
      "ĠÙħØªØŃØ±Ú©": 5547,
      "ĠØ±Ø§ØŃ": 5548,
      "ĠÙĤØ§Ø¯Ø±ÛĮ": 5549,
      "ĠÙ¾Ø³ÙĨØ¯ÛĮ": 5550,
      "ĠÙĪØ§Ú©": 5551,
      "ĠÙĪØ§Ø¬Ø¨": 5552,
      "ĠÙģÙĨØ§ÙĨØ³": 5553,
      "ĠÙģØ§Øµ": 5554,
      "Ġ43": 5555,
      "ĠØ¬Ø¨Ø±": 5556,
      "ĠÙħÙĨØ´ÙĪØ±": 5557,
      "ĠÙĨØ¸Ø±ÛĮÛģ": 5558,
      "ĠÚ©Ø±ÛĮÚ©": 5559,
      "ĠÚ©ÙħØ±Ø´ÙĦ": 5560,
      "ĠÚ¯ÙĨØ¬Ø§Ø¦Ø´": 5561,
      "Ø´Ø§Ø±": 5562,
      "ĠÚ¯Ú¾Ø±ÛĮÙĦÙĪ": 5563,
      "ĠØ¬Ø°Ø¨Ø§Øª": 5564,
      "Ú¯ÛĮØ±": 5565,
      "ĠØ§ÙģØ±ÛĮÙĤ": 5566,
      "ĠØ¬ÙħØ§ÙĦ": 5567,
      "Ø³ØªØ§": 5568,
      "ĠØ±Ø§Ø²": 5569,
      "ĠØ´Ø¨ÛĮØ±": 5570,
      "ØªØ§Ø¨": 5571,
      "ØŃÙĤÛĮ": 5572,
      "Ú¯Ø±Ûģ": 5573,
      "ĠÛĮØ±": 5574,
      "Ġ65": 5575,
      "ĠÙĪØ¹": 5576,
      "ĠØ¨ÙĦÛĮÚ©": 5577,
      "ÛĮØ¨Øª": 5578,
      "ĠØ§ÙĦØ·Ø§Ùģ": 5579,
      "ĠØ§Ø´ØªÛģØ§Ø±": 5580,
      "ĠØ±ÛĮØ§Ø³ØªÛĮ": 5581,
      "ĠØ¯Ú©": 5582,
      "ĠØ¬Ø§ÙĨÚĨ": 5583,
      "Ø§ÙĤØ§ÙĨ": 5584,
      "ĠÚĨØ§ÛģØ¦ÛĮÚº": 5585,
      "ĠÚĪÙĪØ¨": 5586,
      "ĠÙĨØ´Ø±ÛĮ": 5587,
      "ĠØ´Ø§Ø¯": 5588,
      "ĠØ¢ÙģØªØ§Ø¨": 5589,
      "ĠØ²Ú©ÙĪÛĥ": 5590,
      "ĠØ¯Ø¹ÙĪÛĴ": 5591,
      "ĠÚĨÙħÚ©": 5592,
      "ĠØªØ°": 5593,
      "ĠØŃÙĪØ«": 5594,
      "ĠØ¯ÙĪÙ¾": 5595,
      "ĠØ®Ø§ÙħÙĪØ´": 5596,
      "ĠØ¨ÙĨÚĨ": 5597,
      "ĠØ³ÙħÙĨØ¯": 5598,
      "ĠØ§ÙĨÚĪÛĮØ²": 5599,
      "ĠØ§ÙĨÙĪØ§Ø±": 5600,
      "Ġ1122": 5601,
      "ĠØ¬Ø§Ø±ØŃ": 5602,
      "ĠØ³ÛĮÙħÛĮ": 5603,
      "Ø´Ø§Ù¾": 5604,
      "ĠØ®Ø±Ùħ": 5605,
      "ĠØ§ØŃØ§Ø¯ÛĮØ«": 5606,
      "ĠÚ©ÙĨÙĪ": 5607,
      "ÙĨÚ¯Ø§": 5608,
      "ĠØ¢ØªØ´": 5609,
      "ÙĪÙĦØ±": 5610,
      "ĠÙĨÙħØ§Ø¦ÙĨØ¯Ûģ": 5611,
      "ØĲ": 5612,
      "ĠÙ¾Ø±ÙĪØ±Ø¯Ú¯Ø§Ø±": 5613,
      "ĠÚĨØ´": 5614,
      "ĠÚ¯Ú¾ÛĮ": 5615,
      "ÙĪÚĳÛĮ": 5616,
      "ĠØ¯Ø±Ø®ÙĪØ§Ø³ØªÛĮÚº": 5617,
      "ĠÙĨØµÛĮØ¨": 5618,
      "ĠÙĤÙĪØªÙĪÚº": 5619,
      "ĠÙħØ´Ø±ÙĤÛĮ": 5620,
      "ĠÙ¹ÛĮÙĦ": 5621,
      "ĠØ²ÛģØ±ÛĮ": 5622,
      "ÙĪÙĨØ§": 5623,
      "Ø¯ÙĪØ±": 5624,
      "ĠØ³ÛĮØ±": 5625,
      "ĠÚĨÙĦÛĮ": 5626,
      "ĠØ§Ø¬ØªÙħØ§Ø¹ÛĮ": 5627,
      "Ú©ÙĪÚº": 5628,
      "Ø§Ú©Ø§": 5629,
      "ĠÙħØ§Ø±Ø§": 5630,
      "ÙĪØ§ÙĤ": 5631,
      "ĠØµØ¯ÛĮÙĤ": 5632,
      "ĠÙĨÙĪØŃ": 5633,
      "ĠØ§Ø³Ú©ÙĪÙĦÙĪÚº": 5634,
      "ĠÚ©ÙĪØ±ÙĨÚ¯ÛĮ": 5635,
      "ĠØ¢Ø³ÙħØ§ÙĨÙĪÚº": 5636,
      "ĠØ¸Ûģ": 5637,
      "ĠØ§ÛĮØ¨Ù¹": 5638,
      "ĠØ±ÛĮÙ¹Ø±": 5639,
      "Ø¨Ø±Ø·Ø§ÙĨÙĪÛĮ": 5640,
      "ĠÙħÙĨÙĤ": 5641,
      "ĠØ§Ú©Ø§Ø¤ÙĨÙ¹Ø³": 5642,
      "ĠÙĨÛĮÚ©ÛĮ": 5643,
      "ĠÚĨØ¦ÛĮØ±": 5644,
      "ĠØ¬ÛĮØªÙĨÛĴ": 5645,
      "ĠÙħÙĨØ§ÙĨÛĴ": 5646,
      "ĠÙĦÛĮÚ©": 5647,
      "ĠÙĨØµÛĮØ±": 5648,
      "ĠØ¢ÙħØ¯ÙĨ": 5649,
      "ĠÙĨÙģØ§Ø°": 5650,
      "ĠÙ¾Ø±ÚĨÙħ": 5651,
      "ĠÚĨÛĮÙħÙ¾Ø¦ÙĨ": 5652,
      "Ú©Ø§Ùħ": 5653,
      "ĠØ§ÛĮØ±ÛĮØ§": 5654,
      "ĠØ§ÙĨØ´Ø§Ø¡": 5655,
      "ĠØ¢ÙħØ¯ÙĨÛĮ": 5656,
      "Ø¹Ø²ÛĮØ²": 5657,
      "ĠØ¢ØºØ§": 5658,
      "ĠØ·ÛĮØ¨": 5659,
      "ĠÚ©ÙĦÛĮÙĨ": 5660,
      "ĠØ§ØŃØªÛĮ": 5661,
      "ĠØªÚ¾Ø±": 5662,
      "ĠØ³Ø±Ø®": 5663,
      "ĠÚĨÛĮÙĨÙĦ": 5664,
      "ĠØ±Ø§": 5665,
      "ĠØªÙĦØ§Ø´ÛĮ": 5666,
      "ÙģØ³Ø§Ø±": 5667,
      "Ø¯ÛĴ": 5668,
      "ĠØ±ÛĮØ²": 5669,
      "ĠÙĦÛģØ°Ø§": 5670,
      "ĠÙħØ§ÙĦÛĮØ§ØªÛĮ": 5671,
      "ĠØ§Ú©Ú¾": 5672,
      "ĠØ´ÛĮÙĦ": 5673,
      "ĠÙģÛĮØµÙĦÙĪÚº": 5674,
      "ĠÚ©Ø±ÙĨÙĦ": 5675,
      "Ø¨ÙĪØ±ÚĪ": 5676,
      "ĠØ±ÛĮÚĪ": 5677,
      "ĠÚ©ÛĮÙĦ": 5678,
      "Ø§ÙģØªÛĮ": 5679,
      "Ġ47": 5680,
      "ĠÙ¾ÛĮØ±Ø§": 5681,
      "ÚĨÛĮÙħ": 5682,
      "ĠØªÛĮØ³": 5683,
      "ĠØ®Ø¨Ø±ÙĪÚº": 5684,
      "ĠØŃÙħØ²Ûģ": 5685,
      "ĠÙħØ®Ø§Ø·Ø¨": 5686,
      "ĠØ±Ø²ÙĤ": 5687,
      "ĠØ°Ø®Ø§Ø¦Ø±": 5688,
      "ĠÙħÛĮØ²Ø¨Ø§ÙĨ": 5689,
      "Ù¹ÛĮØ¬": 5690,
      "ĠÙĤÙĦÙħ": 5691,
      "ĠÚ¯Ø§Ø¤Úº": 5692,
      "Ø£": 5693,
      "ĠØ¬Ø¹": 5694,
      "ĠØ´Ø±Ø§Ú©Øª": 5695,
      "ÙĨÛĮØ¯": 5696,
      "ĠØ¹Ø¸ÙħØª": 5697,
      "ĠØ¯Ø±Ø§ÙĨÛĮ": 5698,
      "Ġ46": 5699,
      "ĠØ±ÛĮÙĦÙĪÛĴ": 5700,
      "ĠØ¬Ú¾ÙĪÙ¹ÛĴ": 5701,
      "ĠØ¨Ø¯Ø¹ÙĨÙĪØ§ÙĨÛĮ": 5702,
      "Ø§Ø²Ø§Úº": 5703,
      "ĠÛģÙĪÙ¹ÙĦ": 5704,
      "ĠÙħØ¹Ø²Ø²": 5705,
      "ĠØ§ÙĨÚ¯ÛĮØ²": 5706,
      "ĠÙħØ¯Ø¯Ú¯Ø§Ø±": 5707,
      "ĠÛĮÚ©Ø³Ø§Úº": 5708,
      "ĠÙ¹ÙĪÛĮÙ¹Ø±": 5709,
      "ĠÙħÙĦØªÛĴ": 5710,
      "Ù¾ÛĴ": 5711,
      "ÙħÙĦØªØ§ÙĨ": 5712,
      "ĠØ¬ÙĪØ§ÙĨ": 5713,
      "ĠØ§Ø³ØªÙģØ³Ø§Ø±": 5714,
      "ĠÙĨÚ©ÙĦÛĴ": 5715,
      "ĠØ§ÛĮÙ¹": 5716,
      "ÚĳÙĨÛĴ": 5717,
      "ĠÙ¾Ø±ÙĪÙģ": 5718,
      "ĠÛ´": 5719,
      "ĠØ³Ø§Ø±Ø§": 5720,
      "Ú©Ø²Ø¦ÛĮ": 5721,
      "Ø¹ÙĤÙĪØ¨": 5722,
      "Ø±ÛĮØ§Ø¶": 5723,
      "ĠØ¯ÛĮÚ©Ø±": 5724,
      "ØªÙģ": 5725,
      "Ø±ÙĪØª": 5726,
      "ÙĦÙĪÚ¯ÙĪÚº": 5727,
      "ĠØ¢Ø¦ÙĨØ¯": 5728,
      "ĠØ®ÛĮÙĦ": 5729,
      "ĠÚĪØ¨ÙĦ": 5730,
      "ĠØ±Ø¬Ø³Ù¹Ø±ÚĪ": 5731,
      "ĠÙ¹Ú¾ÙĪØ³": 5732,
      "ĠÙĨØ§ÙħÙĪØ±": 5733,
      "ĠÙħÙĦØ§Ø²Ùħ": 5734,
      "ĠÚ©ÙĪØ±Ø³": 5735,
      "ĠØ§ØµØºØ±": 5736,
      "ĠÙ¹ÛĮÙĪÙ¹": 5737,
      "ĠÙ¾Ø±ÙģØ§Ø±Ùħ": 5738,
      "ĠØ§Ú©Ø§Ø¦ÙĪÙĨ": 5739,
      "Ø§ÙģØ³Ø±Ø§ÙĨ": 5740,
      "ĠØ¯Ø±Ú©Ø§Ø±": 5741,
      "ĠÚ¯ÛĮÙĦØ§ÙĨÛĮ": 5742,
      "Ø´ÛģØ±Ûģ": 5743,
      "ĠØ¬ÙĦØ¯ÛĮ": 5744,
      "ĠØ¹Ø¨Ø¯Ø§ÙĦØ±ØŃ": 5745,
      "ĠÙħØ¸Ø§ÛģØ±ÛĴ": 5746,
      "ĠØ¬ÛĮÚ©": 5747,
      "ĠÚ©Ø§Ø±ÙĪØ¨Ø§Ø±": 5748,
      "ĠØ§Ø´ØªÛģØ§Ø±ÛĮ": 5749,
      "ĠØªÚ¾Ø§ÙĨÛĴ": 5750,
      "ĠØºØ±": 5751,
      "ĠÙħÙĨÛĮØ±": 5752,
      "ĠØ¬Ø§Ø³": 5753,
      "ĠÙĤØ§Ø¦Ø¯ÛĮÙĨ": 5754,
      "ĠØ¨ÛģØ§ÙĪÙĦ": 5755,
      "Ø³Ø±Ú©Ø§Ø±ÛĮ": 5756,
      "ØŃØ§ØµÙĦ": 5757,
      "ĠÙĨØ§Ø¯": 5758,
      "ĠØ¢ÙĨÚ©Ú¾ÛĮÚº": 5759,
      "ĠØ§ÙħØªØŃØ§ÙĨØ§Øª": 5760,
      "ĠÚ©Ø±ÙĨØ³ÛĮ": 5761,
      "ĠØªØŃØ±ÛĮØ±ÛĮ": 5762,
      "Ġ197": 5763,
      "ĠØ§ÙĨÙ¹Ø±ÙĨÛĮÙ¹": 5764,
      "ĠÙ¹Ø§Ø±Ú¯Ù¹": 5765,
      "ĠÚĨØ§ÙĦÛĮØ³": 5766,
      "ĠØ¨Ø§Ø¬ÙĪÛģ": 5767,
      "ĠÙ¹ÙĪØ¦ÙĨ": 5768,
      "ĠÛģØªÚ¾ÛĮØ§Ø±": 5769,
      "ĠÙĪØ§Ø±Ø¯Ø§ØªÙĪÚº": 5770,
      "Ú©ÙħÛĮÙ¹ÛĮ": 5771,
      "ĠÚ©Ø±Ø³": 5772,
      "ĠÚ©ÙĨÚ¯": 5773,
      "ĠÛģÙĪÙħ": 5774,
      "ÙĦÛĮØª": 5775,
      "ĠØ¨ØªØ§Ø¦ÛĮÚº": 5776,
      "Ø´Ú©Ø±": 5777,
      "Ø®ÙĪØ§ØªÛĮÙĨ": 5778,
      "ĠØ§ÙĦØµ": 5779,
      "ĠÙħÙģÛģÙĪÙħ": 5780,
      "ĠØ³Ø±Ø§Ø¬": 5781,
      "ĠÙħÙĨÙģØ±Ø¯": 5782,
      "ĠØŃÛĮØ±Øª": 5783,
      "ĠØ·ÙĪÙģ": 5784,
      "ĠÚ©ÙĪØ´Ø§Úº": 5785,
      "ĠØ³Ø§Ø¬Ø¯": 5786,
      "Ø¨Ø±ÙĪ": 5787,
      "ĠÙĨÙģØ±Øª": 5788,
      "ĠÚĨÛĮÙħÛģ": 5789,
      "ĠÙħÙĨØªÙĤÙĦÛĮ": 5790,
      "ĠÙĨÚ¯Ø±Ø§Úº": 5791,
      "ĠØ¨Ø±Ø³ÙĪÚº": 5792,
      "ĠØ³Ø±Ø²ÙħÛĮÙĨ": 5793,
      "ĠØ¹ÛģØ¯Ûģ": 5794,
      "ĠØ¯Ú¾Ø±ÙĨÛĴ": 5795,
      "ĠÙħÙĨØµÙĪØ±": 5796,
      "ĠÙĪÙĦØ§": 5797,
      "ĠØ¨Ø³ØªÛĮ": 5798,
      "ĠÚ©ÙĪÙĦ": 5799,
      "ĠØŃØ¨": 5800,
      "ÙħÚ©": 5801,
      "Ø¨ÛģØª": 5802,
      "ĠØ§ÙĦÚ©": 5803,
      "Ø³ÙĦÙħØ§ÙĨ": 5804,
      "Ø³Ø±Øª": 5805,
      "Ø§ÙħÛĴ": 5806,
      "ĠÚ©ÙĦÚĨØ±": 5807,
      "ĠØ¹Ø§Ø±Ø¶ÛĮ": 5808,
      "ĠÙħØŃÙĦ": 5809,
      "ĠÙħÙĤØªÙĪÙĦ": 5810,
      "ĠØ´Ø§Ø¦ÙĤÛĮÙĨ": 5811,
      "ĠP": 5812,
      "ĠØ§Ø³ØªÙģ": 5813,
      "Ø¨Ø§Ø¯ÙĦ": 5814,
      "Ø¦ÛĮÙĨ": 5815,
      "ĠÙħÛĮÚ©": 5816,
      "ĠÙĦÚĳÚ©ÛĮÙĪÚº": 5817,
      "ĠÙĪØµÙĪÙĦÛĮ": 5818,
      "Ú¯Ú¾": 5819,
      "ĠÚ©Ø§Ø´ØªÚ©Ø§Ø±": 5820,
      "ĠØ§ØŃØªÛĮØ§Ø·": 5821,
      "ĠÙĦØ§ØŃÙĤ": 5822,
      "Ø¹Ú©Ø³": 5823,
      "ĠØªØ±Ø¬ÛĮØŃØ§Øª": 5824,
      "ĠA": 5825,
      "ĠÙ¾ÛĮØ±ÙĪÛĮ": 5826,
      "ĠØ³Ø¬Ø§Ø¯": 5827,
      "ĠÚ©ÙħÙ¾ÙĦÛĮÚ©Ø³": 5828,
      "ĠØŃØ²Ø¨": 5829,
      "ĠÚ©Ø±ÙĪØ§Ø¦ÛĴ": 5830,
      "ĠØ¨Ø§Ø±Ø´ÙĪÚº": 5831,
      "ĠÙĨØ§ÙħÙĪÚº": 5832,
      "Ø²Ø§Ø±": 5833,
      "ĠÛĮÙĨ": 5834,
      "ĠÛ·Û": 5835,
      "ĠÙ¾Ø±ÙĪØ¬": 5836,
      "ĠÙ¾Ø§Ø³Ù¾ÙĪØ±Ù¹": 5837,
      "ĠÙ¾Ø±Ø§Ù¾": 5838,
      "ĠÚ©Ø§ÙĦØ¬Ø²": 5839,
      "ĠØ¹Ø±Ø¶": 5840,
      "ĠÙĨÙĪØ§Ø²Ø§": 5841,
      "ĠÙĪØ±Ú©Ø´Ø§Ù¾": 5842,
      "ÙĪØ´ÛĮ": 5843,
      "ĠÙĦÛĮØ³": 5844,
      "ĠÚ©ÙħØ±ÛĴ": 5845,
      "Ø´ÛĮØ¦Ø±": 5846,
      "ĠØ³ÙĪÙħ": 5847,
      "Ø§Ø±ÛĮÛģ": 5848,
      "Ø´Ø§Øª": 5849,
      "ĠØ®ÙĪØ±Ø´ÛĮØ¯": 5850,
      "Ø¶Ø¨": 5851,
      "ÙĦÙĤÛģ": 5852,
      "ĠØ§ÙĨÙĤÙĦØ§Ø¨": 5853,
      "Ø¦ÙĪÚº": 5854,
      "ÙĦÛĮÙĪÚº": 5855,
      "ĠØ¹Ø§Ø¯Øª": 5856,
      "ÛĮØ²": 5857,
      "ĠÙħØ®ØªØ§Ø±": 5858,
      "ĠØ¨ÛĮÙĦÙ¹": 5859,
      "ĠÙħØµØ±": 5860,
      "ĠÙĨÙĤØ§Ø¨": 5861,
      "Ø¨ØªØ§": 5862,
      "ĠØ§ÙĨÙĪÛĮ": 5863,
      "ĠØŃÚ©ÛĮÙħ": 5864,
      "ĠÙĪØ§Ø¦Ø±ÙĦ": 5865,
      "ĠÚ¯ÙĪØ¬Ø±Ø§ÙĨÙĪØ§ÙĦÛģ": 5866,
      "ÚĨÛĮÙĨ": 5867,
      "ĠØ¯ÛĮÚ©Ú¾ÛĮ": 5868,
      "ĠØ³ÙģØ§Ø±ØªÛĮ": 5869,
      "ÙĪÙĨÛĮÙĪØ±Ø³Ù¹ÛĮ": 5870,
      "ĠØ¨Ø§Ø¤": 5871,
      "ĠÙħØ§Ø¦ÛĮÚ©": 5872,
      "ÙĤÛĴ": 5873,
      "ĠÚ¯ÙĪÙĦÛĮØ§Úº": 5874,
      "ĠÙħØµÛĮØ¨Øª": 5875,
      "ĠØ¨Ø¬Ù¹": 5876,
      "ĠØªØ¹Ø²ÛĮØª": 5877,
      "ĠØ§ØµÙĪÙĦÙĪÚº": 5878,
      "ĠÙĦÛĮÙĨ": 5879,
      "ĠÚ©Ù¾Ø§Ø³": 5880,
      "ĠØ³Ù¾Ø±Ø¯": 5881,
      "ĠØ´Ú©ÛĮÙĦ": 5882,
      "ĠØºØ°Ø§": 5883,
      "ĠÚ©Ù¾ÚĳÛĴ": 5884,
      "ĠÙħØ§ØŃÙĪÙĦÛĮØ§ØªÛĮ": 5885,
      "ĠÙĪØ±ÙĨÛģ": 5886,
      "Ø§ÙĨÛģÙĪ": 5887,
      "Ø¯Ø¨Ø¦ÛĮ": 5888,
      "ĠØ¬Ú¾Ù¹": 5889,
      "ĠÚ©ÙĦÙĪÚ¯Ø±Ø§Ùħ": 5890,
      "Ù¾ÙĨÛĮØ§Úº": 5891,
      "Ø¬Ø§Ø±ÛĮ": 5892,
      "Ġ198": 5893,
      "ĠÚ¯ÛģØ±": 5894,
      "ĠÙĪØ§Ø±Ø«": 5895,
      "ĠØ´ÙĪÙĤ": 5896,
      "ĠØ§ÙĨØ¯Ú¾ÛĮ": 5897,
      "ĠÙ¹ÙĪØ¦ÙĨÙ¹ÛĮ": 5898,
      "ĠÛĮØ§Ø³ÛĮÙĨ": 5899,
      "ĠØ®ØµÙĪØµØ§": 5900,
      "Ø¨ÙĦØ§": 5901,
      "ØŃØ§Ø¯Ø«": 5902,
      "ÚĳÚ¾ÛĮ": 5903,
      "ĠØ§ÙĪØ³Ø·": 5904,
      "ĠÙħØŃØ³ÙĨ": 5905,
      "ĠÚĪØ±Ø§ÙħÛģ": 5906,
      "ĠÙħÙĪÛĮ": 5907,
      "ĠØ¯Ø±Ø§Ø²": 5908,
      "ĠÙĨØ§Ø®": 5909,
      "ĠÛģÛĮØ±ÙĪ": 5910,
      "ĠØ±Ø¬ØŃØ§ÙĨ": 5911,
      "ĠÛĮØ¹ÙĤÙĪØ¨": 5912,
      "ĠÚĨÚ¾Ø§Ù¾ÛĴ": 5913,
      "ĠØ§Ù¹Ú©": 5914,
      "ĠÙ¾ØªØ§": 5915,
      "ĠØ¢Ø±ÚĪØ±": 5916,
      "ĠÚ©Ø§Ù¾Ù¹Ø±": 5917,
      "ĠØ¯ÛĮÚ©Ú¾ÛĴ": 5918,
      "ĠÙ¾Ø³ØªÙĪÙĦ": 5919,
      "ĠØªØ±Ø¬ÙħÛģ": 5920,
      "ĠØ³Ø²Ø§Ø¦ÛĴ": 5921,
      "ĠØ¨Ø±Ø¹Ú©Ø³": 5922,
      "ĠØ¬ØªÙĨÛĮ": 5923,
      "ĠÙħØ³ÛĮØŃ": 5924,
      "Ø³ÙĨÚ¯": 5925,
      "Ø³ÛĮØ§Ø³ÛĮ": 5926,
      "ĠÚ©ÛĮÙħÙ¾Ø³": 5927,
      "ĠÚĨÚ¾ÙĪÚĳÙĨÛĴ": 5928,
      "ĠÚĨÛĮÙĦÙĨØ¬Ø²": 5929,
      "Ø§Ø¯Ø§Ú©Ø§Ø±Ûģ": 5930,
      "ĠÙģØ¶Ø§": 5931,
      "Ø§Ø¦Ù¹Ø³": 5932,
      "ĠÚ¯Ø§Ø¦ÙĪÚº": 5933,
      "ĠØ§ÛĮØ¬ÙĨÚĪÛĴ": 5934,
      "ĠØ¹Ø§ØµÙħ": 5935,
      "ĠÙħÙĤØ¯Ø³": 5936,
      "ĠÙĨÙĪØ§ØŃÛĮ": 5937,
      "ĠÛĮÙĪØªÚ¾": 5938,
      "Ø§ÙħÛĮÙĨ": 5939,
      "ĠÙħØ±Ø¨": 5940,
      "ĠØŃØµÙĪÚº": 5941,
      "ĠÙ¾ÚĳÚ¾ÙĨÛĴ": 5942,
      "ĠÛģØ¬Ø±Øª": 5943,
      "ØµÛĮØ¨": 5944,
      "ĠÙħÙĦÛĮÚº": 5945,
      "Ø§ÛģØªÙħØ§Ùħ": 5946,
      "ĠØ³Ú©ÙĪØ±": 5947,
      "ĠÙģÙĦØ§ØŃÛĮ": 5948,
      "ĠÙ¾Ø³ÙĨØ¯ÙĪÚº": 5949,
      "ĠØ®Ø§": 5950,
      "ÙħÙĤØ§ÙħÛĮ": 5951,
      "ĠÚ¯ÚĳÚ¾": 5952,
      "ÚĨÙĨØ§ÚĨÛģ": 5953,
      "ĠØ¹Ø§Ø¯ÙĦ": 5954,
      "ÙĪÙħØ§": 5955,
      "ĠØ³ÙĨØ¬ÛĮØ¯Ûģ": 5956,
      "ĠØ´Ø§Ù¾": 5957,
      "ĠÙħÙĨÛĮØ¬Ø±": 5958,
      "Ù¹Ø±Ú©ÚĨØ±": 5959,
      "Ø§ÙģØºØ§ÙĨ": 5960,
      "Ø¯ÙĪØ³Ø±ÛĴ": 5961,
      "ÙĦØ§Ú©": 5962,
      "ĠÙĪÙ¹": 5963,
      "ĠØ¯Ø±ÛģÙħ": 5964,
      "Ø³Ø±Ø¯Ø§Ø±": 5965,
      "Ù¾Ù¹": 5966,
      "ĠÙħØ´Ú©ÙĪÚ©": 5967,
      "ĠØ¹Ø±ÙĪ": 5968,
      "ĠØ§Ø³ØªØº": 5969,
      "Ø¬ÙĨØ±ÙĦ": 5970,
      "ĠØ§Ø³Ø§Úº": 5971,
      "ĠØ§Ø±Ø³Ø§ÙĦ": 5972,
      "ĠÙĦÛĮØ¨Ø±": 5973,
      "ĠÙģÙĪØ¬ÛĮÙĪÚº": 5974,
      "ĠÙĤØ±Ø¶ÛĴ": 5975,
      "ĠÙģÙĪØ§Ø¦Ø¯": 5976,
      "ĠÙĪØ§Ø¦Ø±": 5977,
      "Ú©Ø§ÙĦ": 5978,
      "ÙĨØ¯Ú¯Ø§ÙĨ": 5979,
      "ĠÙĦÚ¯Ø§Ø¦ÛĮÚº": 5980,
      "Ø§Ø¢": 5981,
      "ĠÙ¾Ø§Ùħ": 5982,
      "ĠÙģØ¹ÙĦ": 5983,
      "ĠØ¨ÙĨØªØ§": 5984,
      "Ø§Ø²ÙħÛĮÙĨ": 5985,
      "ĠÚĪØ§ÙĦØ±Ø²": 5986,
      "ĠØ§Ø¯Ø§Ú©Ø§Ø±ÛĮ": 5987,
      "ĠØ¨Ø±Ø§ÙĨÚĨ": 5988,
      "ĠÙ¹Ø±Ø§Ø¦ÙĦ": 5989,
      "ÙħÛĮÙĨÛģ": 5990,
      "ĠØ³Ú©ÙĪÙĨ": 5991,
      "ĠØ§ÙĦØ³": 5992,
      "ĠØªÙĨÙĪÛĮØ±": 5993,
      "Ø§Ø³Ù¾": 5994,
      "Ùĸ": 5995,
      "ÙĤØ±ÛĮØ¨": 5996,
      "ĠØ¨ÙĨØªÛĮ": 5997,
      "ÙģÙĪØ±": 5998,
      "ĠØŃØ§ÙĦØ§ÙĨÚ©Ûģ": 5999,
      "Ø´ÛģØ¨Ø§Ø²": 6000,
      "ØŃÙĤÛĮÙĤØª": 6001,
      "ĠØ¯Ø§Ø¦Ø±Ûģ": 6002,
      "ĠÙĦÛĮÙģ": 6003,
      "ĠØ¨ÙĪØª": 6004,
      "ÙĨÙĪØ§ÙĨ": 6005,
      "ĠØµÙĦ": 6006,
      "ÛĮÙĨÙ¹": 6007,
      "ĠØªØ±Ø¬ÛĮØŃÛĮ": 6008,
      "ĠÛģÙĪØ§Ø¦ÛĮ": 6009,
      "ĠØ§Ø³ØªÙģØ§Ø¯Ûģ": 6010,
      "Ø§ÙĨØµØ§Ùģ": 6011,
      "ĠÚĨÚ¾Øª": 6012,
      "Ø§Ú©ÙĨÚĪ": 6013,
      "ĠØ¯Ø±ÛĮØ§Ø¦ÛĴ": 6014,
      "ĠÙĪØ±Ø²": 6015,
      "ĠØ¬ÙħÛģÙĪØ±ÛĮØª": 6016,
      "ÙģÛĮØ¹": 6017,
      "ĠS": 6018,
      "ĠØªØ§Ø¦ÛĮ": 6019,
      "ĠØªÙĦØ§": 6020,
      "ĠØ³Ø¬Ø¯Ûģ": 6021,
      "Ġ63": 6022,
      "ØŃØ±": 6023,
      "ĠÙħØ§ÛģÛĮ": 6024,
      "ĠÙħØªØ¨Ø§Ø¯ÙĦ": 6025,
      "ĠØ¬Ø°Ø¨ÛĴ": 6026,
      "ĠØ¢Ø±ÛģØ§": 6027,
      "ĠØªØ¹ÙħÛĮØ±Ø§Øª": 6028,
      "ĠØ¬ÛĮÙĦÙĪÚº": 6029,
      "ĠÚ©Ø§Ú©Úĳ": 6030,
      "Ø±ÛĮØ§Úº": 6031,
      "ĠÙħØ²Ø¯ÙĪØ±": 6032,
      "ÙĨØ§Ø¯": 6033,
      "ĠÙħÙĦØŃ": 6034,
      "ĠÙĨØµÙģ": 6035,
      "ĠÙģÛĮØ¶": 6036,
      "ĠØ¨Ú¾Ú¯Øª": 6037,
      "ÙĤØ§ÙĨÙĪÙĨ": 6038,
      "ĠØ®Ø§ÙĨØ¯Ø§ÙĨÙĪÚº": 6039,
      "ĠÙħØ³Ø§Ø¬Ø¯": 6040,
      "ĠÚĪØ§ÙĦÛĴ": 6041,
      "Ġ500": 6042,
      "ĠØªØ±ØªÛĮØ¨": 6043,
      "ĠÚ¯ÙĨØ§": 6044,
      "ĠÙĦØ§ÚĳÚ©Ø§ÙĨÛģ": 6045,
      "ĠÙħØ±ØªØ¶ÛĮ": 6046,
      "Ġ)ØĮ": 6047,
      "ĠØ°Ø±Ø§": 6048,
      "ĠØ¯Ú©Ú¾Ø§ÙĨÛĴ": 6049,
      "ĠÚĪÙĪÛĮÚĺÙĨÙĦ": 6050,
      "ĠØ·ÛĮØ§Ø±Ûģ": 6051,
      "ĠÙ¹ÛĮÚ©Ø³Ù¹": 6052,
      "ĠØ±ØŃÙħØ§ÙĨ": 6053,
      "ĠÙĨØ³ÛĮÙħ": 6054,
      "ĠØ¢Ø±Ù¹ÛĮÚ©ÙĦ": 6055,
      "ĠØ®Ø§ÙĤØ§ÙĨ": 6056,
      "ĠØ¹Ø¨Ø±": 6057,
      "ĠÚ©Ø³Ø§ÙĨÙĪÚº": 6058,
      "ĠÙģØ§Ø±Øº": 6059,
      "ĠÙħØ´ÙĤ": 6060,
      "ĠØªÙģØªÛĮØ´ÛĮ": 6061,
      "ÙĪÙĨÙĦ": 6062,
      "ĠØ³ÛĮØ§ÙĦÚ©ÙĪÙ¹": 6063,
      "ĠÙ¾Ø±Ø¯Ûģ": 6064,
      "ĠØ´ÙħØ§Ø±ÛĮ": 6065,
      "ĠÚ©ÙħÙ¾ÙĨÛĮØ§Úº": 6066,
      "ĠØ§ÙĦØ´": 6067,
      "ĠØ¨ÚĨÚ¾": 6068,
      "ĠÙħÙħÙĨ": 6069,
      "Ø¨Ø±ÛĮ": 6070,
      "ĠÙħØ²Ø¯ÙĪØ±ÙĪÚº": 6071,
      "Ú¯Ø°": 6072,
      "Ġ62": 6073,
      "ĠØ³Ø§Ø¦ÙĨ": 6074,
      "ĠØ²Ø¯Ûģ": 6075,
      "ĠØ°ÛģÙĨ": 6076,
      "ÙĪÙ¹ÙĪ": 6077,
      "ĠÙĤÙĪÙĨØµÙĦ": 6078,
      "ĠÙĨØ¸ÛĮØ±": 6079,
      "ĠØªÛĮØ±ÛĴ": 6080,
      "ĠÙĪØ§ÙħØ§ÙĨ": 6081,
      "ÚĨÙĪÚº": 6082,
      "Ø¨ÙĦÙĪÚĨ": 6083,
      "Ø·Ø±ÙģÛģ": 6084,
      "ĠØªÙĦÛĴ": 6085,
      "ÙģÛĮØ¯": 6086,
      "ĠØ¶Ø¨Ø·": 6087,
      "Ġ64": 6088,
      "ĠÛ¸Û": 6089,
      "ĠØ±Ø§ØŃÛĮÙĦ": 6090,
      "ĠÙĦÙĤ": 6091,
      "ĠÛĮØªÛĮ": 6092,
      "ÛĮÙĤ": 6093,
      "ĠØ¨Ø¯ÙĨ": 6094,
      "ĠØ®ÙĪØ±Ø¯": 6095,
      "ĠÚ©ÚĳÛĮ": 6096,
      "ĠÙ¾ÙĦÛĮ": 6097,
      "Ø³Ù¾Ø±ÛĮÙħ": 6098,
      "ĠØ¨ØŃØ±ÛĮ": 6099,
      "ĠØ¨Ø´Ø§Ø±Øª": 6100,
      "ĠÙħÙĪÛĮØ´ÛĮ": 6101,
      "ĠØ³Ø±Ú¯Ø±ÙħÛĮØ§Úº": 6102,
      "ĠÙħØ¶Ø±": 6103,
      "ĠØ³ÙĨÙ¹": 6104,
      "ĠØŃÙĨÛĮÙģ": 6105,
      "Ø§Ø¹Ø¯": 6106,
      "ĠØ®ÙĪØ§ÙĨÛĮ": 6107,
      "ĠØ§ÛĮØ§Ø²": 6108,
      "ĠÙħØ§ÛģØ§ÙĨÛģ": 6109,
      "ĠØ¯Ø±ÛĮØ§": 6110,
      "ĠØŃØ§ÙħÛĮ": 6111,
      "âĢ¤": 6112,
      "ĠÚ©Ø§ÙĪØ´ÙĪÚº": 6113,
      "ĠØ±Ø§Ø¶ÛĮ": 6114,
      "ĠÚ©ÛģÛĴ": 6115,
      "ĠÙħÛģØ§Ø±Øª": 6116,
      "ĠØ¯ÛĮØ¯ÛĮØ§": 6117,
      "ÙĨÛĮÙĪÛĮØ§Ø±Ú©": 6118,
      "ĠÚ©Ø§Ø³Ù¹": 6119,
      "ĠØµÙģØª": 6120,
      "ĠØ§Ø´ØªØ±": 6121,
      "Ø«ÙĪÙħ": 6122,
      "ĠÙĨÙģØ±ÛĮ": 6123,
      "ĠÙ¾Ø§Ø¦ÙĦ": 6124,
      "ĠÙħØ·ÙĦÙĪØ¨Ûģ": 6125,
      "Ġ42": 6126,
      "ĠØ±Ø¶ÙĪØ§ÙĨ": 6127,
      "ĠÚĪÛĮØ²Ø§Ø¦ÙĨ": 6128,
      "ÙħÙĪØ¬ÙĪØ¯Ûģ": 6129,
      "ĠØ§ÙĪÙĨÙ¹": 6130,
      "ĠÚ¯ÛģØ±ÛĴ": 6131,
      "ØŃØ³ÙĨ": 6132,
      "ĠØ¯ÛĮØ´": 6133,
      "ĠØŃØ¬Ùħ": 6134,
      "Ø¹ÙĪ": 6135,
      "ĠØªÛĮÙħ": 6136,
      "Ø§Ø±ÙĨÛĮ": 6137,
      "ĠØ¯ÙĪÙ¾ÛģØ±": 6138,
      "ĠØ®ÙĦÛĮÙĦ": 6139,
      "Ø§Ø¦ÙĪÙĨÚĪÛĮØ´ÙĨ": 6140,
      "Ġ300": 6141,
      "ĠÚĪÛĮÙģÙĨØ³": 6142,
      "ĠØ§Ø¬Ø±Ø§Ø¡": 6143,
      "ĠÙħØ¯ÙĨØ¸Ø±": 6144,
      "ĠØ¬Ø¬Ø²": 6145,
      "Ø¹Ø¨Ûģ": 6146,
      "Ø±ÙĪØ§Úº": 6147,
      "Ù¹ÛĮÙĦ": 6148,
      "ĠØ¯Ú©Ú¾Ø§ÛĮØ§": 6149,
      "Ġ53": 6150,
      "ĠÚ¯Ø±ÙħÛĮ": 6151,
      "ĠØ¯ÛĮÛģ": 6152,
      "Ø²ÛĮÛģ": 6153,
      "Ù¹ÙĪØ±ÙĨØ§ÙħÙĨÙ¹": 6154,
      "ĠÙĤØ¨Ø±Ø³ØªØ§ÙĨ": 6155,
      "ĠØ§Ø³Ù¹Ø±ÛĮÙ¹": 6156,
      "ĠÙħØ°Ú©ÙĪØ±": 6157,
      "ĠÙĤØ§Ùģ": 6158,
      "ĠÙħØŃÚ©ÙħÛĴ": 6159,
      "ĠØ§Ú©ÛĮÚĪÙħÛĮ": 6160,
      "ĠÚ¯ÙĨØªÛĮ": 6161,
      "ĠØ³Ø±Ø¬": 6162,
      "ĠØ°ÛĮÙĦ": 6163,
      "ĠØ±Ø³ÙĪÙĦÙĪÚº": 6164,
      "ĠØ´Ø§ÙĨÛģ": 6165,
      "ĠØ¨ÙĨØ¯ÛĴ": 6166,
      "ĠØ§ÙģØ·": 6167,
      "ĠÚĨØ¦ÛĮØ±ÙħÛĮÙĨ": 6168,
      "ÙĪØ§Ø¡": 6169,
      "ĠÙĦØ§Ø¦ØŃÛģ": 6170,
      "ĠÚ¯ÛĮÙħØ²": 6171,
      "Ø´ÙĨØ²": 6172,
      "ĠØ±ÛĮØ§Ø¶": 6173,
      "ÙĨØ¯Ú¯ÛĮ": 6174,
      "ĠÙ¹Ø±ÛĮÚĪ": 6175,
      "ĠÙĨÙģÛĮ": 6176,
      "ĠÚ©Ú¾Ø§Ø¯": 6177,
      "Ù¾Ú¾": 6178,
      "ĠØ³ÛĮÙĨÙ¹Ø±ÙĦ": 6179,
      "ĠÙĨØ§Ø±Ø§Ø¶": 6180,
      "ĠÙħØ´Ø±ÙĤ": 6181,
      "ĠØ±ÛĮÚ¯ÙĪÙĦÛĮ": 6182,
      "Ø³ÛĮÚ©Ø±Ù¹Ø±ÛĮ": 6183,
      "ĠÙ¾Ø§ÙĨØ§ÙħØ§": 6184,
      "ĠÙģØ§Ø³Ù¹": 6185,
      "ĠÙģØ§": 6186,
      "ĠØ²Ø¯": 6187,
      "Ú©ÙĪÙĨ": 6188,
      "ĠØ³Ø§ÙĨØ³": 6189,
      "ĠÚ¯ÙĦÛĴ": 6190,
      "Ø´ÛĮØ±": 6191,
      "Ø¦ÙĦ": 6192,
      "ĠÙģØ§Ø·": 6193,
      "ĠÙħØ´ÛĮÙĨØ±ÛĮ": 6194,
      "ĠÚ©Ø¨ÛĮØ±": 6195,
      "ĠÙħÙĦØªØ§ÙĨ": 6196,
      "ĠØ²ÙĦØ²ÙĦÛĴ": 6197,
      "ĠÙħØ§ÙĨÙĨÛĴ": 6198,
      "ĠÚ©Ø±Ø§Ø¦ÛĮÚº": 6199,
      "Ù¾Ø§ÙĦ": 6200,
      "ÙĪØ¨Ú©Ø±": 6201,
      "ĠØ³ÛĮØ§ØŃÙĪÚº": 6202,
      "ĠØ¯Ø±Ø¬ÛĴ": 6203,
      "ĠØ§ÙĨØ¬ÛĮÙĨØ¦Ø±ÙĨÚ¯": 6204,
      "ĠÙĦÛĮÙĪÙĦ": 6205,
      "ĠÙĦÙĦ": 6206,
      "ĠÙħÙĪÚĳ": 6207,
      "ĠØ¨Ø§ÙĦÙĪÚº": 6208,
      "ĠØ¯Ú¾ÙħØ§Ú©Ûģ": 6209,
      "ĠØ´Ø§ÛģÛĮÙĨ": 6210,
      "Ø¹Ø±Ø¨": 6211,
      "ĠØ¯ÛģØ´ØªÚ¯Ø±Ø¯ÙĪÚº": 6212,
      "Ø§Ø¦ÛĮØ±": 6213,
      "ĠØªØŃØ±ÛĮØ±": 6214,
      "ÙħÚ©ÙĨ": 6215,
      "ĠÙħÛĮÙĪØ²": 6216,
      "ĠØ§ÙĪÙĪØ±Ø²": 6217,
      "ĠÙħØ¯Ø§ØŃÙĪÚº": 6218,
      "ÙĨØ¹": 6219,
      "Ø§Ø¨Ú¾ÛĮ": 6220,
      "ĠØ§Ù¹Ú¾Ø§Ø¦ÛĮÚº": 6221,
      "ÚĨØ±Ø²": 6222,
      "ĠØªØµØ§Ø¯Ùħ": 6223,
      "ĠÙħØ±Ø¯Ûģ": 6224,
      "ĠÙ¾ÙĪØ¯ÙĪÚº": 6225,
      "ĠÙĤØ§Ø¦ÙħÛģ": 6226,
      "ĠÙĦØ§Ù¾ØªÛģ": 6227,
      "Ø¹ÙģÛĮ": 6228,
      "ĠØ±ÛĮØ¬ÙĨÙĦ": 6229,
      "ĠØ²ÛĮØ±Ø§ÛģØªÙħØ§Ùħ": 6230,
      "Ø¢Ø¦ÙĨØ¯Ûģ": 6231,
      "ĠÙĦÙĨÚ©Ø§": 6232,
      "ĠI": 6233,
      "ĠØ§Ø±Øª": 6234,
      "ÙħØ¦ÙĨ": 6235,
      "ĠØŃÙħÛĮØ¯": 6236,
      "ĠØ¨ÙĦÚĪÙĨÚ¯": 6237,
      "ĠÙħØ±Ø§ØŃÙĦ": 6238,
      "ĠØ±Ùģ": 6239,
      "ĠØ´Ø±ÙħØ§": 6240,
      "ĠÚ©Ø±Ú©": 6241,
      "Ø§Ø³Ø¯": 6242,
      "ØªÛĮÙĨ": 6243,
      "Ø¢ÙģÛĮØ³Ø±": 6244,
      "ĠÙħÙĦØ§ÙĤØ§ØªÛĮÚº": 6245,
      "ĠØ¨Ø§Ø²Ø§Ø±ÙĪÚº": 6246,
      "ĠØŃØµØµ": 6247,
      "ĠØ¯Ú©Ú¾Ø§": 6248,
      "Ø·Ùģ": 6249,
      "ÙĪÙĨØ¯": 6250,
      "ĠØŃÚ©ÙħØ±Ø§ÙĨÛĮ": 6251,
      "ĠØ³ÛĮÚ©Ú¾": 6252,
      "ÙĪÙ¹ÙĨÚ¯": 6253,
      "ĠØ§ÙĦØªÙĪ": 6254,
      "ĠØ¨Ø§Ø±ÚĪØ±": 6255,
      "ĠÚ¯ÙĪØ§ÛģÛĮ": 6256,
      "ĠÙĪÚ©": 6257,
      "âĢ¦": 6258,
      "ĠØ§ÙģØªØªØ§ØŃÛĮ": 6259,
      "ĠÚ©ÙħØ§ÙĨÚĪ": 6260,
      "Ø§ÛĮÙĪÚº": 6261,
      "ĠÙ¹ÙĪÛĮÙ¹": 6262,
      "ĠÙħØ±ÙħØª": 6263,
      "ĠÙ¾Ø±ÙĪÚĪ": 6264,
      "ĠØ±ÛĮÙ¹Ø±ÙĨÙĨÚ¯": 6265,
      "ĠÚ¯ÛģØ±ÛĮ": 6266,
      "Ø´Ø§ÛģØ¯": 6267,
      "ĠØªÙĨØ®ÙĪ": 6268,
      "Ø³ÛģØ±Ûģ": 6269,
      "ĠÙ¾ÙĪØ±Ûģ": 6270,
      "ĠØ¬ÙħÙĦÛģ": 6271,
      "ĠØ«ÙĨØ§Ø¡": 6272,
      "ĠØ§ÙĨÙ¹ÛĮÙĦÛĮ": 6273,
      "ĠÚ©ÛĮØ±": 6274,
      "ĠÙħÙĪØ¯ÛĮ": 6275,
      "ĠØ§ÙĨÛĮØ³": 6276,
      "ÙĨØ¬ÛĮ": 6277,
      "Ø®ÙĪØ§Ø¬Ûģ": 6278,
      "ĠØ¨Ø±Ø§Ø¦ÛĮ": 6279,
      "ĠØ³Ø±Ø¨Ø±Ø§ÛģØ§ÙĨ": 6280,
      "ĠÙħØ¸ÛģØ±": 6281,
      "ĠÙĨÛĮØ²": 6282,
      "ĠÙģØ±Ø§ÙĨØ³": 6283,
      "ĠÙĦÚĳÚ©ÛĴ": 6284,
      "ĠØ¢Ø¨ÛĮ": 6285,
      "ĠØ³Ø±Ú©ÙĦ": 6286,
      "ĠØ¨ÙĦÛĮ": 6287,
      "ĠÙĦÙĪÚ©ÙĦ": 6288,
      "ĠØªØ¹ÙĦÛĮÙħØ§Øª": 6289,
      "ÙĪØ§Ø±ÛĮ": 6290,
      "ĠÚĨÙĪØªÚ¾ÛĴ": 6291,
      "ĠØ®ÙĦØ§": 6292,
      "ĠÙĨÙĤØ¯ÛĮ": 6293,
      "ĠÙĨØ§ÙĨ": 6294,
      "ĠØ¬ÙĨÙħ": 6295,
      "ÙħÙ¹": 6296,
      "ÙĪÚĳØ§": 6297,
      "ĠÙ¾Ù¹Ø±ÙĪÙĦ": 6298,
      "Ġ49": 6299,
      "Ġ54": 6300,
      "Ø³Ú©Ú¾Ø±": 6301,
      "Ú¯ÙĪØ±ÙĨ": 6302,
      "ØªØ±Ø§ÙĦ": 6303,
      "ĠØ§ÙĦÙĨØ§Ø³": 6304,
      "ÙħØ³Øª": 6305,
      "Ġ56": 6306,
      "ÙĨØ¨ÛĮ": 6307,
      "Ø§Ø¯ÛĴ": 6308,
      "ĠØ¨ÙĦØ§ÛĮØ§": 6309,
      "ÙģÙĨ": 6310,
      "Ø´Ø§Ùħ": 6311,
      "ĠÙĤØ§Ø±ÛĮ": 6312,
      "ĠØ¬ÙĪÙĨÛĮ": 6313,
      "ĠÛģÙ¹Ø§ÙĨÛĴ": 6314,
      "ĠÙĦØ¹ÙĨØª": 6315,
      "ĠØŃØ³Ø¨": 6316,
      "Ø¶ÙħØ§Ùħ": 6317,
      "ĠØ§Ø³Ù¹ÛĮØ´ÙĨØ²": 6318,
      "ĠÙĨÙģØ¹": 6319,
      "ĠÙģÛĮØ§Ø¶": 6320,
      "ĠÙĦÚ©Ú¾ÛĴ": 6321,
      "ĠÙħØ¹Ø°ÙĪØ±": 6322,
      "Ø§Ø´ÙĤ": 6323,
      "ĠÙĤÙĦØ¨": 6324,
      "ĠØ§Ø¨ÙĪØ¨Ú©Ø±": 6325,
      "ĠÚĨÙħÚĨ": 6326,
      "ÙħØ¸ÙģØ±Ø¢Ø¨Ø§Ø¯": 6327,
      "ĠÙħÙĨØ¸Ùħ": 6328,
      "ĠØ¨ÙĦÛĮÙĨ": 6329,
      "Ø§Ø¨ÙĪ": 6330,
      "ĠÚ©ØªÙĨÛĮ": 6331,
      "ĠÛģØªÚ¾": 6332,
      "Ú©Ø±Ú©": 6333,
      "ĠØ³ÛĮØ²ÙĨ": 6334,
      "ĠØªÙĨØµÛĮØ¨": 6335,
      "ĠÙ¹Ø±ÛĮÙĦ": 6336,
      "ĠÙħØ±ÙĨÛĴ": 6337,
      "ĠØ²ÛģØ±": 6338,
      "ÛĮÙĦÛĮÙĨ": 6339,
      "Ù¾Ø±ÛĮØ³": 6340,
      "Ø³Ù¹ÙĦ": 6341,
      "Ø§ÛĮØ³Ø§": 6342,
      "ĠØ¨ØªØ§ØªÛĴ": 6343,
      "Ø§Ø¯Ú¾Ø±": 6344,
      "ĠÚ©Ø§Ø³": 6345,
      "ĠÙĪÙģÙĪØ¯": 6346,
      "ĠÙ¹ÛĮÚ©Ø³ÛĮ": 6347,
      "ĠÙĨÚĨ": 6348,
      "Ú¯Ø²Ø§Ø±": 6349,
      "ĠØ§ÙĦÙħÙĤ": 6350,
      "Ø³ÙĪÙĦ": 6351,
      "ÙģÙĤÛģ": 6352,
      "ÚĨÛĮÙĨÛĮ": 6353,
      "ĠØ§ÙĨÚ©Ø§": 6354,
      "Ø§Ø´Ø§": 6355,
      "ĠÙ¹Ø±Ø§ÙĨØ³": 6356,
      "ĠÙĦØ¨ÛĮÚ©": 6357,
      "ĠØªÙģØ±ÛĮØŃ": 6358,
      "ĠØ¹ÛģØ¯ÛĮØ¯Ø§Ø±ÙĪÚº": 6359,
      "Ø¨Ø¯": 6360,
      "ĠÙ¾ÛĮØ§Ø±": 6361,
      "ĠØ¨Ø§ØºÛĮÙĪÚº": 6362,
      "ĠØ³Ø±Ø§ÛģØªÛĴ": 6363,
      "ĠØ¢Ø¦Ø±": 6364,
      "Ø´ÛĮØ§Øª": 6365,
      "ĠØ§Ø²Ø§ÙĦÛģ": 6366,
      "ĠØªÙĦØ§ÙĪØª": 6367,
      "ĠØ¢ÙĨÛĮ": 6368,
      "ĠÙħØ±ÚĨ": 6369,
      "ĠØ¨ÛĮÙĨÚ©ÙĪÚº": 6370,
      "ĠÚĨÙĦØ§Ø¦ÛĮ": 6371,
      "ĠØ¨Ø±Ø¨Ø§Ø¯": 6372,
      "Ġ66": 6373,
      "ĠÙ¾Ø´ØªÙĪÙĨ": 6374,
      "ĠØªØ®ÙĦÛĮÙĤ": 6375,
      "Ø§Ø¹Ø§Øª": 6376,
      "ĠØªØ¬Ø²ÛĮÛģ": 6377,
      "ĠÙ¾Ú¾ÙĦÙĪÚº": 6378,
      "ĠØŃØ±ÛĮÙģ": 6379,
      "ĠØ§Ø³ÛĮÚ©ÛĮÙĪÙ¹Ø±": 6380,
      "ÙĪØ§Øª": 6381,
      "ĠØ³ÙĪØ±Øª": 6382,
      "Ø´ÙĨØ§Ú©": 6383,
      "ĠÚ¯Ø²Ø±ÙĨÛĴ": 6384,
      "Ú¯Ø§ÛģÙĪÚº": 6385,
      "ĠØ®ÙĪØ´Ú¯ÙĪØ§Ø±": 6386,
      "Ø§ÙħØ±ÛĮÚ©Ø§": 6387,
      "ĠØ§ÙħÚ©Ø§ÙĨØ§Øª": 6388,
      "ĠØ§ØµØŃ": 6389,
      "ÙħÙĨØª": 6390,
      "ĠØ®Ø³Ø§Ø±Ûģ": 6391,
      "ĠÙ¾Ù¹Ø±ÙĪÙĦÛĮÙħ": 6392,
      "ĠØ¨Ú¾Ú¯": 6393,
      "ĠÙĪØ§ÙĤØ¹ÛĮ": 6394,
      "ĠØ¨Ø§Ø¦ÛĮÚ©": 6395,
      "Ø§Ø±ØªÚ¾": 6396,
      "Ú¯ÙĦÙĨÚ¯": 6397,
      "ĠÙħØ·ÙħØ¦ÙĨ": 6398,
      "ĠÙĪÙĪÙ¹Ø±": 6399,
      "ĠÛģÚĪÛĮ": 6400,
      "ĠÙĦÛĮÚ©Ø³": 6401,
      "ĠØ§ÙĨÚĪÛĮÚ©Ø³": 6402,
      "ĠÙħØ´ØªØ¨Ûģ": 6403,
      "ĠØ²ÙħÛĮÙĨÙĪÚº": 6404,
      "ĠØ¨Ø±ÛĮÚ¯ÛĮ": 6405,
      "ĠØ³ÙħÙĨØ¯Ø±ÛĮ": 6406,
      "ĠØªØ´Ø±ÛĮØŃ": 6407,
      "ĠØ¹Ø¨Ø±Øª": 6408,
      "ĠØ¹ÛģØ¯ÛĮØ¯Ø§Ø±Ø§ÙĨ": 6409,
      "ÛĮÙĪÙĨÛĮÙĪØ±Ø³Ù¹ÛĮ": 6410,
      "Ú¯Ú¾Ø±": 6411,
      "ĠÙ¾Ø±ÛĮØ´Ø±": 6412,
      "ÙĪÛģÛĮ": 6413,
      "ĠÛģÙħØ¯Ø±Ø¯ÛĮ": 6414,
      "ĠÚ©ÚĨÛģ": 6415,
      "ĠÙĨØ¹ÙħØªÙĪÚº": 6416,
      "Ø§Ø¦Ù¾": 6417,
      "ĠØ¨Ø¯ÙĦÛĴ": 6418,
      "ĠÚĨØ§ÙĦØ§ÙĨ": 6419,
      "Ø¯Ø§Ø¡": 6420,
      "Ù¹Ùħ": 6421,
      "ĠØŃØªÛĮ": 6422,
      "ĠÙħØºÙĦ": 6423,
      "ĠØ§Ø«Ø§Ø«ÙĪÚº": 6424,
      "ĠÙħÙĦÚ©Ø±": 6425,
      "Ø§Ø¦ÛĮÙĨÚ¯ÛĴ": 6426,
      "Ø¬Ø§ÙĨÛĴ": 6427,
      "Ú¯Ø±ÛĮÙ¹": 6428,
      "ĠÙ¾Ø±Ø´ÛĮØ¦Ø±": 6429,
      "ĠÙĪÙĤÙĪØ¹Ûģ": 6430,
      "ĠØ¯Ø±Ø³": 6431,
      "ĠØ±ÙĪØ§Ø¨Ø·": 6432,
      "Ø§Ø±ÛģÛĴ": 6433,
      "ÚĪØ§Ø¦": 6434,
      "ĠÙħØ¹Ø§Ø´Ø±Ûģ": 6435,
      "ĠØ®Ø¯Ø´Ø§Øª": 6436,
      "ĠÚ©ÛĮØ¦ÛĴ": 6437,
      "ĠØªØ¨Øµ": 6438,
      "ĠÚ¯Ø±ÙĦØ²": 6439,
      "ĠØ§ÙĦÛĮÙĪÙĨ": 6440,
      "Ø§Ø²ÙĨ": 6441,
      "âĢĺâĢĺÛĶ": 6442,
      "Ù¹ÛĮÙĨÙĨÙ¹": 6443,
      "ĠØ¨Øµ": 6444,
      "ĠØ¢ÚĪÙ¹": 6445,
      "ĠØ®ÙĦÛĮ": 6446,
      "ĠÛģÙ¹Ø§": 6447,
      "ĠØ§Ø«ÙĨØ§Ø¡": 6448,
      "ĠÙħØ²Ø§ØŃÙħØª": 6449,
      "ĠØ¸ÛģÙĪØ±": 6450,
      "ĠØ®Ø§ÙħÙĪØ´ÛĮ": 6451,
      "ĠØ±ÙĪØŃØ§ÙĨÛĮ": 6452,
      "ĠÙĨÚ¯Ø§Ûģ": 6453,
      "Ø®Ø§Øµ": 6454,
      "ĠØ§Ø·ÙĦØ§ÙĤ": 6455,
      "ĠØ³Ø±Ú¯Ø±Ùħ": 6456,
      "Ø§ÙĨØªØ®": 6457,
      "ĠØ³ØªØ±": 6458,
      "ĠØ¨Ø§ÙĨØ¯Ú¾": 6459,
      "ĠÚ©Ú¾ÙĪØ³Ûģ": 6460,
      "ĠØ§Ø´ØªØ±Ø§Ú©": 6461,
      "ĠÛģÙĪØ´": 6462,
      "ĠØ¨ÙĨØ¯Ø±": 6463,
      "ĠØ¬ÛģØ§ÙĨ": 6464,
      "ĠÚ©ØªÙĨÛĴ": 6465,
      "ĠØ´Ø§ÛģÛĮ": 6466,
      "ĠØ§ÙĦÛĮÚ©Ù¹Ø±": 6467,
      "ĠØ¯Ú¾ÙĪÚ©Ûģ": 6468,
      "Ø§Ø³ØªÛģ": 6469,
      "ĠØªØ§Ø«Ø±": 6470,
      "ØµØŃØª": 6471,
      "Ø¨ÛĮØŃ": 6472,
      "Ø²Ø§Ø¡": 6473,
      "ØºÛģ": 6474,
      "ĠØªØ³ÙĦØ³ÙĦ": 6475,
      "ĠÙ¾Ú¾Ø§ÙĨØ³ÛĮ": 6476,
      "ĠÚ©ÙĪØªØ§ÛģÛĮ": 6477,
      "ĠÚ¯ÛĮÙ¹": 6478,
      "Ø±Ø§Ø¦ÛĴ": 6479,
      "ĠÛģÙħØª": 6480,
      "ĠØ³ÙħØ¬Ú¾ØªØ§": 6481,
      "ĠØ¨Ú¾ÛĮØ¬ÙĨÛĴ": 6482,
      "ĠØ³ÛĮÚ©Ø±Ù¹Ø±ÛĮÙ¹": 6483,
      "ĠØ§ÙĦÛĮÚ©Ù¹Ø±Ú©": 6484,
      "ĠØ³ÙħØ¬Ú¾ÙĨÛĴ": 6485,
      "ĠÙ¹Ø±Ø§ÙģÛĮ": 6486,
      "ÙĪØ±Ø§": 6487,
      "ĠØµØ±": 6488,
      "Ø±ÛĮØ¹Ûģ": 6489,
      "ĠØ³Ø§ÙĦÚ¯Ø±Ûģ": 6490,
      "ĠØ³ÛģÙĪÙĦ": 6491,
      "Ø§ÙģÙĦ": 6492,
      "ĠØ±Ú©Ú¾ÙĪ": 6493,
      "ĠØ¹Ø¬ÛĮØ¨": 6494,
      "ĠÙģØ§ÙĦ": 6495,
      "ĠØ³Ù¹Ø§Ú©": 6496,
      "ĠÙĪØ§Ø±ÚĪ": 6497,
      "ĠØ¯Ø±Ø§ØµÙĦ": 6498,
      "ĠØªØ´ÙĪÛĮØ´ÙĨØ§Ú©": 6499,
      "ĠÚĪØ³Ù¾": 6500,
      "ĠÙģØ³Ø§Ø¯": 6501,
      "ĠØ¨ÚĳÚ¾ØªÛĴ": 6502,
      "ĠØµÙģØ§Øª": 6503,
      "ĠØ¹ÙĦØ§ÙħØª": 6504,
      "Ġ57": 6505,
      "ĠØ§ÙĨØ¯Ø±Ø§Ø¬": 6506,
      "ĠÙĨØ¹Ø´": 6507,
      "Ø§ÙĨØªØ¸Ø§Ùħ": 6508,
      "ĠØ¹ÙħØ§Ø±ØªÙĪÚº": 6509,
      "ĠØªÙĨØ§Ø²Ø¹Ûģ": 6510,
      "Ú¯Ø°Ø´ØªÛģ": 6511,
      "ĠØ¹ÙĨØ¯": 6512,
      "ÛĮÙĨÚĪÙĦ": 6513,
      "ĠÛģØªÚ¾ÛĮØ§Ø±ÙĪÚº": 6514,
      "Ø¨Ø§ÙĦÛĮ": 6515,
      "ĠÙħØ§Ø³Ù¹Ø±": 6516,
      "ÙĪÙĨÛĴ": 6517,
      "ĠØ¨ÙĪÙĦÛĮ": 6518,
      "ĠØ¯Ú¾ÙħÚ©ÛĮØ§Úº": 6519,
      "ÙĪØ§ÙĨÛĮ": 6520,
      "ĠØ¯Ú¾ÙĨØ¯": 6521,
      "ĠØ²ÙĦ": 6522,
      "ĠÛģÙģØª": 6523,
      "ÙģØ§": 6524,
      "ĠÙģØ§Ø¦ÙĪÙĨÚĪÛĮØ´ÙĨ": 6525,
      "ĠØ¢ÛĮØªÙĪÚº": 6526,
      "ØĴ": 6527,
      "ĠÙħÙĪÙĪÙħÙĨÙ¹": 6528,
      "ĠØ¬ØªÙĨØ§": 6529,
      "ĠØªØŃÙĪÛĮÙĦ": 6530,
      "ĠÚ©Ú¾ÙĪÙĦÙĨÛĴ": 6531,
      "ÙĪÚ©ÛĮ": 6532,
      "ĠÚ¯ÙħØ±Ø§ÛģÛĮ": 6533,
      "ÙĪÙĨÚ©": 6534,
      "ÙģÙĪÚĪ": 6535,
      "ĠØ§Ø´ÛĮØ§": 6536,
      "Ø§ÙĨÙ¹Ø±": 6537,
      "ĠØ¢ÙĨØŃØ¶Ø±Øª": 6538,
      "ĠÚ©ÛĮØ±ÛĮØ¦Ø±": 6539,
      "ĠØ¯Ø¹ÙĪ": 6540,
      "ĠØ¯Ø´ÙħÙĨÛĮ": 6541,
      "ĠÙ¾Ø§Ø±Ú©ÙĨÚ¯": 6542,
      "Ù¾ÙĪØ±Ûģ": 6543,
      "ĠÙģÛĮÚĪØ±": 6544,
      "ĠØ±Ø¹Ø§ÛĮØª": 6545,
      "ĠÙĦÙħØ¨": 6546,
      "ĠØ¨ØŃØ±": 6547,
      "ĠÚ©Ú¾Ø§ØªÛĴ": 6548,
      "ĠÚĪØ§ÙĦÛĮÚº": 6549,
      "ĠØ¬ÙĪØ§Ø²": 6550,
      "Ú¯Ø±ÙĪ": 6551,
      "ĠÚĨÚ¾ÛĮ": 6552,
      "Ú¯Ø±ÙģØª": 6553,
      "Ø§Ø¹ÛĮ": 6554,
      "ĠØ±Ø§Ø¨Ø·ÙĪÚº": 6555,
      "ĠÚ¯Ø§ÙĨÛĴ": 6556,
      "Ġ:ÛĶ": 6557,
      "ĠØ³ÛĮÙĨÙ¹ÛĮ": 6558,
      "Ø³ÛĮÛģ": 6559,
      "Ø§Ù¾ÙĪØ²ÛĮØ´ÙĨ": 6560,
      "Ù¾ÛĮÙ¹": 6561,
      "ĠÙħÚĨÚ¾ÙĦÛĮ": 6562,
      "Ø§Ø¨Ø±ÛĮ": 6563,
      "ĠØ§ÙĦØ¨ØªÛģ": 6564,
      "ĠÙħØ¸ÙĦÙĪÙħ": 6565,
      "ĠØ§ÛĮÙĪÛĮ": 6566,
      "ĠÙ¾Ø§ÙĨÚĨÙĪÛĮÚº": 6567,
      "ĠØ³Ø³ØªÛĮ": 6568,
      "ĠÙħØ³ØªØ¹ÙģÛĮ": 6569,
      "Ø§ÙĨØ³ÛĮØ³ÛĮ": 6570,
      "ĠÙĪØ±Ø«Ø§Ø¡": 6571,
      "ĠÙħØ§Ø¦": 6572,
      "ĠÙĤØ§ØªÙĦ": 6573,
      "ĠÙħØ²Ø§Ø±": 6574,
      "ĠÙĪØ§ÙĤÙģ": 6575,
      "ĠÚ©ØªØ§Ø¨ÙĪÚº": 6576,
      "ĠØ³Ø±Ø¯ÛĮ": 6577,
      "ĠÙĨØ¸Ø±ÛĮØ§ØªÛĮ": 6578,
      "ÙģÙĪØ¬": 6579,
      "Ù¾ÙĪØ±Ù¹Ø³": 6580,
      "ÙĪÚ©Ú¾Ø±": 6581,
      "ĠØªØ¬Ø±Ø¨Ø§Øª": 6582,
      "Ø§ÙĦÛĮÚº": 6583,
      "ÙĪÙĨØ³": 6584,
      "ĠÚ©Ø´ÛĮØ¯Ú¯ÛĮ": 6585,
      "ĠØ¨ÙĨØ¯Ûģ": 6586,
      "ĠÚ©ÙĪØ§ÙĦÛĮÙģ": 6587,
      "ĠÙĦÛĮØ¨": 6588,
      "ÙĨØ§ÙħÛģ": 6589,
      "Ø§ÙħØ§Ùħ": 6590,
      "ĠØ³Ø§ÛģÛĮÙĪØ§ÙĦ": 6591,
      "ÙģØ±ÙħØ§ÛĮØ§": 6592,
      "ĠØªØ³ÙĦÛĮ": 6593,
      "ĠØªÙĨØ®ÙĪØ§ÛģÙĪÚº": 6594,
      "ĠÙħØºØ±Ø¨": 6595,
      "ĠØ¹ÙĤÛĮØ¯Ûģ": 6596,
      "ĠØ¨Ø§Ø¦": 6597,
      "ĠØ¯ÙĦÛģ": 6598,
      "ÚĨÙĪØ±ÛĮ": 6599,
      "ĠÙ¾ÙĦØ§ÙĨÙĨÚ¯": 6600,
      "ÛĮÚ©Ù¹Ø³": 6601,
      "ĠÙĦÚĳÙĨÛĴ": 6602,
      "ĠØ¯Ø§Ø±Ø§ÙĨ": 6603,
      "ØªØ¬": 6604,
      "ĠØ§Ø«Ø§Ø«Ûģ": 6605,
      "ĠÚ©Ø±Øª": 6606,
      "Ø§Ù¾ÛĴ": 6607,
      "ĠØ´ÙģÙĤØª": 6608,
      "ĠØ¹Ø±ÙĪØ¬": 6609,
      "ĠØ¯Ø§Ø¤": 6610,
      "ĠØ¬ÙĨÛĮØ¯": 6611,
      "ĠØ¹Ø¯ÙĦ": 6612,
      "Ø±Ø§Ø¯": 6613,
      "ĠØªØ§Ú©": 6614,
      "ĠÙĨÛģØªÛĴ": 6615,
      "ĠÙħØ±Ú©ÙĪØ²": 6616,
      "ĠØ°Ø®ÛĮØ±Ûģ": 6617,
      "ĠÙ¾Ø±Ø³ÙĨ": 6618,
      "ĠØ¨Ø±Ø¯Ø§Ø±ÛĮ": 6619,
      "ĠØ¬ÙħØ§ÙĦÛĮ": 6620,
      "ĠÙĨØ§ÙħÛĴ": 6621,
      "ĠØ§Ú©Ø§": 6622,
      "Ø¨ØªØ§ÛĮØ§": 6623,
      "ÙĪØ§ÙĨÛĴ": 6624,
      "ĠÙħÛĮÙĨÚĪÛĮÙ¹": 6625,
      "ĠØ±ÙĨØ¬": 6626,
      "ĠÙģÙĪÙĦ": 6627,
      "ĠÛģØ±Ø§": 6628,
      "ĠÙĪÛĮÚĺÙĨ": 6629,
      "ÙĪØ±ÛĴ": 6630,
      "Ø±Ù¹ÛĮ": 6631,
      "ĠØ¯Ø§Ø®ÙĦÛĴ": 6632,
      "Ø¨ÙĪÙĦÛĮØª": 6633,
      "ĠØ®ÙĪØ¯Ú©Ø´": 6634,
      "ĠÙ¾Ø±ÙĪØ¬ÛĮÚ©Ù¹": 6635,
      "ÙĨÙģ": 6636,
      "ĠÙħÙĨØµÙģ": 6637,
      "ĠØ¯Ú©Ø§ÙĨÙĪÚº": 6638,
      "ĠÙ¾Ù¹": 6639,
      "Ú©Ø±Ûģ": 6640,
      "ÙħØ®ØªÙĦÙģ": 6641,
      "ÚĨÚ©": 6642,
      "Ø§ÙĦÙ¹ÛĮ": 6643,
      "Ú¾ÙĨ": 6644,
      "ĠØ³ÛģÙĪÙĦØªÛĮÚº": 6645,
      "ĠÙĪØ§ÙĨ": 6646,
      "ĠØ¬ÙĪÚĳ": 6647,
      "ĠÚĪØ±Ø§Ø¦ÛĮÙĪÙĨÚ¯": 6648,
      "ĠØ¢ÙħÛĮØ²": 6649,
      "ØµÙĪØ¨Ûģ": 6650,
      "Ø®Ø§Ø±ÛĮ": 6651,
      "ĠØ§ÙĨØªÙĤØ§Ùħ": 6652,
      "ĠØ§ÙĦÛĮØ§Ø³": 6653,
      "Ø±Ø²Ø§ÙĤ": 6654,
      "ĠØ§Ø³Ù¹ÛĮÚĪÛĮÙħ": 6655,
      "ĠÙħÚ©ÛĮÙĨÙĪÚº": 6656,
      "Ø¹ÙĦÙħØ§Ø¡": 6657,
      "ĠØªØ®Øª": 6658,
      "ĠØ³Ø¨ÛĮ": 6659,
      "ĠÚ©ÛĮÚĨ": 6660,
      "Ø§Ø¦Ø²Ø±": 6661,
      "ĠØ¢Ø²ÙħØ§Ø¦Ø´": 6662,
      "ĠÚ©ÙħØ´ÙĨØ±Ø²": 6663,
      "ĠÙĦØ´Ú©Ø±": 6664,
      "ĠÙ¹Ø§Ø¦Ù¹ÙĦ": 6665,
      "ĠØ¨ÙĦÙĨØ¯ÛĮ": 6666,
      "Ø¨Ø§Ø±Ù¹Ø±ÛĮ": 6667,
      "ÙħØ«ÙĦØ§": 6668,
      "ĠÛµ": 6669,
      "ĠØ¨Ú¾ÙĦØ§": 6670,
      "Ù¾Ø±Ø²": 6671,
      "ĠØ§ÛĮØ´ÛĮÙĨ": 6672,
      "Ø±ÙħØ§ÙĨ": 6673,
      "ĠØ¨ÙĨÛĮÚº": 6674,
      "ĠØ¶ÙħÛĮØ±": 6675,
      "ĠÚ¯Ø±Ø§ÙĨ": 6676,
      "ĠÙħÙĤØ¨ÙĪÙĦÛĮØª": 6677,
      "ĠÚ©Ú¾ÛĮÙĦÛĮ": 6678,
      "ĠÙħØ±ØªÚ©Ø¨": 6679,
      "ÙģÙ¹": 6680,
      "Ø·ÛĮÙĦ": 6681,
      "Ø±ÙħØ§ÙĨÛĮ": 6682,
      "ĠÙħÙĦÚ©ÛĮØª": 6683,
      "ĠØ¹ÙĦÛĮÛģÙħ": 6684,
      "ÙģÙĪØ¬ÛĮ": 6685,
      "ĠØ¬ÙĦØ§": 6686,
      "ĠØ§ÙĦÙĤØ§Ø¯Ø±ÛĮ": 6687,
      "ØµÙĪØ±ØªÛĮ": 6688,
      "Ø²Øª": 6689,
      "ĠÙ¹ÛĮÚ©Ø³Ù¹Ø§Ø¦ÙĦ": 6690,
      "ĠØ³ÙĨÚĨ": 6691,
      "ĠÚ©Ú¾ÙĪÚ©Ú¾Ø±": 6692,
      "ĠÙĦÚ¯ÛĮÚº": 6693,
      "ÛģÙħØ§Ø±Ø§": 6694,
      "Ø¶Ø¯Ø§Ø±": 6695,
      "ĠØ·Ø¨ÙĤÛĴ": 6696,
      "ĠÛģÙĪÙĦÚĪ": 6697,
      "ĠÙĤØ§ÙĦ": 6698,
      "ĠØ§Ø³Ù¾ÛĮØ´ÙĦ": 6699,
      "ĠØ¹Ú©Ø³": 6700,
      "ĠÙħØªÙģÙĤÛģ": 6701,
      "ĠØ³ÛĮÙĪØ±ÛĮØ¬": 6702,
      "ÙĤÛĮÙħ": 6703,
      "Ø¬ÛĮÛĴ": 6704,
      "ĠØ³ÛĮÚ©Ø´ÙĨ": 6705,
      "Ø³ÛĮØ²": 6706,
      "Ø°ÛĮÙĨ": 6707,
      "ĠØ³Ù¹Ø§Ø±": 6708,
      "ĠØŃÙĪØ«ÛĮ": 6709,
      "ĠÚ©ÙĦØ«ÙĪÙħ": 6710,
      "Ø§Ø¦Ø·": 6711,
      "ĠØªÚ©ÙĨ": 6712,
      "ĠÙħÙģØ³": 6713,
      "ĠÚĨÙĦØªØ§": 6714,
      "ĠÙĪØ¶Ø¹": 6715,
      "ĠÙ¹ÙĪØ¦Ù¹Ø±": 6716,
      "ĠÚ©Ø±ÛĮÚ¯ÛĮ": 6717,
      "Ø§ÛģØ±Ûģ": 6718,
      "ĠÙĪØ§Ø¦Ø±Ø³": 6719,
      "ĠÙħØ«Ø§ÙĦÛĮ": 6720,
      "ØºÛĮØ¨": 6721,
      "Ġ59": 6722,
      "ĠÚĨÙĦØªÛĴ": 6723,
      "ĠÙ¾Ú¾ÙĨØ³": 6724,
      "ĠØ¹ÙĪØ¶": 6725,
      "ĠØ¨ÙĨØ§Ø¡": 6726,
      "ĠÙ¾Ø§Ø¦ÛĮØ¯Ø§Ø±": 6727,
      "ĠÚ¯ÙĦÙĪÚ©Ø§Ø±": 6728,
      "ĠØªØ¹ÙħÛĮØ±Ø§ØªÛĮ": 6729,
      "ĠÙħÙĦØ§Ø¦ÛĮ": 6730,
      "ĠÚ©Ø§ÙħØ±Ø³": 6731,
      "ÙħØ±Ûģ": 6732,
      "ĠØ£": 6733,
      "ĠØªÙħØ§": 6734,
      "ĠØ¯ÛĮÛģÛĮ": 6735,
      "Ø±Ø³ÙĪÙĦ": 6736,
      "Ú©Ø±ÙĪ": 6737,
      "ĠØ³Ø¨ÙĤ": 6738,
      "ĠÚ©ÙĪØ¦": 6739,
      "ĠØ¬ÙĪØ§Ø¦ÙĨÙ¹": 6740,
      "ĠÙħØŃØ±Ùħ": 6741,
      "ÙĨÚĪØ±": 6742,
      "ĠÙĤØ±ÛĮØ´": 6743,
      "ĠÙģØ·Ø±Øª": 6744,
      "Ø§Ø¨ÙĨ": 6745,
      "ĠÙĦÙĪÙ¹ÙĨÛĴ": 6746,
      "ĠÙħØ¹Ø°Ø±Øª": 6747,
      "ĠØ³ÛģÙĪÙĦØªÙĪÚº": 6748,
      "ĠÙ¾Ø§Ø¤Úº": 6749,
      "ĠØ§Ù¹Ú¾Ø§Ø±Ûģ": 6750,
      "ĠØ¢Ø¨Ù¾": 6751,
      "ĠÛģÙģØªÙĪÚº": 6752,
      "ĠÙĨØ§ÙģØ±ÙħØ§ÙĨÛĮ": 6753,
      "ĠÙħØ§ÙĨØªÛĴ": 6754,
      "ĠØ±Ø´ÙĪØª": 6755,
      "Ø¨Ø³": 6756,
      "ĠÙħØ¯Ø§Ø±Ø³": 6757,
      "ĠÙĨÚ©Ø§ÙĦÛĮ": 6758,
      "Ø¹ÙĦØ§ÙĤ": 6759,
      "Ø§ÙĪØ§Ù¹": 6760,
      "ĠØ¨Ø±ÛģÙħÛĮ": 6761,
      "ĠØ§ÙĨØ¯Ø±ÙĪÙĨÛĮ": 6762,
      "ĠÙĨÙģØ³ÛĮ": 6763,
      "Ø¬ÙĪØ±": 6764,
      "Ø¨ÙĦØ´": 6765,
      "ĠØ§ÙĨØ¬ÙħÙĨ": 6766,
      "ĠØ´ÙģØ§ÙģÛĮØª": 6767,
      "ĠØ¨Ø§Ø³": 6768,
      "ĠØ§Ø³Ø±Ø§Ø±": 6769,
      "ĠÙ¾Ø§Ø¨ÙĨØ¯ÛĮÙĪÚº": 6770,
      "ĠØ¬ÙħØ´ÛĮØ¯": 6771,
      "ĠÚ¯Ø±Ø¯Ø´": 6772,
      "Ġ41": 6773,
      "ĠÛģÛĮÚĪÚ©ÙĪ": 6774,
      "ĠÚ©Ø±ÙĪØ§Ø¦ÛĮÚº": 6775,
      "ĠÙ¾Ú¾ÛĮÙĦØ§ÙĨÛĴ": 6776,
      "ĠÚĪØ§Ø¤ÙĨ": 6777,
      "ĠÙħÛģÙħØ§ÙĨÙĪÚº": 6778,
      "ĠØ¨Ø²Ø±Ú¯": 6779,
      "ĠÚĨÙĪØ¯Ûģ": 6780,
      "ĠØ²Ø§Ø¦": 6781,
      "ÙĨÛĮÙĪÙ¹": 6782,
      "Ø§ØµÛģ": 6783,
      "ĠÙĨØ´Ø±": 6784,
      "ÙĪÙĨÛģ": 6785,
      "ĠØ¬Ú¯ÛģÙĪÚº": 6786,
      "ÙħÙĨÚ¯ÙĦ": 6787,
      "ĠØ§Ø¯Ú¾Ø±": 6788,
      "ĠØ¯Ø´ÙħÙĨÙĪÚº": 6789,
      "ĠØ§Ø´ÙģØ§ÙĤ": 6790,
      "ĠØ§ÙĪÙĦÛĮ": 6791,
      "ĠØ¨Ú¾Ù¹": 6792,
      "ĠÚ¯ÙĦÙĪÚ©": 6793,
      "ĠÛģØ§Ø¦ÙĪØ³ÙĨÚ¯": 6794,
      "ĠØ¨ÙĪØªÙĦ": 6795,
      "Ø¬ÛĮÙ¹ÙĦ": 6796,
      "ĠÚ©ÛĮÙħØ±ÛĴ": 6797,
      "ĠØ§Ù¹Ø§Ø±ÙĨÛĮ": 6798,
      "Ø§ÛģÙ¹": 6799,
      "ĠØªÙĤØ§Ø¶Ø§": 6800,
      "ĠÙħÛĮØ§ÙĨ": 6801,
      "Ø®ÙĪØ´": 6802,
      "Ø³ÛĮÙĨÛĮÙ¹Ø±": 6803,
      "ÙĪÙĤØª": 6804,
      "ĠØ¹ÛĮÙĨ": 6805,
      "ÙģÛĮØµ": 6806,
      "ĠÚ©ÛĮÙħÛĮÚ©ÙĦ": 6807,
      "ĠØ·ÛĮØ§Ø±ÙĪÚº": 6808,
      "ĠÚ¯ÛĮÙĨÚ¯": 6809,
      "ĠØ§ØºÙĪØ§Ø¡": 6810,
      "ÛģÙĪÚ¯Ø¦ÛĴ": 6811,
      "ĠØªÙĤØ¯ÛĮØ±": 6812,
      "Ø¹Ø§": 6813,
      "ĠÙħØ³ØªÙģÛĮØ¯": 6814,
      "Ġ150": 6815,
      "ĠÙħØ¸ÙģØ±Ø¢Ø¨Ø§Ø¯": 6816,
      "ĠØ§ÛĮÚ©Ø³Ù¾Ø±ÛĮØ³": 6817,
      "ÛģØ§Ø¦ÙĪØ³": 6818,
      "ĠÚ©Ø³Ù¹Ùħ": 6819,
      "ĠÚĪØ±Ø§Ø¦ÛĮÙĪØ±": 6820,
      "Ø³Ø²": 6821,
      "ĠÛ¹Û": 6822,
      "ĠÙħÙģØ±": 6823,
      "ĠØ´Ø±Ø§Ø¦Ø·": 6824,
      "ĠÙĪØ§Ù¹Ø³": 6825,
      "ĠÙħØ¬Ø³Ù¹Ø±ÛĮ": 6826,
      "ÙħØ¨Ø§Ø±Ú©": 6827,
      "ĠØ¨ÙĦØ¯ÛĮØ§Øª": 6828,
      "ĠØ±ÛĮÙĨÚ©": 6829,
      "Ú©ÙħØ´ÙĨ": 6830,
      "ĠØ¯ÛĮÙĨÚ¯ÛĴ": 6831,
      "Ø¨Ø¯Ú¾": 6832,
      "ĠÙħØŃØ§Ø°": 6833,
      "Ġ58": 6834,
      "ÙħÙĨÚ¯": 6835,
      "ĠÚ¯Ø¬Ø±": 6836,
      "ĠØ§ÙĦÙħÙĤØ¯Ø³": 6837,
      "ĠØ³ÛģØ§Ø±Ø§": 6838,
      "ĠÚĨØ§ÙĪÙĦ": 6839,
      "ĠØºÛĮØ¨": 6840,
      "Ø¨ÙĦÙĪÚĨØ³ØªØ§ÙĨ": 6841,
      "ĠÙĨØ¹Ø±Ûģ": 6842,
      "ĠÙģØµ": 6843,
      "Ø§ÙĨØªØ¸Ø§ÙħÛĮÛģ": 6844,
      "ĠÙĨÛģØ±": 6845,
      "ĠØ§ÙħØ§ÙĨØª": 6846,
      "ĠÙħØ¤ÙĤÙģ": 6847,
      "ĠØ·ÙĪ": 6848,
      "ĠÚ©ÙĨØ§Ø±ÛĴ": 6849,
      "ĠÙ¾ÛĮÚ©Ø¬": 6850,
      "Ú©Ù¾": 6851,
      "ĠØªØ¨ÙĦÛĮ": 6852,
      "ĠÙģØ±ÛĮØ¶Ûģ": 6853,
      "ÚĪØ§Ø¦Ø±ÛĮÚ©Ù¹Ø±": 6854,
      "ĠØ®ÙĪØ¨ØµÙĪØ±ØªÛĮ": 6855,
      "ĠÙħÛĮÙ¹Ø±Ú©": 6856,
      "ÙĪÙĨØ´ÙĨ": 6857,
      "Ú©Ú¾Ø§": 6858,
      "ĠÙ¾ÛģÚĨØ§ÙĨÛĴ": 6859,
      "ĠØ¨Ø°": 6860,
      "ĠÙĨØ¨Ú¾": 6861,
      "Ø·Ø¹": 6862,
      "Ø³ÙĪÛĮÚº": 6863,
      "ĠØ§ÙĪÛĮ": 6864,
      "ĠÚ©Ø±ÙĦÛĴ": 6865,
      "ÙħÛĮÙ¹ÚĪ": 6866,
      "ÙĪÛģØ±ÛĮ": 6867,
      "ĠØªØ¨Ø§Ø¯ÙĦÛĴ": 6868,
      "ĠØ§Ø«Ø§Ø«ÛĴ": 6869,
      "ØŃØ§Øª": 6870,
      "ĠÙ¾ÛĮØ´ÛĮ": 6871,
      "ÙĤØ¨": 6872,
      "Ø®ÙĪØ¯": 6873,
      "Ø§ÛģÙĦÚ©Ø§Ø±ÙĪÚº": 6874,
      "ĠÚĪÛĮÙħØ²": 6875,
      "ĠØĲ": 6876,
      "ĠØ§ÙĪØ±ÙĨÚ¯": 6877,
      "ĠØªÚ©Ø°ÛĮØ¨": 6878,
      "ĠÙĦÙĪØ¯": 6879,
      "ĠØ§ÙĨØ³Ù¹": 6880,
      "ĠÙ¾Ø§Ø±Ù¹ÙĨ": 6881,
      "ÙĨÚĪÙĨÙ¹": 6882,
      "ĠÙ¾ÚĳØªØ§ÙĦ": 6883,
      "Ġ120": 6884,
      "ĠØ¯Ú¾ÙħÚ©ÛĮ": 6885,
      "Ġ?": 6886,
      "ÙħØµ": 6887,
      "ÛĮÙĨØ²": 6888,
      "ĠÙħÙĨØ§ÙģÙĤÛĮÙĨ": 6889,
      "ĠÙħÛĮÚ¯Ø§ÙĪØ§Ù¹": 6890,
      "ÚĨÛĮÙĨØ¬": 6891,
      "Ø§Ø«Ûģ": 6892,
      "ĠØ³ÙĨØ§ÛĮØ§": 6893,
      "ĠØ¯Ø§Ø®ÙĦÛĮ": 6894,
      "ĠÙģØ¶ÛĮÙĦ": 6895,
      "ĠØ§ÛĮÚĪÙĪÚ©ÛĮÙ¹": 6896,
      "ĠØ³ÙĪØ¦ÛĮ": 6897,
      "ĠØ¯Ø±Ø®ÙĪØ§Ø³ØªÙĪÚº": 6898,
      "Ø§Ø³Ø¨Øª": 6899,
      "ĠØ·Ø¨ÛĮØ¹Øª": 6900,
      "ĠÙ¾ÛĮØ¯Ø§ÙĪØ§Ø±ÛĮ": 6901,
      "ĠØ¨ÛĮØ´": 6902,
      "ĠÙĪÚĺÙĨ": 6903,
      "ĠØ¯Ø¨Ø§Ø¦ÙĪ": 6904,
      "ÙģÙĪØ±Ø³Ø²": 6905,
      "ÙħÛĮÚĨ": 6906,
      "ĠØªÙĤØ±Ø±ÛĮ": 6907,
      "Ø¬Ø±Ø§Øª": 6908,
      "ÚĳÙ¾": 6909,
      "ĠØ¢ÛģÙĨÚ¯ÛĮ": 6910,
      "ĠØ¬Ú¾Ú¯ÚĳØ§": 6911,
      "ĠØ·Ø±ÙģÛģ": 6912,
      "ĠÙħØ±Ø§Ø¹Ø§Øª": 6913,
      "ĠØ®Ø±ÛĮ": 6914,
      "ĠÚĨÚĳ": 6915,
      "ĠÙħÙĨØ§ÙģÙĤ": 6916,
      "ÙĨÙ¹ÛĮ": 6917,
      "ĠÙĪÛģÛĮÚº": 6918,
      "ĠØ¨Ú¾ÙĦØ§Ø¦ÛĮ": 6919,
      "ĠÚ¯ÙĪÙ¹Ú¾": 6920,
      "ĠÚĪØ§Ø¦ÙĪÙĨ": 6921,
      "ĠØ®Ø±ÛĮØ¯ÙĨÛĴ": 6922,
      "ĠØ²ÙħØ§ÙĨÛĴ": 6923,
      "Ø®Ø§Øª": 6924,
      "ĠØ®Ø§ÙĦØµ": 6925,
      "ĠØªÙĪØ±Ø§Øª": 6926,
      "Ġ52": 6927,
      "ĠÙĦÛĮØ¨Ø§Ø±Ù¹Ø±ÛĮ": 6928,
      "ĠC": 6929,
      "ĠÙģØ±ÛĮØ¯": 6930,
      "Ø§Ø·Ùģ": 6931,
      "ÙĪØ¨ÛĮØ³": 6932,
      "Ø§Ø´Ø¨Ûģ": 6933,
      "Ú©ÙħÙ¾": 6934,
      "ĠØ§ØŃØ¯": 6935,
      "ĠÙħÙĨØ§Ø³Ø¨Øª": 6936,
      "ĠÙħÛĮÙĨÚ¯ÙĦ": 6937,
      "ĠÙĨÙĤØµØ§ÙĨØ§Øª": 6938,
      "ĠØ¹Ø¨Ø¯Ø§ÙĦØ¹Ø²ÛĮØ²": 6939,
      "ĠØ³ØªÚ¾Ø±Ø§Ø¦ÛĮ": 6940,
      "ĠÙĤÙĪÙħÙĪÚº": 6941,
      "ĠØªØ¹Ø·ÛĮÙĦ": 6942,
      "ĠÛĮÚº": 6943,
      "ĠØ³ÚĨÛĴ": 6944,
      "ĠØŃØ§Ø¬": 6945,
      "ĠÙ¾ÛĴ": 6946,
      "ĠÙĨÙĪØ´ÛģØ±Ûģ": 6947,
      "Ġ85": 6948,
      "Ø±ÛģÛĴ": 6949,
      "ĠØµØ¯ÙĤÛģ": 6950,
      "Ø¬ÙħØ¹Ûģ": 6951,
      "ĠÙħØ¬Ø±ÙħÙĪÚº": 6952,
      "ĠÚĨÚ©Ø±": 6953,
      "ĠÙħØ³ÙĦÙħÛģ": 6954,
      "ĠØ¹Øµ": 6955,
      "ĠØ¬ÙĨØ§ØŃ": 6956,
      "ĠÛĮÙĪØ±Ù¾": 6957,
      "ĠÚ¯Ø±ÛĮÙĨÚĪ": 6958,
      "ĠØ§ÛĮÚ©Ø³Ø§Ø¦Ø²": 6959,
      "ĠÙĨÛĮØ§Ø²ÛĮ": 6960,
      "Ø¢Ø±ÙħÛĮ": 6961,
      "ĠÙĨÙĪÙ¹": 6962,
      "Ú¯Ø±ÛĮØ³": 6963,
      "Ø·Ø³": 6964,
      "ĠÙħØŃØ±ÙĪ": 6965,
      "ĠØ¨Ø§Ø¶": 6966,
      "ĠÚ©ÛĮÙĨÛĮ": 6967,
      "Ø§Ø¶ØŃÛĮ": 6968,
      "ĠØ¨ÙĨÚ¯ÙĦÛģ": 6969,
      "Ø§ÙĦÙģ": 6970,
      "Ġ196": 6971,
      "ĠØ³ÛĮØ§Ø³ØªØ¯Ø§ÙĨ": 6972,
      "ĠØ³ÙħÛĮØ¹": 6973,
      "ØªØ§Ø¬": 6974,
      "ĠØªØ¨Ø§ÛģÛĮ": 6975,
      "ĠØªØ§Ø¦ÛĮØ¯": 6976,
      "ĠØ³Ø§Ø¯Ûģ": 6977,
      "Ø§ÙĨÙĪÛĮ": 6978,
      "ĠÙħØŃÙĦÛģ": 6979,
      "Ø§ÙĪÙĨØ¯": 6980,
      "ĠÙģÛĮÚĪØ±ÙĦ": 6981,
      "ĠÚ¯ÙĪÙĦÚĪ": 6982,
      "Ø´ÛģØ±ÛĮÙĪÚº": 6983,
      "ÙĨØ¦ÛĴ": 6984,
      "ÙĦÛĮÙĨÚĪ": 6985,
      "ĠØ®Ø§Ø¯Ùħ": 6986,
      "ĠÙħØ¹Øª": 6987,
      "ĠØ§ØŃØ§Ø·": 6988,
      "ÚĪÛĮØ´ÙĨÙĦ": 6989,
      "ĠØŃØ§Ú©": 6990,
      "Ø§ÛĮØ³ÛĮ": 6991,
      "ĠØ§Ø¹Ø§Ø¯Ûģ": 6992,
      "ĠØ¨Ú¾ÙĪÚ©": 6993,
      "Ø§ÙĨÚĨÛģ": 6994,
      "ĠØ§ÙĨØµØ§Ø±ÛĮ": 6995,
      "ÙĤØµÙĪØ±": 6996,
      "ÙĪÙģØ¯": 6997,
      "ĠØ³Ú©ÙĪÙĦØ²": 6998,
      "ĠØ®Ø³Ø§Ø±ÛĴ": 6999,
      "ĠØ±Ú©ÙĪ": 7000,
      "ĠØ§ÙĪØ¨": 7001,
      "ĠØ¯ÙĦØ§ÙĨÛĴ": 7002,
      "ĠØ²ÛĮÙĨØª": 7003,
      "ĠÙ¹ÙĪØ±": 7004,
      "ÚĪÛĮØ§Ø³": 7005,
      "ØªØ±ÙħÛģ": 7006,
      "ÙĪÚĳÛĴ": 7007,
      "ĠØ«ÙĤØ§ÙģØªÛĮ": 7008,
      "ĠØ¬ÙĪÚĳÛĴ": 7009,
      "Ú¯Ø²ÛĮØ±": 7010,
      "ĠÙħØ¹ÙĨÙĪÚº": 7011,
      "ĠÛģÙĪÙĨÛĮÙĪØ§ÙĦÛĴ": 7012,
      "Ø¯ÙĪÙħ": 7013,
      "ÙĨÙħØ§": 7014,
      "ĠØ¨ÛĮØ±Ø³Ù¹Ø±": 7015,
      "ĠÙħØŃÛĮ": 7016,
      "ĠÚĨÙĪÙ¾": 7017,
      "ÙĨØ³ÙĪ": 7018,
      "Ú¯Ø¦ÛĮ": 7019,
      "Ù¾Ø±ÛĮ": 7020,
      "ĠÛĮÙĪÙĨÙ¹Ø³": 7021,
      "ĠÚ¯Ø§ÚĳÛĮØ§Úº": 7022,
      "ĠÙ¾Ø±ÙĪÚĪÚ©Ø´ÙĨ": 7023,
      "ĠØ¨ÙĨØ¯Ø´": 7024,
      "ĠÙĪÛĮØ±": 7025,
      "ĠÙģÙĦÙħÛĮÚº": 7026,
      "ĠØ¯Ø§Ø±ÛĮÙĪÚº": 7027,
      "ÙħÛĮØ±Ø§": 7028,
      "ĠÙģØ§Ø·ÙħÛģ": 7029,
      "ĠÙĪØ§Ø¬Ø¯": 7030,
      "ĠÚĨÛģØ±Ûģ": 7031,
      "ĠÙħØ¹Ø§ÙĪØ¶Ûģ": 7032,
      "ĠØ¨ÙĨØªÛĴ": 7033,
      "ĠØªÚ¾Ø§ÙĨÙĪÚº": 7034,
      "ĠØ²ÛĮÙĨØ¨": 7035,
      "Ġ95": 7036,
      "ĠÙ¾Ø±Ø§Ø¦Ùħ": 7037,
      "Ø§ÛģÙĪ": 7038,
      "ĠÙĨÙħÙ¹": 7039,
      "ĠØ®Ø§ÙĨÛĮ": 7040,
      "ĠÙĨÙħÚ©": 7041,
      "ĠÙ¹ÛĮÙĨÚ©Ø±": 7042,
      ":ÛĶ": 7043,
      "Ø±Ø§Ø¶": 7044,
      "Ø§ØŃØ³ÙĨ": 7045,
      "ĠØ¨ÚĨÛĮÙĪÚº": 7046,
      "ĠØ³ÛĮØ§Ø³ØªØ¯Ø§ÙĨÙĪÚº": 7047,
      "ĠØ°Ø¨ØŃ": 7048,
      "ĠÙħÚ©Ú¾ÛĮ": 7049,
      "ĠØ¯ÛĮØ±ÛĮÙĨÛģ": 7050,
      "Ø³ØªØ§Ø®": 7051,
      "ĠØºÛĮ": 7052,
      "ĠØ³Ø¨Ø²ÛĮÙĪÚº": 7053,
      "ĠÛģÙĪÙĦÚĪØ±Ø²": 7054,
      "ĠÙ¹ÙĨÚĪ": 7055,
      "Ù¹ÛĮÙĪ": 7056,
      "ĠÙĨÙĤÙĪÛĮ": 7057,
      "ĠØ¨ØªØ§Ø¦ÛĴ": 7058,
      "ĠÙ¾Ø±Ø§Ù¾Ø±Ù¹ÛĮ": 7059,
      "ĠØ¢Ø«Ø§Ø±": 7060,
      "ĠÚ©ÙħØ²ÙĪØ±ÛĮ": 7061,
      "ĠØ²Ø¨Ø±Ø¯Ø³ØªÛĮ": 7062,
      "ĠÚ©ÙĨÚ¯Ø²": 7063,
      "ØµÙĪ": 7064,
      "ĠØ±ÙĤÙĪÙħ": 7065,
      "ĠÙ¾ÛĮÚĨ": 7066,
      "ØªÚ¾Ø§": 7067,
      "ĠÙĪØŃÛĮØ¯": 7068,
      "Ø§ÛģØ±ÛĮ": 7069,
      "Ú¯ÛĮØ§Úº": 7070,
      "ĠÙ¾ÛģØ§ÚĳÙĪÚº": 7071,
      "Ø±Ø¬ÛĮ": 7072,
      "ĠÙħÙ¹": 7073,
      "ĠÚ©ÛĮÙ¹": 7074,
      "ÛĮÚ©Ù¹Ø±": 7075,
      "ĠØªÙĤØ§Ø¶ÙĪÚº": 7076,
      "ĠÚĪØ§ÙĨ": 7077,
      "Ø²ÛĮØ±": 7078,
      "ÙĤÛĮÙĤÛĮ": 7079,
      "ĠØ¦ÛĮÚº": 7080,
      "ĠÚ©ØªØ¨": 7081,
      "ĠÙĪØ±Ø§ÙĨÛģ": 7082,
      "ĠÙ¾Ø§Ø¨ÙĨØ¯ÛĮØ§Úº": 7083,
      "Ø¬ÙħØ¹Ø±Ø§Øª": 7084,
      "ĠÙħÙĨØªØ¸Ø±": 7085,
      "ĠÙĨØ¹ÙħØ§ÙĨ": 7086,
      "ĠÙĪÙĤÙģÛĴ": 7087,
      "ĠØ´ÙģÛĮØ¹": 7088,
      "ĠØ³ÙĨØ¨Ú¾Ø§ÙĦÙĨÛĴ": 7089,
      "ĠØªØ§ÙĪ": 7090,
      "ĠØ¸ÛģÛĮØ±": 7091,
      "ĠØ·ÙĪÙģØ§ÙĨ": 7092,
      "ĠØªÙĨØ¨ÛĮÛģ": 7093,
      "ĠÙħØ°Ùħ": 7094,
      "ĠÙĨØµØ±Øª": 7095,
      "ĠÙģÙĦØ§Úº": 7096,
      "ÚĨÙĦ": 7097,
      "Ù¹Ø±ÙĨ": 7098,
      "ĠØ¬ÙĨÚ¯Ø¬ÙĪ": 7099,
      "Ø¨ÛĮÙĦÛģ": 7100,
      "ĠÙħØ§ÙĨÚ¯ÛĮ": 7101,
      "ÛĮÙĨØ±": 7102,
      "ĠÚ¯Ø§Ø¦ÛĴ": 7103,
      "ÙĪØªÛģ": 7104,
      "ĠÚĺ": 7105,
      "ĠÙ¾ÛĮØ²": 7106,
      "Ú©Ø´ÙħÛĮØ±ÛĮ": 7107,
      "Ø¯Ø§Ø´Øª": 7108,
      "ĠÚĨØªØ±Ø§ÙĦ": 7109,
      "ĠÙħØ§Ø±ÙĨÛĴ": 7110,
      "ĠÙĪØ§Ø±ÙĨÙ¹": 7111,
      "ĠØ¯Ø§Ùħ": 7112,
      "ĠØ±Ø¶ÙĪÛĮ": 7113,
      "ĠÙģÙĦØ³Ø·ÛĮÙĨÛĮÙĪÚº": 7114,
      "ÚĨÙĨ": 7115,
      "ĠÙĤÙĦØ¹Ûģ": 7116,
      "ĠØ±ÙĪÛģ": 7117,
      "ĠÚ¯ÙĪÛĮØ§": 7118,
      "ĠÚ¯Ú¾ÙĨÙ¹Ûģ": 7119,
      "ĠØ§ÙĨÚ¯ÙĦØ´": 7120,
      "ĠÙĨØ±Ø³": 7121,
      "ÛĮÙĦÛĴ": 7122,
      "ÚĪÛĮØ§Ø³Ø±ÙĪØ³": 7123,
      "ĠØ´ÙĪÙ¹ÙĨÚ¯": 7124,
      "ĠØ¨Ø§Ø¶Ø§Ø¨Ø·Ûģ": 7125,
      "er": 7126,
      "ÚĪÛĮÙĪØ²": 7127,
      "ĠÙĨØ§Ú¯Ø²ÛĮØ±": 7128,
      "Ø³Ùģ": 7129,
      "ĠÚĪÛĮØ¬ÛĮÙ¹ÙĦ": 7130,
      "ÙĪØ¬": 7131,
      "ÚĳÙĪ": 7132,
      "ĠØ±Ø§Ø¦ÛĮ": 7133,
      "ÙħØ§Ø¶ÛĮ": 7134,
      "ĠØ¹ÙĨØ§": 7135,
      "ĠØ¢ÛģØ³ØªÛģ": 7136,
      "ĠÙħØ±Ø¨ÙĪØ·": 7137,
      "ĠÚĨØ§": 7138,
      "ĠÙħÙĦÙ¹Ø±ÛĮ": 7139,
      "ĠØ¬ØªÙĨÛĴ": 7140,
      "ĠÙħÛĮØ±Ù¾ÙĪØ±": 7141,
      "ĠÙĤÛĮÙħØªÛĮÚº": 7142,
      "ĠØ¯ÛĮÚ©Ú¾ÙĪ": 7143,
      "ĠÙĦÙ¹": 7144,
      "ĠØªØ±Ùħ": 7145,
      "Ø§Ø¨ÛĮØ·Ø³": 7146,
      "ĠÙĨÛĮÙĦÙħ": 7147,
      "ĠÚ©ÛĮØ§ÙĨÛĮ": 7148,
      "ĠØ³Ø§ØŃ": 7149,
      "ĠØ¯Ø§": 7150,
      "ĠØ¹Ø±Ø¨ÛĮ": 7151,
      "ĠØ®Ø§ÙĪÙĨØ¯": 7152,
      "Ø§ÙĦØ²": 7153,
      "ĠØ¹ÙħØ±Ûģ": 7154,
      "ĠÙĤØ·Ø±ÛĴ": 7155,
      "ĠØªØ§ÙĦ": 7156,
      "ĠÙħØ§ØŃÙĪÙĦÛĮØ§Øª": 7157,
      "ĠÚ©ÙĪÛģÙĦÛĮ": 7158,
      "ĠØ¨Ø³Øª": 7159,
      "ĠÙ¾Ø±ÙģØ§Ø±ÙħÙĨØ³": 7160,
      "ĠÛ±Û³Û": 7161,
      "Ø¹Ø²Ùħ": 7162,
      "Ø§Ú¯Ø±ÚĨÛģ": 7163,
      "ĠÙħØ®ÙĦØµ": 7164,
      "ĠÚĨÚ©ÙĪØ§ÙĦ": 7165,
      "Ø¨ÙĦØ´ÙħÙĨÙ¹": 7166,
      "ĠØºØ²": 7167,
      "ÙĨØ³Ù¹ÛĮ": 7168,
      "ĠÚ¯ÙĪØ¯": 7169,
      "ĠØªØ±Ø³ÛĮÙĦ": 7170,
      "ĠÛĮÙħÙĨ": 7171,
      "ÙĤØ§Ø¦Ø¯": 7172,
      "ĠÚ©ÛģÙĪ": 7173,
      "ĠØ§Ø¯Ø¨": 7174,
      "Ø¢Ùģ": 7175,
      "Ø§Ø®ØªÛĮØ§Ø±": 7176,
      "ÛĮØ±ÙĪØ²": 7177,
      "ĠØ¯Ø§Øº": 7178,
      "ÚĨÙĨØ¯": 7179,
      "ĠÚ©ØªÙĨØ§": 7180,
      "ĠÙģØ±ÙĨÙ¹": 7181,
      "ÙĦØ§Ø³Ù¹Ú©": 7182,
      "ĠØªÛĮØ±ÛĮ": 7183,
      "ÙĪØ§Ø³": 7184,
      "ĠÚ©ÙĦÙħÛģ": 7185,
      "Ø§Ø¨ÙĪÛĴ": 7186,
      "ĠØ¹Ø¨Ø¯Ø§ÙĦÙĤ": 7187,
      "ĠÙħØªÙĨØ§Ø²Ø¹Ûģ": 7188,
      "ĠØ·Ø¨ÙĤÛģ": 7189,
      "ĠÙĪØ³Ø¹Øª": 7190,
      "ĠØ¹ÛģØ¯ÙĪÚº": 7191,
      "ĠÛ¶": 7192,
      "ĠØ¬Ø§ÙĨØ¨Ø¯Ø§Ø±": 7193,
      "ÙħÙĤØ§Ø¨ÙĦ": 7194,
      "ĠØ±ÙĪÙĨÙħØ§": 7195,
      "ĠÙĨÙĪØ´": 7196,
      "ĠÚĪØ±ØªÛĴ": 7197,
      "Ø®Ø§ØªÙĪÙĨ": 7198,
      "Ø¯Ú¾Ùħ": 7199,
      "ĠØªÙĨØ§Ø¸Ø±": 7200,
      "Ú¾Ø§Ø±": 7201,
      "ÛĮÚ©ÙĪ": 7202,
      "ĠÚĨÙĪØ¨ÛĮØ³": 7203,
      "ÙħØ¨Ø§Ø¨ÙĪÛĴ": 7204,
      "ĠØ³Ú¯Ø±ÛĮÙ¹": 7205,
      "ĠØ®ÙĪØ´ØŃØ§ÙĦ": 7206,
      "ÙĪÛģØ±ÛĮØ±Ûģ": 7207,
      "ĠØ§ÙĨØ¶ÙħØ§Ùħ": 7208,
      "ĠØ±ÙĪÛĮÛĴ": 7209,
      "ĠØ±ÛĮÚĪÛĮÙĪ": 7210,
      "ĠØ§ÙģØ³ÙĪØ³ÙĨØ§Ú©": 7211,
      "Ø§Ø¦ÙĦÚĪ": 7212,
      "ĠØ§Ø¨ÙĪÛģØ±ÛĮØ±Ûģ": 7213,
      "ĠØ¹Ø¨Ø¯Ø§ÙĦØº": 7214,
      "Ø§ÙħÛĮØ±": 7215,
      "ÛĮÚ©ÙĦÙ¹ÛĮ": 7216,
      "ÛĮØ§Ø¯Ûģ": 7217,
      "ĠÙĪØ±Ø²ÛĮÙĪÚº": 7218,
      "ĠØªØŃÙģÛģ": 7219,
      "ĠØ¹Ø¨ÙĪØ±": 7220,
      "ĠØ«ÙħØ±": 7221,
      "ĠØ¯ÛĮØ§ÙĨØª": 7222,
      "ĠØ¶ÛĮØ§": 7223,
      "Ø§ÛĮØ¨Ù¹": 7224,
      "ĠØ¢Ø±Ù¹Ø³": 7225,
      "ĠÙħØ§Ø±Ø´ÙĦ": 7226,
      "ØŃÙħ": 7227,
      "Ø§ÙĦØŃÛģ": 7228,
      "ĠØªÚ¾Ø§ÙĨÛģ": 7229,
      "ĠÙĪØ§Ø±Ø§ÙĨÛģ": 7230,
      "ĠÚĨÙĪÛģØ§ÙĨ": 7231,
      "ĠÙħÙĨØ´ÛĮØ§Øª": 7232,
      "ÙĪÙ¾": 7233,
      "ĠØ¹ÙĦÛĮØŃØ¯Ú¯ÛĮ": 7234,
      "ĠØªØ§Ú©ÛĮØ¯": 7235,
      "ĠÙħÙģØ±ÙĪØ±": 7236,
      "ÛĹ": 7237,
      "ĠØ±ÙĨØ¯": 7238,
      "ĠØ§ÙĦØ¹Ø²ÛĮØ²": 7239,
      "ĠØ§ÛĮØ¬ÙĨÙ¹": 7240,
      "ĠØ§Ø³ØªØ§Ø¯": 7241,
      "Ø§Ø·ÙĦØ§Ø¹": 7242,
      "ÙĪØ§Ø¨Ø·": 7243,
      "ĠÚ©Ø±Ú©Ù¹Ø±": 7244,
      "Ø¨Ø±Ú¯": 7245,
      "ĠØ±Ø®Øµ": 7246,
      "ĠÙ¾ÛĮÙ¾Ø±": 7247,
      "ĠØ¨Ø¸Ø§ÛģØ±": 7248,
      "ĠØ§Ú©Ù¹Ú¾ÛĴ": 7249,
      "ĠÙħØ³ÙĦØ·": 7250,
      "ĠØ¹Ø·ÛĮÛģ": 7251,
      "ĠØ·Ø§ÙĤØªÙĪØ±": 7252,
      "ĠÚĨÙ¾": 7253,
      "ĠØ¨ÙħØ¨": 7254,
      "ĠÙĪÙ¹Ø§ÙħÙĨ": 7255,
      "ĠÙ¾ÙĪÙĦÛĮÙĪ": 7256,
      "ĠØŃØ±Ùħ": 7257,
      "Ø³ØªÙĪØ±": 7258,
      "in": 7259,
      "ØªÛĮÙĤ": 7260,
      "ĠÙĨÚ©ÙĦØ§": 7261,
      "ĠØ¯Ø±Ø®ØªÙĪÚº": 7262,
      "ÙħØ¹Ø±ÙĪÙģ": 7263,
      "ĠÚ¯ÙħØ§ÙĨ": 7264,
      "Ø¦Ø±Ø²": 7265,
      "ÛģØ§Ø¦ÛĮ": 7266,
      "ĠØ§ÙģØ±ÛĮÙĤÛģ": 7267,
      "ĠØ§Ø³Ø¨Ø§Ø¨": 7268,
      "ĠÙģØ§Ø¦ÙĦ": 7269,
      "ĠØ³Ú©ÙĨØ¯Ø±": 7270,
      "ĠÙħÙģØ³Ø±ÛĮÙĨ": 7271,
      "Ú©ÛģØ§": 7272,
      "ÙĪÛģÛĮÚº": 7273,
      "ĠÙ¾ÚĳÙĨÛĴ": 7274,
      "ĠÙĦØ·Ùģ": 7275,
      "ĠÚ©Ø§Ø´Ùģ": 7276,
      "ĠØ§ÙĨØŃØµ": 7277,
      "ĠØ±ÙĪÙ¹": 7278,
      "ĠÙĦÛĮÙģÙ¹ÛĮÙĨÙĨÙ¹": 7279,
      "ĠØ§ÙĦØ§Ù¹": 7280,
      "ĠÙĨØ¸Ø±Ø¨": 7281,
      "ÛĮØ«ÛĮØª": 7282,
      "ĠÚ¯ÙĪØ¦ÛĮ": 7283,
      "ĠØ¬ÚĳÛĮ": 7284,
      "ĠÚ©ÚĨÛģØ±ÛĮ": 7285,
      "ĠØ±Ø¨ÛĮ": 7286,
      "ĠÛĮÛģÙĪØ¯ÛĮÙĪÚº": 7287,
      "ĠØ¯ÙĨÛĮ": 7288,
      "ÙĪØ§ÙĦÙĪÚº": 7289,
      "Ø±ØªÛĮ": 7290,
      "ĠØ§ÙĨÚĪÙĪÙĨÛĮ": 7291,
      "ĠØ§ÙģØ·Ø§Ø±": 7292,
      "ĠØ±ÛĮØ³Ù¹": 7293,
      "ÙĨØªØ®Ø¨": 7294,
      "ĠØ¹Ø·Ø§Ø¡": 7295,
      "ĠØ±ÛĮÙģØ±ÙĨØ³Ø²": 7296,
      "ĠØ¨ØºØ§ÙĪØª": 7297,
      "ÙĪØ¨ÙĦ": 7298,
      "Ġ74": 7299,
      "ĠÚĨÚ¾ÙĪÙ¹Ø§": 7300,
      "ĠØ§Ø´ÛĮ": 7301,
      "ĠØ¨ÛģØ§ÙĪÙĦÙ¾ÙĪØ±": 7302,
      "ĠØ³ÙĨØ¬ÛĮØ¯Ú¯ÛĮ": 7303,
      "ĠÚ¯Ø±Ø§Ø¤ÙĨÚĪ": 7304,
      "ĠÚ©ÙĨØ§ÙĦ": 7305,
      "ĠÙĪØ§Ø¦Ù¹": 7306,
      "Ù¹ÛĮÙĪÙ¹": 7307,
      "ĠØ´ÛģØ¯Ø§": 7308,
      "ĠÙĨØ±Ø®ÙĪÚº": 7309,
      "ĠØ§ØµØŃØ§Ø¨": 7310,
      "ĠÙĪØ§Ø±ÙĨÙĨÚ¯": 7311,
      "ĠØ§Ú©Ø±Ø§Ùħ": 7312,
      "Ø±Ø§Ø¬Ûģ": 7313,
      "ĠØ´ÛģØ²Ø§Ø¯Ûģ": 7314,
      "ĠÙģØ§ØªØŃÛģ": 7315,
      "Ú©Ø¦ÛĮ": 7316,
      "ĠÙĦÙ¾ÛĮÙ¹": 7317,
      "ĠÙħÙĨØµÙģØ§ÙĨÛģ": 7318,
      "ĠÙ¾Ù¹ÛĮ": 7319,
      "ĠÙĦÙĪÙ¹Ø§": 7320,
      "ĠØ§Ù¹Ú¾Ø§ØªÛĴ": 7321,
      "ĠÙĦØ§Ø´ÛĮÚº": 7322,
      "ĠÚ©ÛĮÙģÛĮØª": 7323,
      "ĠÙħØ§Ùħ": 7324,
      "ĠØ§Ø¹Ø¶": 7325,
      "ĠØŃÙħØ¯": 7326,
      "Ġ73": 7327,
      "ĠØ±ÙĪØ¨": 7328,
      "ĠØ´Ø¬Ø±": 7329,
      "Ġ71": 7330,
      "ĠØ§Ø¬ÙħÙĦ": 7331,
      "Ġ2012": 7332,
      "ĠØ³Ø§Ø¦ÙĨØ³Ø²": 7333,
      "ÙĨÚĪÛĮ": 7334,
      "ĠØ¨Ú¯Ù¹ÛĮ": 7335,
      "Ø§ÙĪØ§": 7336,
      "ĠØ±Ø´ØªÛĴ": 7337,
      "ĠÙħÛģÛĮÙĨÙĪÚº": 7338,
      "ĠØªØ±ÙħØ°ÛĮ": 7339,
      "ÚĪÙĪÚº": 7340,
      "ĠÚĪÚ¾ÛĮØ±": 7341,
      "ĠØ³Ø§Ø²Ø´ÙĪÚº": 7342,
      "ĠØ§Ø¬Ø²Ø§Ø¡": 7343,
      "ĠØªØŃÙĤÛĮÙĤÛĮ": 7344,
      "ĠØ§ÙĨÙĪÛĮØ³Ù¹ÛĮ": 7345,
      "ĠØ§ÙĦØ¨Ø®Ø§Ø±ÛĮ": 7346,
      "ÙħØ±Ø¯": 7347,
      "ĠØ§ÙĤÙĦÛĮØªÙĪÚº": 7348,
      "ĠØ§ÙĪØ±ÙĨÚ¯Ø²ÛĮØ¨": 7349,
      "ĠØ³Ø±ØŃØ¯ÛĮ": 7350,
      "ĠØ¨Ú¾Ø§ÙĦ": 7351,
      "ĠØ¯Ø§ÙĨØ´": 7352,
      "ĠØ´Ø§Ø¹Ø±": 7353,
      "ĠØ¯Ø±Ø¢ÙħØ¯Ø§Øª": 7354,
      "ĠÙģØ¶Ø§Ø¦ÛĮÛģ": 7355,
      "Ú¯Ø±ÙģØªØ§Ø±": 7356,
      "ĠØ®ÙĦÙĤ": 7357,
      "ĠÚ¯Ú¾ÚĳÛĮ": 7358,
      "ĠØ¹Ø¯ÙĨØ§ÙĨ": 7359,
      "ĠÙ¾ÛĮÙĨÙĦ": 7360,
      "ĠØ§ÛĮØ´ÛĮØ§Ø¦ÛĮ": 7361,
      "ĠÚ©Ø§ÙħÙĦ": 7362,
      "ĠÙĨØ´Ø§ÙĨÛĮØ§Úº": 7363,
      "ÚĨÛĮØ³": 7364,
      "ĠÚ©Ù¹Ú¾": 7365,
      "Ù¾Ø§ÙĨÚĨ": 7366,
      "ĠØ¨ÚĨØ§Ø¦ÙĪ": 7367,
      "ĠÙĤÙĪØ§Ø¹Ø¯": 7368,
      "ĠØµÙĪØ§Ø¨ÛĮ": 7369,
      "Ø§Ø¯Ø§Ø±ÛĮ": 7370,
      "ĠØ°ÙħÛĴ": 7371,
      "ĠØ§ÙĨÚĨ": 7372,
      "ĠØ§Ù¾ÙĨØ§ÛĮØ§": 7373,
      "Ġ132": 7374,
      "ĠÙģÛĮÚ©ÙĦÙ¹ÛĮ": 7375,
      "ĠÚĪØ§Ø¦ÛĮ": 7376,
      "ĠØ¨Ø§Ø¦ÛĮÚ©Ø§Ù¹": 7377,
      "ĠÙ¾Ø§Ø±Ù¹ÛĮÙĪÚº": 7378,
      "ĠØ¨Ø±Ú©Øª": 7379,
      "ĠØ§Ø³Ù¹ÛĮØ¬": 7380,
      "ĠØ¨Ø°Ø±ÛĮØ¹Ûģ": 7381,
      "Ù¾ÛĮØ¯": 7382,
      "ĠØ¹Ø§ÙĦÛĮÛģ": 7383,
      "Ø´Ù¾": 7384,
      "ĠÙħÙĪØ§ØµÙĦ": 7385,
      "ĠØ³ÙħØ¬Ú¾ÛĴ": 7386,
      "ĠØ¨Ø±Ø³ÛĮ": 7387,
      "ÙĪØ§ÙĦØ§": 7388,
      "Ø³Ù¹Ú©": 7389,
      "ĠØ®ÙĪØ´Ø®Ø¨": 7390,
      "ĠÚĪÙĪØ±": 7391,
      "ĠÙĨÛĮØ§Ø²": 7392,
      "Ġ78": 7393,
      "Ú©ÙħØ´ÙĨØ±": 7394,
      "ĠØ§Ú¯ÙĦÛĮ": 7395,
      "ĠØ§ÙĦØ±Ù¹": 7396,
      "ĠÙĦÚ©Ú¾ÛĮ": 7397,
      "ĠØ¶ÛĮ": 7398,
      "ÙĦÙĪÚ¯": 7399,
      "ÙĪØ·ÙĨ": 7400,
      "ĠØ³ÙĪØ²": 7401,
      "ĠØ¢ÙģÛĮ": 7402,
      "ĠØªØ¯Ø§Ø±": 7403,
      "ĠÚ¯Ø³ØªØ§Ø®": 7404,
      "ĠØ¢Ø¨Ù¾Ø§Ø´ÛĮ": 7405,
      "ĠÙ¹Ø±Ø³Ù¹": 7406,
      "ĠÙĤØ³ÙħØª": 7407,
      "ĠÚĨØ§ÛģØ¦ÛĮÛĴ": 7408,
      "ĠÙħÛĮØ²Ø¨Ø§ÙĨÛĮ": 7409,
      "ĠØ§Ø³Ù¾ÙĪØ±Ù¹Ø³": 7410,
      "ĠØ¨ÙĪÙĦÙĨÛĴ": 7411,
      "ĠÙħØµÙĨÙĪØ¹ÛĮ": 7412,
      "ĠÙĤÛĮØ¯ÛĮ": 7413,
      "ĠÚ©ÙĦÛĮØ¯ÛĮ": 7414,
      "Ø§ÛĮÚĪÛĮØ´ÙĨÙĦ": 7415,
      "ĠØ§Ø¹ØªØ±Ø§Ø¶Ø§Øª": 7416,
      "ĠÛĮØªÛĮÙħ": 7417,
      "Ġ77": 7418,
      "ĠØ§Ø´ØªØ¹Ø§ÙĦ": 7419,
      "Ø¨ÙĨØ¯ÛĮ": 7420,
      "ĠØµÙģØ±": 7421,
      "ĠØ¯Ø¹Ø§Ø¦ÛĮÚº": 7422,
      "ĠØ®ÙĦØ§Ø¦ÛĮ": 7423,
      "Ø¹ÙħØ±": 7424,
      "ØŃØ³ÛĮÙĨ": 7425,
      "ĠØªÛĮØ±Ûģ": 7426,
      "ĠÙĪÙĨÚĪ": 7427,
      "ĠÙħØ¹ÛĮÙĨ": 7428,
      "ĠÙĨÚ¯": 7429,
      "ĠØ¢Ø¨Ø§Ø¦ÛĮ": 7430,
      "ĠØ³ÙħØ¬Ú¾ÙĪØªÛģ": 7431,
      "ĠØ¢Ø³Ú©": 7432,
      "ĠØ¬ÙħÙĪÚºÙĪ": 7433,
      "Ø°Ø¨": 7434,
      "ĠØ±ÙĪØ²ÛĴ": 7435,
      "ĠÙ¾ÛĮÙ¹Ø±ÙĪÙĦÛĮÙħ": 7436,
      "ĠÙģØ¶ÛĮÙĦØª": 7437,
      "ĠÛŃ": 7438,
      "ĠÙĦÚ¯Ø§ÙĨØ§": 7439,
      "Ú©ÙħÙ¾ÙĨÛĮ": 7440,
      "Ú©Ø§ÙĨÙģØ±ÙĨØ³": 7441,
      "Ø§Ø³ÙħØ¨ÙĦÛĮ": 7442,
      "ĠÙ¾ÛģÙĨÚĨÛĮÚº": 7443,
      "ĠØ±ÛĮÙĨÚ©ÙĨÚ¯": 7444,
      "ĠØ±Ø§Ø¤": 7445,
      "ĠØ±Ø§ØŃØª": 7446,
      "ĠØ¯ÛģØ§Ø¦ÛĮ": 7447,
      "ÛģØ±Ø§ÙĨ": 7448,
      "ĠÚ¯Ø²Ø§Ø±ÙĨÛĴ": 7449,
      "ĠÙ¾ÙĦØ§Ù¹": 7450,
      "ĠÙħÙĨØ§Ø¸Ø±": 7451,
      "Ø®ÛĮØ±": 7452,
      "Ø³Ø±Ûģ": 7453,
      "ĠÚ©ÙĪØ§ÙĦÙ¹ÛĮ": 7454,
      "ÙĦÚĳ": 7455,
      "Ø¹Ø§Ø±Ùģ": 7456,
      "ĠÛģÛĮØ²": 7457,
      "ĠÙ¾Ø³ÙĨØ¯ÛĮØ¯Ûģ": 7458,
      "Ø§ÙĦÛĮÙĪÚº": 7459,
      "ĠØ¨Ú¾Ø±ÙĪØ³": 7460,
      "ĠÙ¾ÚĳÚ¾Ø§": 7461,
      "Ø§ØŃØªØ³Ø§Ø¨": 7462,
      "ĠÙĪØ±Ø²Ø´": 7463,
      "ĠÙģØ§Ø¦Ø²": 7464,
      "ĠØ§Ø³ØªØ¹Ø¯Ø§Ø¯": 7465,
      "Ġ400": 7466,
      "ĠØªÛĮØ§Ø±ÛĮÙĪÚº": 7467,
      "ĠÙ¾Ø³ÙħØ§ÙĨØ¯Ûģ": 7468,
      "ĠÙĪÛĮÙħÙĨ": 7469,
      "Ġ67": 7470,
      "ĠÚ©Ú¾ÛĮÙĨ": 7471,
      "ĠÙĦÚ¯Ø§ØªÛĴ": 7472,
      "ĠÙĪÙħ": 7473,
      "ĠÙĨØµØ±": 7474,
      "Ø²Ø§ÙĨÛģ": 7475,
      "ĠÚ¯Ú¾Ù¹": 7476,
      "ĠÚĨÙĪØªÚ¾ÛĮ": 7477,
      "ĠÙĪÚº": 7478,
      "Ø§Ø¦ÙĨØ³": 7479,
      "ĠÙħØ§ØªØŃØª": 7480,
      "Ø§Ø³Ù¹Ø±Ú©ÚĨØ±": 7481,
      "ÙħÙ¾Ø¦ÙĨ": 7482,
      "´¿": 7483,
      "ĠØ¬Ø¯": 7484,
      "ĠØ§ÙĪØ±Ùħ": 7485,
      "Ø¢ØµÙģ": 7486,
      "ĠØ¬Ø§ÛĮØ§": 7487,
      "Ø§ÙĨØ³Ø§ÙĨ": 7488,
      "ĠØ¯Ø§Ø¤Ø¯": 7489,
      "ĠÙħÙĨØ³": 7490,
      "ĠÙĪØ§Ø¬Ø¨Ø§Øª": 7491,
      "Ú©Ø±Ú©Ù¹": 7492,
      "ĠÙħØ«ÙĦØ§": 7493,
      "ĠØºØµÛģ": 7494,
      "ÙĤØ±Ûģ": 7495,
      "ĠØ²Ø§Ø±": 7496,
      "ĠØ³Ù¾Ø±ÙĨÙ¹": 7497,
      "ĠÙģØ§ØªØŃ": 7498,
      "ĠÛģØ§Ø¤Ø³ÙĨÚ¯": 7499,
      "ĠÙ¾Ø§Ø¦ÙĦÙ¹": 7500,
      "ĠÚ©ÙĨÙĪÙĨØ´ÙĨ": 7501,
      "ĠØ¬Ø§ÛģÙĦÛĮ": 7502,
      "ĠÙĨØ³ÙĦÙĪÚº": 7503,
      "ÙĤØ§Ø±": 7504,
      "ĠØ§ÙĨÙĤÙĦØ§Ø¨ÛĮ": 7505,
      "ĠÛģÙĨØ¯ÙĪØ³ØªØ§ÙĨ": 7506,
      "ĠÙ¾Ø®ØªÛģ": 7507,
      "ĠÙħØ§ÛĮÙĪØ³ÛĮ": 7508,
      "Ø§Ø³Ù¹ÛĮØ´ÙĨ": 7509,
      "ĠØ§ÛĮØ¬ÙĨÚĪØ§": 7510,
      "ĠÙģÙĨÚ©Ø§Ø±ÙĪÚº": 7511,
      "ĠÙĪÙħØ§": 7512,
      "ĠØ±ÙĪÛĮ": 7513,
      "ĠØ§ÙĨÙģØ±Ø§Ø¯ÛĮ": 7514,
      "ĠÙĨØ±Ùħ": 7515,
      "ĠÙħØ²Ø§Ø¬": 7516,
      "Ø§ÛģØ¯Ø§Ø±ÛĮ": 7517,
      "ĠÙ¾ÙħÙ¾": 7518,
      "´¾": 7519,
      "Ø³ÙĪØ±": 7520,
      "ĠÙħÙĦÙĨØ§": 7521,
      "ÙħØªØŃ": 7522,
      "ĠÙģØ±ÛĮÙĨ": 7523,
      "ĠØªØ´Ûģ": 7524,
      "ĠØ¹Ø¨Ø¯Ø§ÙĦØ±": 7525,
      "ĠÚĨÚ¾ÙĪÚĳØ§": 7526,
      "ĠÙħØŃØªØ±ÙħÛģ": 7527,
      "ĠÙģØ±ÙĤÛģ": 7528,
      "ĠØ¯ÛĮÛģØ§Øª": 7529,
      "ĠØ¢ÙģÛĮØ³Ø±Ø²": 7530,
      "ĠØ¨Ø§Ø¨Ø§": 7531,
      "ĠÙ¾ÙĦÛĴ": 7532,
      "ĠÙĦÛĮØªÛĮ": 7533,
      "ĠØ¨Ø±Ø§Ø¯": 7534,
      "on": 7535,
      "ĠÙħÙĨØ¯ÛĮ": 7536,
      "ĠØ¹ÙĦØ§": 7537,
      "ĠÙħÙĨØ·": 7538,
      "ĠØ¹ÙĪØ±ØªÛĮÚº": 7539,
      "ĠÙĨÙĤØ¯": 7540,
      "ĠØ±ØŃÙħÙĨ": 7541,
      "ÙĪØ§ÚĪ": 7542,
      "ĠØ§ÙĨÚĪÛĮÙĨ": 7543,
      "ÚĪÙĪÛĮÚĺÙĨ": 7544,
      "ĠØ®Ø·Ûģ": 7545,
      "ĠÙĨØ§Ø³": 7546,
      "Ø§ØµÙĦØ§ØŃ": 7547,
      "ĠØ¨ÚĳÚ¾ÛĴ": 7548,
      "ÙħÙĨØ¯": 7549,
      "ĠÙ¹ÛĮÚ©ÙĨÛĮÚ©ÙĦ": 7550,
      "Ú©ÛĮÙĨ": 7551,
      "ĠÙĦÛĮÙĪÛĮØ²": 7552,
      "Ø§Ø¹Ø¯Ú¯ÛĮ": 7553,
      "ĠØ³Ø±Ú©Ø§Ø±": 7554,
      "Ø±Ú©Ø§Øª": 7555,
      "Ġ76": 7556,
      "ĠÙ¾Ø§Ø±Ù¹ÙĨØ±": 7557,
      "ĠØ®ÙĪØ´Ø®Ø¨Ø±ÛĮ": 7558,
      "Ø§ÙĦÛĮØ§": 7559,
      "ĠØ§ÛģÙĦØ®Ø§ÙĨÛģ": 7560,
      "ĠÚ©Ø§ÙĦÛĴ": 7561,
      "ĠØ¯Ø±Ø¬Ø§Øª": 7562,
      "ĠÚ©Ø³Ø§ÙĨ": 7563,
      "Ø§ÙĨØ³Ø§ÙĨÛĮ": 7564,
      "ĠØ¯Ø±ÙĪØ§Ø²Ûģ": 7565,
      "ĠÙģØ§Ø±ÙĪ": 7566,
      "ĠÙĦØ§Ø¦ÙĤ": 7567,
      "ĠÚ¯Ø±Ø§": 7568,
      "ĠØµÙĨØ¹ØªÙĪÚº": 7569,
      "ĠØ¬Ø¹ÙģØ±": 7570,
      "ĠØªÙĨØ§Ø³Ø¨": 7571,
      "ĠØ³ÙĨØªÛĴ": 7572,
      "ÙģØ±Ø§ÛģÙħ": 7573,
      "ÙģÙĪØ§Ø¯": 7574,
      "ĠÙĦØ§Øª": 7575,
      "ÙģÙĨÚĪ": 7576,
      "ĠØªØ°Ú©Ø±Ûģ": 7577,
      "ĠÙĦÚ¯ØªÛĮ": 7578,
      "Ø«ÙĨÛĮ": 7579,
      "ÙĪÚ©ÙĪÙĦ": 7580,
      "ÙĪÙ¹Ø³": 7581,
      "ĠØ¯Ø§ÙĨÙĪÚº": 7582,
      "ĠÙħÙĨÚ©Ø±": 7583,
      "ĠØ¬ÙĦØ§ÙĦ": 7584,
      "ĠØ§Ø³Ù¹Ø§Ú©": 7585,
      "ĠÚ¯Ø±ÙĪÙ¾ÙĪÚº": 7586,
      "ĠØ§Ø³ÙħØ§Ø±Ù¹": 7587,
      "ĠØªÙĪÙĤØ¹Ø§Øª": 7588,
      "ĠÙ¹Ø±ÛĮÚ©": 7589,
      "Ġ51": 7590,
      "ĠÙ¾Ú¾ÛĮØ±": 7591,
      "ĠÛģØ§Ø¦Ø±": 7592,
      "ĠÙ¾Ø³Ù¹ÙĦ": 7593,
      "ĠÙ¾Ø§Ø¦ÛĮÚº": 7594,
      "ØªÙħÛģ": 7595,
      "ĠÙĦÙħØŃ": 7596,
      "ĠÙĦØ§Ø¦ÙĨØ²": 7597,
      "ĠÚ¯Ú¾Ø¨Ø±": 7598,
      "ĠÙħÙĨØ³ÙĪØ¨": 7599,
      "ĠØµØ§ØŃØ¨Ø²Ø§Ø¯Ûģ": 7600,
      "ĠØ±ÛĮØ²Ø±ÙĪ": 7601,
      "ĠÚ©ÙĦÙħ": 7602,
      "Ġ99": 7603,
      "ĠÛģÛĮÚĪÚ©ÙĪØ§Ø±": 7604,
      "ĠÙĪÛĮÚ©Ø³": 7605,
      "ĠØ³ÛĮØ²": 7606,
      "ĠØ¯Ø³ØªÛĮØ§Ø¨ÛĮ": 7607,
      "Ġ68": 7608,
      "Ø¨Ø±Ø¢ÙħØ¯": 7609,
      "ĠØ§ÚĪÛĴ": 7610,
      "Ú©ÛĮÙ¾": 7611,
      "ĠÚ©ÙĦÛĮÙħ": 7612,
      "ĠØ·Ø±ÛĮÙĤÙĪÚº": 7613,
      "ĠÙĤØ±Ø·Ø¨ÛĮ": 7614,
      "ĠÚ©ÙħÛĮÙ¹ÛĮÙĪÚº": 7615,
      "Ú¾Ø§Ø¦ÛĮ": 7616,
      "ĠÙħØ¹Ø¬Ø²Ûģ": 7617,
      "ĠÙħÙĨØ¯Ø±": 7618,
      "ĠØ¬Ø§Ø¦ÛĮÙĨÚ¯ÛĴ": 7619,
      "ĠÚĪØ§Ú©": 7620,
      "ĠØ§Ø³Ù¹ÛĮÙĦ": 7621,
      "ĠØ¬ÙĦÙĪØ³ÙĪÚº": 7622,
      "ĠØ¢ÙħØ¯ÛĮØ¯": 7623,
      "ÙħÙĪÙĦØ§ÙĨØ§": 7624,
      "ĠÙĪØ²Ø±Ø§": 7625,
      "ĠØ¨ÙĪÚĳ": 7626,
      "ĠÙĨØ§Ø´": 7627,
      "ĠØ¬Ø§ÙĦ": 7628,
      "ĠØ³ÙĦØ·": 7629,
      "ĠÙģÙĪÙĨØ²": 7630,
      "ĠØ¹ÙĦÙĪÛĮ": 7631,
      "ĠÚ©Ø§Ø±ÙĪ": 7632,
      "ĠØªÙĨØ§Ø²Ø¹Ø§Øª": 7633,
      "ĠÙ¹Ú©ÚĳÛĴ": 7634,
      "ĠÙ¾ÙĦØ§Ø³Ù¹Ú©": 7635,
      "ĠÙĤØ¨ÙĦÛģ": 7636,
      "ĠÚĨØ§Ø±Ûģ": 7637,
      "ĠÙħØ¹Ûģ": 7638,
      "Ù¹Ø³ÙħÛĮÙĨ": 7639,
      "ĠØ¹Ø§Ø·Ùģ": 7640,
      "Ù¾ÛĮÚ©Ø§": 7641,
      "ĠØ¶Ø±Ø¨": 7642,
      "ĠØ±ÙĪØ²Ú¯Ø§Ø±ÛĮ": 7643,
      "ĠØ¨Ú¾Ø±ÙĪØ³Ûģ": 7644,
      "ĠÙħØªØ±Ø§Ø¯": 7645,
      "ĠØ§ÙĦØŃØ§ÙĦ": 7646,
      "ĠÙ¾Ú¾ÛĮÙĦØ§": 7647,
      "ĠÙĨØ²ÙĪÙĦ": 7648,
      "ĠØ³Ú©ÙĪ": 7649,
      "ĠØ³Ù¹Ø±": 7650,
      "ÙĪØ¨Ûģ": 7651,
      "ÙĤÙĤÛĮÙĨ": 7652,
      "Ø§Ø¯Ø§Ú©Ø§Ø±": 7653,
      "----": 7654,
      "ĠØ¨Ø®ÙĪØ¨ÛĮ": 7655,
      "ĠØ§Ø³Ú©ÙĪØ§ÚĪ": 7656,
      "ĠØ§Ø³Ú©Ø§": 7657,
      "ĠØ§Ø¨Ú¾Ø±": 7658,
      "ĠÛģØ§ÙĦÛĮ": 7659,
      "ÚĪÛĮØ§ÙĦÛģ": 7660,
      "ĠØ¹ÙĨÙĤØ±ÛĮØ¨": 7661,
      "ĠÙĦÚ¯ØªÛĴ": 7662,
      "ĠØµÙĪÙģÛĮ": 7663,
      "ĠÚ©Ø¹Ø¨Ûģ": 7664,
      "ÙĪØ±ÙĨÛģ": 7665,
      "ĠØªÙĪØ§Ø²ÙĨ": 7666,
      "ĠØ¨Ø¬Ú¾": 7667,
      "ĠØ¹ØªÛĮÙĤ": 7668,
      "ĠØ¨Ú¾ÛĮØ¬ÛĮ": 7669,
      "ĠØ¯Ø±Ø¨Ø§Ø±": 7670,
      "ĠØ§ÙĨØ±Ø¬ÛĮ": 7671,
      "Ø±ÙĪÚĪ": 7672,
      "ĠØ¹Ø¨Ø¯Ø§ÙĦØŃ": 7673,
      "Ø³ÙĪØ¯": 7674,
      "ĠØ¯Ø®ÙĦ": 7675,
      "ĠØ¯Ú©Ú¾Ø§Ø¦ÛĴ": 7676,
      "ĠØªØ¨Ø¯ÛĮÙĦÛĮØ§Úº": 7677,
      "ĠÙĪØ§Ø³Ø§": 7678,
      "ĠØ§ÙĤØ±Ø§Ø±": 7679,
      "ĠØ³Ø§ØŃÙĦ": 7680,
      "ĠÙ¹ÛĮÙĦÙĨÙ¹": 7681,
      "ĠØ³Ù¹ÛĮÙ¹": 7682,
      "ĠÚ©ÙĪØ±ÛĮ": 7683,
      "ÙĦØ¹": 7684,
      "ĠØ¬Ú¾ÙĨÚ¯": 7685,
      "ĠØ²Ø®ÙħÙĪÚº": 7686,
      "ĠØµØ§ØŃØ¨Ø²Ø§Ø¯ÛĮ": 7687,
      "ĠØ§ÙģÙĪ": 7688,
      "ĠÙ¾Ø±Ø§Ø¦ÙħØ±ÛĮ": 7689,
      "ÙħØ¹Ø§ÙĦ": 7690,
      "ĠÙ¾Ú©ÚĳØ§": 7691,
      "ĠØ¯Ø§Ø¦ÙĪØ¯": 7692,
      "ĠÚ©Ú¾Ø¬ÙĪØ±": 7693,
      "ĠØ§ÙĨØ¯Ø§Ø²ÛĮ": 7694,
      "Ø§ÛģÙĦÚ©Ø§Ø±": 7695,
      "ĠÙ¹Ø±Ø§ÙĨØ³Ù¾": 7696,
      "ĠØ§ÙĦÙĨØ¨ÛĮ": 7697,
      "ĠÙħØªØ±Ø§Ø¯Ùģ": 7698,
      "Ú¯Ø±ÛĮØ²ÛĮ": 7699,
      "Ø¨Ú¾ÙĪØ´ÙĨ": 7700,
      "Ø¬ÙĦØ¯": 7701,
      "ÛĮÚ©Ûģ": 7702,
      "ĠÚ©ÛĮÙħÛĮ": 7703,
      "ĠÙĨÛģØ§Ø¯": 7704,
      "ĠÛĮÛģÙĪØ¯ÛĮ": 7705,
      "ĠØªÙĦÙģ": 7706,
      "Ø§ÙĦØ§Ø¶ØŃÛĮ": 7707,
      "ĠÚĪÚ©ÛĮ": 7708,
      "Ġ72": 7709,
      "ÙĨØ§Ø³": 7710,
      "ĠÙĪØ¨": 7711,
      "ĠØ§ÛĮØ²": 7712,
      "ĠØªÚ¾ÙĪÚĳÛĮ": 7713,
      "ĠØ¨ÛĮÙĨØ±Ø²": 7714,
      "ĠÛģØ§ÙĦÛĮÙĨÚĪ": 7715,
      "Ú©Ø¨Ú¾ÛĮ": 7716,
      "ĠÙĨÙĨ": 7717,
      "Ø§Ø¯Ø§Ø±ÙĪÚº": 7718,
      "ĠØ±Ø§Ø¤ÙĨÚĪ": 7719,
      "ĠØ§ÛģÙĦÛĮ": 7720,
      "ĠÙħØªÙĪØ¬Ûģ": 7721,
      "ĠØ¢ÙĦÙĪ": 7722,
      "ĠØ¨ÛĮÙ¹ÙĪÚº": 7723,
      "ĠØ¯ÙĪØ·Ø±ÙģÛģ": 7724,
      "ĠÙģØ§Ø¦ÛĮ": 7725,
      "Ù¹ÛĮÙĪÚº": 7726,
      "ĠØ´Ø§Ø¯Ø§Ø¨": 7727,
      "Ø¨Ø§Ø¹": 7728,
      "ĠÙħÛģÙħÙĨØ¯": 7729,
      "ÙĪÛĮØª": 7730,
      "ĠØ¹Ø§Ø¬": 7731,
      "ĠÚĨÙĪØ±ÙĪÚº": 7732,
      "ĠÙĨÙĪØ´ÛĮ": 7733,
      "ĠØ³ÛĮÙĨÙħØ§": 7734,
      "ĠØ§ÙĨØŃØµØ§Ø±": 7735,
      "Ø³Ù¹ÛĮØ¨ÙĦ": 7736,
      "ĠÙģØ§Ù¹Ø§": 7737,
      "ĠØºØ±ÛĮØ¨ÙĪÚº": 7738,
      "ĠÙ¾Ú¾ÙĪÙĦÙĪÚº": 7739,
      "Ø§Ø¯Ú¯ÛĮ": 7740,
      "ĠÙĪØ±Ú©ÙĨÚ¯": 7741,
      "ĠØ¨Ø±Ø·Ø±Ùģ": 7742,
      "ĠØ³ÙĨÛģ": 7743,
      "ĠÙĤØ§Ø¦ÙĦ": 7744,
      "Ø§ÛĮØ¦Ø±": 7745,
      "ĠØ°ÛĮØ§Ø¨ÛĮØ·Ø³": 7746,
      "ĠÚ©ÙħØ§": 7747,
      "ĠØ´ÛģØ±ÛĮØª": 7748,
      "ĠØ¬Ø°Ø¨": 7749,
      "ÛģØ³Ù¾ØªØ§ÙĦ": 7750,
      "Ù¹Ú¾Ûģ": 7751,
      "ĠØ¨Ø¯ÙĦÙĨÛĴ": 7752,
      "Ú¯ÙĦÛģ": 7753,
      "ĠØ®Ø¶Ø¯Ø§Ø±": 7754,
      "ĠØ¬ÙħØ§Ø¹": 7755,
      "ĠØ¨ÚĳÚ¾Ø§ÛĮØ§": 7756,
      "ĠÙĦÙħØ¨ÛĮ": 7757,
      "ĠÙĦÙħØŃÛģ": 7758,
      "ĠÙħÛĮØ³": 7759,
      "ÙĪÙĦÛĴ": 7760,
      "ĠÙħØ§Ø±Ú©": 7761,
      "ÙĪÙĨÙĪ": 7762,
      "Ġ88": 7763,
      "ĠØ§ÙĪÛĮØ³": 7764,
      "Ø±ÛģØ§": 7765,
      "ĠØ®Ø·ÙĪØ·": 7766,
      "ĠØ§ÛĮÙħØ¨ÙĪÙĦ": 7767,
      "ĠØªØ¨ÙĦÛĮØº": 7768,
      "40": 7769,
      "ĠØ³Ø§ÙģÙ¹": 7770,
      "ĠÙĦÙĪØ·": 7771,
      "ĠÙħÛģÙĨÚ¯ÛĮ": 7772,
      "ĠØ§Ú©ÙħÙĦ": 7773,
      "ĠÚ©Ø§ÙĨÚ¯Ø±ÛĮØ³": 7774,
      "ĠÙ¾Ø±ÙĪÚ¯Ø±Ø§ÙħØ²": 7775,
      "Ø´ÛģØ±ÛĮ": 7776,
      "ÙĨÙĪÛĮØ±": 7777,
      "ĠØ¨ØŃÛĮØ«ÛĮØª": 7778,
      "ĠÙĨØ±ÛĮ": 7779,
      "Ø§ÛģØ¨": 7780,
      "ĠØ¨ÙĦÙĪ": 7781,
      "ÙĦÙĨ": 7782,
      "Ø§Ø³Ø±": 7783,
      "Ø´Ø±ÛĮ": 7784,
      "ĠÙĤØ§": 7785,
      "ĠÚĪØ±ÙĪÙĨ": 7786,
      "ĠØ³ÙĪÛĮ": 7787,
      "ÙĦÛĮØ³": 7788,
      "ĠØ³ÙħØ±ÛĮ": 7789,
      "ĠÚ©Ø±Ú©Ù¹Ø±Ø²": 7790,
      "ĠÚĨØ§Ø¦": 7791,
      "ĠØ¹ÙĨÙĪØ§ÙĨ": 7792,
      "ĠÙ¹ÛĮØ¨ÙĦ": 7793,
      "ĠØ³Ø§Ø¦ÙĨØ³Ø¯Ø§ÙĨÙĪÚº": 7794,
      "ĠÚ©ÛĮØ¬Ø¦ÛĴ": 7795,
      "Ø§Ø³Ù¹ÛĮ": 7796,
      "ĠØ³Ø§Ø®": 7797,
      "ĠØ´Ø±Ø¹ÛĮ": 7798,
      "ĠØ¨Ø§Ø²ÙĪÚº": 7799,
      "ĠØ®ÙĪÙģÙĨØ§Ú©": 7800,
      "ĠØ²Ø§Ø¦Ø±ÛĮÙĨ": 7801,
      "ĠØ§Ø³ÙĨØ§Ø¯": 7802,
      "ĠÙħØ¶Ø¨ÙĪØ·ÛĮ": 7803,
      "ĠÙģØ§Ø³": 7804,
      "ĠÚĨÛĮÙĨÙĦØ²": 7805,
      "ĠØªØ¯Ø§Ø±Ú©": 7806,
      "an": 7807,
      "ĠÙ¾Ø±Ø¹Ø²Ùħ": 7808,
      "Ø§Ø¶ÙĦ": 7809,
      "ĠØŃØ§Ø¯Ø«Ûģ": 7810,
      "ĠØµÙĦØŃ": 7811,
      "ĠØ§ÛĮØ§Ùħ": 7812,
      "ĠÚ©Ø±ÙĦØ¦ÛĴ": 7813,
      "ĠÙģÙĪÙ¹ÙĪ": 7814,
      "Ġ2011": 7815,
      "ĠØ§Ú©ÙĨØ§Ùħ": 7816,
      "Ø¯ÛĮÚ©": 7817,
      "ÚĪÛĮÙĪØ³Ø±": 7818,
      "Ù¹ÛĮÚ©Ø³": 7819,
      "ÙĤØµ": 7820,
      "ĠÚĪÛĮÙħÙĪÚ©Ø±ÛĮ": 7821,
      "Ø·ÛĴ": 7822,
      "ĠÚĪØ§Ø¦Ø±ÛĮÚ©Ù¹": 7823,
      "ĠØ§Ø³ÙħØ¨ÙĦÛĮÙĪÚº": 7824,
      "ĠØ¶Ø§Ø¨Ø·": 7825,
      "ĠØªÙĤÙĪÛĮ": 7826,
      "Ø§ÙĤÙĪØ§Ùħ": 7827,
      "Ø¢Ø¡": 7828,
      "ĠØ§ÙĤØ¯Ø§Ø±": 7829,
      "ĠÙħÙĤØ±Ø±ÛĮÙĨ": 7830,
      "ĠØ³ÛĮÙĦØ²": 7831,
      "ĠÙĨØ§Ø±ØªÚ¾": 7832,
      "ĠØ§ÚĳØ§": 7833,
      "ĠÙĨØ´Ø±ÛĮØ§Øª": 7834,
      "ØŃÛĴ": 7835,
      "ĠØªØ¯Ø¨ÛĮØ±": 7836,
      "ĠØ³Ø§Ú©": 7837,
      "ĠØ´ÙĤ": 7838,
      "ĠØ§ÙĨØ¯Ø±ÙĪÙĨ": 7839,
      "ĠÙħØ§ÙĨØ³ÛģØ±Ûģ": 7840,
      "ĠØ¢Ø²Ø§Ø¯Ø§ÙĨÛģ": 7841,
      "ĠØ§Ú©Ù¹Ú¾Ø§": 7842,
      "ÙĨÛĮÙĪ": 7843,
      "Ø§ÙħÙĦÛģ": 7844,
      "ĠØ§Ø³Ú©Ø±ÛĮÙĨ": 7845,
      "ĠØ´Ø¬Ø±Ú©Ø§Ø±ÛĮ": 7846,
      "ĠØ§ÙĦÙħÙĨ": 7847,
      "Ø¯Ø±ÙĨ": 7848,
      "ĠÚĪÚ¾Ø§Ø¦ÛĮ": 7849,
      "ĠÙħÚ©ÛĮ": 7850,
      "ĠÚ©ÙĪØ§Ø±Ù¹Ø±Ø²": 7851,
      "Ø¡ÙħÛĮÚº": 7852,
      "ĠØ§ÙħÙĦØ§Ú©": 7853,
      "ĠÙĪÛĮÚĪÛĮÙĪØ²": 7854,
      "ĠØµØ§ØŃØ¨Ø²Ø§Ø¯": 7855,
      "ĠØ¬Ú¾ÙĪÙ¹Ø§": 7856,
      "ĠØ§ÛĮÚ©Ø³ÚĨÛĮÙĨØ¬": 7857,
      "ĠØ±Ø®ØµØª": 7858,
      "Ø§Ù¾ÙĪØ±": 7859,
      "ÙģØ§Ø±ÙĪÙĤ": 7860,
      "ĠÚ¯Ø¬Ø±Ø§Øª": 7861,
      "ĠØ¨ÚĨØª": 7862,
      "ĠÙ¾ÚĳØªÛĮ": 7863,
      "Ø³Ø¯Ûģ": 7864,
      "ĠØªØ¬Ú¾": 7865,
      "ĠØ¢Ø³ÛĮÛģ": 7866,
      "Ø¨ÛĮØ¬ÙĨÚ¯": 7867,
      "ĠÙħØªØ¹ÛĮÙĨ": 7868,
      "ĠØ§ÙĨØ¬ÙĨ": 7869,
      "ĠÚ¯Ø±Ø§Ø¦ÙĪÙĨÚĪ": 7870,
      "ĠÙ¾ÚĨÛĮØ³": 7871,
      "ĠØ§ÙĨØ¯ÛĮ": 7872,
      "ĠØ¬Ø§ÙĨÛĮÚº": 7873,
      "ĠÙģØ±Ø§ÙĨØ³ÛĮØ³ÛĮ": 7874,
      "ĠØ¸Ø§ÛģØ±ÛĮ": 7875,
      "ĠØ¨Ú¾Ø±ÛĮ": 7876,
      "ĠÙ¾Ø§Ø±ÙĦÛĮÙħØ§ÙĨ": 7877,
      "ĠØ§ÙĨÙģ": 7878,
      "ĠØ¨ÙĦØ§Ø´Ø¨Ûģ": 7879,
      "ĠÚĨØ§Ú©": 7880,
      "ĠÙħÙĪØ³ÙħÛĮØ§ØªÛĮ": 7881,
      "ĠÙ¾ÙĪÛĮÙĦÛĮÙĨ": 7882,
      "ĠÙĤØµÛģ": 7883,
      "Ø¦Ùħ": 7884,
      "ĠØ¨ÛĮÙ¹Ø³ÙħÛĮÙĨ": 7885,
      "ĠØ¨ÚĨÙĨ": 7886,
      "ĠØ§ÙĨÚ©Ùħ": 7887,
      "Ø¯ÙĪØ²": 7888,
      "ĠØªÚ©ÙĨÛĮÚ©ÛĮ": 7889,
      "200": 7890,
      "ĠÙħØŃÚ©Ùħ": 7891,
      "Ø¯ÛĮØ§": 7892,
      "Ø¨Ø¹": 7893,
      "Ø¢ÛĮØª": 7894,
      "ĠØ·Ø±": 7895,
      "ĠØªØ³Ø¨ÛĮØŃ": 7896,
      "ÙĨÛĮÚĨØ±": 7897,
      "Ø¨Ø±Ø§Ûģ": 7898,
      "ĠÙħØ³Ø±Øª": 7899,
      "ĠÙħØµÙĨÙģ": 7900,
      "ĠØ§ÙĨØ¬Ùħ": 7901,
      "ĠØ¬Ø§Ø±ØŃÛĮØª": 7902,
      "ĠØ³Ø§Ø¦ÙĨØ³ÛĮ": 7903,
      "ĠØ§Ø´ÛĮØ§Ø¦ÛĴ": 7904,
      "ĠÚ©Ø§Ø±ÙĨØ±": 7905,
      "ĠÙħØ¯Ø±": 7906,
      "ĠØµÛĮ": 7907,
      "ĠÙħØ·Ø§ÙĦØ¨": 7908,
      "ĠÙģÛģÛĮÙħ": 7909,
      "ĠÙĨÙĪÙħÙĨØªØ®Ø¨": 7910,
      "ĠÙ¾ÚĳÚ¾ØªÛĴ": 7911,
      "ĠØ§ÙĤÙĦÛĮØªÛĮ": 7912,
      "ĠÚĪÙĪÛĮ": 7913,
      "ĠØ±ÙĪÙ¹ÛĮ": 7914,
      "Ø§ÙħÛĮÙĪÚº": 7915,
      "ĠØ§Ø¯Ø§Ú©Ø§Ø±ÙĪÚº": 7916,
      "ĠØ±Ø¬Ø³Ù¹Ø±Ø§Ø±": 7917,
      "ĠØ¨ÙĦØ¯ÛĮØ§ØªÛĮ": 7918,
      "Ø³ÛĮÙģ": 7919,
      "ĠÙĨÛĮÙĪÛĮØ§Ø±Ú©": 7920,
      "Ø¬ÙħØ§Ø¹Øª": 7921,
      "ĠÙ¾Ø±ÙĪÙ¹ÙĪÚ©ÙĪÙĦ": 7922,
      "Ø¬Ø§ÙĪ": 7923,
      "ĠÛģÙħÙĪØ§Ø±": 7924,
      "ĠÚ©ÛĮÙħÛĮØ§Ø¦ÛĮ": 7925,
      "Ø§ÙĦÙħÙĪÚº": 7926,
      "Ø§ÙħÙĪØ´": 7927,
      "ĠØ¨Ø§Ø²ÙĪ": 7928,
      "ĠØ®ÙĪØ§ÛģØ§Úº": 7929,
      "ĠØ±ÙģØªØ§Ø±ÛĮ": 7930,
      "ĠÙħÙĤØ§Ø¨ÙĦ": 7931,
      "ĠÙĪÙĤØ§Øµ": 7932,
      "ĠÙħÙĪÙ¹": 7933,
      "ĠÚ¯Ø§ÙĦÛģ": 7934,
      "ÚĪÙĨÙ¹": 7935,
      "ĠÚ©ÙĪØ¢Ø±": 7936,
      "Ø®ÙĪÙ¾ÙĪØ±Ûģ": 7937,
      "ĠØªØ¨ØµØ±Ûģ": 7938,
      "ÙħØ±Ú©": 7939,
      "ĠØ³ÙĪÙĦÛģ": 7940,
      "ĠØ¢Ø¬Ø§Ø¦ÛĮÚº": 7941,
      "ĠØ§Ù¹Ú¾Ø§ÙĨØ§": 7942,
      "ĠD": 7943,
      "ĠØ¬ÛĮÚ©Ø¨": 7944,
      "Ø²Ø¯Ûģ": 7945,
      "ĠØ¢Ø±Ú¯ÙĨØ§Ø¦Ø²ÛĮØ´ÙĨ": 7946,
      "ÙħØ±ÛĮÙħ": 7947,
      "ĠØŃÚ©ÙĪÙħØªÛĮÚº": 7948,
      "ĠÙģÙ¹ÙĨØ³": 7949,
      "ÙĪØ¬Ûģ": 7950,
      "ĠÛģÙĨ": 7951,
      "ĠØ¯Ø§Ø¦ÛĮÚº": 7952,
      "ĠØ¨Ú¾Ø§": 7953,
      "ĠØ´ÙģØ§Ø¹Øª": 7954,
      "Ø§ÛĮÙĨÚĪ": 7955,
      "ĠØ¯ÙģÙĨ": 7956,
      "Ø§Ø±Ø¶": 7957,
      "Ø¸ÛĮ": 7958,
      "ĠØ§ØºÙĪØ§": 7959,
      "ĠÙħÙĦØ§Ø¦ÛĮØ´ÛĮØ§": 7960,
      "ĠØªÙĪÙģÛĮÙĤ": 7961,
      "ĠØ§ÙħÙĪØ§Øª": 7962,
      "Ø¨ÚĨÙĪÚº": 7963,
      "ĠØ¢ÚĨ": 7964,
      "ĠØ¬Ø§ÙħØ¹Ø§Øª": 7965,
      "ĠÙ¾Ø±ÙĪÙģÛĮ": 7966,
      "ĠØ¨ÙĪØ§Ø¦Ø²": 7967,
      "ĠM": 7968,
      "ØµØ§ØŃØ¨": 7969,
      "ĠØ§Ø®Ø¨Ø§Ø±Ø§Øª": 7970,
      "ĠÚ©Ø±ÙĨÛĮÙĪØ§ÙĦÛĴ": 7971,
      "ĠØ³ÛĮØ§ØŃØªÛĮ": 7972,
      "ĠÛ±Û´Û±Û": 7973,
      "Ø±ÙĪØ¨": 7974,
      "Ú©Ø§ÚĳÛģ": 7975,
      "ĠØ¨ÚĨØ§Ø¤": 7976,
      "ĠØ¨ÙĨØ¯Ú¯ÛĮ": 7977,
      "Ø±ÛĮÙĤÛĮ": 7978,
      "ĠÙ¾ÚĳÚ¾ÛĮ": 7979,
      "ĠØ§Ù¹Ú¾Ø§Ø¦ÛĮ": 7980,
      "ÚĨØ§Ûģ": 7981,
      "ĠØ¨ÙĦÙĪØ±": 7982,
      "Ø§ÛĮØ³ÙĪ": 7983,
      "ĠØ³Ø¹ÙĪØ¯": 7984,
      "Ø±Ø§Ú©": 7985,
      "Ø¬ÙĨÙĪØ¨ÛĮ": 7986,
      "ĠÙħØ§Ø±Ù¹Ùħ": 7987,
      "ĠØºÙģÙĪØ±": 7988,
      "ĠÙģØ§ØµÙĦÛĴ": 7989,
      "ÙĪØ§ÙĨÛĮÙĨ": 7990,
      "ĠØªØ²": 7991,
      "ÚĪØ±Ø²": 7992,
      "ĠØ¨ÙĨÙĨØ§": 7993,
      "Ù¾ÛĮÚ¯": 7994,
      "ĠØ¨ÛĮÙ¹Ú¾ÙĨÛĴ": 7995,
      "ĠÛģØ§ÙĪØ³": 7996,
      "ĠÙħØ±ÙĪØª": 7997,
      "ĠÙ¾Ø±Øª": 7998,
      "ĠØ³ÛĮØ±Øª": 7999,
      "ÙħØ±Ø§Ø¯": 8000,
      "ĠØ§ÚĨÚ¾": 8001,
      "ĠØªÙĨÛģØ§": 8002,
      "ĠØ¬Ú¾Ù¹ÙĦ": 8003,
      "ĠØ¬Ú¾ÙĪÙ¹ÛĮ": 8004,
      "ĠÙĤØ·Ø±": 8005,
      "ĠÙħØ¤Ø«Ø±": 8006,
      "Ø¨ÙĪØ³": 8007,
      "Ø®Ûģ": 8008,
      "ĠÙħÛĮÙĨØ²": 8009,
      "ĠØ¯Ø§Ø¯ÙĪÚº": 8010,
      "Ø¯ÛĮÚ¯Ø±": 8011,
      "ĠØªØ´Ø±ÛĮÙģ": 8012,
      "ï·º": 8013,
      "ĠÙ¾Ø±Ø³": 8014,
      "ĠÙĦÙĪÚ¯ÙĪ": 8015,
      "ĠØ³Ø¨Ø³": 8016,
      "ĠØ¹Ø¨Ø¯Ø§ÙĦØ±Ø²Ø§ÙĤ": 8017,
      "ĠÙĦÙĨÚ©": 8018,
      "Ø§ÙĨØ¬": 8019,
      "ĠÚ©Ø§Ù¾ÛĮ": 8020,
      "Ġ87": 8021,
      "ĠØ§ÚĨÚ©Ø²Ø¦ÛĮ": 8022,
      "ĠÛģØ¯": 8023,
      "ĠØ´ÛģØ±ÛĮØ§Ø±": 8024,
      "ĠÙĦØ§Ø¦Ùģ": 8025,
      "ĠØ§ÙĨÚ¯Ø±ÛĮØ²ÛĮ": 8026,
      "Ø§Ø¦Ø¯ÛĮÙĨ": 8027,
      "Ø¢Ù¾Ø±ÛĮØ´ÙĨ": 8028,
      "ĠÙħØ·Ø§": 8029,
      "ĠÙħØ±Øº": 8030,
      "ĠÙĨÚ¯Ûģ": 8031,
      "ĠØ¯ÙĦØ§": 8032,
      "ĠÛģÛĮÚºØ§ÙĪØ±": 8033,
      "ĠØ³ÙĨØ§ØªÛĴ": 8034,
      "Ø¯Ø§ÙĨÛĮ": 8035,
      "ĠÙħÛģÛĮÙĨÛģ": 8036,
      "Ù¾ÛĮØ¦ÙĨ": 8037,
      "ĠÙħÛĮÙ¹Ø±ÙĪ": 8038,
      "ĠÙģÚ©Ø³": 8039,
      "ĠØ³ØŃØ±": 8040,
      "Ø§ÙĦØ¯ÛĮÙĨ": 8041,
      "ÙħØªØ§Ø«": 8042,
      "ĠØ§ÙĨÚĪØ³Ù¹Ø±ÛĮÙĦ": 8043,
      "ĠÙĪØ§Ø´": 8044,
      "ĠÚĨÙ¹": 8045,
      "ĠØ¨Ø±ÙĤÛĮ": 8046,
      "Ø¨Ø§Ø±ÛĮ": 8047,
      "ĠÙ¾ÙĪÚĨÚ¾ÛĴ": 8048,
      "ĠØ§Ø³ÙĦØ§ÙħÛĮÛģ": 8049,
      "ĠØ¨ÛĮÙĪ": 8050,
      "ĠÙħØ³ÙħØ§Ø±": 8051,
      "ĠØ®Ø§Úº": 8052,
      "ĠÚ¯Ú¾ÙĪÙħ": 8053,
      "ÙħÙĤØ¨ÙĪØ¶Ûģ": 8054,
      "ĠØ®Ø³Ø±Ûģ": 8055,
      "Ú©Ø§Ø¨": 8056,
      "Ø§Ø¦Ø±Ùħ": 8057,
      "ĠÙ¾ÛĮÙ¾Ø±Ø²": 8058,
      "ĠÙģÛģÙħÛĮ": 8059,
      "ĠÙħØ´Ø±ÙĪØ·": 8060,
      "ÙĪØ§Ù¾": 8061,
      "ĠØ«ÙĨØ§": 8062,
      "ĠØ§ÚĪÛĮØ§ÙĦÛģ": 8063,
      "ĠØŃØ§": 8064,
      "ĠØªØ¯Ø±ÛĮ": 8065,
      "Ġ69": 8066,
      "ÛģÙĪØ¦ÛĴ": 8067,
      "Ø´ÛĮØ¯Ûģ": 8068,
      "ĠØ¬Ø±ÙħØ§ÙĨÛģ": 8069,
      "ĠÙģÛĮÚĨØ±": 8070,
      "ĠÙħÙĪØ²": 8071,
      "ĠØ³Ú©ÛĮÙħÙĪÚº": 8072,
      "ĠØ§Ø³Ù¾ØªØ§ÙĦÙĪÚº": 8073,
      "ĠÙħØ§ÙĨÚ¯ÙĨÛĴ": 8074,
      "ĠÙħÙĨÙĤØ·Ø¹": 8075,
      "ĠØ±Ø§ÛģØ¯Ø§Ø±ÛĮ": 8076,
      "ĠØªÚ¾ÙĪÚĳØ§": 8077,
      "Ø§Ø¤ÙĨÚĪÛĮØ´ÙĨ": 8078,
      "ĠØ¢ÙĨØ³ÙĪ": 8079,
      "ÙĤÙĪØ§ÙĨÛĮÙĨ": 8080,
      "ĠÚ¯ÙĪØ±": 8081,
      "ĠØ¹Ø§Ø¯ÛĮ": 8082,
      "ĠÙģÙĨÛĮ": 8083,
      "ĠÙħØ§Ø±Ú©ÛĮÙ¹ÙĪÚº": 8084,
      "ĠÙ¾Ø§Ø¦Ù¾": 8085,
      "ĠØ¬ÙĦØ³Ûģ": 8086,
      "ĠÚ©ÙĪÙ¹ÙĦÛĮ": 8087,
      "ĠØ³Ø³Øª": 8088,
      "ĠØ¯Ú©Ø§ÙĨØ¯Ø§Ø±ÙĪÚº": 8089,
      "ĠÙħØ³ØªÙĪÙĨÚ¯": 8090,
      "ĠÙħÙĦØŃÙĤÛģ": 8091,
      "ĠÙĦÙħÛĮÙ¹ÚĪ": 8092,
      "Ø§Ø²Ùħ": 8093,
      "ĠØ³Ù¹Ø±ÛĮÙ¹": 8094,
      "ÛĮØ±ÙĪÚº": 8095,
      "ĠØ¨Ø±ÛĮÚ¯ÛĮÚĪ": 8096,
      "ĠÙĨÙħØ§Ø¦ÙĨØ¯Ú¯Ø§ÙĨ": 8097,
      "ĠÚ©ÛģØªÛĮ": 8098,
      "ĠÚĪÛĮÚĪ": 8099,
      "ĠÛģÙħÛģ": 8100,
      "Ø³ØªÛĴ": 8101,
      "ĠØ¢Ø¦Ø³": 8102,
      "ÚĪÙĨÛĮ": 8103,
      "ĠÙĨØ§ÙħÙħÚ©ÙĨ": 8104,
      "ĠØªÙĨØ§Ø²Ø¹": 8105,
      "ĠØ³ÙĪØ§Ø±ÛĮ": 8106,
      "Ø§Ù¾Ø§": 8107,
      "ĠØ¨Ø§Ú©Ø³": 8108,
      "ĠÚ©Ø§Ø¬": 8109,
      "ĠÚ©ÛĮÙ¹ÛĮ": 8110,
      "Ø¬ÙĨÙ¹": 8111,
      "Ø¨Ø¹Ø¯Ø§Ø²Ø§Úº": 8112,
      "ĠØŃÙĨ": 8113,
      "ĠØ§Ø´Ø¯": 8114,
      "ĠÚĨÛĮØ±": 8115,
      "ĠÙĤØ·Ø±ÛĮ": 8116,
      "ÙħÙĤØ¯Ùħ": 8117,
      "Ø§ÙĦØŃÙĤ": 8118,
      "ĠØ§ÙĨØ³Ù¹ÛĮÙ¹ÛĮÙĪÙ¹": 8119,
      "ĠØ¨Ø§Ø¦ÛĮÚº": 8120,
      "ĠØ³Ú©ÙĪØ§ÚĪ": 8121,
      "ĠØºØ¶Ø¨": 8122,
      "ĠØ§ÙĨÛģÙĪ": 8123,
      "ĠØ¬Ú¾Ú©": 8124,
      "Ġ144": 8125,
      "ĠØ§ÙĨÙ¹Ø±ÛĮ": 8126,
      "ĠØ¢Ø³Ù¹Ø±ÛĮÙĦÙĪÛĮ": 8127,
      "ÙħÙĨØµÙĪØ¨ÛĴ": 8128,
      "Ú©Ø§Ø±Ú©ÙĨ": 8129,
      "ĠØ¨ÙĪÙĦØ§": 8130,
      "ĠÚ©Ø«Ø±Øª": 8131,
      "ĠØ´Ø§Ø®": 8132,
      "ĠÙħÙĦØ§ØŃ": 8133,
      "Ø±ØŃØ§ÙĦ": 8134,
      "ĠØ¯ÛĮÚ©Ú¾ØªØ§": 8135,
      "Ø¬Ø§ÙĪÛĮØ¯": 8136,
      "\\&": 8137,
      "ĠÚĨØ§Ø¯Ø±": 8138,
      "Ù¹ÛĮÚ©ÙĦ": 8139,
      "ĠÚ¯ÙĦØ²Ø§Ø±": 8140,
      "ĠØ¬ÙĪÙĨÛĮØ¦Ø±": 8141,
      "Ø³ÙħØ§Ø¹Øª": 8142,
      "Ø¯ÙĪØ±Ø§ÙĨ": 8143,
      "ĠÙħØŃØ§ÙģØ¸": 8144,
      "ĠÛ·": 8145,
      "Ġ2010": 8146,
      "ÙĦØ§ÙĨÛĴ": 8147,
      "ÙħØ·ÙĦØ¨": 8148,
      "ĠØªÙģØ±ÛĮÙĤ": 8149,
      "ĠØ¹ÙĨØ¯ÛĮÛģ": 8150,
      "ĠØªØ¨Ø¯ÛĮÙĦÛĮÙĪÚº": 8151,
      "Ø§ÛĮÙħØ§ÙĨ": 8152,
      "ĠÙħØ¬Ø³Ù¹Ø±ÛĮÙ¹": 8153,
      "ĠØ¨ÛĮÙ¹Ú¾Ø§": 8154,
      "Ø§Ø¦Ø±ÙħÙĨÙ¹": 8155,
      "ĠØ¨ÛģØ§Ø±": 8156,
      "ĠÚ©Ø§ÙĦØ§": 8157,
      "ĠÙħØ´Ø§ÛģØ¯Ûģ": 8158,
      "ĠØ²ÙĨØ¯Ú¯ÛĮÙĪÚº": 8159,
      "Ø§ØºØ¨": 8160,
      "ĠØ§ÙĪÙħ": 8161,
      "ĠØ¯ÛģØ§Ø¦ÛĮÙĪÚº": 8162,
      "ĠÙĤØ¨Ø§Ø¦ÙĦ": 8163,
      "ĠB": 8164,
      "ĠØ¹ÛĮØ³": 8165,
      "ĠÙ¾Ú©ÚĳÛĴ": 8166,
      "ĠØ¹ÙĤØ§Ø¦Ø¯": 8167,
      "ĠÙ¾ÛĮØ´Ø±ÙģØª": 8168,
      "ĠÚ©Ú¾ÛĮÙĦØªÛĴ": 8169,
      "ĠØ¨ÚĨØ§ÛĮØ§": 8170,
      "ĠØ¨ÛĮØ¯Ø§Ø±": 8171,
      "ÛĮÙħØ²": 8172,
      "ĠØ§Ø´ØªÛģØ§Ø±Ø§Øª": 8173,
      "ĠÚĪØ±Ø§ÙħÛĴ": 8174,
      "47": 8175,
      "Ø¨Ø±Ø¯": 8176,
      "ĠØ¹ÙĦÙħÙĪÚº": 8177,
      "ĠØ¨Ø§ÚĪÛĮ": 8178,
      "ĠÙģÙĤÛģ": 8179,
      "ĠÙĦÙĨÚ©ÙĨ": 8180,
      "ĠØ¬ØªÙĪ": 8181,
      "ÛģÙĪØ§": 8182,
      "ĠØ³Ø±Ù¹ÛĮÙģÚ©ÛĮÙ¹": 8183,
      "ĠØ§ÙĦØ§ÙĨ": 8184,
      "ĠÙ¾ÙĪØ´ÛĮØ¯Ûģ": 8185,
      "ĠÙģÙĦÙħÛĮ": 8186,
      "ĠØ³Ø±ÙģÛģØ±Ø³Øª": 8187,
      "ĠØ´Ø§ÛģØ±Ø§ÛģÙĪÚº": 8188,
      "Ø§ÛĮØ³ÙĪØ³ÛĮ": 8189,
      "ĠØ²ÙħØ¨Ø§Ø¨ÙĪÛĴ": 8190,
      "Ø±ÛĮØ³Ú©ÛĮÙĪ": 8191,
      "ĠØ³ÚĨØ§Ø¦ÛĮ": 8192,
      "ĠØ§Ú©Ø§Ø¦ÙĪÙĨÙ¹Ø³": 8193,
      "ĠØ¯Ø§ÙħØ§Ø¯": 8194,
      "ĠÙħØ·Ø§ÙĦØ¹Ûģ": 8195,
      "ĠØ³Ù¹ÛĮÚĪÛĮÙħ": 8196,
      "ĠØ¯ÙħØ§ØºÛĮ": 8197,
      "ĠÛģØ§Ø¦ÛĴ": 8198,
      "ĠÙ¾Ø±ÙĨÙ¹": 8199,
      "ĠØ·Ø§ÙĤ": 8200,
      "ĠÙ¾ÚĳÚ¾ÛĴ": 8201,
      "Ø¯ÙĦØ§ÙĦ": 8202,
      "ĠØ§Ø¨Ø§Øª": 8203,
      "ĠÛĮØ§Ø¯Ú¯Ø§Ø±": 8204,
      "ĠÙħØ´Øº": 8205,
      "ĠØ¹Ø¨ÙĪØ±ÛĮ": 8206,
      "ĠÙħØ®Ø¯ÙĪÙħ": 8207,
      "ĠÙħØ¹Ø§Ø´Ø±ØªÛĮ": 8208,
      "Ø¹Ø¯Ø§ÙĦ": 8209,
      "Ù¾ÛģÙĦÛĮ": 8210,
[...]
