{"<s>":0,"<pad>":1,"</s>":2,"<unk>":3,"<mask>":4,"!":5,"\"":6,"#":7,"$":8,"%":9,"&":10,"'":11,"(":12,")":13,"*":14,"+":15,",":16,"-":17,".":18,"/":19,"0":20,"1":21,"2":22,"3":23,"4":24,"5":25,"6":26,"7":27,"8":28,"9":29,":":30,";":31,"<":32,"=":33,">":34,"?":35,"@":36,"A":37,"B":38,"C":39,"D":40,"E":41,"F":42,"G":43,"H":44,"I":45,"J":46,"K":47,"L":48,"M":49,"N":50,"O":51,"P":52,"Q":53,"R":54,"S":55,"T":56,"U":57,"V":58,"W":59,"X":60,"Y":61,"Z":62,"[":63,"\\":64,"]":65,"^":66,"_":67,"`":68,"a":69,"b":70,"c":71,"d":72,"e":73,"f":74,"g":75,"h":76,"i":77,"j":78,"k":79,"l":80,"m":81,"n":82,"o":83,"p":84,"q":85,"r":86,"s":87,"t":88,"u":89,"v":90,"w":91,"x":92,"y":93,"z":94,"{":95,"|":96,"}":97,"~":98,"¡":99,"¢":100,"£":101,"¤":102,"¥":103,"¦":104,"§":105,"¨":106,"©":107,"ª":108,"«":109,"¬":110,"®":111,"¯":112,"°":113,"±":114,"²":115,"³":116,"´":117,"µ":118,"¶":119,"·":120,"¸":121,"¹":122,"º":123,"»":124,"¼":125,"½":126,"¾":127,"¿":128,"À":129,"Á":130,"Â":131,"Ã":132,"Ä":133,"Å":134,"Æ":135,"Ç":136,"È":137,"É":138,"Ê":139,"Ë":140,"Ì":141,"Í":142,"Î":143,"Ï":144,"Ð":145,"Ñ":146,"Ò":147,"Ó":148,"Ô":149,"Õ":150,"Ö":151,"×":152,"Ø":153,"Ù":154,"Ú":155,"Û":156,"Ü":157,"Ý":158,"Þ":159,"ß":160,"à":161,"á":162,"â":163,"ã":164,"ä":165,"å":166,"æ":167,"ç":168,"è":169,"é":170,"ê":171,"ë":172,"ì":173,"í":174,"î":175,"ï":176,"ð":177,"ñ":178,"ò":179,"ó":180,"ô":181,"õ":182,"ö":183,"÷":184,"ø":185,"ù":186,"ú":187,"û":188,"ü":189,"ý":190,"þ":191,"ÿ":192,"Ā":193,"ā":194,"Ă":195,"ă":196,"Ą":197,"ą":198,"Ć":199,"ć":200,"Ĉ":201,"ĉ":202,"Ċ":203,"ċ":204,"Č":205,"č":206,"Ď":207,"ď":208,"Đ":209,"đ":210,"Ē":211,"ē":212,"Ĕ":213,"ĕ":214,"Ė":215,"ė":216,"Ę":217,"ę":218,"Ě":219,"ě":220,"Ĝ":221,"ĝ":222,"Ğ":223,"ğ":224,"Ġ":225,"ġ":226,"Ģ":227,"ģ":228,"Ĥ":229,"ĥ":230,"Ħ":231,"ħ":232,"Ĩ":233,"ĩ":234,"Ī":235,"ī":236,"Ĭ":237,"ĭ":238,"Į":239,"į":240,"İ":241,"ı":242,"Ĳ":243,"ĳ":244,"Ĵ":245,"ĵ":246,"Ķ":247,"ķ":248,"ĸ":249,"Ĺ":250,"ĺ":251,"Ļ":252,"ļ":253,"Ľ":254,"ľ":255,"Ŀ":256,"ŀ":257,"Ł":258,"ł":259,"Ń":260,"Ø§":261,"ÛĮ":262,"ĠØ":263,"Ú©":264,"ĠÙ":265,"Ø±":266,"ÙĪ":267,"Ûģ":268,"ÛĴ":269,"ĠÚ©":270,"ÙĨ":271,"Ø§Ø":272,"ÙĦ":273,"Ùħ":274,"ĠÙħ":275,"Úº":276,"ĠØ§":277,"Øª":278,"ĠÛģ":279,"ÛĮÚº":280,"Ø¯":281,"ĠØ³":282,"Ø³":283,"Ú¯":284,"ĠØ¨":285,"Ú¾":286,"ĠÙĨ":287,"Ø¨":288,"ĠÚ©ÛĮ":289,"ÙĪØ±":290,"ĠÙ¾":291,"ĠÚ©ÛĴ":292,"Ø§ÙĨ":293,"ĠØª":294,"Ø§Ø±":295,"ĠØ§Ø":296,"ĠØ¬":297,"ĠÛ":298,"Ù¹":299,"ĠÛĶ":300,"ĠØ¯":301,"ÙĤ":302,"Ùģ":303,"ĠÙħÛĮÚº":304,"Ø§Ø¦":305,"Ø¹":306,"ĠÙĪ":307,"ÙĪÚº":308,"ĠÚ©Ø±":309,"ĠÚ¯":310,"Ø¦":311,"ĠØ±":312,"ĠÚ©Ûģ":313,"Ø§ÙĦ":314,"Ø²":315,"ĠÛģÛĴ":316,"Ø´":317,"ĠØ§ÙĪØ±":318,"Ù¾":319,"Ø±ÛĮ":320,"Ø§Ùħ":321,"ĠÚ©ÙĪ":322,"ÚĨ":323,"Ø¬":324,"ĠÙĦ":325,"ĠØ³ÛĴ":326,"Ø§Øª":327,"ĠØĮ":328,"ÛĮØ§":329,"ĠÙĨÛĴ":330,"ĠØ¢":331,"ØŃ":332,"ĠÚ©Ø§":333,"ÚĪ":334,"ĠÛģÙĪ":335,"ÙĨÛĴ":336,"ĠØ§ÙĨ":337,"ĠØ¹":338,"ĠÙ¾Ø±":339,"ĠØ§Ø³":340,"ÛĮÙĨ":341,"ĠØ®":342,"ĠØŃ":343,"ĠØ´":344,"ÛĮÚ©":345,"ĠÙģ":346,"Ø§Ø¯":347,"Ø¦ÛĴ":348,"Øµ":349,"Ú¾ÛĮ":350,"Ø§Ø¨":351,"Ø§Ûģ":352,"ÙĦÛĮ":353,"ÛĮØ±":354,"ĠÙĤ":355,"ĠÚĨ":356,"Ø§Ø³":357,"ĠÛģÛĮÚº":358,"Ø®":359,"ĠÛĮ":360,"Ø¦ÛĮ":361,"Ø·":362,"ÙħÛĮ":363,"ĠØ§ÙĦ":364,"ÙĪÙĨ":365,"Ø§Ø²":366,"ĠÙĨÛģ":367,"Úĳ":368,"ĠØµ":369,"ĠØ¨Ú¾ÛĮ":370,"ÙĦÛģ":371,"ĠØ§ÛĮ":372,"ĠØ±Ûģ":373,"Ø§Ø¦ÛĮ":374,"ØªÛĴ":375,"Ø§Ú©":376,"ĠÚ©ÛĮØ§":377,"ÙĦØ§":378,"ÙĨØ§":379,"Ú©ÛĮ":380,"ĠÚ©ÛģØ§":381,"ØªÛĮ":382,"ĠØªÚ¾":383,"ÙĪÙĦ":384,"ÙĨÛĮ":385,"Ġ)":386,"ÛĮØ¯":387,"ĠØ§Ù¾":388,"ĠØ·":389,"ĠÙ¹":390,"ĠÚĪ":391,"ĠØ²":392,"ĠØ¯ÛĮ":393,"Ø§Ø±ÛĮ":394,"Ù¹ÛĮ":395,"Ø¸":396,"Ġ2":397,"ÙĨØ¯":398,"Ø±Ø¯":399,"ĠÙĨÛģÛĮÚº":400,"Ġ(":401,"Ø³Øª":402,"ĠÙĦÛĮ":403,"ÙĨÙ¹":404,"ĠÛĮÛģ":405,"ĠÙħÙĦ":406,"ÙĪÙħ":407,"Ø¶":408,"ĠØ§ÛĮÚ©":409,"Ø§Ø¦ÛĴ":410,"ØªØ§":411,"ĠÙ¾ÛĮ":412,"Ø³ÛĮ":413,"Ø´ÙĨ":414,"Ø¨Ø±":415,"ÙĨÚ¯":416,"âĢ":417,"ĠØªÙĪ":418,"ĠØ±ÙĪ":419,"Ø±ÙĪ":420,"ĠÙĪØ§ÙĦ":421,"Ø±ÛĮÙĨ":422,"ÙĪØ¯":423,"Ú©ÛĴ":424,"ĠÚ¯ÛĮØ§":425,"Ú¯Ø±":426,"ĠÙħÙĪ":427,"Ø§ÙĨÛģ":428,"Ù¹Ø±":429,"ĠØ¬ÙĪ":430,"ĠØ§Ø®":431,"ĠÙĪÛģ":432,"ÛĮÙħ":433,"ÛĮÙĦ":434,"Ø§ÙĨÛĮ":435,"Ø§Ø±Øª":436,"Ġ20":437,"ĠÚ©Ø±ÙĨÛĴ":438,"ĠÙ¾ÙĪ":439,"ĠØ¬Ø³":440,"ÙħØ¯":441,"ĠÙħØŃ":442,"ĠÙħÙĨ":443,"Ø§Ùģ":444,"ĠØªÚ¾Ø§":445,"Ø§ÙĨÛĴ":446,"ÛĮØª":447,"Ø¹Ø¯":448,"ĠÛģÙĪØ¦ÛĴ":449,"Ú©Ûģ":450,"ĠÙħØ¹":451,"Ø§Ø¹":452,"ĠÚ¯Ø§":453,"ĠØ¯ÛĮØ§":454,"Ú¾Ø±":455,"ÙĦÛĴ":456,"Ġ201":457,"Ø§Ø¨ÙĤ":458,"Ø«":459,"ÙĪØ¨":460,"ĠÙħØ·":461,"Ø°":462,"ĠÛģÙħ":463,"Ġ1":464,"Ø±Ùģ":465,"ĠØ§ÙĦÙĦÛģ":466,"Ø³ÙĦ":467,"Ø¡":468,"ĠØ³ÛĮ":469,"Ø§ÙĤ":470,"Ú©Ú¾":471,"ĠØ¨ÛĮ":472,"Ø§Ø¬":473,"ÙħØ§ÙĨ":474,"ĠØªØ±ÛĮÙĨ":475,"Ø¢":476,"ĠØªØ¹":477,"ĠØŃÚ©":478,"ĠÙģØ±":479,"ĠÚ©Ø±ØªÛĴ":480,"Ø§Ø²Ûģ":481,"Ø§ØªÚ¾":482,"ĠÙĦÛĮÛĴ":483,"ĠÙģÛĮ":484,"Øº":485,"Ø§Ø¦ÙĨÙ¹":486,"ĠØ§Ø±Ø¯":487,"ĠØªÙħ":488,"ĠØ§Ø¹":489,"ĠØ§Ø®Ø¨":490,"ÛĮÛģ":491,"ĠØ§Ùħ":492,"Ġ2018":493,"ĠØ§Ø±Ø¯ÙĪ":494,"ĠÙħÙĤ":495,"ĠÚ¯ÛĴ":496,"Ø§Úº":497,"ĠØ¯ÙĪ":498,"Ø±Ú©":499,"ĠØ±ÛģÛĴ":500,"ĠØ¬Ø§Ø¦ÛĴ":501,"ÙħÙĦ":502,"ĠÙ¾ÙĪØ§Ø¦ÙĨÙ¹":503,"ÙģØ±":504,"ĠØ³Ú©":505,"ĠÙ¾Ûģ":506,"ĠÙħÛĮ":507,"ĠØ§Ø¨":508,"Ú¯ÛĮ":509,"ĠØ§Ø®Ø¨Ø§Ø±Øª":510,"ĠØ§Ø®Ø¨Ø§Ø±ØªØ§Ø²Ûģ":511,"ĠÛģÛĮ":512,"âĢĺ":513,"ĠØ§Ù¾ÙĨÛĴ":514,"ĠØº":515,"ĠÙħØ·Ø§Ø¨ÙĤ":516,"Ø³Ø±":517,"ĠØ¬ÙĨ":518,"ĠØ¨ÙĨ":519,"ĠØ¨Ø±":520,"ÙĪÛĮ":521,"ĠÙĦÙĪ":522,"Ø¨Ø§Ø¯":523,"Ø§ÙĦÛĮ":524,"ĠØ¬Ø§ÙĨ":525,"ĠØ¯Ø±":526,"ÙĦØ§Ùħ":527,"Ø´Øª":528,"ĠØ§Ø¯":529,"ÙĪØ±ÛĮ":530,"Ú©Ø±":531,"ĠØ¬Ø§":532,"ĠÙĪØ²":533,"ĠØªÚ©":534,"ĠØ³Ø§ØªÚ¾":535,"ĠØ¨Ûģ":536,"Ø§ØŃ":537,"Ø§ÙĨÛģÙĪÚº":538,"ĠÙħØª":539,"ĠØ¨Ø¹Ø¯":540,"ĠÚ¯Ø¦ÛĮ":541,"ĠØ§ÙĨÛģ":542,"ÙĦØ¦ÛĴ":543,"ĠØ¶":544,"ĠÚ©Ùħ":545,"ĠÙĦØ¦ÛĴ":546,"ĠØ°":547,"Ø¬Ûģ":548,"Ø¯Ø±":549,"ÙĤÛĮ":550,"ĠÚ©ÛĮÙĦØ¦ÛĴ":551,"ÙĪÛģ":552,"ĠØ³Ø±":553,"ĠØ¯ÙĪØ±":554,"ÙĪØ§Ùħ":555,"ÙħØ§":556,"ĠÚ¯ÛĮ":557,"Ø§Ø±ÛĴ":558,"ĠÚ©Ø§Ø±":559,"ÙĪØ§ÙĦ":560,"ĠØ¢Ù¾":561,"ĠÚ©Ø§Ùħ":562,"Ú©Ø§":563,"Ø®Øª":564,"ĠÙ¾Ø§Ú©":565,"ÙħÛĮÚº":566,"Ø§ÙĪØ±":567,"ĠØªØŃ":568,"ĠÙĨÙĪ":569,"ĠÙĪØ§ÙĦÛĴ":570,"ĠØ®Ø§ÙĨ":571,"Ø³Ù¹":572,"ÙħÛģ":573,"ĠØ¹ÙĦÛĮ":574,"ÙĪÙħØª":575,"Ø±Ø¨":576,"ÙĦØ§Ùģ":577,"ĠØ§ÛĮØ³":578,"ĠØ´Ûģ":579,"ĠØªÚ¾ÛĴ":580,"Ø§Øµ":581,"ĠØ§ØŃ":582,"ĠÙĪØ²ÛĮØ±":583,"ĠØ§Ù¾ÙĨÛĮ":584,"ÙĤØª":585,"Ø¦Ø±":586,"ÛĮØ§Ø¯":587,"ÙĴ":588,"Ø§Ø´":589,"ĠÙĦÙĪÚ¯":590,"ĠØ¨Úĳ":591,"Ø±ØŃ":592,"ĠØ¨Ú¾":593,"ĠÚ©Ø±ÛĮÚº":594,"ĠÚ©Ú¾":595,"ĠØ±Ú©Ú¾":596,"ĠØ®ÙĪ":597,"ĠÛģÙĪÙĨÛĴ":598,"ĠØ¨ÛģØª":599,"ÙĦØ§ÙĤ":600,"Ø³ØªØ§ÙĨ":601,"ĠØ¢Ø¨Ø§Ø¯":602,"ÙĦÙĤ":603,"ÚĨÚ¾":604,"Ú©ÙĪ":605,"ĠØ³Ø§ÙĦ":606,"ĠÙħÙĦÚ©":607,"ÙħØ±":608,"ĠÙģÛĮØµ":609,"ĠØ¬Ø¨":610,"ĠØ§ÙĨØª":611,"ĠÚ¯Ø¦ÛĴ":612,"ĠØªØ±":613,"Ø§Ø¡":614,"Ø¯Ûģ":615,"ĠÚ©ÙĪØ¦ÛĮ":616,"Ġ:":617,"Ø§Ø¦ÛĮÚº":618,"ÚĪÛĮ":619,"ĠØ¨ÙĦ":620,"ĠØ±ÛĮ":621,"Ø§Ø¶":622,"Ø±Øª":623,"ÙģÛĮ":624,"ĠØ¢Ø¦ÛĮ":625,"Ø¯ÛĮ":626,"ĠØ§Ûģ":627,"ĠØŃÚ©ÙĪÙħØª":628,"ĠØ¹ÙĪØ§Ùħ":629,"ØªÙħ":630,"ÛĮØ§Úº":631,"ĠÚ©ÛģÙĨØ§":632,"ĠØ¬Ø§Øª":633,"ĠØ®ÙĦØ§Ùģ":634,"ĠØ¬Ø§Ø±ÛĮ":635,"Ø§Ø±ÙĪÚº":636,"ĠÚ©Ø³ÛĮ":637,"Ø¬ÙĪØ¯":638,"ĠÙħØ³":639,"ĠØ³Ø¨":640,"Ø³ÛĴ":641,"Ø²ÛĮ":642,"ÙģØª":643,"Ġn":644,"Ġr":645,"Ø§Ø³Øª":646,"ĠÙ¹ÛĮ":647,"Ø¨ÙĦ":648,"ĠÚĪÛĮ":649,"ĠØ³ÙĪ":650,"ĠÚĨÛĮ":651,"ÙħØ§ÙĦ":652,"Ø¨ÛĮ":653,"ĠØ¨Ø§Øª":654,"ÙĪØ±Øª":655,"ÙĪØ±Ù¹":656,"ĠØ±ÛģØ§":657,"ĠÙħØŃÙħØ¯":658,"ĠØ¬Ø§ÙĨØ¨":659,"ĠØ¯ÙĨ":660,"ĠØ§Ø³Øª":661,"ĠÙ¾ÛĮØ´":662,"ĠÙħØ´":663,"ÙĪØ³":664,"Ø¨Ûģ":665,"Ø¬Ø¨":666,"ĠÙĦÛĮØ§":667,"ÙĦÙħ":668,"ĠØªÚ¾ÛĮ":669,"Ø§Ù¾":670,"ĠÚĨØ§Ûģ":671,"ĠÙĦÚ¯":672,"ĠØªÙħØ§Ùħ":673,"ĠØ¬Ùħ":674,"Ù¹Ú¾":675,"ĠØ¨ÚĨ":676,"ĠÛģÙĪÚº":677,"ĠÙĨÛĮ":678,"ÛĮÚ©ÙĨ":679,"ĠÛģØ±":680,"ĠØ§Ø¬":681,"ĠÚĨÚ¾":682,"ÙĤØ¹":683,"Ø¯Ø§Ø±":684,"Ø§Ø¦ÙĦ":685,"ĠØ§ÙĨÛģÙĪÚº":686,"ĠØ§Ùģ":687,"ĠÙĨØ§Ùħ":688,"ĠÛĮØ§":689,"Ø±Ûģ":690,"ĠÚ©ÙħÛĮ":691,"ĠØ±ÙĪØ²":692,"ÙħØª":693,"Ġ3":694,"ĠØ±ÛģÛĮ":695,"Ø§ÙĪ":696,"Ø§ÛģÙħ":697,"ĠØ²ÛĮØ§Ø¯":698,"Ø¬Ú¾":699,"ÙĨØ³":700,"ĠÛģÙĪØ§":701,"ÚĨÛĮ":702,"Ø±ÛĮÚ©":703,"Ø§Ø±Ûģ":704,"ĠÙħØ²":705,"Ø§Ø¤":706,"ÙĪÙ¹":707,"ĠÙħÛģ":708,"ĠØ§ÛĴ":709,"ÙħÛĮØ±":710,"ĠØ§ÙĪ":711,"ÛĮÙĨÛĮ":712,"Ø§Ø¯ÛĮ":713,"ĠØ®Ø·":714,"ĠØ¯ÙĪØ±Ø§ÙĨ":715,"ÙĪÙĨÛĮ":716,"Ø¬ÛĮ":717,"ĠØ·Ø±ØŃ":718,"Ù¹Ø³":719,"ĠÙĨÙħ":720,"ĠÙĨØ¸":721,"Ø¬ÙĪ":722,"ÛģØ§Ø±":723,"ĠÙħÙĪÙĤØ¹":724,"ĠØªÛĮ":725,"ĠÙħÙĪØ¬ÙĪØ¯":726,"Ø¯Ø§":727,"ĠØ§ÙĤ":728,"ÙħÛĮÙĨ":729,"ĠØ³ÛĮÚ©":730,"Ø³Ùħ":731,"ĠØ²ÛĮØ§Ø¯Ûģ":732,"âĢĻ":733,"ĠØ¯ÛĮÚ¯Ø±":734,"ĠÙĪÙĤØª":735,"Ø§ÙħØ§Øª":736,"Ú©ÙĦ":737,"Ø±ÛĮØ¨":738,"ĠØ±ÙĪÙ¾":739,"ĠØ¬ÛĮ":740,"ĠÙĤØ±":741,"ĠÚ©Ø±ÙĨØ§":742,"ĠØ§ÙģØ±":743,"Ø§Ø®":744,"Ø±ÛĮÙģ":745,"ĠØ§Ú©":746,"ĠÙ¾Ø§Ú©Ø³ØªØ§ÙĨ":747,"ĠØ³Ùħ":748,"Ø§ØµÙĦ":749,"Ø¯Ø§ÙĦ":750,"Ø®ÙĪ":751,"ĠØ¯ÛĴ":752,"ĠÚ©Ø±ÙĪ":753,"ĠØªÙĤ":754,"ĠØ¹ÙĦØ§ÙĤ":755,"Ø§ÙħÙĦ":756,"ÚĳÛĮ":757,"Ø§Ø³ÛĮ":758,"ÙĪØª":759,"ĠÚ©ÙĦ":760,"ÙĨÚĨ":761,"ĠÙ¾Ø§Ø±":762,"ĠØ·ÙĪØ±":763,"ĠØ§ÙģØ±Ø§Ø¯":764,"ĠØ±ÙĪÙ¾ÛĴ":765,"ĠÙħØ³ÙĦ":766,"Ø³Ù¾":767,"Ú©ÙĨ":768,"ĠØ§Øª":769,"ĠÙĦÙĪÚ¯ÙĪÚº":770,"Ø´ÛĮ":771,"ĠØ¨ØªØ§":772,"ĠØ¨ÙĨØ§":773,"ÙħÛĮØª":774,"ĠØ§Ø¸":775,"ÙĪÙĦÛĮ":776,"ĠÙĪØ§ÙĦÛĮ":777,"ĠØŃÙĪØ§ÙĦ":778,"ĠÚ¯Ø²":779,"ĠØ§Ú¯Ø±":780,"ĠÙħØ¯":781,"Ù¹Ø±ÛĮ":782,"ĠØµØŃ":783,"ĠÙ¾ÙĪØ±":784,"Ø§Ø¦Ø¯":785,"ÙĦÙģ":786,"Ø¸Ùħ":787,"Ø¹Ûģ":788,"Ø§ÛģØ±":789,"ĠÙĦÛĮÚ©ÙĨ":790,"Ø§Ø¹Øª":791,"Ø®Øµ":792,"ĠÙħØªØ¹":793,"ÙħÙĨ":794,"ĠØ³Ø§Ùħ":795,"ĠØ¨Ú¾Ø±":796,"ĠØ¹ÙħÙĦ":797,"ĠØ¶Ø±":798,"Ú©Ø§Ø±":799,"ØµÛĮÙĦ":800,"ĠÙħØ®Øª":801,"ĠØ§ÛĮÙĨ":802,"ĠÙĪÛĮ":803,"ĠØ¨ØªØ§ÛĮØ§":804,"ĠØ§Ø¸ÛģØ§Ø±":805,"ĠÚ©Ø´":806,"ĠØ·Ø±Ùģ":807,"Ø§ØªÛĮ":808,"ĠØ¯ÛĮÚ©":809,"ĠÙĪØ¬Ûģ":810,"ĠØ§ÙĨØ³":811,"ĠØ¹Ø¨":812,"ĠØµÙĪØ¨":813,"ĠØŃØ§ØµÙĦ":814,"ĠØ³ÙĦ":815,"ĠÙħÚ©":816,"Ø¯ÙĪ":817,"ĠØ¯Ûģ":818,"ĠØŃÙĤ":819,"ĠÛģÙĪØ¦ÛĮ":820,"ĠØŃÙĪØ§ÙĦÛĴ":821,"ĠÙħØ²ÛĮØ¯":822,"ĠØ§ÛĮÙħ":823,"ĠÙ¾ÛģÙĨÚĨ":824,"ĠÙħÛĮÙĨ":825,"Ø§ÙĨØ§":826,"Ø§ÛĮØ§":827,"ĠØ¹ÙĦÛĮÛģ":828,"ĠØ§Ø³ÙĦØ§Ùħ":829,"ĠØŃØ³":830,"ÙĦØ§Ø³":831,"Ġ4":832,"ĠÙ¾ÛģÙĦÛĴ":833,"Ø±ÙĦ":834,"ĠØ§ÙĨÛģÛĮÚº":835,"Ø±Ø²":836,"ĠØ«":837,"Ø±Ùħ":838,"ĠÙ¹ÛĮÙħ":839,"Ø´ØªÛģ":840,"ĠØºÛĮØ±":841,"Ø§ÛĮ":842,"Ø§Ø¦ÙĨ":843,"ĠØ®ÛĮ":844,"Ù¾ÙĪØ±Ù¹":845,"Ġ5":846,"ĠØµØ¯Ø±":847,"ĠØ¯ÛĮÚ©Ú¾":848,"ĠÛģØ²":849,"ĠÙħÛĮÚĪ":850,"ĠÙħØªØ¹ÙĦÙĤ":851,"ĠÙ¾Úĳ":852,"ĠØ´Ø§Ûģ":853,"Ø¬ÙĨ":854,"ĠØ§Ø³ØªØ¹":855,"ØªØ±":856,"ÙĪØµ":857,"ĠØ¢Ø±":858,"Ù¾ÛĮ":859,"Ø±ÙĪØ¹":860,"ÛģØ±":861,"Ø§Ø¨ÛĮ":862,"ĠØ´ÛĮ":863,"ĠØ¬Ø§Ø¦ÛĮÚº":864,"ĠØ§Ø¶":865,"ĠÙĦÛĴ":866,"Ø§Ø¦Ùħ":867,"Ø¯Ùħ":868,"ĠØªÙĨ":869,"ĠÚ©ÚĨÚ¾":870,"ĠØ±Ø³":871,"ĠØ¨ÙĨØ¯":872,"ĠØ¢Ø¦":873,"ÙģØµÛĮÙĦ":874,"ĠØ¹ÙħØ±":875,"ĠÙ¾Ø±ÙĪ":876,"Ø§ÚĨÛĮ":877,"ĠÙħØ±":878,"ĠØ´Ø±ÙĪØ¹":879,"ĠØŃØ¶":880,"Ø±ÙģØª":881,"ÙĪØ²":882,"ĠØ¨ÛĮØ§ÙĨ":883,"ĠØ¨Ø¯":884,"Ù¾Ø±":885,"ĠÙħØ®ØªÙĦÙģ":886,"Ø¹ÛĮ":887,"ĠØ³ÙĨ":888,"Ø¬Ø¨Ú©Ûģ":889,"ĠÙħÙĦØ²":890,"ĠØ¢Ú¯":891,"ĠØ¨Ø§Ø±":892,"ĠÚ©Ø±ÛĴ":893,"ĠØµØ±Ùģ":894,"ØµÙĪØ¨":895,"ĠØ¯ÙĦ":896,"ĠÙ¾Ú¾Ø±":897,"ĠâĢĺ":898,"ÙĦØ§ÙĨ":899,"ĠÙĤØ§ÙĨ":900,"Ø§ÛģÙĪØ±":901,"ĠØŃØ§ÙĦ":902,"ØªÙĪ":903,"ĠÙĤÙĪ":904,"ĠØ´Ø§ÙħÙĦ":905,"ĠÚ¯Ø±ÙģØª":906,"ĠØ§ØŃÙħØ¯":907,"ĠØ¬Ø¨Ú©Ûģ":908,"ĠØ³Ú©ØªØ§":909,"ĠÛģÙĪØªØ§":910,"ĠØ¬ÙĦ":911,"ĠØ§Ø³ØªØ¹ÙħØ§ÙĦ":912,"ĠÙħÛĮØ±":913,"ĠØ¸":914,"ĠØ¢Ùģ":915,"ĠØ¬Ø§ÙĨÛĴ":916,"ĠÙ¾ÛĮØ¯":917,"Ùĳ":918,"ĠØ´Ø®Øµ":919,"ĠÛģØ¯Ø§":920,"ĠØŃØµ":921,"ĠØ¢Ø¬":922,"ĠØªØ±ÙĤÛĮ":923,"Ø§Ø³ÙĦØ§Ùħ":924,"ÙģØµÛĮÙĦØ§Øª":925,"ÙĪÙĨÙĪÚº":926,"ĠÙĪÙģ":927,"ĠÚ©Ø¦ÛĴ":928,"ĠØ¨ÛĴ":929,"ĠÙģÛĮØµÙĦÛģ":930,"ĠØ³ÙħÛĮØª":931,"ĠÙĪØ§ÙĤ":932,"ĠØ§Ø³ÛĴ":933,"ĠØ¯Ú¾":934,"ĠÙĨØ´":935,"ĠØªØ¹Ø§ÙĦÛĮ":936,"ĠÙħØ°":937,"Ø¯ÛĮØ¯":938,"ĠØªØ¨":939,"ĠÙħØ§Ø±":940,"ÙĨÚĪ":941,"ØŃÚ©":942,"ĠÛģØ²Ø§Ø±":943,"ĠØ¬Ûģ":944,"ÙĪØ±Ø³":945,"ÙĪÙĤ":946,"Ġ6":947,"ĠØ§ÙħÛĮ":948,"ÙĦØ¨":949,"Ø§ÙħÛĮ":950,"ÙĦÛĮÙħ":951,"ĠØªØ¬":952,"ĠÙģØ±ÙħØ§":953,"Ú¯ÙĪ":954,"Ø§Ú©Ú¾":955,"Ú©Ù¹":956,"ĠØªÛĮÙĨ":957,"ĠØ¯ÙĪØ³Ø±":958,"ĠÚ¯Ú¾Ø±":959,"ĠØ¬Ø§ØªØ§":960,"00":961,"ĠØ®ÙĪØ¯":962,"Ø±ÛĮÙĦ":963,"ĠØ³Ø§Ø¨ÙĤ":964,"ĠÙħØ³Øª":965,"Ø´Ûģ":966,"ØªØ§ÙĦ":967,"ĠØ§Ø¶Ø§Ùģ":968,"ĠÙħØ§Ûģ":969,"ĠØ´Ø±ÛĮÙģ":970,"ĠØ§Ø¹ÙĦÛĮ":971,"ĠØ¨ÚĳÚ¾":972,"ĠØ¯ÛĮÚº":973,"ĠØ¨Ø¬":974,"Ø¨Øª":975,"ĠÙģÙĪ":976,"ĠØµÙĪØ±Øª":977,"ÙĨØ¬":978,"ĠÙħØ¬":979,"Ø§ÙĤÛĮ":980,"ĠØ¢Ø²":981,"ĠÙħÚ©ÙħÙĦ":982,"ĠÚ©ÛĮÛĴ":983,"ĠØŃØ¶Ø±Øª":984,"ĠØ¨ÙĨÛĮ":985,"ĠØ§ÙĨØªØ¸":986,"Ø³ÙĦÙħ":987,"ĠØ¨Ø§ÙĦ":988,"ĠÛĮÙĤ":989,"ĠÙħÛĮÚĪÛĮØ§":990,"ĠØ¨ØŃ":991,"ØºÛĮØ±":992,"ĠØ§ÙħØ±ÛĮ":993,"ĠÙĦØ§Ú©Ú¾":994,"ÛĮØ§Øª":995,"ĠÚ¯Ø±":996,"ĠÙ¾Ø§Ø±Ù¹ÛĮ":997,"ĠØ¯ÛĮÙĨÛĴ":998,"ĠØ´ÛģØ±":999,"ĠÙ¾Ø§Ø³":1000,"Ø§Ø¦Ø±":1001,"ĠØ¦":1002,"ÙĦÙĪÙħ":1003,"ĠØ§Ø´":1004,"ĠÚ©Ø§ÙħÛĮ":1005,"Ø§Ú©Ûģ":1006,"ĠØ§Ø¯Ø§":1007,"Ø§Ø¶ØŃ":1008,"ĠØ§Ù¹Ú¾":1009,"ĠØ´Ø±Ú©":1010,"Ø³ØªØ§ÙĨÛĮ":1011,"ĠÚ¯Ú¾":1012,"Ø¹ÛĴ":1013,"ĠÚ¯Ø±Ø¯":1014,"ĠØ±ÛģÙĨ":1015,"ĠØ¨ÛĮÙĨ":1016,"Ø¹ÙĤ":1017,"ĠØ²ÙĨØ¯":1018,"ĠØ§Ú¯":1019,"ÛģÙħ":1020,"ĠÚ©ÙĪØ´":1021,"ÙĪÙĨÚ©Ûģ":1022,"ĠØ³Ûģ":1023,"ĠØ§Ø±":1024,"Ø§Ø«":1025,"ÛĮÚ©ÙĦ":1026,"Ø´ÙĨÙĦ":1027,"ĠØ§Ø¬ÙĦØ§Ø³":1028,"ĠÙĨØ¸Ø±":1029,"Ø³ÙĨØ¯":1030,"ĠØ¯ÙĪÙĨÙĪÚº":1031,"Ø§Ø¦Ø²":1032,"ĠÙħØ§ÙĦ":1033,"ĠØ³Ø§ÙħÙĨÛĴ":1034,"ĠÛģØ¯Ø§ÛĮØª":1035,"ĠØ®Ø·Ø§Ø¨":1036,"ĠØ§ÛģÙĦ":1037,"ĠÙģØ±ÙħØ§ÛĮØ§":1038,"ĠÙĤØ¨":1039,"ĠØ¯Ø¹":1040,"ĠØ¹Ø§Ùħ":1041,"ĠØ¬ÙĪÙĦ":1042,"ÚĪØ±":1043,"ĠÚ©ÛĮØ³":1044,"ĠÙħÙĨØµÙĪØ¨":1045,"Ø§ØªÛĴ":1046,"ÙĨÙĪ":1047,"ĠÙĤÙĪÙħÛĮ":1048,"ĠØ¬ÙĪÙĦØ§Ø¦ÛĮ":1049,"Ø¬Ø³":1050,"ĠØ´Ø¹":1051,"ĠØ³ÛĮÙĨ":1052,"ĠØ¹Ùħ":1053,"ĠØ§ÙĤØ¯":1054,"ĠÚĪØ§ÙĦ":1055,"ÙĤÙĦ":1056,"ĠÚ¯Ø±ÙģØªØ§Ø±":1057,"Ġ7":1058,"ÛĮÚ©Ø³":1059,"Ø¢ÙħØ¯":1060,"Ø§ÙĪÙĨ":1061,"Ø§Øº":1062,"Ø±ÛĮØ´ÙĨ":1063,"ĠâĢ":1064,"ĠØ¶ÙĦ":1065,"ĠÙĨÙĪØ§Ø²":1066,"ĠØ®ÛĮØ§ÙĦ":1067,"ĠØ±Ù¾ÙĪØ±Ù¹":1068,"ØªÙģØµÛĮÙĦØ§Øª":1069,"ĠØ¨ÙĨØ§ÙĨÛĴ":1070,"Ø§Ø¦Ø¹":1071,"ĠØ§Ù¾ÙĨØ§":1072,"ĠØŃÙĦ":1073,"ĠÚ©ÙĪØ´Ø´":1074,"ĠØµÙĦÛĮ":1075,"ĠØ¨Ø§Ø¹":1076,"ĠÙĪØ¢":1077,"ĠØŃÚ©Ùħ":1078,"ĠØ§Ø³ÛĮ":1079,"ÙĦØ§ÛģÙĪØ±":1080,"ĠÙĪØ³ÙĦÙħ":1081,"ĠÙħØµ":1082,"ÙĨÛģ":1083,"ÙĪÚ©":1084,"ĠØ§Ø²":1085,"ĠÙĤØ±Ø§Ø±":1086,"ĠÚ¯ÙĪ":1087,"Ø§ÙĨÙĪÚº":1088,"ĠÙħÙĨØª":1089,"ĠÙĨÚ©":1090,"ĠØ¯ÛģØ´Øª":1091,"ĠØ¨Ø§Ø¹Ø«":1092,"ĠÙĤÙĪÙħ":1093,"ĠÙĪØ¢ÙĦÛģ":1094,"ĠØ¯Ø§Ø±":1095,"ĠØ¬ÙĨØ±ÙĦ":1096,"Ø§Ø¸":1097,"Ø®ÙĪØ§Ø³Øª":1098,"ĠØªØ¹ÙĦÙĤ":1099,"ĠÚĨÛĮØ¦Ø±":1100,"ĠÙ¾Ø§Ú©Ø³ØªØ§ÙĨÛĮ":1101,"ĠØ®Øµ":1102,"ĠØ³Ø§Ø¦":1103,"ĠÙĤØ¨ÙĦ":1104,"ĠÙħØŃÚ©":1105,"ĠÙħØ³Ø§Ø¦ÙĦ":1106,"ĠØ³ÛĮØ§Ø³ÛĮ":1107,"ĠØ®Ø§Øª":1108,"ĠØ¬Ú¾":1109,"ĠØ°Ø±ÛĮ":1110,"ĠØªÙĤØ±ÛĮØ¨":1111,"ĠØ§ÛģÙħ":1112,"ĠØ§ÙĦØŃ":1113,"Ù¾ÙĦ":1114,"ĠÚ©Ø±ØªØ§":1115,"ĠØ´ÛģØ±ÛĮ":1116,"ĠÙħÙħ":1117,"Ûĥ":1118,"ĠâĢĻ":1119,"ĠØªØµ":1120,"ĠÚĨÙĦ":1121,"ĠÙģØ±Ø§ÛģÙħ":1122,"Ø±ÙĪØ§Ø¦ÛĮ":1123,"ĠØ¹Ø§ÙĦ":1124,"ĠØªØ´":1125,"ĠØ®ØµÙĪØµ":1126,"ĠØ¨Ø§Ø±ÛĴ":1127,"ĠÛģÙĪØªÛĮ":1128,"ÙĦØ§ÙĤØ§Øª":1129,"Ø§ÛģÛĮ":1130,"ĠØ§Ø·":1131,"ĠÙħØ¦ÛĮ":1132,"ĠÙĦÛĮÚ¯":1133,"ĠØ¯Ø±ÙħÛĮ":1134,"ĠØ³ÙĦØ³":1135,"ĠØ±Ø¶":1136,"Ġ8":1137,"ĠØ¯ÛĮØªÛĴ":1138,"ĠØ§Ø¹ÙĦØ§ÙĨ":1139,"ĠÙĤØ§Ø¦Ùħ":1140,"ĠØ§ÙĨØªØ®":1141,"ĠÚ©Ø±Ø¯Ø§Ø±":1142,"ĠÚ©ÙħÛĮÙ¹ÛĮ":1143,"ĠÙģØ±ÙĪ":1144,"Ø§Ø·":1145,"ĠÙĪØ§ÙĦÙĪÚº":1146,"ĠÙģÛĮØµØ¯":1147,"ĠØ¹Ø¯Ø§ÙĦ":1148,"Ø±ÛĮÙĤ":1149,"ĠÙħØ¸":1150,"Ø§ÙĨÚĨ":1151,"ÙĪØ±Ù¹ÛĮ":1152,"ĠØ³Ú©ØªÛĴ":1153,"ĠÙ¾ÛĮØ¯Ø§":1154,"ÙħÙĨÙ¹":1155,"ĠØ§Ø±Ø¨":1156,"ĠØ²ÛĮØ±":1157,"ØªÛĮØ§Ø±":1158,"ĠØ¬ÙħØ§Ø¹Øª":1159,"ĠØ¨ÚĳÛĮ":1160,"Ø§ØªÛĮÙĨ":1161,"ĠØ§Øµ":1162,"ĠÙĪØ§ÙĦØ§":1163,"ĠÚ¯Ø²Ø´ØªÛģ":1164,"ÙħØ¨":1165,"ØªÙĪÚº":1166,"ĠØ¯ÙĪØ³Ø±ÛĴ":1167,"Ú©Ø±Ø§ÚĨÛĮ":1168,"ĠØ¯Ø§Ø®":1169,"ÙĤÛĮÙĤ":1170,"ĠØ³Ø±Ú©":1171,"ĠØªØŃØª":1172,"ĠØ§ÙģØ³Ø±":1173,"ĠÚ©ÙĪÙĨ":1174,"ØªÙĪØ¨Ø±":1175,"ĠØªÙħÛģ":1176,"ĠØ§Ø¹Ø¸Ùħ":1177,"ĠØ¯Ø±ÙħÛĮØ§ÙĨ":1178,"ĠÙħÙĦÚ©ÛĮ":1179,"ĠØ¯ÙĨÛĮØ§":1180,"ĠÙ¾Ø±ÛĮ":1181,"Ø§Ø±ØªÛĮ":1182,"ĠÙ¾Ú¾":1183,"Ø±Ø§Øª":1184,"ĠÚ©Ø§ÙĨ":1185,"Ø§Ø¨Ø·":1186,"Ù¾ÙĨ":1187,"ĠÚ©Ø§ÙĦ":1188,"ĠÚĨØ§Ø±":1189,"ĠØ§Ú©ØªÙĪØ¨Ø±":1190,"Ø³ÙĨ":1191,"ĠØ¢ÙĨÛĴ":1192,"ÛĮÙĨÚĪ":1193,"Ø¨ÙĪ":1194,"ĠÛģÙħØ§Ø±ÛĴ":1195,"ĠÙħÙĤØ§Ø¨":1196,"ĠØ¢Ø¦ÛĴ":1197,"ĠØªÙģ":1198,"ĠØ§ÙħÛĮØ¯ÙĪ":1199,"ĠÚ©Ø´ÙħÛĮØ±":1200,"ĠØ±Ø³ÙĪÙĦ":1201,"ĠÚ©Ø§Ø±Ø±ÙĪØ§Ø¦ÛĮ":1202,"ĠØ·ÙĦØ¨":1203,"Ø±ÛĴ":1204,"ĠØ±ÙĤ":1205,"ĠØ¹Ø¨Ø¯Ø§ÙĦ":1206,"ÙĪÚĳ":1207,"ÙĦÙĪ":1208,"ĠØ²ÙĨØ¯Ú¯ÛĮ":1209,"ĠÙħØ¹ÙĦÙĪÙħ":1210,"Ø´ÙĦ":1211,"ĠÚ©Ú¾ÛĮ":1212,"ĠÚĨØ§ÛģÛĮ":1213,"Ø§Ø²ÛĮ":1214,"ĠØ¯Ø±Ø®ÙĪØ§Ø³Øª":1215,"ÙĦØ§ÙĪÛģ":1216,"ĠÙħÙĦØ§ÙĤØ§Øª":1217,"Ú©Ø´":1218,"ĠÙĤÛĮ":1219,"Ø³ÙħØ¨Ø±":1220,"ĠÙħÛĮÚĨ":1221,"ĠÙ¾ÙĪÙĦÛĮ":1222,"Ø¯Ú¯ÛĮ":1223,"ĠØ¯ÛĮÙĨ":1224,"ĠØ®ØªÙħ":1225,"Ø¬Ú¾ÛĴ":1226,"ĠØ³ØªÙħ":1227,"ĠØªØ§ÛģÙħ":1228,"ĠØµÙĪØ¨Ø§Ø¦ÛĮ":1229,"Ø¦ÛĮÚº":1230,"ĠÙ¾Ø³ÙĨØ¯":1231,"ĠØ¯Ø³ÙħØ¨Ø±":1232,"ĠÚĨÛĮØ²":1233,"ĠØ´Ø±Ú©Øª":1234,"ĠÚ©Ù¾":1235,"ĠÚ©ÙħØ´ÙĨ":1236,"ĠÙģØ§Ø±":1237,"ÙĨØ¯Ûģ":1238,"ÙĨØ²":1239,"Ø±Ù¹Ø±ÛĮ":1240,"ĠØµØŃØª":1241,"ĠÙħÙĨØ¸":1242,"Ø±Ø§ÙĨ":1243,"Ú¯Ûģ":1244,"ĠØ¢ÛĮØª":1245,"Ġ-":1246,"ĠÙħØ¨":1247,"ĠØ®ÙĪØ§ØªÛĮÙĨ":1248,"Ø³Ø±ÛĮ":1249,"ÛĮÙĪÚº":1250,"ĠØ§ÙĤØ¯Ø§ÙħØ§Øª":1251,"ÙĦØ§Ø¹":1252,"ĠØ®ØµÙĪØµÛĮ":1253,"ĠØ§Ø¶Ø§ÙģÛģ":1254,"ĠØ¬ÙĪÙĨ":1255,"ÙĪØ§Ø±":1256,"ÙĦØ§ØŃ":1257,"ĠØ¹ÙĦØ§ÙĤÛĴ":1258,"Ø¹Ø¯Ø§Ø¯":1259,"Ø§ÙĪÙĦ":1260,"ĠÛģÙĪÚ¯ÛĮ":1261,"Ø§ÛĮÚ©":1262,"Ø§Ø¹Ø¸Ùħ":1263,"ĠØ¨ÛģØªØ±":1264,"Ġ10":1265,"ĠØ´Ùħ":1266,"ĠØ³ØªÙħØ¨Ø±":1267,"ĠÚ©Øª":1268,"ĠØ§Ú¯Ø³Øª":1269,"ĠØ¬ÙħØ¹":1270,"ĠØ²ÙħÛĮÙĨ":1271,"ĠØ§Ø®ØªÛĮØ§Ø±":1272,"ĠØ§ÙĨØ¯":1273,"ĠØ¬ÙĨÚ¯":1274,"ĠØ¢Ø®":1275,"ĠØŃØµÛģ":1276,"ÙħØ§ÙĦÚ©":1277,"ØµØ§Ùģ":1278,"Ø±Ø§Ø¦Ø¹":1279,"ĠØ¨ÚĨÙĪÚº":1280,"ÙĪÛĮØ²":1281,"ĠÚ©Ø¦ÛĮ":1282,"ĠØ®Ø¨Ø±":1283,"ĠØ³ÙħØ¬Ú¾":1284,"ĠØ´Ø±":1285,"ĠÙĤÛĮÙħ":1286,"ĠØ®Ø±":1287,"Ġ9":1288,"ĠØ³Ùģ":1289,"ĠÙĨÙĪÙħ":1290,"ĠØ§ÙĨØ¬":1291,"Ø¹ÙĨÛĮ":1292,"ĠØªØŃÙĤÛĮÙĤ":1293,"ĠØ¨ÙĨØ§ÛĮØ§":1294,"ĠÙħØ®":1295,"ĠÚ©Ø±ÙĪÚĳ":1296,"Ø§Ø¬ÛĮ":1297,"ĠØŃØ³ÛĮÙĨ":1298,"ÙģÛĮØ³Ø±":1299,"ĠØ§ÛĮØ³ÛĴ":1300,"Ø§Ø±Ùģ":1301,"Ø§Ú¯Ø±":1302,"Ø§Ø±Ú©":1303,"ĠÙĤØ§ÙĨÙĪÙĨ":1304,"Ø§ÙĦØ¨":1305,"Ù¾Ù¹ÛĮ":1306,"ĠÙĪØ±":1307,"ÙģØ±ÙĨØ³":1308,"ĠØ¬Ø§ØªÛĮ":1309,"ĠØ³ÛĮÚ©Ø±Ù¹Ø±ÛĮ":1310,"ĠØ¶Ø±ÙĪØ±Øª":1311,"ĠØ¹ÙĦÙħ":1312,"Ø¯Ø±ÛĮ":1313,"ĠØ§ÙħÙĨ":1314,"ĠØ¢ÛĮØ§":1315,"ĠØ®ÙĪØ´":1316,"ĠØ°Ø±ÛĮØ¹ÛĴ":1317,"Ø§Ú©Ù¹Ø±":1318,"Ø¢ÙĨ":1319,"ĠÚ©ÙħØ´ÙĨØ±":1320,"ĠÚĪØ§Ø¦":1321,"ÛĮÙĨÛģ":1322,"Ú¾Ø§":1323,"ĠØªØ¹Ø¯Ø§Ø¯":1324,"ĠÙħÙħØ§ÙĦÚ©":1325,"ĠØ³Ø±Ø¨Ø±":1326,"ĠÙħØ¯Ø¯":1327,"ĠØ¹ÙĦØ§ÙĪÛģ":1328,"ĠÙ¾ÙĪÙĦÛĮØ³":1329,"ĠØ§Ø¯Ø§Ø±ÙĪÚº":1330,"ĠØ±Ú©Ú¾ÙĨÛĴ":1331,"ĠØ§ÛĮÙģ":1332,"ÙĪØ±Ûģ":1333,"ĠÚĨÛĮÙģ":1334,"ĠÙĤØ§Ø¨":1335,"ĠÙĨÙĤ":1336,"Ø§ÛģØ¯":1337,"Ø¬ÛĴ":1338,"Ø¨Ø§ÙĦ":1339,"ĠØªÛĮØ§Ø±":1340,"ĠØŃÙħ":1341,"ĠÛģÙĪØªÛĴ":1342,"ĠÙħØ±Ú©":1343,"Ú©ÛĮÙĦ":1344,"Ø¨Ú¾ÛĮ":1345,"ĠØ³Ú©ÛĴ":1346,"ĠÚĨØ§ÛģÛĮÛĴ":1347,"Ø§Ø¦Ø´":1348,"Ø§Ø±Ù¹ÛĮ":1349,"ØŃØ§ÙĦ":1350,"ĠØ³ÙĪØ§ÙĦ":1351,"Ú¯Ø¦ÛĴ":1352,"Ø¸ÛĮÙħ":1353,"ĠØ³ÛĮØ¯":1354,"Ø§Ø´Øª":1355,"ĠÙħØ¶":1356,"ĠÙħÙĦØ²ÙħØ§ÙĨ":1357,"ÚĳÛĴ":1358,"ĠÙĨÙĪÙħØ¨Ø±":1359,"ĠÙĪØ§Ù¾":1360,"ĠØ¬Ú¯Ûģ":1361,"Ø±ÛĮÚ©Ù¹Ø±":1362,"ĠÙĤØ³Ùħ":1363,"ĠÙħÚ¯Ø±":1364,"ĠØ¬ÙĦØ¯":1365,"ĠÚĪØ±":1366,"ĠØ¹ÙĦØ§ÙĤÙĪÚº":1367,"ĠØ§Ù¾Ø±ÛĮÙĦ":1368,"ĠÙħØ´Øª":1369,"Ø§ÛģÙħÛĮ":1370,"ĠÙĨÙĪØ¬ÙĪ":1371,"ĠØ§ÙĦØ²":1372,"ĠØ§ÙĨØ¯Ø±":1373,"ĠØªØŃØ±ÛĮÚ©":1374,"ĠØ±ÙĤÙħ":1375,"ĠØ²Ø§Ø¦Ø¯":1376,"ĠÙĨØ¹":1377,"ĠØ°ÙħÛģ":1378,"Ø³Ù¾ØªØ§ÙĦ":1379,"ĠÙħØ³ÙĦÙħ":1380,"Úĺ":1381,"ĠÙħØŃÚ©ÙħÛģ":1382,"ĠÙĦÚĳ":1383,"ÙĪØ±ÚĪ":1384,"Ú©Ø§ÙĨ":1385,"ĠÙĪÙģØ§ÙĤÛĮ":1386,"Ú¯Ø²":1387,"ĠØ´Ø¯ÛĮØ¯":1388,"ĠØ§ØŃØª":1389,"Ø§Ø¬Ûģ":1390,"Ø§Ø¨Øª":1391,"ÙĪØ±ÙĨ":1392,"Ø²Ø§":1393,"ĠØ§Ø¯Ø§Ú©":1394,"ĠØ§ÙħØ±ÛĮÚ©ÛĮ":1395,"ĠØ§ÙĨØªÛģ":1396,"ĠÙħØ¹Ø§Ùħ":1397,"ĠØ¹ÙħØ±Ø§ÙĨ":1398,"ÙģØ¸":1399,"ĠØ§ÙĨØµØ§Ùģ":1400,"ÙĪØ§":1401,"ĠÛģÙħÛĮÚº":1402,"ĠØ§Ø¯Ø§Ø±ÛĴ":1403,"ĠØ¨ÙĦÚ©Ûģ":1404,"ĠÚ¯ÙģØª":1405,"ĠØ¶ÙĦØ¹":1406,"ĠØ¢Øº":1407,"ĠÙħØ§ÙĨ":1408,"ĠØ¢Ø³":1409,"Ø³ØªÛĮ":1410,"Ø²ÛĮØ´ÙĨ":1411,"ĠØ§ÛĮÙħØ§ÙĨ":1412,"ĠÙħÙģ":1413,"ÙĪØ§ÙĨ":1414,"±Û":1415,"Ø§Ø¯Ûģ":1416,"ĠÙ¹Ú¾":1417,"Ù¹ÙĪ":1418,"ÙĨØ¯ÛĮ":1419,"ØªØŃ":1420,"ĠÙĤÛĮØ§Ùħ":1421,"ĠÚ©Ú¾ÙĦØ§":1422,"ĠÚ¯ÙģØªÚ¯ÙĪ":1423,"Ù¾Ø§Ú©":1424,"ĠÙħØ³ÙĦÙħØ§ÙĨ":1425,"ĠØ¹Ûģ":1426,"ĠØªØ¹ÙħÛĮØ±":1427,"Ø¯ÛĮÙĨ":1428,"ĠØ¦ÛĴ":1429,"ĠÙĪØ§Ø±":1430,"Ú¯Ø±Ø§Ùħ":1431,"Ø¨Ú¾":1432,"ĠÙĨØ§":1433,"ĠÛĮÛģØ§Úº":1434,"Ø³ÙĦØ§Ùħ":1435,"ĠÙ¾Ø§ÙĨÚĨ":1436,"ĠÚ©ÙĨ":1437,"ÙĪØ±Ø³Ù¹ÛĮ":1438,"Ú¯Ø§":1439,"ĠÛģØ§ØªÚ¾":1440,"ĠÙĪØ²ÛĮØ±Ø§Ø¹Ø¸Ùħ":1441,"ĠØ±Ú©Ú¾Ø§":1442,"ÙģÙĪ":1443,"ĠØ³Ø¹":1444,"ĠØ§ÙĨØªØ¸Ø§Ùħ":1445,"ĠØ¹Ø¯Ø§ÙĦØª":1446,"ÚĳÚ¾":1447,"ĠÛģØ³Ù¾ØªØ§ÙĦ":1448,"ĠØ³ÙĨØ¯":1449,"ĠÛĮÙĪÙĨÛĮ":1450,"ĠØ§ÛĮÙĨÚĪ":1451,"ĠØ³Ø±Ú©Ø§Ø±ÛĮ":1452,"ĠØ¯Ùģ":1453,"ĠÙģØ±Ùħ":1454,"Ġ19":1455,"ĠØ³Ú©ØªÛĮ":1456,"ĠØ¶Ø±ÙĪØ±ÛĮ":1457,"ĠØ±Ú©":1458,"Ø±Ø¯Ø§Ø±":1459,"ĠØ¢Ø²Ø§Ø¯":1460,"ĠØ¨Ø®":1461,"Ø·ØŃ":1462,"Ø¯ÙħØ§Øª":1463,"Ġ12":1464,"ĠÙĦØ§":1465,"ĠØ§Ø«":1466,"ĠÙħÛģÙħ":1467,"ĠØ§ÙģØ³Ø±Ø§ÙĨ":1468,"Ø§Ø±ÛĮØ®":1469,"ĠÙħØ¬Ú¾ÛĴ":1470,"ØªÚ¾":1471,"ØŃÚ©ÙĪÙħØª":1472,"ĠØ§ÙĨØ³Ø§ÙĨÛĮ":1473,"ĠÚĨÙĪÛģ":1474,"Ø³ÛĮÙħ":1475,"ĠÙħØ±Øª":1476,"ÙĦÙĪÚº":1477,"ĠØµÙģ":1478,"ĠÙ¾ÛĮØ±":1479,"ÙħÙĪ":1480,"ĠØ¯Ø±Ø¬":1481,"ĠØ³Ø·ØŃ":1482,"ØµÙģ":1483,"Ø³Ù¹Ø±":1484,"Ø¯ÛĮØ«":1485,"ĠÚ¯ÙĦ":1486,"Ú©ÛĮÙ¹":1487,"ĠÙĨÙħØ¨Ø±":1488,"Ø§ÛĮØª":1489,"Ø¶Ûģ":1490,"ĠÚĪÙ¾Ù¹ÛĮ":1491,"Ø±ÛĮÙħ":1492,"Ù¹Ø§":1493,"ĠØ¨ÚĳÛĴ":1494,"ĠÙĤØ§ÙĨÙĪÙĨÛĮ":1495,"ÚĳÛĮÙĪÚº":1496,"ĠØ³Ø®Øª":1497,"ĠÛģÙĪÚ¯Ø¦ÛĴ":1498,"ĠÙĪØ§ÙĤØ¹":1499,"ĠØ§ÛĮØ³Ø§":1500,"ĠØ³Ù¾":1501,"ĠÙ¾ÙĪØ±ÛĮ":1502,"ĠÙħÙĨØ¹ÙĤ":1503,"ĠÙĨØ¸Ø§Ùħ":1504,"ĠÙħØ¹Ø§Ø´":1505,"ĠÙħØ¹ÛĮ":1506,"ĠÙģÙĪØ±ÛĮ":1507,"ĠÙĦÚ©Ú¾":1508,"ØªÛģ":1509,"Ø±Ø§Ûģ":1510,"ĠØ¨ÙĨÛĮØ§Ø¯":1511,"Ú¯ÙĦ":1512,"ĠØ§ÙĦØ³ÙĦØ§Ùħ":1513,"ĠØ¯ÛĮØ¦ÛĴ":1514,"ĠØªØ§Ø±ÛĮØ®":1515,"ĠÛģÙĦ":1516,"ĠØ¯Ú©Ú¾":1517,"ĠØŃÚ©Ø§Ùħ":1518,"ĠÙĦÛĮÚº":1519,"ĠÚĪØ§Ø¦Ø±ÛĮÚ©Ù¹Ø±":1520,"ĠØ¹Ø§ÙĦÙħÛĮ":1521,"ÛĮØ¨":1522,"ĠÙĨØªÛĮ":1523,"ĠÛĮÙĪÙĨ":1524,"ĠÙħØ´Ú©ÙĦ":1525,"ØŃÛģ":1526,"ĠØªØ¹Ø§ÙĪÙĨ":1527,"ĠØ§ÙħÛĮØ¯ÙĪØ§Ø±":1528,"ĠÙħÛĮØ±ÛĴ":1529,"ĠÙģÙĦ":1530,"ÙĪØ²ÛĮØ±":1531,"ĠØ¢ØºØ§Ø²":1532,"ĠØ·Ø±ÛĮÙĤ":1533,"Ø¯Ø§Ø¯":1534,"ÙĪÙĦØª":1535,"ĠØ¬Ø§ØªÛĴ":1536,"ĠÙħÙĦØ²Ùħ":1537,"Ġ15":1538,"ĠÙĨÛĮØ¨":1539,"ĠØ±ØŃ":1540,"ĠØ±ÙĪÚ©":1541,"ĠÙħØ«":1542,"Ù¹ÙĨ":1543,"ĠØ®Ø§Ø±":1544,"ĠÚ©ÙĪÙĨØ³ÙĦ":1545,"ÛģÙĪ":1546,"ĠØ±ÛģÙĨÙħØ§":1547,"ÙĪØ¯ÛĮ":1548,"ÛĮØ§Ø¯Øª":1549,"ĠÛĮÙĤÛĮÙĨÛĮ":1550,"ĠØ¬Ø³Ù¹Ø³":1551,"ÙĪØ§Ø¶ØŃ":1552,"ĠÚ©Ø§ÙħÛĮØ§Ø¨":1553,"ĠÙħÙĦØ§Ø²":1554,"ÙħÛĮØ±ÛĮ":1555,"Ú©ÛĮÙĪÙĨÚ©Ûģ":1556,"ĠØ¨Ø§ÛģØ±":1557,"ĠÛĮÙĪÙĨÛĮÙĪØ±Ø³Ù¹ÛĮ":1558,"ÙĨØ¬Ø§Ø¨":1559,"ĠÙģØ¶":1560,"ĠØµØ¯":1561,"ĠÚ¯Ø±ÙĪ":1562,"ĠÛģÙħØ§Ø±ÛĮ":1563,"ĠÙģÙĦÙħ":1564,"ĠØ¢Ù¾Ø±ÛĮØ´ÙĨ":1565,"ĠØ±Ø§Ø¦ÛĴ":1566,"ĠÙĨØ¦ÛĴ":1567,"ĠØ±ÙĨØ²":1568,"ĠØ¨Øª":1569,"Ġ11":1570,"ĠÙĤØ±ÛĮØ¨":1571,"ĠÙĤØ¯Ø±":1572,"ĠÙħØ·Ø§ÙĦ":1573,"Ø§Ø±Ø§":1574,"ĠØŃÙĤÙĪÙĤ":1575,"ĠØ«Ø§Ø¨Øª":1576,"ĠÙ¾Ø§Ø¨":1577,"ĠØ±Ø¨":1578,"ĠØ¹ÙĪØ§ÙħÛĮ":1579,"ĠÛĮÙĤÛĮÙĨ":1580,"ĠØ´Ú©":1581,"ĠØªÚ¾ÛĮÚº":1582,"ĠÚ©Ø±Ø§ÚĨÛĮ":1583,"ĠÚĪØ§Ú©Ù¹Ø±":1584,"ĠØªØ§Ú©Ûģ":1585,"ĠÙħØ±Ø¯":1586,"ĠÙħÙĤØµ":1587,"Ø§Ø¶ÛĮ":1588,"ĠØ§ÙĨØ³Ø§ÙĨ":1589,"Ø±ÙĪÙģ":1590,"ĠØ§Ø³Ù¹ÛĮ":1591,"ĠØ²Ø¨":1592,"Ø¹Ø¶":1593,"Ø±ÛĮØ²":1594,"Ø§ÙĨÛģÙĪÚºÙĨÛĴ":1595,"ĠÚĨÚ¾ÙĪÚĳ":1596,"ĠâĢĿ":1597,"ĠØ§ÙĨÚĪ":1598,"ĠÛĮÙĪ":1599,"ĠØ®Ø¯":1600,"ĠØ¢ÙħØ¯":1601,"ĠØ¹Ø²":1602,"ĠÙĤÛĮØ§Ø¯Øª":1603,"ĠØ§ÙĨØªØ®Ø§Ø¨":1604,"ĠÙħÙħÚ©ÙĨ":1605,"ĠØ¨ÙĪØ±ÚĪ":1606,"Ø±Ø§":1607,"ĠÛģÙĪÙĨØ§":1608,"ÙħØ¹":1609,"ÚĳØ§":1610,"Ø¬Ø±":1611,"ĠÙĨØ§Ú©":1612,"ĠÙĨØµ":1613,"ĠØ¨ÛĮØ±":1614,"ĠØ³ÙĨØ¯Ú¾":1615,"ĠØ¬Ø§Ø¦Ø²":1616,"ĠÚ©Ø³":1617,"ĠÚĨÙĪÛģØ¯Ø±ÛĮ":1618,"ĠØ¨ØºÛĮØ±":1619,"ÙĤØ±":1620,"ÚĺÙĨ":1621,"ĠÙĪØ§Ù¾Ø³":1622,"ĠØ§ÙĨØªØ¸Ø§ÙħÛĮÛģ":1623,"ĠÙħØªØ§Ø«":1624,"ĠØŃØ±":1625,"ĠÚ©Ø§Ø±Ú©ÙĨ":1626,"ĠÙĨØ¦ÛĮ":1627,"ĠØ§Ø³Ú©":1628,"ĠÙĪØ³":1629,"ĠØ±Ø§Ø¨Ø·":1630,"ĠÙĤØ±Ø¢ÙĨ":1631,"ĠØ³Ø§ÙĦÛģ":1632,"ĠØ§ÙĨØªÛģØ§Ø¦ÛĮ":1633,"ĠØ³Ø§Øª":1634,"ĠØ¨Ø±Ø¢ÙħØ¯":1635,"ĠÙĦÚ¯Ø§":1636,"ĠÚ©Ø§ÙħÛĮØ§Ø¨ÛĮ":1637,"ĠÚº":1638,"âĢĺâĢĺ":1639,"Ø±ÙĪÚº":1640,"ĠÙ¾ÛģÙĦÛĮ":1641,"Ø±ÙĪØ³":1642,"ÙĨØ§Ûģ":1643,"Ù¾ÙĨÚĪÛĮ":1644,"ĠØ§ÛĮÙĦ":1645,"Ø§Ø¤Úº":1646,"ÙĪØ¨ÛĮ":1647,"ĠÙ¾Ø±ÙĪÚ¯Ø±Ø§Ùħ":1648,"ĠØ±ÛģÙĨÙħ":1649,"Ø¹Øª":1650,"ĠØ³Ú©ÛĮ":1651,"Ú¯ÛĴ":1652,"Ø§Ù¹":1653,"ĠØ§ÛĮØ³ÛĮ":1654,"ĠØ§Ø³Ù¾":1655,"ĠØ®ÛĮØ§ÙĦØ§Øª":1656,"ĠØ³Ø±Ø¨Ø±Ø§Ûģ":1657,"ĠØ¬ÙĨÙĪØ±ÛĮ":1658,"ĠÚ©ØªØ§Ø¨":1659,"ĠØ¢ÙĨ":1660,"ĠØ¯ÙĪØ³Ø±ÛĮ":1661,"ØªÙĦ":1662,"ĠØ§Ø·ÙĦØ§Ø¹":1663,"Ú©Ø³":1664,"ĠØ§ÛĮÚĨ":1665,"ĠØ¹Ø±":1666,"ĠØ¨Ø§ÙĪ":1667,"ĠÚĨÚ©ÛĮ":1668,"ÙģØ§Ø¸":1669,"ĠÚĨÚ©Ø§":1670,"ĠØ¬ÛģØ§Úº":1671,"Ø·Ø§ÙĨ":1672,"ĠØ³ÙĨÚ¯":1673,"Ù¹Ø±Ø²":1674,"Ø§ÙĪÙĦÙ¾ÙĨÚĪÛĮ":1675,"ĠØ±Ø§Øª":1676,"ÙĪÙģ":1677,"ÛĮÚ©Ø´ÙĨ":1678,"ĠÙħØ·Ø§ÙĦØ¨Ûģ":1679,"ØªÙħØ§Ùħ":1680,"ĠØ¨Ø±Ø§Ø¦ÛĴ":1681,"ĠØ¹Ø°":1682,"ĠÙ¾Ø®Øª":1683,"ÙĪØ«":1684,"ĠÚĨÚ©ÛĴ":1685,"ĠÚ¯Ø¦ÛĮÚº":1686,"ĠÙĪØ§Ø¶ØŃ":1687,"ÛĮÚ©Ø±":1688,"ĠØŃØ¯":1689,"ÙħÙ¾":1690,"ĠØ³Ø²Ø§":1691,"ĠÛĮØ¹ÙĨÛĮ":1692,"ĠÙģØ±Ø§ÛģÙħÛĮ":1693,"ĠØ³Ù¹":1694,"ĠØ¸Ø§ÛģØ±":1695,"ĠØ§ÙĨÙ¹Ø±":1696,"Ø¬ÙħØ§ÙĨ":1697,"ĠØ´Ú©Ø§Ø±":1698,"ĠÙ¹ÛĮÚ©Ø³":1699,"ĠÙ¾Ø§ÙĨÛĮ":1700,"ĠØ§ÚĨ":1701,"Ø³ÙĪ":1702,"ĠÙĦÛĮÙĨÛĴ":1703,"ĠÙħØ§":1704,"ĠØ²Ø®":1705,"ĠÚ©Ø±ØªÛĮ":1706,"Ø§Ø¯Ø±":1707,"Ø´ÛĮØ¯":1708,"ÙħÙĪØ¯":1709,"ĠÙħÙĤØ¯":1710,"ĠÚ©Ø±Ø¯Ú¯ÛĮ":1711,"ÙģØ§Ø±":1712,"ĠØ¨Ø§Ø²":1713,"ĠØ§ÛĮÚĪ":1714,"ĠØ³Ù¹ÛĮ":1715,"ĠØ±Ø§Ûģ":1716,"ĠÙĨÚ©Ø§ÙĦ":1717,"Ù¾ÙĦØ²":1718,"ĠØ¢Ø¦ÙĨØ¯Ûģ":1719,"ÚĨÚ¾ÛĴ":1720,"ĠØ¯ÙĪØ±Ûģ":1721,"ÙħØŃ":1722,"ĠÙĦØ§Ø¦ÙĨ":1723,"ĠØ®ÙĪØ§Ûģ":1724,"ĠØ§ÙĪÙĦ":1725,"ÙħÙĦÚ©":1726,"Ø¨ÛĴ":1727,"ĠÙħØ§ÙĦÛĮ":1728,"ĠØ¬Ø§Ø¦ÛĮ":1729,"ĠØ§ÙĨØ¯Ø§Ø²":1730,"ĠØ´ÛĮØ®":1731,"ÙĨÙ¹Ø³":1732,"Ø¤":1733,"ÛĮÚ©ÛĮ":1734,"Ú©Ø§Ø±ÙĪÚº":1735,"Ú¯Ø§Ø±":1736,"ÛĮØŃ":1737,"ĠÛ±Û":1738,"Ø¯Ø§ÙĨ":1739,"ĠØ±ÙĪÚĪ":1740,"ĠÚ¯Ø±Ø¯ÛĮ":1741,"ĠØ¨ÛģØªØ±ÛĮÙĨ":1742,"ĠØµÙĪØ±ØªØŃØ§ÙĦ":1743,"ÙĪÚĨ":1744,"ĠØ¯Ø§Ø±ÛĮ":1745,"ÙĪÛĮÙĦ":1746,"ĠØ¨Ø§ÙĪØ¬ÙĪØ¯":1747,"Ø¨ØŃ":1748,"ĠØ¨ÚĳØ§":1749,"ĠÙģÛĮØµÙĦÛĴ":1750,"Ø«Ø±":1751,"ĠØ¯Ø³Øª":1752,"ĠÙĨØ¨ÛĮ":1753,"ĠÙĨÙħØ§Ø¦":1754,"ĠÙ¾ÛĮØº":1755,"ÚĪÛĮÙĪ":1756,"Ø§ÙĦÙĦÛģ":1757,"ĠØ³ÛĮØ§Ø³Øª":1758,"20":1759,"ÙħÙĪÚº":1760,"ĠØ´ÛģØ±ÛĮÙĪÚº":1761,"ĠØªØ¹ÛĮÙĨ":1762,"ĠØ°Ú©Ø±":1763,"ĠØ³Ú©ÙĪÙĦ":1764,"Ø´Ø§ÙĪØ±":1765,"ĠØ³Ú©ÛĮÚº":1766,"ĠÙ¾Ø§ÙĦÛĮ":1767,"ØµÙĦ":1768,"Ø§Ø±ÚĪ":1769,"Ø°Ø§":1770,"ĠÙħÙĤØ±":1771,"ĠÚ©ÙħÛĮØ´ÙĨ":1772,"Ø§Ø¯Ø±ÛĮ":1773,"ĠØ§Ø®Øª":1774,"ÙĪÙĦÛĮØ§Øª":1775,"Ú¾ÙĪÚº":1776,"ĠÙĤØªÙĦ":1777,"Ġ14":1778,"ĠØ³ÙĦØ³ÙĦÛĴ":1779,"Ø³Ø§":1780,"Ø§ÙģÛĮ":1781,"ĠØ¨ÙĪ":1782,"ĠÚ¾":1783,"Ø§Ø¦ÙĪÙĨ":1784,"ĠÚ©Ø§ÙĨÙģØ±ÙĨØ³":1785,"ØºØ§ÙĨ":1786,"ĠØºÙĦ":1787,"ĠÙħØªØŃ":1788,"ĠØ²Ø±":1789,"Ø§Ø¨Ø±":1790,"ĠÙĨÚ¯Ø±":1791,"ĠØ¨Ø¹Ø¶":1792,"Ġ25":1793,"ĠÛĮÛģÛĮ":1794,"Ø§ÙĨØ³":1795,"ÚĨÛĴ":1796,"ĠØ¹Ø°Ø§Ø¨":1797,"ĠÙħØ³Ø¦":1798,"ĠÙ¾ÙĨØ¬Ø§Ø¨":1799,"ĠØ¹Ø±Ø¨":1800,"ĠÙħÙĨØªÙĤÙĦ":1801,"ĠÙħÙĤØµØ¯":1802,"ĠÙħØ±Ú©Ø²ÛĮ":1803,"Ġ13":1804,"ÙĤÛĮØ¯":1805,"ĠÙħÛĮØ±ÛĮ":1806,"Ù¹ÛĴ":1807,"ĠØ®Ø§ØªÙĪÙĨ":1808,"ĠÙĨÙĪÙ¹Ø³":1809,"ĠÙ¾ÚĳÚ¾":1810,"ĠÙĪÙĤ":1811,"ĠÚ©Ø¨Ú¾ÛĮ":1812,"ĠØ³ÙĦØ³ÙĦÛģ":1813,"ĠÚ©ÙħÙ¾":1814,"Ø®ÛĮ":1815,"ÙĪØ§ÙħÛĮ":1816,"ĠÚĨØ§ÛģØªÛĴ":1817,"ÙĨÙ¹Ø±":1818,"ĠØ¨ÚĨÛĴ":1819,"ĠØ¬Ø§Ùħ":1820,"Ø±ÛĮØ¯":1821,"Ø®Ø¨":1822,"..":1823,"ĠØ¨Ø¬Ø§":1824,"ÛģÛĮ":1825,"ĠØ¨Ø±Ø³":1826,"ĠØªØŃÙģØ¸":1827,"Ø§Ø¦Ø¨":1828,"ĠÙ¹ÛĮØ³Ù¹":1829,"Ø§Ø²Øª":1830,"Ø¬Ø¯":1831,"ĠÙĤÛĮÙħØª":1832,"ĠÚĨÙĨØ¯":1833,"ÙħÛĮØ´Ûģ":1834,"ĠØ®Ø§Ø±Ø¬Ûģ":1835,"ĠÙħØªØ¹ÙĦÙĤÛģ":1836,"Ú©ÙĪØ±Ûģ":1837,"ÚĨØ±":1838,"ĠÚ©Ø´ÙħÛĮØ±ÛĮ":1839,"Ø§ØªØ§":1840,"ĠØ¯ÙĪØ¨":1841,"ÛĶ":1842,"ÙĨØª":1843,"ĠØŃÙĤÛĮ":1844,"Ú¯Ø±ÛĮ":1845,"Ø§ØŃØ¨":1846,"Ø§Ø¦Ø³":1847,"ĠÛģØ§Ø¦ÛĮ":1848,"ĠÙħÙĨØ¹ÙĤØ¯":1849,"ĠØ·Ø§ÙĦØ¨":1850,"ĠØµÙĪØ¨ÛĴ":1851,"ĠØ±ÛģÛĮÚº":1852,"ĠØŃØ³ÙĨ":1853,"ĠâĢĻâĢĻ":1854,"ÙħØ§ÛĮÛģ":1855,"Ø³ÙĪØ³":1856,"ĠØ§Ø¬Ø§Ø²Øª":1857,"ĠØ¹Ø§Ø¦Ø¯":1858,"ÙĪØ´":1859,"Ø²Ø¯":1860,"ĠÙħØŃÙħÙĪØ¯":1861,"ĠÛĮØ§Ø¯":1862,"ÙĤÛģ":1863,"ĠØ§ÙĤØª":1864,"ĠÙ¾Ø§ÙĦÛĮØ³ÛĮ":1865,"ĠÙħÙĦÛĮ":1866,"ÙĦØª":1867,"ĠØ¨ÛĮÙĨÚ©":1868,"ĠØ§ÙħÙĪØ±":1869,"ĠØ¨ÙĦØ§":1870,"Ø±Ø³":1871,"ĠÙħØ±Ø§Ø¯":1872,"ĠØ¨Ú¾Ø§Ø±ØªÛĮ":1873,"Ù¾Ø§Ú©Ø³ØªØ§ÙĨ":1874,"ĠØ±Ø§Ø³Øª":1875,"ØªØ§Ú©Ûģ":1876,"Ø®ÙĦØ§Ùģ":1877,"ĠØ±Ú©Ú¾ØªÛĴ":1878,"ĠØ¹ÛģØ¯":1879,"ĠÛģÙħÛĮØ´Ûģ":1880,"Ø³Ø§Ø¨":1881,"ĠÙĪÛģØ§Úº":1882,"Ù¹Ûģ":1883,"ĠÙĤØ§Ø¨ÙĦ":1884,"ĠÙĨÙģ":1885,"ĠØ§ÙĤØ¨Ø§ÙĦ":1886,"Ø·ÛĮ":1887,"ĠØ²Ø®ÙħÛĮ":1888,"Ø¢Ù¾":1889,"ĠÙ¾ÙĪØ±Ø§":1890,"Ø¹ÙĦÛĮ":1891,"Ø³Ù¹Ø±ÛĮ":1892,"ÚĳÚ©":1893,"ĠØ¯Ú¾Ùħ":1894,"Ġ30":1895,"ĠØ¨Ú¾Ø§Ø±Øª":1896,"ĠÚ©Ø±Ø¯Ûģ":1897,"ĠÚ©ÙħÙ¾ÙĨÛĮ":1898,"ĠÙĨÚ©ÙĦ":1899,"ĠÙĪØ²Ø§Ø±Øª":1900,"ØªØ§ÙĨ":1901,"Ø¨ÛĮØ±":1902,"ĠÚ¯Ú¾ÙĨÙ¹":1903,"ĠØ¢Ú¯ÛĴ":1904,"ĠÚ©ÙĪØ±Ù¹":1905,"ĠÚ©Ø§Ø±ÛĮ":1906,"ĠÙħØ¸Ø§Ûģ":1907,"ĠÙ¾Ø®ØªÙĪÙĨ":1908,"ÙħØ¨ÙĦÛĮ":1909,"Ù¾Ú¾Ø±":1910,"ĠØ§ÙĦØ²Ø§Ùħ":1911,"ĠÛģÙĦØ§Ú©":1912,"ĠÙĤØ±Ø¨":1913,"ĠÚ©ÛģØªÛĴ":1914,"ÙĪÙĦÙĨÚ¯":1915,"ĠØ¨Ú¾Ø§Ø¦ÛĮ":1916,"Ø¯ÛĮÙĦÛĮ":1917,"ĠØ±ÛĮÙĦÛĮ":1918,"ĠÙħÙĤØ§Ùħ":1919,"Ø¹Ø§ÙĦ":1920,"ĠØ§ÙĨÙĪÚº":1921,"ÙĤØ¨ÙĦ":1922,"ĠØ¬Ø±":1923,"ĠØ§Ø³Ù¹":1924,"Ù¾ÙĪÙĦÛĮ":1925,"Ø¯ÙĪØ³":1926,"ĠØªØŃÙĤÛĮÙĤØ§Øª":1927,"ĠØ³Ø±ÙħØ§ÛĮÛģ":1928,"ĠÙĨÙħØ§Ø²":1929,"ĠØ¨ÛĮÙ¹Ú¾":1930,"ÛĮØ¯Ø±":1931,"ĠØªÙħÛģØ§Ø±ÛĴ":1932,"ĠØŃÙĦÙĤ":1933,"ĠÙĪØ±Ú©":1934,"ĠÙģØ±ÙĪØº":1935,"ĠØ¯ÛĮØªØ§":1936,"ĠØ³ÛģÙĪÙĦÛĮØ§Øª":1937,"ĠØ¯ÙĪØ¨Ø§Ø±Ûģ":1938,"²Û":1939,"ĠÙĨØªÛĮØ¬ÛĴ":1940,"ÚĨÛģ":1941,"ÙĪÛĮÚĺÙĨ":1942,"ĠØ¨Ø§":1943,"ĠÚ©ÙĦÙĪ":1944,"ĠâĢľ":1945,"Ú©Úĳ":1946,"ĠØ³Ø§ÙħÙĨØ§":1947,"ĠÛĮÚ©":1948,"ĠØ¨Ø¬ÛĴ":1949,"ĠØ§ÙħØ§Ùħ":1950,"ĠÙħÙĤØ§ÙħÛĮ":1951,"Ø§ÙĤØª":1952,"ĠØ¨Ø±ÙĪ":1953,"Ø¯Ø¯":1954,"Ø°Ø±Ø§Ø¦Ø¹":1955,"ĠØªÙĦ":1956,"Ø¨ÙĦÚ©Ûģ":1957,"ĠØ¢ØµÙģ":1958,"ÙħÛĴ":1959,"ÙĪØ²ÛĮØ´ÙĨ":1960,"Ù¹ÙĨÚ¯":1961,"Ø§ÙĨØ¯":1962,"Ø§Ø¬ÙĦØ§Ø³":1963,"Ù¹ÙĦ":1964,"ĠÙħÙĨØµÙĪØ¨Ûģ":1965,"ÙĪØ§Ø¦ÛĮ":1966,"ÚĨÚ¾Ø§":1967,"ĠØªØ¨Ø¯ÛĮÙĦÛĮ":1968,"ĠÙħÙĦØ§Ø²ÙħÛĮÙĨ":1969,"ĠØ¢Ø²Ø§Ø¯ÛĮ":1970,"ÙģØªÛģ":1971,"ĠÙħÙĤØ§Ø¨ÙĦÛĴ":1972,"Ø§ØµØ±":1973,"ĠØ¹Ø·":1974,"ĠØªÙĪØ¬Ûģ":1975,"ÛĮØ±Ûģ":1976,"ĠØ¯Ø´":1977,"ĠØ¢ÙģÛĮØ³Ø±":1978,"18":1979,"ĠÙģÙĪØ±Ø³":1980,"ĠÙħÙĤØ¯ÙħÛģ":1981,"ĠØµØ§ØŃØ¨":1982,"ĠØªØ¹ÙĦÙĤØ§Øª":1983,"ĠØ¨Ú©":1984,"ĠÙ¹ÙĪ":1985,"ĠØ¯Ø¨":1986,"ĠØ§ÙģØºØ§ÙĨ":1987,"ĠØ³Øª":1988,"ĠØ¬Ø³Ùħ":1989,"ĠÙĨÙħØ§Ø¦ÙĨØ¯":1990,"ĠÙĨÛĮØ´ÙĨÙĦ":1991,"ĠÙģÙĪÙĨ":1992,"ÙģÙĪØ¸":1993,"ĠÚ©ÛĮÙĪÙĨÚ©Ûģ":1994,"ĠØŁ":1995,"ĠÚ¯Ø±ÙĪÙ¾":1996,"ĠÙģØ§Ø¦":1997,"Ø±ÛĮØª":1998,"ĠØ¨Ø³":1999,"ĠØ§ÙĨÛĴ":2000,"ĠØ®ÛĮØ¨Ø±":2001,"ĠÙĪÙĨ":2002,"Ø²ÛĮØ²":2003,"Ġ18":2004,"ĠØ¯Ø§Ø®ÙĦÛģ":2005,"ĠÙħÙĨØµÙĪØ¨ÛĴ":2006,"Ø§ÙĦØª":2007,"ÙħÙĤ":2008,"ĠÙħØ¹Ø§ÙħÙĦÛĴ":2009,"ĠØªÙĨØ¸ÛĮÙħ":2010,"Ø¦ÙĨ":2011,"ĠØ²ÙĪØ±":2012,"ĠØ®Ø§ÙĦ":2013,"ĠÙħØŃÙģÙĪØ¸":2014,"ĠØ¯Ø§Ø®ÙĦ":2015,"ĠØ¯ÛĮÙĨØ§":2016,"ĠØ§ØŃÚ©":2017,"ĠÙģÛĮØ³":2018,"ĠÙħØ³ÙĦÙħØ§ÙĨÙĪÚº":2019,"ĠÙ¾Ø§Ø¨ÙĨØ¯ÛĮ":2020,"ĠÙħÙĨØ§":2021,"ĠÙħÙĪÙĦ":2022,"ĠØ®Ø§Øµ":2023,"ĠÙĦØ§ÛģÙĪØ±":2024,"ĠØ¨Ú¾ÛĮØ¬":2025,"ĠØ¨ÙĦÙĪÚĨ":2026,"ĠÚ©ÛĮÙĪÚº":2027,"ĠÙĤØ±ÛĮ":2028,"ĠØ¹ÙĨ":2029,"ĠÙĤØ§Ø¦Ø¯":2030,"ĠÙħÙĦÛĴ":2031,"ÙĪØ³ÛĮ":2032,"ĠØ¬ÛĮØ³ÛĴ":2033,"Ø¨ÙĪØª":2034,"Ø¯ÙĪØ³Ø±ÛĮ":2035,"Ø§ØŃØª":2036,"ĠØ§Ø³ÙĦØ§ÙħÛĮ":2037,"ÙĪØ±ÙĪÚº":2038,"ĠÙ¾Ø®ØªÙĪÙĨØ®ÙĪ":2039,"ĠÙ¾ÛĮÙ¾ÙĦØ²":2040,"ÙĪÙ¹ÛĮ":2041,"Ø¬ÛģØ§Úº":2042,"ĠÙħÛĮØ§Úº":2043,"ĠØªØ±Ø¨":2044,"ĠÙģØ±ÙĪØ®Øª":2045,"ĠØ§Ø¨ÙĨ":2046,"ĠØ¢ÙĦ":2047,"Ù¾Ø§Ø±Ù¹ÛĮ":2048,"Ù¾ÙĪÙĦÛĮØ³":2049,"ĠÙ¾Ú¾ÛĮ":2050,"Ø§Ø¦ÙĪÚº":2051,"Ø§Ø¦ÙĪ":2052,"Ø³Ú©":2053,"ĠØ¬Ø±Ùħ":2054,"ĠÙħØ¹ÙĦÙĪÙħØ§Øª":2055,"ĠØ§Ø³ÙħØ¨ÙĦÛĮ":2056,"ĠÙħÙĪÙ¹Ø±":2057,"Ø¨Ø§Ø²":2058,"ĠÙħÙĪØ¬ÙĪØ¯Ûģ":2059,"ĠÚ©ÙĪØ±":2060,"ĠÙĪÙĪ":2061,"Ú¯Øª":2062,"Ù¹Ø±ÙĪ":2063,"ĠÙ¾Ø±ÛĮØ³":2064,"ĠÙĨØ´Ø§ÙĨÛģ":2065,"Ø¬ÙĨØ³ÛĮ":2066,"ĠÚĨÛĮÙĨ":2067,"ĠØ³Ø±ÙĪØ³":2068,"Ø¨Ø§Ø±":2069,"ÙĨØ¯Ø±":2070,"ĠÙģÙ¹":2071,"ĠØªÙĤØ³ÛĮÙħ":2072,"ĠØ´ÛĮØ¦Ø±":2073,"ĠØ§ÙĨØ¹ÙĤ":2074,"Ġ16":2075,"Ø®Ø±":2076,"ĠÚ¯ÙĪØ±ÙĨ":2077,"ĠØŃØ§ÙĦØª":2078,"Ø±Ø§Ø¦ÛĮ":2079,"ĠØ³ÙĪØ±":2080,"ĠÙ¾ÙĦØ§ÙĨ":2081,"ĠØ§ØŃØªØ³Ø§Ø¨":2082,"ÚĪÙĦ":2083,"ĠØ´Ø§ÙĨ":2084,"ĠÙħØ®Ø§ÙĦ":2085,"ÙħØ²":2086,"ĠØ¬Ø§Ø¦Ø²Ûģ":2087,"Ø¹Ø§Ùħ":2088,"ĠØ¢Ø®Ø±ÛĮ":2089,"ĠØ¢Ú¯Ø§Ûģ":2090,"ĠØ§ÙĨØ¹ÙĤØ§Ø¯":2091,"ÙħÛĮÙĦ":2092,"ĠØµÙĦØ§ØŃ":2093,"ĠÙħÙĪØª":2094,"Ø§Ø¦ÛĮÚ©":2095,"ĠØ¬Ø§ÙĪ":2096,"ÙĦÛĮÙħÛĮ":2097,"ĠØ¨ÛĮÙħ":2098,"Ø¬Ø²":2099,"Ø¹Ø¯Ø¯":2100,"ĠØ³ÛĮÚ©ÛĮ":2101,"ĠØ®ÙĪØ¨":2102,"ĠØ´Ø¹Ø¨Ûģ":2103,"ĠØ´Ú©Ø±":2104,"Ø¯ÛĮÙĦ":2105,"ĠÙĪØ§ÙĤØ¹Ûģ":2106,"Ġ2019":2107,"ĠÙĤØ¨ÙĪÙĦ":2108,"ĠØ³ÛĮÙĦ":2109,"ĠØ³Ø§Ø¦ÛĮÚ©ÙĦ":2110,"ĠÚ©ÛĮØ®ÙĦØ§Ùģ":2111,"ĠÛģÙħØ±Ø§Ûģ":2112,"ĠÚ©ÛĮÙĪ":2113,"Ù¹Ú©":2114,"ĠÙħØº":2115,"ĠØ´Ú©Ø§":2116,"ĠØ¯ÙĪØ³Øª":2117,"ĠØµØŃÛĮØŃ":2118,"ÙĦÛĮÙĦ":2119,"ØµÙĪÙĦ":2120,"ØĮ":2121,"Ú©ÛĮØ´ÙĨ":2122,"ĠØ§ÙĨØ¬Ø§Ùħ":2123,"ĠÙĤÛĮØ¯":2124,"Ú©Ùħ":2125,"ĠØ¯Ø³":2126,"ĠØ§ÙĨØªØ®Ø§Ø¨ÛĮ":2127,"ĠÙħÙĦÙĪØ«":2128,"ĠÙĪØ·":2129,"ĠØ°Ø±Ø§Ø¦Ø¹":2130,"ĠØ§ÛĮØ´ÙĨ":2131,"ĠÙħØ§Ø±Ú©ÛĮÙ¹":2132,"ĠØŃÛĮ":2133,"Ø´Ú©":2134,"ĠØ³ÛĮÚ©ÛĮÙĪØ±Ù¹ÛĮ":2135,"ĠØ±ÙĪØ§Úº":2136,"ÛĮÙĨØ§":2137,"ĠÙĪØ§":2138,"ĠÚĪÙĪÛĮÚĺÙĨ":2139,"Ø«Ø§Ø±":2140,"ĠØ³Ø±Ø¯Ø§Ø±":2141,"ÛģÙĪÚº":2142,"ĠØ§ÙħØ±ÛĮÚ©Ø§":2143,"ĠØ´Ú©Ø³Øª":2144,"ĠØ³ÙĪØ´ÙĦ":2145,"Ø²Ø§Ø¯":2146,"ĠØŃÙħÙĦÛĴ":2147,"ĠØ±ÛĮØ§Ø³Øª":2148,"Ġ!":2149,"ĠÙģÙĨÚĪ":2150,"ĠÙħØ¶Ø¨ÙĪ":2151,"ĠØºÙĦØ§Ùħ":2152,"ĠØ®Ø²":2153,"ĠØ¨Ø´":2154,"ĠÙħÙħØ¨Ø±":2155,"Ø¦ÛĮÛĴ":2156,"ĠØªØ¹ÙĦÛĮÙħÛĮ":2157,"ĠÙģÛĮØµÙĦ":2158,"ĠØ´Ø±ÛĮÚ©":2159,"Ø³Ù¹Ø±Ú©Ù¹":2160,"ĠÙ¹Ø±":2161,"Ú©ÛĮØ§":2162,"ĠØ³Ø§":2163,"Ø¹Ø§Øª":2164,"Ø¯ÛĮÙĤ":2165,"ĠÙĨÙĤØµ":2166,"ĠÙħÙĤØ§Ø¨ÙĦÛģ":2167,"ĠØ´Ùģ":2168,"ĠØªÙģØªÛĮ":2169,"ÚĪÙĨÚ¯":2170,"ĠØ§Ø¨Ú¾ÛĮ":2171,"Ú¯Ø±Ø¯":2172,"Ø±Ú©Ûģ":2173,"ĠØ§Ø¹ØªØ±":2174,"ÙĨÚ¯ÛĮ":2175,"ĠØ±ÛĮÚ©":2176,"ĠÙħØªØ¹Ø¯Ø¯":2177,"ĠØ¨ÙĨØ§Ø¦ÛĴ":2178,"ĠØµÙĨ":2179,"ĠÙĨØ§Ø²":2180,"ĠØµØ§Ùģ":2181,"ĠÙ¾ÙĦ":2182,"ÙĪØ§Ø²":2183,"Ø§Ø¦Ø¬":2184,"ĠØ¯ÛĮÚ©Ú¾Ø§":2185,"Ù¾ÙĪØ±":2186,"Ø§ÙĦÛģ":2187,"ĠÚ¯Ø°":2188,"ĠØ³Ø§Ø²":2189,"Ø§Ø±Ù¹":2190,"ĠØŃØ§ÙĦØ§Øª":2191,"ĠÙħØ§ØŃ":2192,"ĠÙģÙĪØ¬ÛĮ":2193,"ĠØ¬ÙħØ§Ø¹ØªÙĪÚº":2194,"19":2195,"ĠØ¹ÙĪØ±Øª":2196,"ĠØªÛĮØ²":2197,"ĠØ¨ÙĨÛĮØ§Ø¯ÛĮ":2198,"ĠÙĨØª":2199,"ĠØ³ÛĮÙĨØ¦Ø±":2200,"ĠÙħØ±ÛĮ":2201,"ÙĨØ§Ú©":2202,"ĠØªØ¨Ø¯ÛĮÙĦ":2203,"ĠØ®Ø§ÙĨØ¯Ø§ÙĨ":2204,"ĠØ§ÙħØ±":2205,"ĠÙ¾ÛĮØºØ§Ùħ":2206,"ĠØ§Ø®Ø¨Ø§Ø±":2207,"Ø§Ø¯Ø«":2208,"ĠÙħØ±ØªØ¨Ûģ":2209,"ĠØ§ØªÚ¾":2210,"Ø³Ûģ":2211,"Ø³ÛĮÙĨ":2212,"ĠØ®Ø¯ÙħØª":2213,"ĠÙ¾ÙĪØ±ÛĴ":2214,"ĠØ³Ø±Ú¯Ø±":2215,"ĠØ±ÛģÙĨÛĴ":2216,"ÙĤÛĮÙĨ":2217,"ĠØ±ÙĪØ²Ûģ":2218,"´Û":2219,"ĠØ´Ø§Ùħ":2220,"ĠØ§ÙģØª":2221,"ĠØ§ÙĦØ§ÙĤ":2222,"ĠÙĨØ´Ø§ÙĨ":2223,"ĠØ§Ù¾ÙĪØ²ÛĮØ´ÙĨ":2224,"ĠÙĪÙĦ":2225,"Ġ17":2226,"ĠØ®Ø¯Ø§":2227,"ĠÙħÙĨØ¸ÙĪØ±":2228,"ĠØ§ÙĦØ±ØŃ":2229,"ĠØ§ÙħÛĮØ¯":2230,"ĠÚĨÛĮØª":2231,"ĠÙĨÙĤØµØ§ÙĨ":2232,"ÙĦØ²":2233,"ĠØ§ØªØŃ":2234,"ÙĦÛĮÚ©ÙĨ":2235,"ĠÚĨØ§ÛģØ¦ÛĴ":2236,"ĠÙģÙĪØ¬":2237,"Ø§Ø¯Øª":2238,"10":2239,"Ø§ÙĨÚ¯":2240,"ĠØ¬ÛĮØª":2241,"ĠØ®ÙĪØ§ÛģØ´":2242,"ĠØ§ÙĦØŃØ¯ÛĮØ«":2243,"ĠØ¹ÙĦØ§ÙĤÛģ":2244,"ĠØµØ§Ø±Ùģ":2245,"ĠØ³ÙĦØ§Ùħ":2246,"ĠØ¬ÛĴ":2247,"ĠÚ©Ø§Ø±ÙĪØ§Ø¦ÛĮ":2248,"ĠØ§ÙħØ¯":2249,"ĠØ§Ø³Ù¾ØªØ§ÙĦ":2250,"ĠØµØ¯Ø§Ø±Øª":2251,"ÙģØªÛĴ":2252,"ĠØ¬Ø§ÙĪÛĮØ¯":2253,"ĠÚ©Ø§Ø´Øª":2254,"ĠØªØ±Ø¬ÙħØ§ÙĨ":2255,"ĠØºÙĦØ·":2256,"ĠØ´ÙĪ":2257,"ĠÙģØ§Ø¦Ø¯Ûģ":2258,"ÙĪØ¯Ú¾":2259,"ĠØ¶ÙĦØ¹ÛĮ":2260,"ĠØ¹ÙħÙĦÛĮ":2261,"ĠØªØ§Ø¬":2262,"ĠÙħØ°Ûģ":2263,"ĠÙħØ³Ø¦ÙĦÛģ":2264,"ÙĨÛĮØ´ÙĨÙĦ":2265,"ĠØ³ÛĮÙĨÛĮ":2266,"ĠØªØ§":2267,"ĠØ¨Ø±ÛĮ":2268,"ĠØ§ÙĦØ§ÙĤÙĪØ§ÙħÛĮ":2269,"ĠØ¨ÛģØªØ±ÛĮ":2270,"ĠØ¨Ø±Ø¯":2271,"ĠØ±Ø§ÙĪÙĦÙ¾ÙĨÚĪÛĮ":2272,"Ġ24":2273,"Ø¦Ù¹Ûģ":2274,"ĠØ±Ú©ÙĨ":2275,"ÙĦÛĮÛģ":2276,"ĠÙħØ°Ú©ÙĪØ±Ûģ":2277,"ÛĮØ§Ø¡":2278,"ĠÙħÙĨØªØ®Ø¨":2279,"ÙĪÛĴ":2280,"Ù¾Ûģ":2281,"ĠØ®Ø±ÛĮØ¯":2282,"ĠÛģÛĮÙĦ":2283,"ĠØ®Ø¯ÙħØ§Øª":2284,"ĠÙħØ¬ÙħÙĪ":2285,"ĠÙģØ§Ø¦Ø±":2286,"ĠØ¢Ø¯":2287,"ĠØ§ØªÚ¾Ø§Ø±Ù¹ÛĮ":2288,"ĠÙħÙĦÛĮÙĨ":2289,"ÙĨØ¯ÙĨ":2290,"ÙĪÛĮØ±":2291,"ĠØ¹ÙĦ":2292,"ĠÙħÙĨØ¸ÙĪØ±ÛĮ":2293,"ĠÙħÙĪØ³ÛĮ":2294,"ĠÙħÙĦØ§":2295,"ĠØªØ±Ø¬ÛĮ":2296,"ĠØ¯Ø±ÛĮ":2297,"ĠØªØ±ÙĤÛĮØ§ØªÛĮ":2298,"ĠØ¹Ø¨Ø§Ø³":2299,"ĠØ¹Ø±Øµ":2300,"ĠØ¯Ø¹Ø§":2301,"ÙĨÙ¹Ø±ÙĪÙĦ":2302,"Ø®ØµÙĪØµ":2303,"ĠØŃÛĮØ¯Ø±":2304,"ĠØ®ÙĪØ±":2305,"ĠØªØ§Ø²Ûģ":2306,"ĠØŃÙħØ§":2307,"³Û":2308,"22":2309,"Ø§ÙĨÚĪ":2310,"ØµØ±":2311,"ĠÙħÛĮÙ¹Ø±":2312,"ĠÚ©Ú¾ÙĦØ§ÚĳÛĮÙĪÚº":2313,"ĠÙħØ±ØŃ":2314,"ĠØ§Ø±Ø´":2315,"ÙĪÙħÙĨ":2316,"ØªØ§ÛģÙħ":2317,"ØŃØ¶":2318,"ĠØ¯ÛĮÛĴ":2319,"ĠÚ©ÛģÛĮÚº":2320,"ĠÛģÙģØªÛĴ":2321,"ĠØ±ÙĨÚ¯":2322,"ĠØªÙģØµÛĮÙĦØ§Øª":2323,"Ø³Ù¹Ùħ":2324,"ĠÚ©Ø±ÛĮÙħ":2325,"ĠØ¨Ø§Ø¯":2326,"ĠØªØ±Ø¬ÛĮØŃ":2327,"ĠÚĪØ³Ù¹Ø±Ú©Ù¹":2328,"ĠØ·Ø¨ÛĮ":2329,"ÙħØ±Ø§ÙĨ":2330,"ĠØ§Ù¾ÛĮÙĦ":2331,"ÛģÛĮÚº":2332,"ĠØ¨Ø²":2333,"ØµÙĪØ±":2334,"Ø±Ø§Ø¬":2335,"ĠØ±Ø§Ø¨Ø·Ûģ":2336,"ĠÚĪÚ¾":2337,"ĠØµØ¨ØŃ":2338,"ĠØ³ÙģØ±":2339,"Ø¶ÙĪÚº":2340,"ĠÙĪÚ©Ù¹":2341,"ĠÙħÙĨØ¯":2342,"Ø¹ÙĦ":2343,"Ġ.":2344,"Ù¾Ø´Ø§ÙĪØ±":2345,"Ø±ÛĮÙ¹Ø±ÛĮ":2346,"ĠÚ¯ÙĨØ§Ûģ":2347,"Ø«ÛĮØª":2348,"ĠØªØ³":2349,"ĠØ¢Ø¦ÛĮÚº":2350,"Ø¬Ø³Ù¹":2351,"ĠØ¬ÙĨÙĪØ¨ÛĮ":2352,"ĠÙħØ¶Ø¨ÙĪØ·":2353,"ĠØ¶Ø±ÙĪØ±":2354,"ĠØµÙĦØ§ØŃÛĮØª":2355,"ĠÙħÙĤØ±Ø±":2356,"ĠØ¯ÙģØ§Ø¹":2357,"ĠØ±Ú©Ú¾ÛĮ":2358,"Ø§ÙĨÛĮÛģ":2359,"ĠÚ¯Ø²Ø§Ø±":2360,"ĠØ³ÙħØ§Ø¹Øª":2361,"ĠØ´Ø§ÛģØ¯":2362,"ĠÙĪØ¹Ø¯":2363,"Ø°Ûģ":2364,"Ø§ÙĨØª":2365,"ĠØ§ØŃØªØ¬":2366,"ÙĤÙģ":2367,"ĠÙĪØ±Ø²ÛĮ":2368,"ĠØ§Ø³Ùħ":2369,"ĠØ±Ú©Ú¾ÛĴ":2370,"ĠÙ¾ÛĮØ¯Ø§ÙĪ":2371,"ĠÙħØ´ØªÙħÙĦ":2372,"ĠØŃÙħØ§ÛĮØª":2373,"Ø¬Ùħ":2374,"ĠÚ¯Ø±ÛĮ":2375,"ĠÙħØ¸Ø§ÛģØ±Ûģ":2376,"Ġ50":2377,"ĠØ³Ø¹ÛĮØ¯":2378,"ĠÙĦØ§ÙĨÛĴ":2379,"ĠØ¬Ø¯ÛĮØ¯":2380,"ĠÙħØ³ØªÙĤØ¨ÙĦ":2381,"ÙħÛĮÙĪÚº":2382,"ĠØ§Ø·ÙĦØ§Ø¹Ø§Øª":2383,"ĠÚ¯ÙĪÙĦ":2384,"ĠÙĨØªØ§Ø¦Ø¬":2385,"ĠÙħØ¹Ø§ÙħÙĦÛģ":2386,"ĠÚ©ÙĨÙ¹Ø±ÙĪÙĦ":2387,"Ø²Ûģ":2388,"ĠÙħØ´ØªØ±Ú©Ûģ":2389,"ÙĪØ³Ùģ":2390,"ĠØ¹ÙĦØ§Ùħ":2391,"ĠØ§ÙĨÚ©Ø§Ø±":2392,"ĠÙĤÙĪØª":2393,"ĠÙħØ´Ú©ÙĦØ§Øª":2394,"Ø§ÙģØª":2395,"ĠÚĨÛĮÙħ":2396,"ĠÙĦÛĮÙĨÚĪ":2397,"ÙģØªØ±":2398,"ĠØ§ÛĮØ¦Ø±":2399,"ĠØ§Ø³Ú©ÙĪÙĦ":2400,"ĠÙħÙĤØ¯ÙħØ§Øª":2401,"ÙĨÙħ":2402,"Ġ/":2403,"ĠÙħØ§ÛģØ±ÛĮÙĨ":2404,"ĠØ§ÙĨØªØ®Ø§Ø¨Ø§Øª":2405,"ĠÚ©Ú¾ÛĮÙĦ":2406,"Ø´ÛĮØ§":2407,"13":2408,"ĠØ¨ÙĪÙĦ":2409,"ĠÙħÙĪÙĦØ§ÙĨØ§":2410,"ĠØ³ÛģÙĪÙĦØª":2411,"ĠÙĦÛĮØªÛĴ":2412,"ĠØ±ÙģØª":2413,"ĠÙħØ¹Ùħ":2414,"ÙĶ":2415,"ĠÙħØªØŃØ¯Ûģ":2416,"15":2417,"ĠÙħÙĨÛĮ":2418,"ĠÚĨÛĮÚ©":2419,"ØŃÙĤ":2420,"ĠØ¨ÙĦÙĨØ¯":2421,"ÛĮÚ©Ù¹":2422,"ĠØ±ÙĪØ´":2423,"ĠÙħÙĤØ§ÙħØ§Øª":2424,"ĠØ§ÚĨÚ¾ÛĮ":2425,"ĠØ¹Ø§ÙĦÙħ":2426,"12":2427,"Ø§ÙħÙĦØ§Øª":2428,"ÙģØ§ÙĤ":2429,"ĠÙĨÛĮÚ©":2430,"Ġ200":2431,"ĠÙģÙĨ":2432,"ĠØªØ¨Ø§Ø¯":2433,"Ù¹ÙĨÛĴ":2434,"ĠØ¯Ùħ":2435,"ĠÙħÙĨÛģ":2436,"Ø¶ÛĮ":2437,"ĠÙĨØ§Ú©Ø§Ùħ":2438,"ĠÙħØªØ§Ø«Ø±":2439,"ÙħÛĮÚĪ":2440,"ĠØ³ÛĮØ±ÛĮØ²":2441,"ĠÚĨÛĮÙĨÛĮ":2442,"Ø¶ÙĦ":2443,"ĠØ§ÙħÚ©Ø§ÙĨ":2444,"ĠÚ¯Ø±ÙģØªØ§Ø±ÛĮ":2445,"ĠÚ©Ú¾ÙĦØ§ÚĳÛĮ":2446,"ĠØ¢ÙĪØ§Ø²":2447,"ĠØ§Ø³Ø±Ø§Ø¦ÛĮ":2448,"Ú©Ø´ÙħÛĮØ±":2449,"ĠÙĪØ·ÙĨ":2450,"ĠØ¯Ø´ÙħÙĨ":2451,"ĠØ¨ÙĨØ¯ÛĮ":2452,"ĠÚ©ÙħÙĨÙ¹Ø³":2453,"ĠØ§Ø¯Ø§Ú©Ø§Ø±Ûģ":2454,"ĠÙħØ¹ÙĨÛĮ":2455,"ĠØ·ÛĮ":2456,"ĠÙħØŃØ¨Øª":2457,"ĠÙĨØ¬ÛĮ":2458,"ĠÙħØ¬ÙħÙĪØ¹ÛĮ":2459,"ĠØ´Ø§Ø¯ÛĮ":2460,"11":2461,"ĠØ¹Ø¨Ø§Ø¯":2462,"ĠØ§ÙĨØªØ¸Ø§ÙħØ§Øª":2463,"ĠÙĨÛĮÚĨÛĴ":2464,"ĠØ®ÙĪØ§Ø¬Ûģ":2465,"ĠÙħØ¨Ø§Ø±Ú©":2466,"ĠÙħØ¹Ø§ÙħÙĦØ§Øª":2467,"Ġ0":2468,"ĠÙĦÚ¯ÛĴ":2469,"30":2470,"ĠÙħÙĨØµÙĪØ¨ÙĪÚº":2471,"ĠÙ¾ÙĪÙĦÙĨÚ¯":2472,"Ø¦ÛĮØ±":2473,"Ø´Ø±":2474,"ĠØªÙħÛģÛĮÚº":2475,"ĠÚ©Ú¾Ø§ÙĨÛĴ":2476,"ĠÙģØ§Ø¦ÙĨ":2477,"ĠÙĪÚ©ÛĮÙĦ":2478,"Ø§ÛģÙĪÚº":2479,"ĠÚ©Ø§ÙĦØ¬":2480,"ĠØ§ÙĦÙħ":2481,"ĠØ³Ø¹ÙĪØ¯ÛĮ":2482,"ĠØªÙĦØ§Ø´":2483,"ĠØ·ÙĦ":2484,"ĠØ´Ù¾":2485,"ĠØ³ÙħØ§Ø¬ÛĮ":2486,"ĠØªØ´Ú©ÛĮÙĦ":2487,"ĠØªÙģØªÛĮØ´":2488,"ĠØµÙģØ§Ø¦ÛĮ":2489,"ĠÚ©ÙĦØ¨":2490,"Ø§ÙĨÚ©":2491,"Ø§ÙħÛģ":2492,"ĠØ¹Ø¯":2493,"ĠÙħÛĮØ¯":2494,"Ø¹ÙĪØ§Ùħ":2495,"ÙĪÙĨÙ¹":2496,"ĠØ¯ÙĨÙĪÚº":2497,"ĠÙ¾Ø§Ø±ÙĦÛĮÙħ":2498,"ÙĪÙħØªÛĮ":2499,"ĠØ³ÙĪÚĨ":2500,"ĠÚ©ÛĮÚº":2501,"ĠØ¬Ø°":2502,"ĠÛģÛĮÚĪ":2503,"ĠÙĪÙģØ¯":2504,"ĠÙĨØ«Ø§Ø±":2505,"âĢľ":2506,"ĠÛĮÙĪØ³Ùģ":2507,"Ø§Úĳ":2508,"ĠØ¨Ø·":2509,"ĠØ¯Ø§Ø±Ø§ÙĦ":2510,"Ú¾Ùħ":2511,"ĠØ§ÛģØªÙħØ§Ùħ":2512,"ĠØŃÙģØ§Ø¸":2513,"ĠÙĪÛģÛĮ":2514,"ĠÙģÙĪØ±":2515,"Ġ100":2516,"ĠØªØ¹ÛĮÙĨØ§Øª":2517,"ĠØªØ´Ø¯Ø¯":2518,"ĠØ§Ø¶Ø§ÙģÛĴ":2519,"14":2520,"ØªÙħØ§Ø¯":2521,"ØµÛĮ":2522,"ĠØ´ÛģØ¨Ø§Ø²":2523,"ĠÙħØ°ÙħØª":2524,"25":2525,"ÛĮØ±Ø§ÙĨ":2526,"ĠÙĪØ³Ø§Ø¦ÙĦ":2527,"ĠØ§ÙĦÛĮÚ©Ø´ÙĨ":2528,"ĠÙĨØ§Ùģ":2529,"ĠØ·Ø§ÙĤØª":2530,"ĠØ¯ÙģØªØ±":2531,"ĠÛģÙħØ§Ø±Ø§":2532,"ÛĮØ¯Ûģ":2533,"ĠÚ¯Ø²Ø±":2534,"ÙħØŃÙħØ¯":2535,"ĠØ§ÛĮÚĪÛĮ":2536,"ÙĪÙ¹ÛĴ":2537,"ĠØ¯Ø§Ø¦Ø±":2538,"ĠØ¨Ø§Øº":2539,"ØŃÚ©Ø§Ùħ":2540,"ĠØ³ÛĮÚ©Ø±ÛĮÙ¹Ø±ÛĮ":2541,"ĠØ®ÙĪÙģ":2542,"ĠØ§ÙĦÚ¯":2543,"ĠÙ¾ÙĪØ±Ù¹":2544,"ĠØ¨Ø±Ø§Ø¯Ø±ÛĮ":2545,"ĠÙħØ¹Ø§Ø´ÛĮ":2546,"ĠÚ©Ø±Ú©Ù¹":2547,"ĠØ¹Ø§ÙħØ±":2548,"ĠÙ¾ÚĳÛĴ":2549,"Ø¯Ø¹":2550,"Ġ)-":2551,"ĠØ®Ø§ØªÙħÛģ":2552,"ĠÙĨÙĪØ±":2553,"ĠØ§ÛģÙħÛĮØª":2554,"ÙĦÛģØ°Ø§":2555,"ĠØŃØ¯ÛĮØ«":2556,"ĠØ¹Ø¸ÛĮÙħ":2557,"ĠØ§ÙĦØ¹":2558,"ĠØ³Ø¨Ø¨":2559,"Ø§Ø¨ÙĦ":2560,"ĠØµØ§Ø±ÙģÛĮÙĨ":2561,"ĠØ§ÙħÛĮØ±":2562,"ĠØ´ÛĮØ±":2563,"ĠØ®Ø±ÚĨ":2564,"ĠØ´Ø¯Ûģ":2565,"ĠØ¯Ø¹ÙĪØª":2566,"Ø§ÙħØ±ÛĮ":2567,"ĠØ¬Ø¯ÙĪ":2568,"ĠØŃÙĤÛĮÙĤØª":2569,"ĠØ¨ÛĮÙħØ§Ø±ÛĮ":2570,"ĠÙ¾ÛĮÚĨÚ¾ÛĴ":2571,"ĠÙħØ¹Ø±ÙĪÙģ":2572,"ĠØŃØµÙĪÙĦ":2573,"ĠÚ©ÛģÛģ":2574,"ĠÙ¾Ø§":2575,"ĠØ§Ø¹ØªÙħØ§Ø¯":2576,"Ø¨ÙĪÚº":2577,"ĠØ¨Ø§Ø²ÛĮ":2578,"ĠØ®ÛĮØ±":2579,"ĠÛ²Û":2580,"ĠÚ¯Ú¾Ø±ÙĪÚº":2581,"ĠÙħÛĮÙĦ":2582,"ĠØ§ØŃØ³":2583,"ĠÙĪØ§ÙĤØ¹Ø§Øª":2584,"ĠØ·Ø±ÛĮÙĤÛģ":2585,"ĠØ±Ú©Ú¾ÛĮÚº":2586,"Ø¶ÛĴ":2587,"ĠÙħÛĮÚĪÛĮÚ©ÙĦ":2588,"ĠÙĪÙĪÙ¹":2589,"ĠØ§ÙħÛĮØ¯ÙĪØ§Ø±ÙĪÚº":2590,"ĠØ·Ø±ÛĮÙĤÛĴ":2591,"ĠØ¨Ø®Ø´":2592,"ĠÚ¯Ø°Ø´ØªÛģ":2593,"ÛĮÙĨÚ©":2594,"ĠØ§Ø¨Øª":2595,"ØŃØ¶Ø±Øª":2596,"ĠÛģØ§Ø±":2597,"ĠÙ¹Ø±ÛĮÙĨ":2598,"ĠØºÙĪØ±":2599,"ĠØ¨Ø§ÙĤÛĮ":2600,"Ø§ÙĪØ²":2601,"Ø°ÛĮ":2602,"ĠÙħØªÙĪ":2603,"Ø§ÛģÙĦ":2604,"ĠÙħØ³ØªØ±Ø¯":2605,"ĠØ±ÙĪØ§ÛĮØª":2606,"ĠØ¬Ø§ÙĨØ§":2607,"ĠØ§Ø¯Ø§Ú©Ø§Ø±":2608,"ĠØ³ÙĪÙĦ":2609,"ĠÙħÙĦÙĨÛĴ":2610,"ĠÙ¾Ø±ÙĪÙģÛĮØ³Ø±":2611,"ĠØªØµØ¯ÛĮÙĤ":2612,"ĠØŃÚ©ÙħØª":2613,"Ù¾ÙĪ":2614,"ĠØ§ÙĦØŃÙĤ":2615,"ĠÙģØ§Ø±ÙĪÙĤ":2616,"ĠØ±ÙĪØ´ÙĨÛĮ":2617,"16":2618,"ĠØµÙĪØ¨Ûģ":2619,"ĠØ§ÛĮÙĪØ§ÙĨ":2620,"ÙĦÛĮÙģ":2621,"ĠÚ¯Ú¾ÙĨÙ¹ÛĴ":2622,"ĠØŃØ§Ø¯Ø«":2623,"Ø³Ù¹ÙĨÙ¹":2624,"Ø§ÙģØ¸":2625,"ĠØªÙĪÚĳ":2626,"ĠÙ¹Ø±Ø§ÙĨ":2627,"Ø§ÙĪÛĮØ²":2628,"17":2629,"ĠØ¢ÙĨÚ©Ú¾":2630,"ĠØ¨Ø±ÛĮÙģ":2631,"ĠØ§ÙĦØ¯ÛĮÙĨ":2632,"ĠØ¹Ø²ÛĮØ²":2633,"ĠØ¨ÙĨÙĨÛĴ":2634,"ĠØ±Ø¶Ø§":2635,"ĠØ³Ø§ØªÚ¾ÛĮ":2636,"ĠÚĨØ§ÛģØªØ§":2637,"ĠÚ©Ø±Ù¾":2638,"Ø±ÛĮØ³":2639,"Ø±Ø¨ÛĮ":2640,"ĠÙĦØ§Ø¦ÛĮ":2641,"ĠØ¬Ø¬":2642,"ĠÛģØ¯Ø§ÛĮØ§Øª":2643,"ĠÙģØ§Ø¦ÙĨÙĦ":2644,"Ø§Ø¦Ø´ÛĮ":2645,"ĠØ¢Ø³ÙħØ§ÙĨ":2646,"ØºÛĮØ±Ûģ":2647,"ĠÙĨØ§Ø¦Ø¨":2648,"ĠÙĦÚĳÚ©ÛĮ":2649,"ĠØ§Ø¯Ø§Ø¦ÛĮ":2650,"Ø³Ù¹Ø±ÛĮÙĦ":2651,"ĠÙĨØ³":2652,"ĠØ¨ÙĨØ§Ø¦ÛĮÚº":2653,"Ø³ØªÛģ":2654,"Ø¬ÛģØ¯":2655,"ĠÚĪØ§ÙĦØ±":2656,"ĠÙĪØŃ":2657,"Ú¾ÛĴ":2658,"Ø§ÙĨÚ¾ÙĪÚº":2659,"ÙĤØ±Ø§Ø±":2660,"ĠÙħØ³Ø§Ùģ":2661,"ÙħÙĨÛĮ":2662,"ĠØ§ØµÙĦ":2663,"ĠÙħÛĮØ²":2664,"ĠØ§ÙĪÙ¾Ø±":2665,"ĠØ¢Ø¨":2666,"Ø§Ø³Ø¨":2667,"ÙĨÚ¯ÙĦ":2668,"ĠØ±ÛĮÙħ":2669,"ĠÙħØ§ÙĦÚ©":2670,"Ø³Ø±ÛĴ":2671,"ĠØ®ÙĪÙĨ":2672,"ĠØ§ÛĮØ³ÙĪØ³ÛĮ":2673,"ĠØ´ÙħØ§Ø±":2674,"ÙħÙĪÙĨ":2675,"ĠØ±ÛĮÚ©Ø§Ø±ÚĪ":2676,"ĠÙĪÛĮØ¨":2677,"ÙħØ§ÙĨØª":2678,"ĠØªÙĤØ±ÛĮØ¨Ø§":2679,"ĠÙ¾Ø®ØªÙĪÙĨØ®ÙĪØ§":2680,"ÙģÛĮÙĤ":2681,"ĠÙħØ³ÙĦØ³ÙĦ":2682,"ĠØŃÛĮØ«ÛĮØª":2683,"ĠØ´ÙĨ":2684,"ÙĦÛĮÙ¹":2685,"Ø²Ø§Ø²":2686,"ÙĦØ³":2687,"Ġ22":2688,"Ø³ÛĮØ¹":2689,"ÙĪÙĦÛĮØª":2690,"ĠØ¸ÙĦÙħ":2691,"ĠÙħØ¹ÛĮØ´Øª":2692,"ĠÙĨØ§ÙĤ":2693,"ĠÙĨØ³ÙĦ":2694,"ĠØ³Ú©ÛĮÙĪØ±Ù¹ÛĮ":2695,"ĠØ¨Ú¾Ø§Ø±ÛĮ":2696,"ĠØ·ÛĴ":2697,"ĠØ§Ø¨ÙĪ":2698,"ĠÙĨØ§ÙħÛĮ":2699,"ĠØ¯Ø§Ø¯":2700,"ĠØŃØ§Ø¶":2701,"Ø¯Ø§Ø¦ÛĮ":2702,"ĠØ¬ÙħÛģ":2703,"ĠÙ¾ÛĮØ¯Ø§ÙĪØ§Ø±":2704,"ØªÙĤ":2705,"Ø¯Øª":2706,"ĠÙħØ§ÚĪÙĦ":2707,"ĠÙħØŃÙĨØª":2708,"Ø§Ú©ÛĮÙĨ":2709,"ĠØ¬Ø¯ÙĪØ¬ÛģØ¯":2710,"ĠÙĨØ§Ø²ÙĦ":2711,"ĠÛģØ§ØªÚ¾ÙĪÚº":2712,"ĠÚ©ÛĮÙħÙ¾":2713,"ĠÙĦÚ©Ú¾Ø§":2714,"ĠØªØ±Ø¨ÛĮØª":2715,"ĠÙĤØ·":2716,"ĠØªØ¹ÙĦÛĮÙħ":2717,"ĠØ§Ø±Ú©":2718,"Ø§Ø¤ÙĨ":2719,"ĠØ¬ÛĮÙĦ":2720,"ÛĮÙĨØ¦Ø±":2721,"ĠÙħÛģÙħØ§ÙĨ":2722,"ĠØ¨ÙĨØ§Ø¦ÛĮ":2723,"ĠÙħØ®Ø§ÙĦÙģ":2724,"ĠÙĦÚ¯Ø§ÙĨÛĴ":2725,"ĠÙ¾ÛģÙĦØ§":2726,"ĠØ§Ø¦":2727,"ĠØ¯Ø¹ÙĪÛĮ":2728,"ĠÙĤØ¨Ø¶Ûģ":2729,"ĠÙĪÛĮÚĪÛĮÙĪ":2730,"ĠØ¨Ø·ÙĪØ±":2731,"ĠØªÙĨÙĤÛĮØ¯":2732,"ĠØ±Ø§Ø¬Ûģ":2733,"ĠØ¢ÙģØ³":2734,"ĠØ§ÛģÙĦÚ©Ø§Ø±ÙĪÚº":2735,"ÛĮÙĨÚ¯ÛĴ":2736,"ĠØ±ÙĪØŃ":2737,"Ø§Ú©ÛĴ":2738,"Ø§ÙĦÙħ":2739,"ĠÙħØ¹Ø§ÛģØ¯":2740,"ĠØ´Ø±ØŃ":2741,"ĠÙħÛĮØ¯Ø§ÙĨ":2742,"ĠØ·ÙĦØ¨Ø§Ø¡":2743,"ĠÙĦØ§Ø¦":2744,"ĠØ¹Ø¯Ùħ":2745,"Ø·Ø§ÙĨÙĪÛĮ":2746,"ĠØ¯Ø¦ÛĮÛĴ":2747,"ĠØ§Ø±Ú©Ø§ÙĨ":2748,"ĠÚ©Ù¾ØªØ§ÙĨ":2749,"ĠØ°Ûģ":2750,"ĠÙĨØ¬":2751,"ĠØ§ÛģÙĦÚ©Ø§Ø±":2752,"ĠØ¯ÛĮÚ©Ú¾ÙĨÛĴ":2753,"ĠÙģØ±ÛĮ":2754,"ĠÚ©Ø§Ø±ÙĪØ¨":2755,"ĠØ§ØªØŃØ§Ø¯":2756,"Ø¨ÙĪÙĦ":2757,"Ø§ØªØ°Ûģ":2758,"Ø®ÛĮØ§ÙĦ":2759,"ÙħÛĮÚĪÛĮØ§":2760,"ÙĨÚ¯ÛĴ":2761,"ĠØªØ¬Ø§ÙĪØ²":2762,"Ù¾ÛĮØ´":2763,"ĠØ§Ø¯Ø§Ø¦ÛĮÚ¯ÛĮ":2764,"ĠÙħØ¹Ø§ÙĪÙĨ":2765,"ĠØ§Ø¶ÙĦØ§Ø¹":2766,"24":2767,"ĠØ±Ø´ÛĮØ¯":2768,"ĠÚ©Ø±ÙĨÛĮ":2769,"ĠÙħÙģØ§Ø¯":2770,"Ø§Ø¬Ø¯":2771,"Ø·ÙĦ":2772,"ĠÚĨÙĦØ§":2773,"ĠÙħÙĪÙĤÙģ":2774,"ĠØ§ÙħØ¯Ø§Ø¯":2775,"Ú¯ÙĪØ¯":2776,"ÛĮØ¹ÙĨÛĮ":2777,"ĠØ¹Ø¨Ø§Ø¯Øª":2778,"ĠÙħØ³Ø¬Ø¯":2779,"Ø¨Ø§Øª":2780,"ĠØ²Ø¨Ø§ÙĨ":2781,"ĠØ¯Ø±Ø³Øª":2782,"ĠØ¨Ø±ÛĮÙģÙĨÚ¯":2783,"ØªØ§ØŃ":2784,"Ø´Ø§Ûģ":2785,"ĠÙĦÛĮÚĪØ±":2786,"ĠØ§ØŃÚ©Ø§ÙħØ§Øª":2787,"ĠÙ¹Ú¾ÛĮÚ©":2788,"ĠØ¯ÙĪØ±ÛĴ":2789,"ĠØªÛģ":2790,"Ġ\\":2791,"Ú©Ø´Ø§Ùģ":2792,"ĠØ³Ø§Ø¦Ù¹":2793,"ĠÙĦÚ¯Ø§Ø¦ÛĴ":2794,"ÙĪÙħÛĮ":2795,"ĠØ§Ø³Ø³Ù¹ÙĨÙ¹":2796,"ĠÙĤÛĮØ§ÙħØª":2797,"Ø³Ù¹ÛĮ":2798,"ĠÙĪÛĮÚº":2799,"ĠØ³Ø§Ø¦ÙĨØ³":2800,"ĠÙĪØ¶":2801,"ĠØªØ¨Ø§Ûģ":2802,"ĠÙĪØ§ÙĦØ¯":2803,"ĠÙĪØºÛĮØ±Ûģ":2804,"ÙĪÛĮÙ¹":2805,"ĠÙģØ§Ø±Ùħ":2806,"ĠÙ¾Ø³":2807,"27":2808,"Ø±ÛĮÛģ":2809,"ĠØ¨Ø±Ø¯Ø§Ø´Øª":2810,"ĠØ§Ø®ØªØ±":2811,"Ø§Ù¾ÙĨÛĴ":2812,"ÙģÙĤ":2813,"ĠÚ¯Ø§ÚĳÛĮÙĪÚº":2814,"ÚĨØ³Ù¾":2815,"ĠØ¹Ø±Ùģ":2816,"Ø²ÙĨ":2817,"Ø´ÙĪÚº":2818,"ĠÙĤØ±Ø¨Ø§ÙĨÛĮ":2819,"ĠØ¯ÛģØ´ØªÚ¯Ø±Ø¯":2820,"ĠØ§ÙĦÛĮ":2821,"ĠØ±ÛģØªÛĴ":2822,"ĠØ¢Ø®Ø±Øª":2823,"ĠØ·Ø¨":2824,"ĠÛģÙ¹":2825,"ÛĮÙĨØ¬":2826,"ĠØ§Ø®Ø±Ø§Ø¬":2827,"ĠØ§ÙĨÚ©Ø´Ø§Ùģ":2828,"ĠÚ¯Ø±Ø¯ÙĪÚº":2829,"ĠÙĨØ´Ø³Øª":2830,"ĠÚ©Ø´ÙħÛĮØ±ÛĮÙĪÚº":2831,"ĠØ¬Ø§Ø¦ÛĮÚ¯Ø§":2832,"Ø¨ÙĦÚ©":2833,"ĠØªØŃØµÛĮÙĦ":2834,"ĠÙħØŃØ±":2835,"Ø§Ø¨ÛĮÙĨÛģ":2836,"ĠÚ©Ø§Ø±Ú©ÙĨÙĪÚº":2837,"ĠØ®Ø²Ø§ÙĨÛģ":2838,"ĠØ§Ø®ØªÙĦØ§Ùģ":2839,"ĠØ³Ø¬":2840,"ĠØ³Ù¾Ø±ÛĮÙħ":2841,"Ø§Ø±Ø´":2842,"ĠØŃÚ©ÙĪÙħØªÛĮ":2843,"ĠÙģØ§Ø¦Ø±ÙĨÚ¯":2844,"ĠØ¢ØªÛĴ":2845,"ĠØ¯ÙĪØ³Ø±Ø§":2846,"ĠØ´Ø¹Ø¨ÛĴ":2847,"ĠØŃØ¬":2848,"ØªÙħÛĮ":2849,"ĠØ±ÛĮÙģØ±ÙĨØ³":2850,"Ø§Ø±ÙĤ":2851,"ĠÚ©Ú¾ÙĪÙĦ":2852,"ĠØ§Ø³Ù¹ÛĮØ´ÙĨ":2853,"Ø°ÛĮØ±":2854,"ĠÚ©Ø±ÙĨ":2855,"Ø¨ÙĪØ¯":2856,"ĠÙĪØ§ÙĦØ¯ÛĮÙĨ":2857,"Ġ40":2858,"ĠØ³Ø³Ù¹Ùħ":2859,"ĠØ§Ø±Ø§Ú©ÛĮÙĨ":2860,"ĠØ²ÙĨØ¯Ûģ":2861,"Ø¢Ø¬":2862,"Ú©ÙĪØ¦Ù¹Ûģ":2863,"ĠÙħØ«Ø§ÙĦ":2864,"ĠÙģÙĪØ±Ø³Ø²":2865,"ĠØ³Ù¾Ø±":2866,"ĠÛĮÙĪÙĨÛĮÙĨ":2867,"ĠØ¹ÛĮ":2868,"ĠØ³ÚĳÚ©":2869,"ĠØ§ÙĨÙ¹Ø±ÙĨÛĮØ´ÙĨÙĦ":2870,"Ø§Ø¤Ø³":2871,"ĠÙ¾ÛģÙĨÚĨØ§":2872,"Ø±Ø§Ø¡":2873,"ĠÚ©Ø§ÙģØ±":2874,"ÚĪØ²":2875,"Ú©ÛĮÙĪ":2876,"ĠÙ¹Ú©Ù¹":2877,"ĠØ³ÙĪØ§":2878,"ØµØ§Ø¯ÛĮ":2879,"26":2880,"ĠØ¯Ú¾ÙĪ":2881,"Ø§Ø°":2882,"ĠÙ¹ÛĮÙħÙĪÚº":2883,"ÛģØ±ÛĴ":2884,"ĠÙħØ¹ÛĮØ§Ø±":2885,"ĠØµØ¯ÛĮ":2886,"Ø³Ø·":2887,"ĠØ³Ø§ÙħØ§ÙĨ":2888,"ĠØ¨ÛĮÙ¹ÛĴ":2889,"Ø´Ø§ÙĨ":2890,"ĠØ§Ø³Ø§ØªØ°Ûģ":2891,"ĠØ§ÙĨØªÙĤ":2892,"Ø²Ùħ":2893,"ĠØ¢ØªØ§":2894,"ĠÙĨÙħØ§":2895,"ĠØ§Ø®ØªØª":2896,"ĠÙ¾ÛĮÙ¾ÙĦØ²Ù¾Ø§Ø±Ù¹ÛĮ":2897,"28":2898,"ĠØ®ÙĪØ´ÛĮ":2899,"ÛģØ±Ø³Øª":2900,"ĠÚĨÛĮÙĦ":2901,"ĠØ³Ø±Ø§Ûģ":2902,"ĠØ®Ø§ÙĦØ¯":2903,"ĠØ§ÛĮØ¬ÙĨØ³ÛĮ":2904,"ĠØŃÙħÙĦÛģ":2905,"ĠÙħØ°ÛģØ¨ÛĮ":2906,"ĠÙ¹ÛĮÚ©":2907,"ĠØ®Ø§ØªÙħÛĴ":2908,"ĠØ¨Ù¹":2909,"ĠØ§Ù¹Ú¾Ø§":2910,"Ø±Ø§ÛģÛĮÙħ":2911,"ĠØ³Ø±Ø¨Ø±Ø§ÛģÛĮ":2912,"ĠØ¹Ø²Øª":2913,"ĠØ¯Ø³ØªÛĮ":2914,"Ø³Ø¨":2915,"ĠØ³ÙĦÙħØ§ÙĨ":2916,"ĠÙħØ§ØŃÙĪÙĦ":2917,"ĠÛģÛĮÙĦØªÚ¾":2918,"29":2919,"ĠÙĤÙĦ":2920,"ĠØªÛĮØ§Ø±ÛĮ":2921,"ĠØ¯Ø±Ø¢ÙħØ¯":2922,"ĠØ¹Ø·Ø§":2923,"Ú¾ÛĮÚº":2924,"ĠÙĦØ¨":2925,"ĠÙģÛĮÚĪ":2926,"Ø«ÙħØ§ÙĨ":2927,"âĢĻâĢĻ":2928,"ĠÙĨÛģØ§ÛĮØª":2929,"ÛģØ±ÛĮ":2930,"ĠÚĨØ§ÙĨ":2931,"ĠØ¢ÛĮØ§Øª":2932,"ĠØŃØ§Ø¬ÛĮ":2933,"âĢĿ":2934,"ĠØ¬ÙĨØª":2935,"ĠØ´Ú©ÙĦ":2936,"ĠØ§ÙĪÙĪØ±":2937,"ĠØ¯ÙĦÚĨØ³Ù¾":2938,"Ø§Ú¯":2939,"ĠÛĮÙĪÙħ":2940,"Ø¯Ùģ":2941,"ĠØ²Ø±Ø§Ø¹Øª":2942,"°Û":2943,"Ø®ÙĪØ§Ûģ":2944,"ĠØ³ÛĮÚ©ÙĪØ±Ù¹ÛĮ":2945,"ĠÙģØ¶ÙĦ":2946,"ÙĦÚĪ":2947,"Ø§ÙĤØ¹":2948,"ÙĤØ§Øª":2949,"ĠØ¨Ø§ØªÛĮÚº":2950,"ĠØ§ÛĮØ¬ÙĪ":2951,"Ø¶Ø§ÙĨ":2952,"ĠØ§ÙģØ³ÙĪØ³":2953,"23":2954,"Ø§ÛĴ":2955,"Ú©Ù¹Ø±":2956,"ĠÙĦÙĪÙ¹":2957,"ĠÙĨÛĮØ§":2958,"Ø¢Ø¨Ø§Ø¯":2959,"ĠØ§ÙĤØ¯Ø§Ùħ":2960,"ÙĨÙĪÚº":2961,"Ø¬Ø³ÛĴ":2962,"ĠØ¢Ø±ÙħÛĮ":2963,"ĠØ§ØµÙĦØ§ØŃ":2964,"ĠØ´ÛģÛĮØ¯":2965,"ĠØ´ÙĨØ§Ø®":2966,"ĠÙĦØ§Ø´":2967,"ĠØ¯ÛĮØ±":2968,"ĠÙħÙĦØª":2969,"ĠØªØµÙĪÛĮØ±":2970,"ĠÙĪÛĮÙĦ":2971,"ĠÙħØ¨Øª":2972,"ÛģÙĪØ±":2973,"ĠÙ¾Ú¾ÛĮÙĦ":2974,"ĠØ§Ø²ÛĮÚº":2975,"ĠÛģÙĪÙĨÛĮ":2976,"Ú¯Ø²Ø´ØªÛģ":2977,"ĠØ¨Ø§ÙĦÚ©ÙĦ":2978,"ÛĮÙĨØ¯":2979,"ĠØ§ÛĮÚĪÙĪ":2980,"ĠØ§Ø¹Ø²Ø§Ø²":2981,"ĠØ¯Ú¾Ø±":2982,"ĠØ¹Ø¨Ø§Ø³ÛĮ":2983,"Ø±ÛĮØ±":2984,"Ø±ÛĮØ¯ÛĮ":2985,"Ù¹ÛĮÙģ":2986,"ĠÙħØµÙĨÙĪ":2987,"ĠØ§ÙĤØªØ¯Ø§Ø±":2988,"ĠØ³ÛĮÙģ":2989,"ĠØ§ÛĮÚĪÛĮØ´ÙĨÙĦ":2990,"ĠÙĦØ§Ø²":2991,"Ú©Ø³ÛĮ":2992,"Ø§ÙĦÙĪ":2993,"ĠØ¨Ø¯ÙĦ":2994,"ĠØ¨Ø§ÙĤ":2995,"ĠÚĪÛĮÙħ":2996,"ĠÙħÙĨÙ¹":2997,"ĠÚ©Ø±ÛĮ":2998,"ĠØ±Ú©ÙĨÛĮ":2999,"ĠØ¯Ø±Ø¬Ûģ":3000,"ĠØ±ÛĮÙ¹":3001,"ĠØ§Ø¯Ø§Ø±Ûģ":3002,"ĠØ±ÛģØ§Ø¦Ø´ÛĮ":3003,"ĠØ§ÙĦÙģØ§Ø¸":3004,"Ø§ÙģÛĮÙĪÚº":3005,"ÙĪÙĨÚ¯":3006,"ĠØªØ¨Ø§Ø¯ÙĦÛģ":3007,"ĠÚ©ÛĮØ³ÛĴ":3008,"ĠÚĨÛĮÙĦÙĨØ¬":3009,"ĠØ¬Ø±Ø§Ø¦Ùħ":3010,"ĠØ¨Ø±ÙĤØ±Ø§Ø±":3011,"ĠØ§Ø¨Ø±Ø§ÛģÛĮÙħ":3012,"ÙģÛģ":3013,"ĠÙĪØ§ÙĤØ¹ÛĴ":3014,"ĠÚ©ÛĮÙĨ":3015,"ĠÙĴ":3016,"ÙĨÚ¯Ø²":3017,"Ø¬Ø§Ø²":3018,"Ù´":3019,"ĠØ¨Ø±Ø§Ø¨Ø±":3020,"ĠÚĨÙĪØ±ÛĮ":3021,"ĠÚ©Ø±Ø§Ø¦ÛĮ":3022,"ĠÙ¾ÙĪØ³Ù¹":3023,"ĠØ³ÛĮÙĨÙ¹Ø±":3024,"Ġ2017":3025,"Ø§ÙĤØ¨":3026,"ĠØ¨ÛĮÙ¹ÛĮ":3027,"ĠÚĨÚ¾Ù¾":3028,"ĠÙ¾ÛģÙĨÚĨØ§ÙĨÛĴ":3029,"ĠÙģØªØŃ":3030,"ĠØ§ÙĨØ¬ÛĮÙĨØ¦Ø±":3031,"ĠØ²Ùħ":3032,"Ø±ÛĮØ§":3033,"ĠÙħØ¶ÙħÙĪÙĨ":3034,"Ø³ÛĮØ±":3035,"ĠØ³Ø§ÙĨ":3036,"ĠØ¹Ø²Ùħ":3037,"Ġ23":3038,"ĠØ§ÛĮÚ©Ø´ÙĨ":3039,"ĠØ¨Ø§Ù¾":3040,"ĠØ¢Ø¨Ø§Ø¯ÛĮ":3041,"Ú¯ÙĪØ¯Ú¾Ø§":3042,"ĠØ´Ø§ÙĨØ¯Ø§Ø±":3043,"ĠØ§ÙĦØ²Ø§ÙħØ§Øª":3044,"ĠÛĮÙĪØ±":3045,"ĠÙħØŃØ±ÙĪÙħ":3046,"ĠÙħØ§Úº":3047,"µÛ":3048,"ĠÙĦÛģ":3049,"Ġ27":3050,"ĠØ§ÙĤØªØµØ§Ø¯ÛĮ":3051,"ĠÙ¾ÛĮØ³ÛĴ":3052,"ĠØ¢Ù¹Ú¾":3053,"ĠØ®Ø§Ùħ":3054,"ĠÙ¾Ø¨ÙĦÚ©":3055,"ĠÙĤØ¯":3056,"ĠÙħØ¹Ø§Ø´Ø±ÛĴ":3057,"ĠÙħØ«Ø¨Øª":3058,"Ø¯ÛĮÛģ":3059,"ĠÚ©ÙĪÛģ":3060,"ØŃØ§ÙĦÛĮ":3061,"ĠØ·ÙĪÛĮÙĦ":3062,"ĠÙĪØ§Ø¦Ø³":3063,"....":3064,"Ø²ÙĦ":3065,"ĠØ§ÙĨØ³Ø¯Ø§Ø¯":3066,"Ú¯ÙĨ":3067,"Ø§Ø¦ÙĪØ³":3068,"Ø®Ø·":3069,"ĠÚ©Ø«":3070,"ĠØ¨ÙĤ":3071,"ĠÙħØ¨ØªÙĦØ§":3072,"ĠØ®Ø§ÙĨÛģ":3073,"ĠÙ¾ÙĪØ¯":3074,"ĠØŃÛĮØ§Øª":3075,"ĠØ§ÙĦÙĨ":3076,"ĠØ§ÙģØªØªØ§ØŃ":3077,"ĠÙħØ¹Ø§ÛģØ¯ÛĴ":3078,"ĠÙħØ¬Ø¨":3079,"ĠØ§ÙĨØ§Ø¦ÛĮ":3080,"ĠØ³Ù¾ÙĪØ±Ù¹":3081,"ĠÙĪÙĦØ¯":3082,"ĠØ±ÛĮØ³":3083,"ĠØ´Ø¹Ø¨ÙĪÚº":3084,"ĠØ±Ùħ":3085,"ĠØªØ¬Ø±Ø¨":3086,"Ġ26":3087,"ĠÙ¾ÛģÙĨ":3088,"ÛĮÛģØ§Úº":3089,"ĠØ¨Ø®Ø§Ø±ÛĮ":3090,"ĠØ°Ø±ÛĮØ¹Ûģ":3091,"ĠÚ©Ø§Øº":3092,"ÛĮÙĪ":3093,"ĠÙĦÙĨØ¯ÙĨ":3094,"ĠØ§Ú©Ø±":3095,"ĠÚ©Ø§Ø±ÙĪÚº":3096,"ĠØ¨Ú¾Ù¹ÙĪ":3097,"ĠØ§ÙĨÚ¯ÙĦ":3098,"Ø§ÙĨÛĮÙĨ":3099,"Ø§Ø³Ú©":3100,"ĠØ§ÚĨÚ¾Ø§":3101,"Ġ]":3102,"ØµÙĪØ±Øª":3103,"ÙħÙĦÚ©Øª":3104,"ĠÚĨÙĦÛĴ":3105,"ĠØ¬Ø¹ÙĦÛĮ":3106,"ĠØªÛĮØ²ÛĮ":3107,"Ú¯Ø§Ûģ":3108,"ĠÙ¾ÛģÙĨÚĨÛĴ":3109,"ĠÙĤÙĪØ§ÙĨÛĮÙĨ":3110,"ĠÛģÙĨØ¯":3111,"ĠÙħÙĪØ§ÙĤØ¹":3112,"ĠÙĨØ¹ÙħØª":3113,"Ø¹ÙĪØ¯":3114,"ĠØ¨ÙĨÛĴ":3115,"ĠÙ¾ÙĨ":3116,"Ø§Ø¹Ø¯Ûģ":3117,"ĠØ±Ú©Ú¾ØªØ§":3118,"Ø§ÛĮÙħ":3119,"ĠÙĪØ±ÙĦ":3120,"ĠØ¡":3121,"ĠÙĨØ§Ø±":3122,"ĠØ¸ÙģØ±":3123,"ĠÙħØ¯Øª":3124,"ĠØ«Ø¨ÙĪØª":3125,"ĠÙĪØ±ÙĦÚĪ":3126,"ĠÚ©Ø§Ø¨ÛĮÙĨÛģ":3127,"Ġ35":3128,"ĠØ±Ø§Ø³":3129,"ĠØ§ÛĮØ¬ÙĪÚ©ÛĮØ´ÙĨ":3130,"ĠÚ©ÙħÙ¾ÙĨÛĮÙĪÚº":3131,"ĠØ¬Øª":3132,"ĠÙĤØ¯Ùħ":3133,"ĠØ®ÙĦ":3134,"ĠÙħØ§Ø±ÚĨ":3135,"ÛĮÙĨÙĪÚº":3136,"Ø§Ø³Ù¹":3137,"09":3138,"ĠÙĤØ§Ø¨ÙĪ":3139,"ĠÙĨÛĮÙĪ":3140,"ĠÙ¾ÚĳØ§":3141,"ĠÚĪÛĴ":3142,"ĠÙĤÛĮÙħØªÙĪÚº":3143,"ĠØ§ØªÙģØ§ÙĤ":3144,"ÙĪØ§ÙĦÛģ":3145,"07":3146,"ĠÙĦØ§Ø¦ÛĴ":3147,"Ø±ÛĮØŃ":3148,"ĠØªØ´ÙĪÛĮ":3149,"ĠØ¢Ø¯ÙħÛĮ":3150,"ĠØ§ÙĦÙĤ":3151,"ĠØŃØ§ÙħÙĦ":3152,"ĠØ¨ÛĮØ±ÙĪÙĨ":3153,"ĠÚĨÙħ":3154,"ĠØ´ÛģØ±ÙĪÚº":3155,"ĠØ³ÙĦØ§ÙħØªÛĮ":3156,"ĠØ§ÛĮÚ¯Ø²":3157,"ĠÙ¾Ø§Ø¦ÛĮ":3158,"ĠÙħÛģØ±Ø¨":3159,"ĠØ¢Ø®Ø±":3160,"ÚĨÛĮÙģ":3161,"ĠØŃØªÙħÛĮ":3162,"ĠØ§ÙħØª":3163,"ĠØ§ÙħØªØŃ":3164,"ĠØ¢ØªÛĮ":3165,"ĠÙĨÚ¯Ø±Ø§ÙĨÛĮ":3166,"Ø°Ø§Øª":3167,"ĠØ³Ø§ÙĦØ§ÙĨÛģ":3168,"ĠÙ¾ÛĮØ´Ûģ":3169,"ĠÙģÙĦØ§ØŃ":3170,"ĠÚ©Ø§ÙħÙĪÚº":3171,"ÚĳÙĪÚº":3172,"ĠØ¹Ø«ÙħØ§ÙĨ":3173,"ĠÚ©Ú¾ÚĳÛĴ":3174,"Ø±Ø¯Ø§Ø±ÛĮ":3175,"Ø¯ÙĦ":3176,"ĠØ¹ÙħØ§Ø±Øª":3177,"ĠÙħØ§Ø¶ÛĮ":3178,"ĠÙ¾Ø§Ø±Ú©":3179,"ĠØªÙģØµÛĮ":3180,"Ġ28":3181,"ĠÚ©ÙħØ²":3182,"ÙĪØ±ÙĨØ§Ùħ":3183,"ĠÚ©ÙģØ±":3184,"ĠØ¹Ø¨Ø¯Ø§ÙĦÙĦÛģ":3185,"ĠØ²ÛĮØ§Ø¯ØªÛĮ":3186,"ĠØ§Ø®ØªØªØ§Ùħ":3187,"Ø³ÙħÛĮ":3188,"ĠØ§Ø±Ø´Ø§Ø¯":3189,"ĠØ´ÛģØ¯":3190,"ĠØ¨Ùħ":3191,"ĠØ¨ÛĮÙĪÛĮ":3192,"Ø¨ÙĪØ¶Ûģ":3193,"ĠÙħØ´Ø§ÙĪØ±":3194,"ĠÙģÙĨÚĪØ²":3195,"ĠØ¶ÙħØ§ÙĨØª":3196,"ĠØ³ÙģØ§Ø±Ø´":3197,"Ø±Ø§ÙĪÙĦÙ¾ÙĨÚĪÛĮ":3198,"ĠÙħØ¬ÛĮØ¯":3199,"ĠØ³ÙĨØ§":3200,"Ø§ÙĦØŃ":3201,"ĠØ³Ø§ÙĦÙĪÚº":3202,"ĠØ¦ÛĮ":3203,"ĠØ³ÙĪÙĨ":3204,"ĠØ±ØŃÙħØª":3205,"ĠØµØŃØ§ÙģÛĮÙĪÚº":3206,"Ø¹ÙħØ±Ø§ÙĨ":3207,"Ø§ÙĨÛģÛĮÚº":3208,"ĠÙĦÙģØ¸":3209,"ĠÙĨØªÛĮØ¬Ûģ":3210,"ĠÙ¾Ø±ÙĪÛĮØ²":3211,"ĠÚ©Ø§Ø±Ú©ÙĨØ§ÙĨ":3212,"ØªÚ¾ÛĮ":3213,"ÛģØ§":3214,"ĠØ¹ÙħÙĦØ¯Ø±":3215,"ĠØªØ¬ÙĪÛĮØ²":3216,"ĠØ¹ÙĨØ§ØµØ±":3217,"¶Û":3218,"ĠØŃÙģØ§Ø¸Øª":3219,"ĠØªØ¬Ø§ÙĪØ²Ø§Øª":3220,"ĠÙ¾ÙĪØ²ÛĮØ´ÙĨ":3221,"ĠÛģÙĨÚ¯":3222,"Ù¹Ø±Ú©":3223,"ĠØ³Ø±Ú¯Ø±ÙħÛĮÙĪÚº":3224,"ÙĪØ·":3225,"ĠØ¨ÛĮÚ¯":3226,"ĠØ¹ÙĦØ§ÙħÛģ":3227,"ĠÚ©Ø±Ø§Ùħ":3228,"Ø±Ú©Øª":3229,"ĠÙĤØµ":3230,"ĠÛģÙĪÚ©Ø±":3231,"ĠØ´ÛģØ²Ø§Ø¯":3232,"Ø¨Ú¾Ø±":3233,"ĠØ¹ÙĤÛĮØ¯":3234,"ĠØ§Ø¹ÙħØ§ÙĦ":3235,"ĠØ¯Ø±ÙĪ":3236,"ĠØ±ÙĪÚ©ÙĨÛĴ":3237,"ĠØ³ÙĪØ±Ûĥ":3238,"Ø¯ÙĪÙĨÙĪÚº":3239,"ĠÙħØŃØ³ÙĪØ³":3240,"ĠØ³ÛĮÙĨÛĮÙ¹Ø±":3241,"ĠØ®Ø±Ø§Ø¨":3242,"08":3243,"ĠØ·Ø§ÛģØ±":3244,"Ġ\\&":3245,"03":3246,"05":3247,"ÙĪÛĮÚº":3248,"ĠØ¯Ø±Ø®Øª":3249,"ĠÙ¾ÙĨØ§Ûģ":3250,"ĠÙħØ¬Ú¾":3251,"Ø®Ø¨Ø±":3252,"ĠÙ¾Ø§Ø¨ÙĨØ¯":3253,"ĠØ§ÙĨÛĮ":3254,"ĠØ¨ØŃÙĤ":3255,"ÚĪØ§Ú©Ù¹Ø±":3256,"ĠØ§Ú©Ø¨Ø±":3257,"ĠÙĪÙĪÚĪ":3258,"ĠØ´ÙģØ§Ùģ":3259,"ĠØ¨Ø§Ø¨":3260,"ĠØ¹ÛģØ¯ÛĴ":3261,"04":3262,"ĠØªØ¬Ø§Ø±ØªÛĮ":3263,"ĠØ¨Ø§ÛģÙħÛĮ":3264,"ĠÙĨØ±":3265,"ĠÚ¯Ø±Ø§Ùħ":3266,"ĠØªØ±Ú©":3267,"ÚĪØ§":3268,"ĠØŃÚ©ÙħØ±":3269,"ĠØ¢Ø¦ÛĮÙĨ":3270,"ĠÙģØ±Ø§Ø±":3271,"ĠÙħØ®ÙĦ":3272,"ĠØ³ÙģÛĮØ±":3273,"ÚĪÛĮØ´ÙĨ":3274,"ĠÙħØ§ÙĨÚ¯":3275,"ĠØ¨ÙĨÛĮØ§Ø¯ÙĪÚº":3276,"ÙħØ¨Ø±":3277,"ĠØ±ÙĪÙħ":3278,"ÙĪØ§Ø¬":3279,"ĠØŃÙĪØµ":3280,"ÙĪØ±ÙĨØ§ÙħÙĨÙ¹":3281,"ĠØ¯ÛĮØ¯":3282,"ĠØ¬ÙħØ¹Ûģ":3283,"ĠÙħØ¨ÛĮÙĨÛģ":3284,"ĠØ§Ø¹Ø¬Ø§Ø²":3285,"Ġ21":3286,"ÙĪØ¹":3287,"ĠØ¶ÙħÙĨ":3288,"02":3289,"Ø§Ø¦Ø¶":3290,"ĠÙĦØ§ÛĮØ§":3291,"ĠØ³Ø±ØŃ":3292,"ĠÙ¾Øª":3293,"ĠÙħÙĪÙħÙĨ":3294,"ĠÚ©Ø±ÙĪÚº":3295,"ĠØ§Ø«Ø±":3296,"ĠÙģÙĪÚĪ":3297,"ÙĪÛģØ±":3298,"ĠØ¬Ø²":3299,"ÙĨØ§Ùħ":3300,"Ø®Ø§ÙĨ":3301,"ĠÙĨØ§ÙģØ°":3302,"ĠØ·Ø§ÙĦØ¨Ø§Øª":3303,"Ø¬Ø§Ùħ":3304,"ĠÚ©ÛĮÙ¾":3305,"Ġ'":3306,"ĠØ±Ø§Ø¬":3307,"ĠÙħÙħÙĦÚ©Øª":3308,"ĠÙħÛĮØ±Ø§":3309,"ĠÙħØ±ÛĮÙħ":3310,"ĠØ§Ø¹ØªØ±Ø§Ø¶":3311,"Ù¹Ú¾ÛĮ":3312,"ĠØ§Ø³Ú©ÛĮ":3313,"Ø¹Ø¨":3314,"ĠØ§Ø¨ØªØ¯Ø§Ø¦ÛĮ":3315,"ĠØ±Ø§Ø³ØªÛģ":3316,"ĠØ·Ø§Ø±ÙĤ":3317,"ĠÙħØ·ÙĦØ¨":3318,"ĠÙħØ±Ú©Ø²":3319,"ĠÚ©Ø§Ø±ÚĪ":3320,"ĠØ§Ø²Ø§Úº":3321,"ĠØ¢Ú¯Ø§ÛģÛĮ":3322,"ĠØ´ÙħØ§ÙĦÛĮ":3323,"ĠØ´Ú©Ø§ÛĮØ§Øª":3324,"ĠØ·ÙĦØ¨Ûģ":3325,"ĠØªØ¬Ø§Ø±Øª":3326,"ĠÙħØ±ÛĮØ¶ÙĪÚº":3327,"ĠØªÙģØµÛĮÙĦÛĮ":3328,"ĠÙħØµØ±ÙĪÙģ":3329,"ĠØŃØ§ÙģØ¸":3330,"ĠØ³Ø±Ùģ":3331,"ĠÚ©Ø±Ø§":3332,"ĠØ¬ÙĨÛģÛĮÚº":3333,"ÙĦÛĮÙĪ":3334,"ĠØ§Ú©Ø«Ø±":3335,"ĠÙħÙĤØ¯Ø§Ø±":3336,"ØªÙĤØ±ÛĮØ¨":3337,"ĠÙĪØ¹Ø¯Ûģ":3338,"ĠØ¨Ø¬ÙĦÛĮ":3339,"ĠØ³ÙĦÛĮÙħ":3340,"ĠÛģÙĪÙĨÚ¯ÛĴ":3341,"ĠÚĨÚ¾Ø§Ù¾":3342,"ĠÙĨØ§ÙħØ²Ø¯":3343,"ĠØ´Ø¯Øª":3344,"Ø¨Ø¹Ø¯":3345,"ĠØ¨ÙĨØ§ÙĨØ§":3346,"ĠØ¯Ø§Ø±Ø§ÙĦØŃÚ©ÙĪÙħØª":3347,"Ø§Ø·Ø±":3348,"ĠØ´ÛģØ§Ø¯Øª":3349,"Ø§ÙĪÛĮØ±":3350,"Ø³Ú©ÛĴ":3351,"ĠÙĦÚ¯Ø§ÛĮØ§":3352,"ĠÙħØ¬Ø¨ÙĪØ±":3353,"ĠÚ¯ÙĨØ¯":3354,"ĠØªÚ©ÙħÛĮÙĦ":3355,"Ø§ØŃØ¯":3356,"ĠØ¬Ø§Úº":3357,"ĠØ§ÙĨÚ©ÙĪ":3358,"ĠÙĪØµÙĪÙĦ":3359,"ĠÙħØ¬Ø±Ùħ":3360,"ĠÙģÛģØ±Ø³Øª":3361,"ĠÚĨÙĪÚ©":3362,"ĠØ¹ÙħÙĦØ¯Ø±Ø¢ÙħØ¯":3363,"ĠØ¬Ø³ÛĴ":3364,"ĠÙģØ±Ø§Ø¦Ø¶":3365,"ĠÙ¹Ø±Ùħ":3366,"ĠÚĨÚĳÚ¾":3367,"Ø¯Ø§ÙĨÙĪÚº":3368,"Ø´ÙĪØ±":3369,"ĠØ§ÙĨØ³Ù¾":3370,"Ø²Ø§Ø¯Ûģ":3371,"06":3372,"Ø§Ø¦ÛĮØ§Úº":3373,"ĠÚ©ÙĪÚĨ":3374,"ĠÚ©ÛĮØ³Ø§ØªÚ¾":3375,"Ø³Ø§Ø¦":3376,"ĠØ³Ø§Ø²ÛĮ":3377,"ĠØ§ÙĨÚĪØ³Ù¹Ø±ÛĮ":3378,"Ø§Ø¨Ø·Ûģ":3379,"ĠØªÙħÛģØ§Ø±ÛĮ":3380,"ĠÛģØ²Ø§Ø±ÙĪÚº":3381,"ĠÙĨØ²Ø¯":3382,"ĠÛģØ§Ø¤Ø³":3383,"ØªØ¨":3384,"ĠØ³ÙĪØ§Ø±":3385,"ĠØµØŃØ§ÙģÛĮ":3386,"ĠØ±Ø®":3387,"ÙĦØ§ÛĮØ§":3388,"ĠÙħØŃØ¶":3389,"ĠØ±ÙħØ¶Ø§ÙĨ":3390,"Ø±Ø§Ø±":3391,"ĠØ¬Ú¾ÙĪÙ¹":3392,"Ø§ÛģØ¯Ûģ":3393,"ĠÙħÙĨØ¹ÙĤØ¯Ûģ":3394,"ĠÙ¹Ø±ÛĮ":3395,"ĠØ§Ø´ÛĮØ§Ø¡":3396,"ÙħØ²ÛĮØ¯":3397,"Ø±Ø¯ÛĮ":3398,"ĠØ¬ÙħÙĪÚº":3399,"ĠÚ©ÙħØ§ÙĨ":3400,"ĠÛ³Û":3401,"ĠÙĪØ§Ø±Ø¯":3402,"ĠÙģÛĮÙĦ":3403,"Ø¯Ú¾":3404,"ĠØ°Ø§ØªÛĮ":3405,"ÙģÛĮØµÙĦ":3406,"ĠØªÛĴ":3407,"ÙĦÙĪØ¨":3408,"Ø§ÙħØ±ÛĮÚ©ÛĮ":3409,"Ø§ÙħÙĨ":3410,"Ú¯Ø§ÙĨ":3411,"ĠÙģÙĦØ³Ø·":3412,"ØªØ±Ø¬ÙħØ§ÙĨ":3413,"01":3414,"Ø³Ø§Ø¨ÙĤ":3415,"Ø§ÛģØ±ÛĮÙĨ":3416,"ĠØ´ÙħÙĪÙĦÛĮØª":3417,"ĠØ±Ø§Ø¨Ø·ÛĴ":3418,"ĠÛĮØ§Ø³":3419,"ĠÙħÙĤØ¯Ùħ":3420,"ÙħØ§Ø±":3421,"·Û":3422,"ĠØ¬ÛģØ§Ø²":3423,"ĠÙĨÙħØ§Ø¦Ø´":3424,"ĠÙ¾Ú©":3425,"ĠÙ¾Ú©Úĳ":3426,"ĠØ¯Ø§ÙĨ":3427,"ĠØªØµØ§ÙĪÛĮØ±":3428,"ĠØŃØ±Ø§Ùħ":3429,"ĠÙĪØ¬":3430,"ĠØªØ®":3431,"ĠØ±ÙĪØ²Ú¯Ø§Ø±":3432,"Ø²Ø®":3433,"21":3434,"ØªÙħØ§Ø¹":3435,"ĠØ¯Ø±Ù¾ÛĮØ´":3436,"ĠØªÙģØ³ÛĮØ±":3437,"ĠÙħØ´Ø±Ú©":3438,"ĠØ¨ØŃØ«":3439,"ÙĪØ§ÙĦÛĴ":3440,"ĠØ¨ÛĮÙĦ":3441,"ĠØ®Ø·Ø±Ûģ":3442,"Ø¨Ø§ÙĨ":3443,"ĠØ³ÛĮÙħ":3444,"Ø¢Ø¦ÛĮ":3445,"ĠÙħØ³Ø¹ÙĪØ¯":3446,"ĠØŃÙĤÛĮÙĤÛĮ":3447,"Ø±Ø§Ùģ":3448,"ĠØ®Ø±Ø§Ø¬":3449,"ĠÚĨÙĪ":3450,"ĠØªØ³ÙĦÛĮÙħ":3451,"ĠØ¢Ø³Ù¹Ø±ÛĮÙĦ":3452,"Ú©Ø±ÛĮ":3453,"ĠØ³Ú©Ø§":3454,"ĠØ§Ø³ØªØŃÚ©Ø§Ùħ":3455,"ĠÚĨÚ¾ÙĪÙ¹ÛĴ":3456,"Ø§Ø¦Ù¹":3457,"ÙģÛĮÛģ":3458,"ĠØ±Ù¾ÙĪØ±Ù¹Ø³":3459,"ĠØ®Ø·ÛĴ":3460,"Ø±Ø§Ø²":3461,"Ø³Ù¾ÙĪØ±Ù¹":3462,"Ø³Ø§ÙĦ":3463,"ĠÙĨÛĮÙĪØ²":3464,"ÙħØ´":3465,"ĠÙĨØ§Ø¸":3466,"ĠØ§ÙĨÚ©ÛĴ":3467,"ĠÚ©ÙĪØ§Ø±":3468,"ĠØ§Ø¹Øª":3469,"ĠÙĨÙħØ§ÛĮØ§Úº":3470,"ĠÙħÙĨØ¸Ø±":3471,"ĠØ¢Ø¤":3472,"ĠØ¢Ø³Ø§ÙĨ":3473,"ÚĨØ§Ø±":3474,"ĠØ¢ÙģØ±ÛĮØ¯ÛĮ":3475,"ĠÙħÙħØ¨Ø±Ø§ÙĨ":3476,"ĠØ±ÛģØ§Ø¦Ø´":3477,"ĠØ±ÙĪØ´ÙĨ":3478,"ÙħØ³ÙĦÙħ":3479,"ĠØ¹Ø¸":3480,"ĠÙĤØ±ÛĮØ´ÛĮ":3481,"ĠÙĪØ§Ù¹Ø±":3482,"Ø³ÙĨØ¯Ú¾":3483,"ÛģØ§Ø±Ø§":3484,"ĠÙ¹Ø±ÙħÙ¾":3485,"ĠÚ©ÙĦØ§Ùħ":3486,"ÙĪÙ¹Ø±":3487,"ĠÙ¾Ø§Ø±ÙĦÛĮÙħØ§ÙĨÛĮ":3488,"ĠØ®Ø§Ø·Ø±":3489,"ĠÙĨØ¬Ø§Øª":3490,"ĠØ¨Ø±Ø·Ø§ÙĨÙĪÛĮ":3491,"ĠØ§Ø«Ø±Ø§Øª":3492,"ĠØµÙĨØ¹Øª":3493,"ØŃØª":3494,"Ø§Ø¹ÛĮÙĦ":3495,"ÛĮÙħÙĨ":3496,"ĠÙħØ¨ÙĨÛĮ":3497,"ØµÙĪØ¨Ø§Ø¦ÛĮ":3498,"ĠØ±ÛĮÙĨØ¬":3499,"ĠÛģØ§Úº":3500,"Ú©ÙĪÙ¹":3501,"ĠÛģÙģØªÛģ":3502,"ĠØªÙĪÙĤØ¹":3503,"Ø§Ú©Ø±":3504,"ĠØŃØ±Ø§Ø³Øª":3505,"ĠÙħØªØ¹Ø§Ø±Ùģ":3506,"ĠÚ¯Ø§Ûģ":3507,"ĠÙħÙĪØ¨":3508,"ĠØ§ÙĦØ±ØŃÙħÙĨ":3509,"ĠØ§Ø³ØªÙĤ":3510,"ĠØ±Ø§ÙĨØ§":3511,"ĠØ±Ø§Ø³ØªÛĴ":3512,"ĠØ¨ÚĳÚ¾Ø§ÙĨÛĴ":3513,"ĠØ§Ø«Ø§Ø«":3514,"ĠÙģØ±ÙĤ":3515,"ĠÛģØ±ÛĮ":3516,"ĠÙģÚ©Ø±":3517,"Ø±Ø¶":3518,"Ø±Ù¾ÙĪØ±Ù¹":3519,"ĠÚ©Ø±Ø¯":3520,"ĠØ®ÙĪØ´ØŃØ§ÙĦÛĮ":3521,"ĠÙĦÙĨ":3522,"ÚĨØ§":3523,"ĠØ§ÙĨÚ¾ÛĮÚº":3524,"ÙħÛĮÙħ":3525,"ĠÙ¹ÛĮÙħÛĮÚº":3526,"Ù¾ÙħÙĨÙ¹":3527,"Ú©Ø§ÙĪÙ¹":3528,"ĠØ¹ÙĦÙħØ§Ø¡":3529,"Ø¨ÙĨ":3530,"ĠÙħØµÙĨÙĪØ¹Ø§Øª":3531,"Ù¾ÙĪØ§Ø¦ÙĨÙ¹":3532,"Ø²Ø¦ÛĮ":3533,"Ø§ØªØ±":3534,"ĠÚĨÛĮØ²ÙĪÚº":3535,"Ø¹Ø¯Ø§ÙĦØª":3536,"Ø§Ø´ÛĮ":3537,"ĠÚ©Ø§Ø±ÙĪØ¨Ø§Ø±ÛĮ":3538,"ĠÙħØ´Ø§ÙĪØ±Øª":3539,"ĠÚ©ÛģÛĮ":3540,"ĠÙ¾Ø§Ø¦ÛĴ":3541,"Ø¬ÙĨÛģÙĪÚº":3542,"ĠÚ©Ù¾ÙĪØ±":3543,"ĠØ¯Ú©Ú¾Ø§Ø¦ÛĮ":3544,"ÙģØ³":3545,"ÙħØ¸":3546,"ĠÙħÙĨØ§Ø³Ø¨":3547,"ĠØ¯ÛģØ§ÙĨÛĮ":3548,"ĠØ§Ø¬ØªÙħØ§Ø¹":3549,"ĠÙħØ¨Ø§Ø±Ú©Ø¨Ø§Ø¯":3550,"ĠÙ¾Ø´Ø§ÙĪØ±":3551,"ÙĨÙĪØ§Ø²":3552,"Ġ29":3553,"Ø²Ø¯Ú¯ÛĮ":3554,"ĠØ±ÙĪÙĨ":3555,"ĠØ¹ÛģØ¯ÛĮØ¯":3556,"ĠØ³ÙĨÚ¯Ú¾":3557,"ĠØ§ÙĨÙĪØ±":3558,"ĠÙħÙĨØ§Ùģ":3559,"ĠÙ¾ÛĮÙĨÛĴ":3560,"ĠØ§Ø³ÙħØ§Ø¹ÛĮÙĦ":3561,"ĠØ§Ù¹Ú¾Ø§Ø¦ÛĴ":3562,"ĠÚĪØ±Ø§Ø¦ÛĮ":3563,"ĠØ±ÙĪØ§ÛĮ":3564,"ĠÙĦÛĮÙĨØ§":3565,"¸Û":3566,"Ù¾ÙĪØ±ÛĮ":3567,"ĠÙ¾ØªÛģ":3568,"ĠØ§ÛĮØ±":3569,"ÙģØ±Øª":3570,"ĠÙħØªØ§Ø«Ø±Ûģ":3571,"ĠÚ¯Ø§ÚĳÛĮ":3572,"ÙħØŃÚ©":3573,"ĠØ¬Ø§ÙħØ¹":3574,"ĠØ¯ÛĮÚ©Ú¾ØªÛĴ":3575,"ĠØ´Ø®ØµÛĮØ§Øª":3576,"ĠØ¹Ø±ØµÛģ":3577,"ĠÛĮÙĪÚº":3578,"ĠØ§ÛĮÚ¯Ø²ÛĮÚ©":3579,"Ġ70":3580,"ĠÙģØ±Ø¯":3581,"ĠØŃØ§ÙĦÛĮÛģ":3582,"ĠÙħØ§ÙĨÛĮ":3583,"ĠØªÙĨØ§Ø²":3584,"Ø§Ø³ÛĴ":3585,"ĠØ±ÛĮÙĦÛĮØ²":3586,"ĠØ³ÙĪØ¯":3587,"ĠØ§ÚĨÚ¾ÛĴ":3588,"ÙħØ¨Ø¦ÛĮ":3589,"ĠÙ¾ÛĮÙĨ":3590,"ĠØ§ÙĨÛģÙĪÚºÙĨÛĴ":3591,"Ø¹ÙĦÙĪÙħ":3592,"ĠØ¨Ø§Ø±Ø´":3593,"ĠØ§Ø´Ø±Ùģ":3594,"ĠØ§Ø±Ø¯ÙĪÙ¾ÙĪØ§Ø¦ÙĨÙ¹":3595,"ØµØ¨":3596,"Ø§Ú©ÙĪ":3597,"Ø§ÙħØ§":3598,"ĠÚ©ÛģÙĨÛĴ":3599,"ĠØŃÙħÙĦ":3600,"ØªÙĨ":3601,"ĠØ§Ú©ÛĮ":3602,"ĠØ³ÙĨÛĮ":3603,"ÙĨÚ¯Ø±":3604,"ĠØ²Ø¨Ø±Ø¯":3605,"ÙĨÛģÛĮÚº":3606,"ĠØ³ÙĨØ¨Ú¾":3607,"ĠÙħÛģØ±Ø¨Ø§ÙĨÛĮ":3608,"ĠØ±ÙĪØ§ÙĨÛģ":3609,"Ø§Ø±Ù¹ÙħÙĨÙ¹":3610,"ĠÙħÙĪØ¨Ø§Ø¦ÙĦ":3611,"ĠÚĪØ§Ø±":3612,"ĠØ¬Ø§ÙĨØªÛĴ":3613,"ĠØªÛĮØ±":3614,"ĠÙģØµÙĦ":3615,"ĠØ¨Ø±ÙĪÙĤØª":3616,"Ø¬ÛĮØ³ÛĴ":3617,"ĠØ¨Ø¯Ú¾":3618,"ĠÙĨÙħØ§Ø¦ÙĨØ¯ÙĪÚº":3619,"ĠØ´Ø±Ø§Ø¨":3620,"ÙĪØ±ÙĪ":3621,"ĠØ¯ÙĪØ¯Ú¾":3622,"ĠÚ©Ú¾ÙĦ":3623,"ĠØ®Ø·Ø±":3624,"ĠÙĤØ¨Ø¶ÛĴ":3625,"ĠØ³ÙħØ¬Ú¾ØªÛĴ":3626,"ĠØ¨Ø§ÙĤØ§Ø¹Ø¯Ûģ":3627,"Ø§ÚĪ":3628,"ĠÙħØ§ÙĦÛĮØª":3629,"Ø¯Ø§Ø±ÛĮ":3630,"ĠØ¯ÙĦØ§Ø¦ÙĦ":3631,"ĠØ±ÙģØªØ§Ø±":3632,"Ø¬Ø³Ù¹Ø³":3633,"ĠÙĪÙĦÛĮ":3634,"ĠØ§ØŃØªØ¬Ø§Ø¬":3635,"ĠØµØ¯ÛĮÙĤÛĮ":3636,"ĠÚ©Ø«ÛĮØ±":3637,"ĠØ¢Ø±Ûģ":3638,"Ø§Ø¦ÛĮÙĪÚº":3639,"ĠÙħØ¹ÙħÙĪÙĦÛĮ":3640,"Ø¨Ú¾Ø§Ø±ØªÛĮ":3641,"Ø¢Ø±":3642,"ÙħÙħØ¨Ø¦ÛĮ":3643,"ĠØ§ÙħØªØŃØ§ÙĨ":3644,"Ù¾Ø±ÙĪ":3645,"ĠØ¨Ø±Ø·":3646,"ĠØ³ÛĮÚ©Ù¹Ø±":3647,"ĠÙħÙĪØ³ÙħÛĮ":3648,"ĠÚ¯Ø±ÛĮÙĨ":3649,"ĠÙ¾Ø±ÙĪØ§Ø²":3650,"ĠÛģÙĪØ¦ÛĮÚº":3651,"Ġ60":3652,"ĠØ§ØªØ±":3653,"ÛĮÙĨÚ¯":3654,"ĠØ¯ÛĮØªÛĮ":3655,"ĠÚĪÛĮÙĪÙ¹ÛĮ":3656,"ĠÙĨØ²Ø¯ÛĮÚ©":3657,"Ø§Ø¦ÙĨÛģ":3658,"ĠÙħÙĪØ¬ÙĪØ¯Ú¯ÛĮ":3659,"ĠÙĪØ§Ù¾Ø³ÛĮ":3660,"ĠÙħÛĮÚĨØ²":3661,"ĠØŃØ¯ÙĪØ¯":3662,"ĠØªØ¹Ø±ÛĮÙģ":3663,"ĠØ¹Ø±ØµÛĴ":3664,"ĠÚ©Ø§ØºØ°Ø§Øª":3665,"ÙĪØ§ÙĦÛĮ":3666,"ĠØ§ÚĨØ§ÙĨÚ©":3667,"ĠÙĪØ§Ø±Ø¯Ø§Øª":3668,"ĠØ¢Ûģ":3669,"Ø§Ø³Ùħ":3670,"ĠÙħØ¹Ø·ÙĦ":3671,"ĠÙħØ±ØªØ¨":3672,"ĠÙħÙĪØ«Ø±":3673,"ĠØ¨ØŃØ§ÙĦÛĮ":3674,"ĠÙħØ´ÛĮØ±":3675,"ĠØ§Ú©Ø§Ø¤":3676,"ĠØ²Ø±Ø¹ÛĮ":3677,"ĠØ¨ØŃØ±Ø§ÙĨ":3678,"ĠØ§Ú¯ÙĦÛĴ":3679,"ĠØ§Ø³Ø¯":3680,"ĠÚ¯Ø±ÛĮÚĪ":3681,"ĠÙĨØ§ØµØ±":3682,"ĠÚ¯ÙĪØ±ÙĨÙħÙĨÙ¹":3683,"ĠØŃÙĦÙģ":3684,"Ø¬Ø³Ù¹Ø±":3685,"ĠØ±ÙĪØ²Ø§ÙĨÛģ":3686,"ĠÙĦÙĪÚĪ":3687,"ĠØ§ÙĦÛģÛĮ":3688,"ÛģÙħÛĮÚº":3689,"ĠØ®ÙĪØ§Ø¨":3690,"ĠÚ¯ÛĮØ³":3691,"ĠØªÚ©ÙĦÛĮÙģ":3692,"ĠÙģØ¶Ø§Ø¦ÛĮ":3693,"ĠØ§ÙĨÚ¾ÙĪÚº":3694,"ÚĳÚ¾ÛĴ":3695,"Ġ\"":3696,"ĠØ§ÙĨØ¹Ø§Ùħ":3697,"ĠÛĮØ§Ø±":3698,"ĠØ§Ø³Ø±Ø§Ø¦ÛĮÙĦ":3699,"Ø³Ù¾ÙĦ":3700,"Ø¬ÙĨÚ¯":3701,"ĠÙĪØ§Ø¨":3702,"ĠØ³ÛĮÙ¹":3703,"ĠÚ©Ø±Ø§ÛĮØ§":3704,"ĠØ²Ø±Ø¯Ø§Ø±ÛĮ":3705,"ĠÚĨÙĦÙĨÛĴ":3706,"Ø³ÙĦØ±":3707,"ĠØ§ÙĪÙĦØ§Ø¯":3708,"ÙĪÛĮØ§Øª":3709,"ĠÚ©Ú¾Ø§ÙĨØ§":3710,"ĠØªØ§Ø±ÛĮØ®ÛĮ":3711,"ĠÙĤØ¨Ø±":3712,"ĠÙħØ²Ø¯":3713,"Ø·ÙģÛĮ":3714,"ĠÙ¾Ø±Ø§Ø¬":3715,"ĠÙħÙĪØµÙĪÙĦ":3716,"ĠÙģØ±ÙħØ§Ø¦ÛĮ":3717,"ĠÚĨØ§ÛģÛĴ":3718,"Ø§Ø¦Ø±ÛĮ":3719,"ĠÙħÙĤØ¨ÙĪØ¶Ûģ":3720,"ĠØªØŃØ³ÛĮÙĨ":3721,"ĠÙ¾Ø§ÛĮØ§":3722,"ĠÚ©ÙĪÙ¹":3723,"ÙĨÛĮØ¨":3724,"ĠØµØ¨Ø±":3725,"ÙħØŃÚ©ÙħÛģ":3726,"ĠØ´Ú©Ø§ÛĮØª":3727,"ĠØ±ÛģÙĨÙħØ§Ø¤Úº":3728,"Ø¹ÙĪÙĨ":3729,"ĠÛĮØ§ÙģØªÛģ":3730,"ĠØ§ÛĮÙĪÙĨÙ¹":3731,"ĠÚ©Ø±ÛĮÙĨÚ¯ÛĴ":3732,"ĠØ§ØŃØ³ÙĨ":3733,"ĠØŃØ³Ø§Ø¨":3734,"ÛĮÙĨØ³":3735,"ĠØ¨ÛĮØ³":3736,"ĠØ¨ØŃØ§ÙĦ":3737,"ĠØ³Ø§Ø±ÛĮ":3738,"ĠÙħØŃÚ©ÙħÙĪÚº":3739,"ĠÚĨÙĪØª":3740,"ĠØ±ÛĮÙĦ":3741,"ĠÚ©Ú¾ÛĮÙĦÛĴ":3742,"ĠØ¯ÙĦÚĨØ³Ù¾ÛĮ":3743,"ĠØ±ÛģØªØ§":3744,"ĠÙĨØ¨ÙĪØª":3745,"ĠÚĪÚ¯Ø±ÛĮ":3746,"ĠØ¨ÙĦÙĪÚĨØ³ØªØ§ÙĨ":3747,"ĠØµÙĪØ¨ÙĪÚº":3748,"ĠØ¹ÙĦØ§Ø¬":3749,"ÙĤØ±Ø¢ÙĨ":3750,"ĠØ³Ø±ÛĮ":3751,"ĠØ§Ø³ÙĦÙħ":3752,"ĠØ§ÙĦØ±":3753,"ĠÙĦÛĮÚ©Ø±":3754,"ĠØ³Ø±Ø§ÛģØ§":3755,"ĠØ¨ÚĨØ§ÙĨÛĴ":3756,"ĠØªÛĮØ³Ø±ÛĴ":3757,"ĠÙ¾Ø§ÙĪØ±":3758,"ÚĪÛĴ":3759,"ĠÙ¾Ø±Ø§Ø¦ÛĮ":3760,"ĠØ±Ú©Ú¾ÙĨØ§":3761,"ĠØ§ÙĨÙ¹Ø±ÙĪ":3762,"ĠØ§ÛĮÙ¾":3763,"ĠÙ¾ÛĮÚ©":3764,"ĠØŃÙĦÙĤÙĪÚº":3765,"ĠÙ¾ÙĪØ§Ø¦ÙĨÙ¹Ø³":3766,"ĠÚ¯ÙĨ":3767,"ĠØ§Ø¹ØªØ±Ø§Ùģ":3768,"ĠÚ©ÙĦÛĮ":3769,"ĠÙĤÙĪÙĦ":3770,"ĠÙħÙĦØªÙĪÛĮ":3771,"ĠØ±ÛĮÙĨØ¬Ø±Ø²":3772,"ĠÙħØ®ØµÙĪØµ":3773,"ĠÙ¾Ø§Ú©Ø³ØªØ§ÙĨÛĮÙĪÚº":3774,"ĠØ§ÙĨÚ©ÛĮ":3775,"ĠÙģØ±ÙħØ§ØªÛĴ":3776,"ĠØ§ÙĦØ±ØŃÙħØ§ÙĨ":3777,"ĠÙĪØ§ØŃØ¯":3778,"ĠÙģØ®Ø±":3779,"ĠØ¨ÙĪØ¬Ú¾":3780,"ĠØºÙģ":3781,"ĠØ®Ø§ÙĦÛĮ":3782,"ĠÙĤØ±Ø¨Ø§ÙĨ":3783,"ÙĪÙģØ§ÙĤÛĮ":3784,"Ø¨Ø±Ø¯Ø§Ø±":3785,"ĠØ¯ÙĦÛĮÙĦ":3786,"Ø§Ú©ÛĮ":3787,"ĠØ³ÙħÙĨØ¯Ø±":3788,"ĠØŃÙĪØµÙĦÛģ":3789,"ÚĪÛĮÙħ":3790,"ĠÛģÙĨØ¯ÙĪ":3791,"ØŃÚ©Ùħ":3792,"Ø§Ø®ÛĮØ±":3793,"Ú©Ø´ÙĨ":3794,"¹Û":3795,"ĠØ±ÛģÙĨÙħØ§Ø¦ÙĪÚº":3796,"Ø¸Ø±":3797,"ĠÙħØªÙĨ":3798,"ĠØ¨ÙĦØ¯ÛĮÛģ":3799,"ĠØ¯ÙĪÙĦØª":3800,"ĠØ¬ÛĮØ³Ø§":3801,"Ø§Ø¨ÛĮÙĨ":3802,"ĠØ¨Ø§Ø²Ø§Ø±":3803,"ÙĨÙĨÚ¯":3804,"ĠØ®ÙģÛĮÛģ":3805,"ØªÛĮÚº":3806,"ĠØ¹ÙħÙĦÛĴ":3807,"ĠØ¨Ú¾ÛĮØ¬Ø§":3808,"ĠÙģØ±ÛĮÙĤ":3809,"Ø¹ÛĮØª":3810,"ĠÙ¾ÚĨÚ¾":3811,"ĠÙ¾Ú¾ÙĦ":3812,"ĠÙħØ´ÛģÙĪØ±":3813,"ĠØ³Ú©Ú¾Ø±":3814,"ĠÙħÛģØ§Ø¬":3815,"ĠÙ¾Ø§ÙĨÛĴ":3816,"ĠØ±Ú©Ø§ÙĪÙ¹":3817,"ĠØ´Ø±Ú©Ø§Ø¡":3818,"ĠØ¯Ú¾ÙħØ§Ú©ÛĴ":3819,"ÙĨØ§Ø¡":3820,"ÙħÛĮØ§Úº":3821,"ĠÙĨÚ¯Ø±Ø§ÙĨ":3822,"ĠÛĮÙĪÙĨÙ¹":3823,"ĠÛ´Û":3824,"ĠØ²ÛĮ":3825,"ĠØµÙĨØ¹":3826,"ĠØ¬Ø§ÙĨÛĮ":3827,"ĠÛģØ¯Ùģ":3828,"ØŃØ§ÙĨ":3829,"ĠÙ¾ÛģÚĨ":3830,"Ġ45":3831,"ĠÚ©Ø±Ø§Ø¦ÛĴ":3832,"ĠØ³Ø²":3833,"ÙĦÚ©":3834,"Ø§Ø¯ÙĤ":3835,"Ø§ÙĨÚ©Ûģ":3836,"ĠØ³Ø§Ø²Ø´":3837,"ĠØ§Ø´Øª":3838,"ĠØ§ÛĮÚ©Ø³":3839,"ĠØ§ØµÙĪÙĦ":3840,"ĠÙħÚ©Ûģ":3841,"ĠØ³ÚĳÚ©ÙĪÚº":3842,"ĠØ¨ÛĮÙ¹Ú¾ÛĴ":3843,"ÙĨÛĮØ§":3844,"ĠØ±Ø¬Ø³Ù¹Ø±":3845,"ĠØ´ÙĪÛģØ±":3846,"ĠÙĪÛĴ":3847,"ĠØ§ÛģÙĦÛĮÛģ":3848,"ĠØ§ÙĤÙĪØ§Ùħ":3849,"Ø³ÙħÛĮØª":3850,"ĠÙħÙĨÚĪÛĮ":3851,"ĠØ¹Ø¯Ø§ÙĦØªÛĮ":3852,"Ø§Ø¤ÙĨÚĪ":3853,"ĠØ±Ø´":3854,"ĠØ§Ø¨ÙĦ":3855,"ĠÙģÙĦØ³Ø·ÛĮÙĨÛĮ":3856,"ĠÙ¾ÙĪÚĨÚ¾Ø§":3857,"ĠÚ©ÙĪØ±ÛĮØ§":3858,"ĠØ¯Ø§Ø¦":3859,"Ġï":3860,"ĠØ§ØŃÚ©Ø§Ùħ":3861,"ĠØ§Ø¯ÙĪÛĮØ§Øª":3862,"ĠÚ¯ÙĪØ´Øª":3863,"ĠÙĦØ§Ú©Ú¾ÙĪÚº":3864,"ÚĪÙĪÙĦ":3865,"ĠØ§ÙĦØ¨":3866,"ĠÙħØ³ÙĦØŃ":3867,"ĠØ§Úĳ":3868,"ĠÚ¯Ø±Ùħ":3869,"ĠØªÙĨØ®ÙĪØ§Ûģ":3870,"ĠØªØµÙĪØ±":3871,"ĠÚ¯ÙħØ±":3872,"ĠÙħÙĨÚ¯ÙĦ":3873,"ĠØ¨Ø§ÙĦØ§":3874,"ĠØŃÙĦÙĤÛĴ":3875,"Ø´Ø§Ø¡":3876,"ĠÙ¾Ø±Ø³Øª":3877,"ĠØ¯Ø±Ø¯":3878,"ĠØ§Ú©Ø±Ùħ":3879,"ĠØ§ÙģØºØ§ÙĨØ³ØªØ§ÙĨ":3880,"Ø§Ø¯Ùħ":3881,"ĠØ§Ø¦ÛĮØ±":3882,"ĠØ´Ø§":3883,"ĠØ³ÙģØ§Ø±Øª":3884,"Ø§ÙĦÛĴ":3885,"ĠØ¨ÚĨÛĮ":3886,"ĠØ§ØªÙĨÛĮ":3887,"ĠØªØ§ØŃ":3888,"Ø¬ÙĦ":3889,"ĠÙĤØ±ÛĮØ¨ÛĮ":3890,"Ø¬ÙħÙĨÙ¹":3891,"Ø¨Ù¹":3892,"ĠÙģÙĪØ§Ø¯":3893,"ĠØ§ÙħØªÛĮ":3894,"ĠØ§Ø³ØªÙĤØ¨Ø§ÙĦ":3895,"ĠÚ©Ú¾ÛĮÙĦØ§":3896,"Ø§Ø¦ÛĮÚĪ":3897,"ĠÛģØ§Ø¦ÙĪØ³":3898,"ĠØ¨Ø±Ø§Ûģ":3899,"ĠÛģØªÚ¾ÛĮ":3900,"Ø°Ø±":3901,"ĠØªÚ¾Ø§Ùħ":3902,"ĠØ§ØŃØªØ¬Ø§Ø¬ÛĮ":3903,"ĠØ§Ø®Ø±Ø§Ø¬Ø§Øª":3904,"ĠØ¯ÛĮÙĨÛĮ":3905,"ĠÚ©ÙħÛĮÙĪÙĨ":3906,"ĠÚ©Ø§ÙĦÙĪÙĨÛĮ":3907,"ĠØ¯Ú©Ø§ÙĨ":3908,"ĠØ´Ø§ÛģØ±":3909,"ĠØ§ÛĮÙħØ±":3910,"ĠÙħØ´Ø±":3911,"ÙħØ°":3912,"ĠØ±Ú©Ú¾ØªÛĮ":3913,"ĠÙ¾ÙĪÚĨÚ¾":3914,"Ø§ÙĦÛĮØ³":3915,"ĠÚ©Ø±ÙĪØ§ÙĨÛĴ":3916,"ĠÙĨØ§Ø¸Ùħ":3917,"ÙĪØ§Ø±ÚĪ":3918,"ĠØ§ÙĪÙĤØ§Øª":3919,"ĠØ¯ÙĦÙĪÚº":3920,"ĠØ§ÙĨØ³Ù¾Ú©Ù¹Ø±":3921,"ĠØ´ÙĪÚ©":3922,"ÙģÛĴ":3923,"ĠÚ¯ÙĦÚ¯Øª":3924,"ĠØ§ÙĦÙĦ":3925,"ĠØ®Ø·Ø±ÙĨØ§Ú©":3926,"ĠØ¯ÙģØ¹Ûģ":3927,"ĠØªÙĤØ§Ø¶":3928,"ĠØ§ÙģÙĪØ§Ø¬":3929,"ĠÙ¾Ø´Øª":3930,"ĠÙĪØ§Ùħ":3931,"Ø§Ø¦ÙĦÛĮ":3932,"ĠÚ©ÙħØ§ÙĦ":3933,"ĠØŃÙĪØ§ÙĦÛģ":3934,"ÛĮØ±Øª":3935,"ĠØ¢Ú©Ø±":3936,"Ø±ÛĮÙĪÚº":3937,":-":3938,"ĠÙĨØ§ÙħØ²Ø¯Ú¯ÛĮ":3939,"Ø®Ø§Ø±":3940,"ĠÙ¹ÛĮÚ©ÙĨ":3941,"ĠØ®ÙĪØ±Ø§Ú©":3942,"ĠØ³ÛĮØ´ÙĨ":3943,"ĠÙħØ¹Ø°":3944,"ĠØ¬ÙħÛģÙĪØ±ÛĮ":3945,"ĠØ®Ø§ÙĨÛĴ":3946,"ĠÚ©ÙħØ²ÙĪØ±":3947,"ĠØ¨ÙĦØª":3948,"Ø§Ø¨Ûģ":3949,"ĠØ°Ø®":3950,"Ù¾ÛĮØ´ÙĦ":3951,"ĠØµÙĪ":3952,"Ø¨Ø§":3953,"ĠØ§Ø´Ø§Ø±Ûģ":3954,"ĠÙĨØ¯":3955,"ØªØ±Ø§Ùħ":3956,"ÙħÚ¯Ø±":3957,"ĠÙħÙĪØ¶":3958,"ĠÚ©Ø±Ù¾Ø´ÙĨ":3959,"ĠÙħÙĦÚ©ÙĪÚº":3960,"ĠÚ©ÛĮÙħØ±":3961,"ĠÚĨÛĮØ²ÛĮÚº":3962,"Ù¾Ø§Ø±Ù¹ÙħÙĨÙ¹":3963,"ÙĪØªÚ¾":3964,"ĠÚĨÚ©":3965,"ĠÙĨÚ©Ø§ØŃ":3966,"ĠØ³ÙĨÚ¯ÛĮÙĨ":3967,"ĠØ³Ú©ÙĪÙĦÙĪÚº":3968,"ĠØ¬ÙĨÛģÙĪÚº":3969,"ĠØ²ÙĪÙĨ":3970,"ĠØ§ÙĦÛĮÚ©":3971,"Ø§ÛģÙĦÛĮ":3972,"ĠØ³ÛģÛĮÙĦ":3973,"ĠØ³Ø±ØŃØ¯":3974,"ĠØªØ´ÙĪÛĮØ´":3975,"Ø´Ø§":3976,"ĠÙĦØ§ÙĨ":3977,"ĠÙĦÚ¯ÛĮ":3978,"ĠØ§ÙĨÚ©ÙĪØ§Ø¦Ø±ÛĮ":3979,"ĠØ±ÛĮØ³Ú©ÛĮÙĪ":3980,"Ø¹ÛĮØ¨":3981,"ĠÙħØ§Ø¨ÛĮÙĨ":3982,"ĠÛģÛĮØ±":3983,"Ø§ÙĨØ³ÛĮ":3984,"ØµØ¯Ø±":3985,"Ø§Ø¦ÛĮÚ©ÙĪØ±Ù¹":3986,"ĠØ°ÛĮ":3987,"ĠØ§ÙĨÚ¯ÙĦÛĮÙĨÚĪ":3988,"ĠØ¨ÙĦØªØ³ØªØ§ÙĨ":3989,"ÙĪÚ©ÛĮÙ¹":3990,"ĠÙģØ¹Ø§ÙĦ":3991,"ÙħØ§ÛģØ±ÛĮÙĨ":3992,"ĠÙ¹Ø§Ø¦ÙĪÙĨ":3993,"ĠØ¨ÛĮØ´Ú©":3994,"ĠÙĪÛĮØ³Ù¹":3995,"ĠÚ¯ÙĦÛĮ":3996,"ĠØ§ÙĨØªÙĤØ§ÙĦ":3997,"ĠØ¢Ø¤Ù¹":3998,"ĠØ¨ÚĨÛģ":3999,"ĠØ¯Ø³ØªØ§ÙĪÛĮØ²":4000,"ĠÙģØ±Ø¶":4001,"ĠØ¨ÛĮÚ©":4002,"ÙĪÛĮÙĦÙ¾ÙħÙĨÙ¹":4003,"ĠØ¨Ø²ÙĨØ³":4004,"ĠØ§ÙĨÙĨÚ¯Ø²":4005,"Ø³Ø±Ø§":4006,"ĠØ§ØªÙĪØ§Ø±":4007,"Ø¨ØªÛģ":4008,"ĠÙĨØ§ÙħØ¹ÙĦÙĪÙħ":4009,"ÚĨÛĮØ¦Ø±":4010,"ĠÚ©ÙģØ§Ø±":4011,"ĠÙħØ®ÙĦÙĪÙĤ":4012,"ĠØ¨Ø§Ø±Ûģ":4013,"Ø¹ÙĦÙħ":4014,"ÙĪØ¯Ú¾Ø±ÛĮ":4015,"ĠÙħØ³Ø¦ÙĦÛĴ":4016,"ÙģØ±ÙĪ":4017,"ĠÙĨÛĮÙĦ":4018,"ĠØ¨Ø§ÙĦÛĮ":4019,"ØŃÛĮØ¯":4020,"ĠØ§Ø¨ÙĦØ§Øº":4021,"Ø¬Ø§":4022,"ĠØ¨ÙĨÚ¯":4023,"ĠÚĨØ§ÙĨØ³ÙĦØ±":4024,"Ø¨Ø§Ø¨":4025,"ĠØ¬ÙħØ¹Ø±Ø§Øª":4026,"ĠØ¬Ø³ÙħØ§ÙĨÛĮ":4027,"ĠÚ©ÙĪØ´Ø´ÙĪÚº":4028,"ĠØ§ØªÙĨØ§":4029,"ĠÙĪØ§ÙĦØ¯Ûģ":4030,"ĠØ§ÛĮÚ©Ù¹":4031,"ĠØ§Ù¹Ú¾Ø§ÙĨÛĴ":4032,"Ú©ÛĮÙĦØ¦ÛĴ":4033,"Ø§Ø¦ÙĤ":4034,"ĠØ§Ø³Ø±Ø§Ø¦ÛĮÙĦÛĮ":4035,"ÙĪØ¯Ûģ":4036,"ĠØªØ§Ø®ÛĮØ±":4037,"ĠØ§Ú©Ø«":4038,"ĠÙħØ´ÛĮÙĨ":4039,"ĠÙħØ·ÙĦÙĪØ¨":4040,"ĠÚ©ÙĨÙ¹":4041,"Ø´ØªØ±":4042,"ĠØ¨ÛĮØª":4043,"ĠØ«ÙĤ":4044,"ĠØŃØ¶ÙĪØ±":4045,"ĠØªÙĪØ³ÛĮØ¹":4046,"Ù¾Ø³":4047,"ĠØ³ÙĨÙĨ":4048,"ĠØ³Ø±ÙģØ±Ø§Ø²":4049,"ĠÚĨÙĨ":4050,"ĠØ¹ÙĦÛĮØŃ":4051,"Ø§ÙĦÙĪØ¬ÛĮ":4052,"ĠÛ±":4053,"ĠÙĪØ§Ø¬":4054,"ĠØ¯Ø³ØªÛĮØ§Ø¨":4055,"ĠØ§ØŃØ³Ø§ÙĨ":4056,"ÙĨØ±":4057,"ÛĮÛģÛĮ":4058,"Ġ31":4059,"Ø§Ø¦Ùģ":4060,"ĠØ³Ø§Ø¨ÙĤÛģ":4061,"ĠÚ©ÛĮÙ¾Ù¹ÙĨ":4062,"ĠØ³Ø®":4063,"ØŃØ§ÙĤ":4064,"ĠÙ¾Ø°ÛĮØ±":4065,"ĠØ§Ø®ØªÛĮØ§Ø±Ø§Øª":4066,"ÛĮØ¯Ú¯ÛĮ":4067,"ĠØ§ÛĮÚ¯Ø²ÛĮÚ©Ù¹ÙĪ":4068,"ÚĪÛĮØ²":4069,"ĠØ´Ø¨":4070,"ĠÚĨØ§ÛģØªÛĮ":4071,"ĠØ³ÛĮØ§ØŃ":4072,"ĠØ³Ù¹Ø§Ùģ":4073,"ĠÙĪØ¶Ø§ØŃØª":4074,"ĠÙħØ±Ø¯ÙĪÚº":4075,"ÙĪØ³Ú©":4076,"ÙħÛĮØ´ÙĨ":4077,"ĠÙħÙĨØ³ÙĪ":4078,"Ø¨ÛĮØ§Ø¡":4079,"ĠØ¬ÙĦÙĪØ³":4080,"ĠØ³ÙĨØ¨Ú¾Ø§ÙĦ":4081,"ĠØ¹Ø§Ø±Ùģ":4082,"Ø§ÙĦØ¨Ø§Øª":4083,"ĠØ¨Ø§Ø¨Ø±":4084,"ĠØ§Ø¶Ø§ÙģÛĮ":4085,"ĠØ§ØŃØ³Ø§Ø³":4086,"ĠÙħÙģØª":4087,"Ø¯ÛģÛĮ":4088,"ĠØ§ÙĨØªØ¸Ø§Ø±":4089,"ĠØ§ÙħØ±ÛĮÚ©Ûģ":4090,"ĠØªÛĮÙĦ":4091,"ĠÙĤØ¯Ø±Øª":4092,"ĠÙħØ¸Ø§ÛģØ±":4093,"ĠÛģØ§ÙĦ":4094,"ĠÚ©ÚĨ":4095,"ĠÙħØ§ÛĮ":4096,"Ù¹ÛĮÙĨ":4097,"ÙĨÚ¯Ù¹ÙĨ":4098,"Ø§Ø±Ú©Ø³":4099,"ĠØªÙģØµÛĮÙĦ":4100,"ÙĦØ§Øª":4101,"ĠØ¹Ø¨Ø¯":4102,"ĠØ¹ÙĤ":4103,"ÙħØªØ§Ø²":4104,"ĠÚ¯ÙĪØ±ÙĨØ±":4105,"ĠØ¬ÙĨØ³ÛĮ":4106,"ĠØ³Ú©Ú¾":4107,"ĠØ§ÛĮØ¬":4108,"ÚĪÙ¹":4109,"ĠÚĪØ§ÙĦØ§":4110,"ĠÚ©ÛģØ§Úº":4111,"ĠÙĦØŃ":4112,"ÙĦÛĮÙħØ§ÙĨ":4113,"ĠÙħØ¹ÛĮØ§Ø±ÛĮ":4114,"ĠÚ¯ÙĪØ§Ûģ":4115,"ØªØ¹":4116,"ĠØ¯ÙħØ§Øº":4117,"ÙĤÙĪÙħÛĮ":4118,"Ø§Ø¦ÙĨØ§Øª":4119,"ÙħØ³":4120,"Ġ2016":4121,"ĠÙħØ¬ÙĦØ³":4122,"ĠØ«Ø§ÙĤØ¨":4123,"ĠØ®ÙĪØ¨ØµÙĪØ±Øª":4124,"ĠØ¨ÚĳÚ¾Ø§":4125,"Ø§ÙĪÛĮ":4126,"ĠØ§Øº":4127,"ĠØ±Ø¬":4128,"ĠØ¯Ø§Ø±ÙĪÚº":4129,"ĠÙħØ±Ø¶":4130,"ĠØ®Ø³":4131,"ĠØ§Ø®ÙĦØ§ÙĤ":4132,"ĠØ³ÛĮØ§":4133,"ĠØ³Ù¾ÛĮÚ©Ø±":4134,"ĠØ¹ÛĮØ¯":4135,"ĠØ§ÙĨÙ¹Ø±ÙĪÛĮÙĪ":4136,"ÛĮÚ©Ø§":4137,"ĠÙĨØ¹ÛĮÙħ":4138,"ÛģÛĴ":4139,"ĠØ§ÙģØ¶ÙĦ":4140,"ĠØ²ÛĮÙĨ":4141,"Ú¯ÙĪØ§Ø±":4142,"ĠØªÛĮÙĨÙĪÚº":4143,"Ø³Ø¹":4144,"ĠÚ©ÛĮÙĪØ³Ú©":4145,"ÙĪÙĨÛĮÙĪ":4146,"ĠØ¨Ø§Ø¦ÛĮ":4147,"ĠØ´ÙĨØ§Ø®Øª":4148,"Ù¹ÙĪÚº":4149,"Ø¯Ø³":4150,"ĠØ§ÙħØ±Ø§Ø¶":4151,"ÚĨÚ©ÛĴ":4152,"ĠÙħØ¹Ø§Ùģ":4153,"ĠØ¹Ø§Ø¨":4154,"Ø¯ÙĪØ¯":4155,"ĠØ¯ÛģØ´ØªÚ¯Ø±Ø¯ÛĮ":4156,"ĠØ¢Ùħ":4157,"ĠÙĪØ³ÛĮÙħ":4158,"ĠÙħÛģØ±":4159,"ĠØ³ÙĪÙĨÛĴ":4160,"ĠÙ¾ÛģÙĨÚĨÙĨÛĴ":4161,"ĠØ§ÙĨØ³Ø§ÙĨÙĪÚº":4162,"ĠÙħÙĤØ¨ÙĪÙĦ":4163,"ĠÙħØ³Ø§ÙģØ±":4164,"ĠÙħØ¹Ø§ÙĪÙĨØª":4165,"Ø³Ú©ÙĪ":4166,"Ø±ÛĮØ±ÛĮ":4167,"ĠÙĨØ§ÙĤØ§Ø¨ÙĦ":4168,"Ø´ÛĮÙĨ":4169,"ĠØ§Ø³ÙĦ":4170,"ĠÙħØ¹Ø§ÛģØ¯Ûģ":4171,"Ø³ÛĮØ¯":4172,"ĠÙħÙĨÙģÛĮ":4173,"ĠÙħØ·Ø¨ÙĪ":4174,"ĠØµØ§Ø¯ÙĤ":4175,"ĠØ§Ø°":4176,"ĠØ±ÛĮÙħØ§Ø±Ú©Ø³":4177,"ĠÛĮÛģÙĪØ¯":4178,"ĠÙĨØ¹Ø±ÛĴ":4179,"ÚĪÙ¾Ù¹ÛĮ":4180,"ĠØ³ÚĨ":4181,"ĠÙĨÙĤÙĦ":4182,"ĠÚ©Ú¾ÚĳØ§":4183,"ĠÙĤÛĮÙħØªÛĮ":4184,"Ø³Ø§Ùħ":4185,"ĠØ´ÛĮÚĪÙĪÙĦ":4186,"ĠØ§Ù¹Ú¾Ø§ÛĮØ§":4187,"ĠÙħØµØ·ÙģÛĮ":4188,"ĠÙ¾ÚĨ":4189,"ĠÙħØ´ÙĨ":4190,"ĠØ¨Ú¾Ø¬ÙĪ":4191,"ĠÙħÛģÛĮØ§":4192,"ĠØ³Ø§ÙĨØŃÛģ":4193,"ĠÚĨÙĦØ§ÙĨÛĴ":4194,"Ø§Ø¦Ø´Ûģ":4195,"ĠÙ¾ÛģÙĦÙĪ":4196,"ĠÚ©Ø§Ø¦ÙĨØ§Øª":4197,"ĠØ¹ÙħÙĦÛģ":4198,"31":4199,"ĠØ±Ø§Ø´":4200,"ĠØ¨Ø±Øª":4201,"ÛģÙħØ§Ø±ÛĴ":4202,"ĠØ§Ø³Ù¾ÛĮÚ©Ø±":4203,"ĠØ§ØµÙĦØ§ØŃØ§Øª":4204,"Ø§ÛĮØ³ÛĴ":4205,"Ø´Ø§ÙĨÛĮ":4206,"ĠØ§ØŃØªØ±Ø§Ùħ":4207,"ĠÙħØ·Ø¨ÙĪØ¹Ûģ":4208,"ĠØ³ÙĪØ³Ø§Ø¦":4209,"ĠÙģÛĮÚĪØ±ÛĮØ´ÙĨ":4210,"Ø§Ø±Ø§Øª":4211,"ĠÙħØ¸ÙģØ±":4212,"ĠØªÙĨØ¸ÛĮÙħÙĪÚº":4213,"ĠÚ©ÛĮÙĨØ³Ø±":4214,"ĠØ¢Ø²Ø§Ø¯Ú©Ø´ÙħÛĮØ±":4215,"ĠÙĦÚ©":4216,"Ø§ÙĨØ¯ÙĦÛĮ":4217,"ĠÙģÛĮÚ©":4218,"ĠÙħØ¤":4219,"Ø§Ø¬Ø§Ø¦Ø²":4220,"ĠÙħØ®ØªØµ":4221,"ĠØ³ÙĪØ±Ø¬":4222,"ĠØ´Ø®ØµÛĮØª":4223,"ĠÙĪØ±Ø«":4224,"ĠØ¬Ø§Ø±":4225,"Ø§ÛĮØ³":4226,"ĠØ§ÙĨØ§":4227,"ĠØ¢ÙĨÚ©Ú¾ÙĪÚº":4228,"ĠØŃØ³Ø§Ø³":4229,"ĠØ§ÙģØ²":4230,"ĠÙħØ±ØŃÙĦÛĴ":4231,"ĠÙ¹Ø§Ø¤ÙĨ":4232,"ĠÙħÚĨ":4233,"ĠÙĨÛĮÙ¹":4234,"ĠÚ©Ø±ÙĪØ§":4235,"Ù¹Ø±ÛĮÙ¹":4236,"ĠØªÛĮØ³Ø±ÛĮ":4237,"ĠÙ¹Ú©Ø±":4238,"ÙĮ":4239,"ĠØ§ÛĮÚ©Úĳ":4240,"ĠÙģÛĮÙĦÚĪ":4241,"ĠØ§ÙĨØ¹":4242,"ĠØ§ÛĮÚĪÙĪÙĪÚ©ÛĮÙ¹":4243,"ĠÙģÙĦÙħÙĪÚº":4244,"ĠÙĪØ§Ø¦ÛĮ":4245,"ĠØŃØµÛĴ":4246,"ĠØ³ÙĪØ³Ø§Ø¦Ù¹ÛĮ":4247,"ĠÙĪØ²ÙĨ":4248,"ĠÚ©Ú¾ÙĪ":4249,"ĠØ§ÙĨØªÛģØ§":4250,"ĠÙ¹ÙĪØ±ÙĨØ§ÙħÙĨÙ¹":4251,"ÙĪØ´ÙĨ":4252,"ĠÛģØ§Ø´":4253,"ĠÙĪØµ":4254,"ĠØ§ÙĦØ®":4255,"Ø§ÙħØª":4256,"ĠÙħØŃØ¨":4257,"ĠÙĪÚĪ":4258,"ĠØ³Ø§ÚĳÚ¾ÛĴ":4259,"Ú¯ÙĪÚº":4260,"ĠØ±ÙģÛĮÙĤ":4261,"ĠÙħÙĤØ±Ø±Ûģ":4262,"ĠÙħØ³ØªÙĤÙĦ":4263,"ĠØ¬Ø§Ø¦ÛĮØ¯Ø§Ø¯":4264,"Ø§ÛĮÙĨ":4265,"ĠØ¬Ø§ÙĨØªØ§":4266,"ĠÚ©ÙĪØ§Ø±Ù¹Ø±":4267,"ĠØ°ÛģÙĨÛĮ":4268,"ĠÙħØ¯ÛĮÙĨÛģ":4269,"ĠØ°Ø§Øª":4270,"ĠØŃØ§Ø¯Ø«ÛĴ":4271,"ĠØ§Ø±Ø§Ø¯Ûģ":4272,"ĠØ¬Ú¾Ú¯":4273,"ĠØ³ÙĦØ·Ø§ÙĨ":4274,"ĠØ³Ø§Ø±ÛĴ":4275,"Ø§Ø´ÙĨÚ¯Ù¹ÙĨ":4276,"ĠØ§ÙĨØ³Ø§ÙĨÛĮØª":4277,"ĠØºÙĨÛĮ":4278,"ĠÙģÛģ":4279,"ĠØ¢Ù¾Ø³":4280,"ĠÚ¯ÛĮÙĦ":4281,"ĠÙħØ®Ø§ÙĦÙģØª":4282,"ĠØ¨Ø¯ÙĪÙĦØª":4283,"ĠØ·Ø±Ø²":4284,"ĠÙģØ±ÙħØ§Ø¦ÛĴ":4285,"ĠØ±ØŃÙħ":4286,"ĠØ·ÛĮØ§Ø±ÛĴ":4287,"ĠØ¬Ø§ÙħØ¹Ûģ":4288,"ÙħÙĪÙĦ":4289,"Ø±ÛĮÙģÚ©":4290,"ĠØ§ÙĪÙĦÛĮÙĨ":4291,"ĠØ§Ø¨ÛĮ":4292,"Ø§Ø²ÛĴ":4293,"ĠØ±Ø³Ø§Úº":4294,"ĠØ¹Ø±ÙģØ§ÙĨ":4295,"Ø±Ú©Ø§Ø±ÛĮ":4296,"ĠÙ¾ÛģØ§Úĳ":4297,"ĠâĢĺâĢĺ":4298,"Ú©ÚĳÙĪÚº":4299,"ĠÛģØ³Ù¾ØªØ§ÙĦÙĪÚº":4300,"ĠÚ¯Ø±ÙĪÛģ":4301,"Ġ80":4302,"ĠØ¨Ú¯":4303,"ĠØ¨ÙĦØ§Ú©":4304,"Ø§ÙħØ¯":4305,"ĠØªØ§Ø¬Ø±":4306,"ĠØºØ±ÛĮØ¨":4307,"ĠÙ¾ÛĮÙħ":4308,"Ø¢Ø¦":4309,"ĠØ§ÙħÛĮÙĨ":4310,"Ù¹Ø±ÙĨÚ¯":4311,"ĠØ±ÛĮØ¬ÙĨ":4312,"ĠØ´ÛģØ¯Ø§Ø¡":4313,"ĠÙĦÚ¯ØªØ§":4314,"ĠØ¢Ø±Ù¹":4315,"ĠØ³Ø§ØªÚ¾ÛĮÙĪÚº":4316,"ĠÚ©Ù¹":4317,"ĠØ§Ø±Ø§Ø¶ÛĮ":4318,"ĠÙģØ±ÙĪØ±ÛĮ":4319,"ĠØ¬Ø§ÙĨÙĪØ±ÙĪÚº":4320,"ĠØ¨Ø§ØªÙĪÚº":4321,"·º":4322,"ĠØµÙĦØ§ØŃÛĮØªÙĪÚº":4323,"ĠØ±Ø¯":4324,"ĠØŃØ§Ø¶Ø±":4325,"ĠØµÙģØ¯Ø±":4326,"Ø§ØŃÙħØ¯":4327,"ĠÙĦÛĮÙ¹Ø±":4328,"ĠØ´Ø±ÛĮ":4329,"ĠØ¬Ø§Ù¾":4330,"ĠØ²ÙħØ§ÙĨ":4331,"ĠØ¬ÛĮØ³ÛĮ":4332,"ĠÙĨØ´Ø§ÙĨØ¯ÛģÛĮ":4333,"ĠØ¯ÙĪØ²Ø®":4334,"ĠÚ©Ø´ÛĮ":4335,"ÙĪØ²ÛĮØ±Ø§Ø¹Ø¸Ùħ":4336,"ĠØ¨Ø§Ú©":4337,"ĠÙ¹ÛĮÙĨ":4338,"ĠØ§ØªØ§Ø±":4339,"ĠØ§ÛĮØ¬ÙĨ":4340,"ĠÙ¾Ø±Ø§Ø¬ÛĮÚ©Ù¹":4341,"Ø¨ÙĦÛĮÙĪ":4342,"ĠØ³Ø±Ú¯ÙĪØ¯Ú¾Ø§":4343,"ĠÚ©ÙħØ±":4344,"ĠØ§Ø±Ø´Ø¯":4345,"Ø¯Ø¹Ø§":4346,"ĠÙħÛĮÙ¹ÙĨÚ¯":4347,"ĠÙĤØ¨Ø§Ø¦ÙĦÛĮ":4348,"ĠÙħÙħØªØ§Ø²":4349,"ĠÙ¾ÚĳÚ¾ÛĮÚº":4350,"ĠØ¹Ø§Ø¯":4351,"ĠØ´ÙĪÚ©Øª":4352,"Ù¾ÛģÙĨÚĨ":4353,"ĠÙħÙĤÛĮÙħ":4354,"Ø±Ø¨Øª":4355,"ĠÚ©ÙĪØ´Ø´ÛĮÚº":4356,"ĠÙħØ¸Ø§ÛģØ±ÛĮÙĨ":4357,"ĠØ§ÙĪÙĨ":4358,"ĠØ°ÙĪØ§ÙĦ":4359,"ĠÙħØ§Ùģ":4360,"ĠØ¨Ø§Ø·":4361,"ĠØ¨ÙĦÛĴ":4362,"ĠØ³ÙĨØ¬":4363,"ĠÙĪØ§Ø¨Ø³ØªÛģ":4364,"ĠØ´Ø¹ÛĮØ¨":4365,"ĠØ§ÙĪØ²":4366,"ĠØ¯Ø³ØªØ®Ø·":4367,"ĠØ§Ø¬Ø§Ú¯Ø±":4368,"ĠÚĪÛĮØ±Ûģ":4369,"ĠØªØ§Ø¨":4370,"ĠØ§ÙĪÙ¾ÙĨ":4371,"ĠØ¢Ø³Ù¹Ø±ÛĮÙĦÛĮØ§":4372,"Ø¹Ø¯Ùħ":4373,"Ġ199":4374,"ĠØ³Ø±ÙĪ":4375,"ĠØªÙĪØ¨Ûģ":4376,"Ù¾ÛĮØ±":4377,"ĠØ±ÛĮÙ¹Ø§Ø¦Ø±":4378,"ĠØ§Ú©Ø«Ø±ÛĮØª":4379,"ĠÙħØ±Ø§Ú©":4380,"ĠØ§Ù¹":4381,"ĠÙĨØ¸Ø±ÛĮ":4382,"ĠÙĪØ²Ø±Ø§Ø¡":4383,"ĠØ§Ø±Ø¨ÙĪÚº":4384,"ĠÙĦÙħ":4385,"ÙħØ°Ú©ÙĪØ±Ûģ":4386,"ĠÙħØ³Ø§ÙģØ±ÙĪÚº":4387,"Ø³ÛĮÚ©":4388,"Ù¾Ø§Ú©Ø³ØªØ§ÙĨÛĮ":4389,"Ù¾ÙĨØ¬Ø§Ø¨":4390,"Ù¹Ø±ÙĪÙĦÛĮÙħ":4391,"ĠÙ¾Ø±Ø§Ø¦ÛĮÙĪÛĮÙ¹":4392,"Ù¹ÚĪ":4393,"ĠØ§Ø³ØŃØ§ÙĤ":4394,"ĠÙħØ±Ø²":4395,"ĠØ±Ø´ØªÛģ":4396,"ĠØ¶ÙħÙĨÛĮ":4397,"ĠØªØ§ØŃØ§ÙĦ":4398,"ÙĨÚĪØ§":4399,"ĠÙĤÙħØ±":4400,"ÛģÙĪÙĨÛĴ":4401,"Ø¬Ø§ÙĨ":4402,"ØºØ±":4403,"ĠÙħÛĮØ³Ø±":4404,"ĠÛĮÚ©Ùħ":4405,"Ø´ÛģØ±":4406,"ĠÚ©ÙĦØ§Ø³":4407,"ĠØ®Ø´Ú©":4408,"ÙĪÛģØ§Úº":4409,"ĠÚ©Ú¾ÙĦÛĮ":4410,"Ú©Ø±ÙĨÛĴ":4411,"50":4412,"ĠØŃØ¶Ø±Ø§Øª":4413,"ĠØ¹ÙĪØ±ØªÙĪÚº":4414,"ÙģÛĮØ¸":4415,"ĠØ§ÛĮØ±Ø§ÙĨÛĮ":4416,"Ø²ÙħÛĮÙĨ":4417,"Ø¯Ø±Ø®ÙĪØ§Ø³Øª":4418,"ĠØ±ÛģØªÛĮ":4419,"ĠØ¢Ø¦ÛĮÙĨÛĮ":4420,"ĠØ±ÛĮÙĦÛĮÙģ":4421,"ĠØ§ÛĮÙħØ±Ø¬ÙĨØ³ÛĮ":4422,"ĠÚ¯ÛĮÙħ":4423,"ĠÚ©Ø±ÙĪØ§Ø¦ÛĮ":4424,"ĠÙħØ´Ø±Ùģ":4425,"Ø§Ù¾ÙĨÛĮ":4426,"Ø¬Ø±Ø§ÙĨ":4427,"ĠØŃÙħÙĦÙĪÚº":4428,"Ú¾ÛĮØ±":4429,"ĠØ¶Ø±ÙĪØ±ÛĮØ§Øª":4430,"ĠÙħØ´Ø±Ú©ÛĮÙĨ":4431,"ĠÚĪØ§ÙĦÙĨÛĴ":4432,"ĠÛ²":4433,"ĠØ³ÙĨØ§Ø¦ÛĮ":4434,"ĠÙħØ¹Ø§Ø¦ÙĨÛģ":4435,"Ù¾Ø§":4436,"ĠÙĦÛĮÚ¯ÛĮ":4437,"ĠÙĪØ³ÛĮØ¹":4438,"ĠØ¬ÙĦØ³ÛĴ":4439,"Ġ2013":4440,"ĠØ¬Ø§Ø¦ÛĮÚ¯ÛĮ":4441,"ØªØ´":4442,"ĠÙħØ´ÙĪØ±Ûģ":4443,"ĠØªÙħÛģØ§Ø±Ø§":4444,"ĠØ¬ÙĪØ´":4445,"ĠÙĦØŃØ§Ø¸":4446,"ÚĳÛģ":4447,"ĠØ±ÛģÙĨÙħØ§Ø¡":4448,"ĠØ¹ÛĮØ³ÛĮ":4449,"ĠØŃØ±ÛĮØª":4450,"Ø§Ø¯Ø§Ú©":4451,"ĠØ¨Ø±Ø·Ø§ÙĨÛĮÛģ":4452,"ĠÙħØ¹ÙħÙĪÙĦ":4453,"ĠÙģØ±ÙħØ§ÙĨ":4454,"ĠØºØ°":4455,"ĠØ±Ø³Ø§Ø¦ÛĮ":4456,"Ú©ÙĪØ¦ÛĮ":4457,"ĠÙħÛģÛĮ":4458,"ĠØ§ÙħØªÛĮØ§Ø²":4459,"Ø§ØŃÙĦ":4460,"ĠÙ¾ÚĳØªØ§":4461,"ĠÙħÙĪØ§Ø¯":4462,"ĠÙĨØ§Ø¬Ø§Ø¦Ø²":4463,"ĠØ§ÙĦÙģ":4464,"ĠÙ¹ÙĨ":4465,"ĠÙĨØµØ¨":4466,"Ù¹ÛĮØ§Úº":4467,"ĠØ¨Øº":4468,"ĠØ§ÛĮÙĪØ§Ø±ÚĪ":4469,"ĠØ§ÙĨÙĤÙĦ":4470,"ĠÙĦØ§Ú¯Øª":4471,"ĠØŃØ±Ú©Øª":4472,"ĠÙĨÙĪÙ¹ÛĮÙģ":4473,"ĠÙ¾Ø±ÛĮØ´Ø§ÙĨ":4474,"Ø²ÙħØ§ÙĨ":4475,"ĠØ¨ÛĮÙħØ§Ø±ÛĮÙĪÚº":4476,"Ġ*":4477,"ĠÙģÛĮÙħ":4478,"ĠÚ¯Ø§Ø±ÚĪ":4479,"ĠØ§Ø¹ÙĦØ§Ùħ":4480,"ĠØ³Ù¾ÙĪØ±Ù¹Ø³":4481,"ĠÙĨÙĪØ¹ÛĮØª":4482,"ĠÙħÛĮØ±Ù¹":4483,"ĠÙħÚ©Ø§ÙĨ":4484,"ĠÙ¾Ø§ÙĨ":4485,"|\"":4486,"ĠÙĨØ¯ÛĮÙħ":4487,"ĠØ³Ø±ÙĪØ³Ø²":4488,"ĠÚ©ÛĮØ³Ø²":4489,"ØªØ±ÛĮÙĨ":4490,"ĠØ¨ÙĪØ±":4491,"Ú©ÛĮÙĪÚº":4492,"Ø§Ø¯ÙĪ":4493,"ĠØŃÚ©ÙħØ±Ø§ÙĨÙĪÚº":4494,"ĠÙĦÚ©Ú¾ØªÛĴ":4495,"ĠØ¯ÙĪØ³Ø±ÙĪÚº":4496,"ĠØ¨ÚĨØ§":4497,"ĠÙ¾Ú©Ø§Ø±":4498,"ĠØ³Ø¨Ø²":4499,"ĠØ¹Ø¯Ø§ÙĦØªÙĪÚº":4500,"ĠÙħØ³ØªØŃÚ©Ùħ":4501,"ÙĨØ§ÙĨ":4502,"ĠÙ¹ÛĮÙĦÛĮ":4503,"Ġ36":4504,"ĠÙħØ¹Øµ":4505,"ÛĮØªÛĮ":4506,"ÙĦÙĨØ¯ÙĨ":4507,"ĠÙħØ³ØªØŃÙĤ":4508,"Ø§ØµØ¯":4509,"ĠÚ¯ÙĨØ¬":4510,"ĠÚĨØ§ÙĨØ¯":4511,"ĠÙĨØ³Ø¨Øª":4512,"ĠØ§ÛĮÙĨÙ¹ÛĮ":4513,"ĠÙģÙĪØ±Ùħ":4514,"ĠÙħÙ¹ÛĮ":4515,"Ø±ÙĪÛĮ":4516,"ĠÙħØ§ÙĦÚ©Ø§ÙĨ":4517,"000":4518,"ĠØ§ÙĨØ¨ÛĮØ§Ø¡":4519,"ĠØ¨ÙĨØ§ØªÛĴ":4520,"Ø§Ú©Ø±Ø§Øª":4521,"ĠØ¯ÛģÙĦÛĮ":4522,"Ø³ÙĪÚº":4523,"ĠØ³ÙĪØ§ÙĦØ§Øª":4524,"ĠØ§Ø¹ØªØ¨Ø§Ø±":4525,"ĠÚĨÙĪØ¯Ú¾Ø±ÛĮ":4526,"ĠÙħØ§ÙģÛĮØ§":4527,"ÙĪÙĨØ³Ù¾ÙĦ":4528,"âĢĺÛĶ":4529,"ĠØ¨Ø§Ø¬":4530,"ĠØ¹ÙĤÛĮØ¯Øª":4531,"Ú©ÙĪØ±":4532,"Ø·ÛĮÙģ":4533,"ĠØ³Ø®ØªÛĮ":4534,"ĠÙħÙĨØ³ÙĪØ®":4535,"ĠÙ¾Ø±ÙĪØ±":4536,"ĠÚ©Ùģ":4537,"ĠØ¢ÙĨØ§":4538,"Ø¬Ø±Ø§ÙĨÙĪØ§ÙĦÛģ":4539,"âĢĮ":4540,"ØªØ§ÙĤ":4541,"ĠÙĦÚ¯ÙĨÛĴ":4542,"ĠÙħÛĮØ¦Ø±":4543,"Ù¾ÛĮÙ¾ÙĦØ²":4544,"Ø§ÙĨØ¬Ø§Ùħ":4545,"ĠØªÙĨÚ¯":4546,"ĠÙ¾Ø§Ø±ÙĦÛĮÙħÙĨÙ¹":4547,"ĠÙħÙģØ§Ø¯Ø§Øª":4548,"ÙĨØ¯ÙĪÚº":4549,"ĠØ¯Ú¾Ø§ÙĨØ¯ÙĦÛĮ":4550,"ĠØ¨Ø´ÛĮØ±":4551,"Ø³Ø§ÙĨÛĮ":4552,"ÙĦØ§ÙĤÛĮ":4553,"ĠÙĪÙģØ§ÙĤ":4554,"ĠØ§ÛĮØ±Ø§ÙĨ":4555,"ĠØ¹Ø§Ø¦Ø´Ûģ":4556,"ĠØ²Ø¨Ø±Ø¯Ø³Øª":4557,"ĠÙ¹ÙĪÙ¹":4558,"ÙģÙĤØ§Ø±":4559,"ĠØ¨ÙĦØ§ÙĦ":4560,"ĠÙħØ¯Ø§Ø®":4561,"ĠØ¨Ú¾Ø±ØªÛĮ":4562,"ĠÙħØªÙĪÙģÛĮ":4563,"ĠÙħØ§Ø±ÛĴ":4564,"ĠØ¨ØŃØ±ÛĮÛģ":4565,"ĠØµØ§ÙĦØŃ":4566,"ĠÙħØ¹Ø§ÙģÛĮ":4567,"ÙħÛĮØ²":4568,"ĠÚ©Ø§Ø±Ù¾ÙĪØ±ÛĮ":4569,"ĠØŃÙĦÙĤÛģ":4570,"ĠÙĦØ§Ø¦ÛĮÚº":4571,"ĠØ²Ø§ÛģØ¯":4572,"ĠØºÙħ":4573,"ĠØ¢Ù¾Ø±ÛĮ":4574,"ĠÙĦÚ¯Ø§Ø¦ÛĮ":4575,"Ø¬Ø³Ù¹Ø±ÛĮØ´ÙĨ":4576,"ĠÛģØ¬":4577,"ĠÙħØŃØ¯ÙĪØ¯":4578,"ĠØ¯Ø±Ø¬ÙĨ":4579,"ĠØ´Ø§Ø¦Ø¹":4580,"ĠÛģØ§Ø¦ÛĮÚ©ÙĪØ±Ù¹":4581,"ĠØªØ¹ÛĮÙĨØ§ØªÛĮ":4582,"ĠÚ©Ø§ÙģØ±ÙĪÚº":4583,"ĠØ§Ø¹ÙĪØ§ÙĨ":4584,"ĠØ²Ø®ÙħÛĮÙĪÚº":4585,"ĠÙħØ±Ø²Ø§":4586,"ĠÙ¾Ø±ÙĨØ³":4587,"ĠØ³ÛĮØ§ÙĦ":4588,"ĠØ¨ÛģÙĨ":4589,"ĠØ¬ÙħÛĮÙĦ":4590,"ĠØ³Ø¹Ø¯":4591,"ĠÙĪØ§Ø³":4592,"ÙĪÙĨÙĦÚĪ":4593,"ĠÚĪØ§Ú©Ù¹Ø±Ø²":4594,"Ø¯ÙĨÛĮØ§":4595,"ĠØªØ±ÙħÛĮÙħ":4596,"ĠØ³Ø±Ø§ÙĨØ¬Ø§Ùħ":4597,"ĠÚĨØ±":4598,"ĠØ¬ÛģØ§Ø¯":4599,"ĠÚĪÙĪÛĮÙĦÙ¾ÙħÙĨÙ¹":4600,"ĠÙĨÙħÙ¹ÙĨÛĴ":4601,"ĠØ§Ø¹Ø¯Ø§Ø¯":4602,"ĠÙĪÙĤØ§Ø±":4603,"ĠÚ¯Ú¾ÙĨÙ¹ÙĪÚº":4604,"ÙħØ¬Ú¾ÛĴ":4605,"ĠØ¹Ø¯ÙĦÛĮÛģ":4606,"ĠÙħØ¯Ø§Ø®ÙĦØª":4607,"ĠÙħÙħÚ©ÙĨÛģ":4608,"ĠØ§ÛĮÚ©Ø³Ù¾":4609,"ĠØ´ÛĮØ·Ø§ÙĨ":4610,"ÚĪÙĪ":4611,"Ø§Ø¦ÙħÛģ":4612,"ĠÚ©Ø§Ø±Ø±ÙĪØ§Ø¦ÛĮÙĪÚº":4613,"Ø®ÙĦ":4614,"ĠØ§Ø³Ù¹ÛĮÙ¹":4615,"ØªÚ©":4616,"ĠÚĨÛĮÙħÙ¾":4617,"ÙĪØ§Ø¨":4618,"ĠÚĪØ¨ÙĦÛĮÙĪ":4619,"ĠØ¯ÛģÛĮ":4620,"ĠÙ¾Ø§ÙĦ":4621,"ĠÚ¯ÛĮÙĨØ¯":4622,"ĠÙħØ®Ø§ÙĦÙģÛĮÙĨ":4623,"ĠÙ¾ÙĪÙĦ":4624,"Ø´Ùħ":4625,"Ø¹ÙĪØ§ÙħÛĮ":4626,"Ù¹ÛĮØ´ÙĨ":4627,"ÙģÛĮØ¦Ø±":4628,"ĠØ´Ø¹ÙĪØ±":4629,"ĠØ¬ÙħÛģÙĪØ±":4630,"ĠÙĪØ¬ÙĪÛģ":4631,"ĠÛģÙĨÚ¯Ø§ÙħÛĮ":4632,"ĠÙĤØ¯Ø±ØªÛĮ":4633,"ĠÙħÚ©Ø±":4634,"ĠØ¹Ø³Ú©":4635,"ĠÙ¾Ø±ÚĨ":4636,"Ø±ÛĮÙĨÛģ":4637,"ĠÙħÙĪØ³Ùħ":4638,"--":4639,"ĠÙģÛĮÙħÙĦÛĮ":4640,"ĠÙħØ±ÛĮØ¶":4641,"ØŃÛĮ":4642,"ÚĪÛĮÙ¹":4643,"ĠÙ¾Ø±ÛĮØ´Ø§ÙĨÛĮ":4644,"ĠÙ¾ÛĮØºÙħØ¨Ø±":4645,"Ø§Ø±Ø«":4646,"ĠÙħØ±ØŃÙĪÙħ":4647,"ĠØ§ÙĨÙģØ±":4648,"ĠÙģØ±Ø¹ÙĪÙĨ":4649,"ĠÙĤØµÙĪØ±":4650,"ĠØŃØ§Ø¶Ø±ÛĮ":4651,"ĠÚĪÛĮÙ¾Ø§Ø±Ù¹ÙħÙĨÙ¹":4652,"ĠØªÙĪØŃÛĮØ¯":4653,"ĠØŃÙĤØ§Ø¦ÙĤ":4654,"ĠØ³ÛĮÙĨÚ©ÚĳÙĪÚº":4655,"ĠØ´ÙĪØ±":4656,"ĠÛĴ":4657,"ĠØ§ÙĦØ·":4658,"ĠØ¨ÛĮØ±ÙĪØª":4659,"ÙģÙĦÙħ":4660,"Ġ90":4661,"ĠÙħÙĤØ¯ÙħÛĴ":4662,"Ġ2015":4663,"ÙħÙĦØ²Ùħ":4664,"Ø¯Ø§Ø±ÙĪÚº":4665,"ĠØŃÚ©ÙĪÙħØªÙĪÚº":4666,"ĠØ¨Ø±Ø§":4667,"ÙĪÛĮØ§Ø±Ú©":4668,"ĠØªØ¬Ø§ÙĪÛĮØ²":4669,"ĠÙģÛĮÚ©Ù¹Ø±ÛĮ":4670,"ĠÚ©Ø±ÙĪÚĳÙĪÚº":4671,"ĠÙ¾Ú¾ÙĪÙĦ":4672,"ĠÚĨÙĪÙĨÚ©Ûģ":4673,"ĠØ§ÙĨØªØ¸Ø§ÙħÛĮ":4674,"ĠÙ¾ÙĦØ§":4675,"ĠÙħÙĦØªÛĮ":4676,"ĠØªÙĤØ±":4677,"Ø¨ÛĮÙĨ":4678,"ĠØŃÛĮØ±Ø§ÙĨ":4679,"ĠØ¨ÙĨØ¯ÙĪÚº":4680,"ĠÚ©Ú¾ÛĮÙĦÙĨÛĴ":4681,"ÙħÛĮØ¯":4682,"ĠÙ¾ÙĦÛĮÙ¹":4683,"ĠØ§ÙĨÚ¯":4684,"Ø¨ÙĨØ¯":4685,"ÛģÙħØ§Ø±ÛĮ":4686,"ĠÚĨØ§ÛģÛĮØ¦ÛĴ":4687,"ÙħÛĮÙĨØ§ÙĨ":4688,"ĠÚ©ÛĮÙħ":4689,"ĠÙ¹Ø±ÛĮÙĨÙĨÚ¯":4690,"ÙĨÚ©":4691,"ĠÙ¹Ø±ÛĮÙģÚ©":4692,"ÙĪØ±ÛĮØ¬":4693,"Ú©ÙĦØ§Ø¡":4694,"ĠØ¨Ø§Ø±ÛĮ":4695,"ĠÙħÛĮÙĨØ¬ÙħÙĨÙ¹":4696,"Ø¢Ø®Ø±":4697,"ĠÙĨØ§ÙĤØµ":4698,"ĠÚ©Ø¨":4699,"ĠÙĨÙĪÛĮØ¯":4700,"Ø§ÙħÛĮØ¯":4701,"ÙģÙĦ":4702,"ĠÚ©Ø§Ù¹":4703,"ĠÚ©Ø±ÙĪØ§ÛĮØ§":4704,"ĠØ¨Ø§ÙĨ":4705,"ĠØ¨Ú¾Ø§Ú¯":4706,"Ø¬ÙħÛģ":4707,"Ø§Ø±ÛĮÙĪÚº":4708,"ĠØ±Ø²":4709,"Ø¨Ø¦ÛĮ":4710,"ĠØ¹Ø¯Ø¯":4711,"ĠØ¯Ø³ØªØ§ÙĪÛĮØ²Ø§Øª":4712,"ĠØ§Ø³ØªØ¯Ø¹Ø§":4713,"Ø´ØªÙĪÚº":4714,"ĠÙħÛģÛĮÙĨÛĴ":4715,"ĠØ±ÛģØ§Ø¦ÛĮ":4716,"Ø³ÙĦÚ©":4717,"ĠØ±ÛģÙĨØ§":4718,"Ù¾ÛģÙĦÛĴ":4719,"ĠØ¯ÙģØ§ØªØ±":4720,"ØªÛĮØ¨":4721,"ĠØ¶Ø§Ø¨Ø·Ûģ":4722,"ĠØ¨ÛĮØ§ÙĨØ§Øª":4723,"ĠØ§ÙĨØ³Ù¹ÛĮ":4724,"ĠØ¨ÛĮÙĨÚĨ":4725,"ĠØ±Ø¬Ø³Ù¹Ø±ÛĮØ´ÙĨ":4726,"Ø¤Úº":4727,"ÙĦÛĮÛĴ":4728,"ĠÚĨÛģØ±ÛĴ":4729,"Ġ33":4730,"ĠÙħØ§Ø³":4731,"2018":4732,"ĠÙ¾ÙĪØ¯ÛĴ":4733,"Ġ[":4734,"ĠØ®Ø±ÛĮØ¯Ø§Ø±ÛĮ":4735,"ĠØ¢Ø¦ÙĦ":4736,"ĠØ´Ø¬":4737,"ĠØ±ÛĮÙĪÙĨÛĮÙĪ":4738,"Ù¹ÛĮÙħ":4739,"ĠØ±Ø¬ÙĪ":4740,"ĠØ³Ù¹ÛĮØ´ÙĨ":4741,"ĠÛģÚĳ":4742,"ĠÙĨØ¨":4743,"ĠØ¨ÛĮÙ¹ÙĨÚ¯":4744,"ĠØŃØ±Ø§Ø±Øª":4745,"ĠØ§Ø·Ø§Ø¹Øª":4746,"ĠØªØ¬Ø±Ø¨Ûģ":4747,"Ø¨ÛĮØ¨":4748,"ĠÚĨØ±Ø³":4749,"ĠØ¹ÙĦØ§ÙĤØ§Ø¦ÛĮ":4750,"Ø³Ø±ÚĨ":4751,"ĠØ³Ø¨Ø²ÛĮ":4752,"ĠÙħÙĨØ³ÙĦÚ©":4753,"ĠÙĦØ³Ù¹":4754,"ĠÙħÙĨÚ¯":4755,"Ú©ÙĪÛĥ":4756,"ĠØ§ÙģØªØ®Ø§Ø±":4757,"ĠØ¯ÙĪÚĳ":4758,"ĠØ¢Ø¦ÙĪÙ¹":4759,"Ø§Ø«Ø±":4760,"ĠÚ©Ø§ÙĪØ´":4761,"Ġ34":4762,"ĠØºÙģÙĦØª":4763,"ĠÚ©ÙħÛĮÙĪÙĨÙ¹ÛĮ":4764,"ĠØ³ÙĨÙĨÛĴ":4765,"ĠØŃÚ©ÙħØ±Ø§ÙĨ":4766,"ĠÙħØ²Ø§ØŃ":4767,"ĠØ³ÙĨÙ¹Ø±":4768,"ÙĨØ¯Ø±Ûģ":4769,"ĠÙħØ±Ø§Ú©Ø²":4770,"ØŃØµ":4771,"Ø¹ÙĦØ§ÙĪÛģ":4772,"Ø¨Ø·":4773,"ĠØ¶Ø§Ø¦Ø¹":4774,"Ø¨Ú¾Ø§Ø±Øª":4775,"ĠØŃÙģÛĮØ¸":4776,"Ø²Ø±":4777,"ĠÙħØ¹Ø¬Ø²":4778,"ĠÙĨØ°Ø±":4779,"ĠØ¯Ø¨Ø¦ÛĮ":4780,"ĠØ¬ÛģÙĨÙħ":4781,"ĠØ¯Ø§Ø¹":4782,"ĠÚ©Ú¾ÙĦÛĴ":4783,"ĠÙ¹Ø§Ø¦Ùħ":4784,"ĠÙħØ°ÛģØ¨":4785,"ĠÙ¾ÛģÙĨÚĨØ§ÛĮØ§":4786,"ĠÚ©Ø§ÙĦØ¹Ø¯Ùħ":4787,"ĠØ¨Ø§Ø¯Ø´Ø§Ûģ":4788,"ĠÙģÙĤ":4789,"ĠØ¯Ø±ÛĮØ§ÙģØª":4790,"ĠØ§ÙĨØ¯Ø§Ø²Ûģ":4791,"ĠØ§Ø³Ú©ÙĪØ±":4792,"ĠÙħØŃØª":4793,"Ø¯Ø¹ÙħÙĦ":4794,"ĠÙĦÛĮØ§ÙĤØª":4795,"ĠØ¨Ú¾Ù¹ÛĮ":4796,"ĠÚ¯ÙĨØ¯Ùħ":4797,"ĠØ§ÙĦØŃØ³ÙĨ":4798,"Ú©ÛĮØ³":4799,"ĠØ´ÛĮÚĪÙĨÚ¯":4800,"ÙĪØ§Ø´ÙĨÚ¯Ù¹ÙĨ":4801,"ĠÚĨØ§Ø¦ÛĴ":4802,"ÚĨØ§Ø±Ø¬":4803,"Ø§Ø¦ÙĪÙĨÚĪ":4804,"ĠØ¨Ú¾ÙĪÙĦ":4805,"Ù¹Ø±ÙĪÙĦ":4806,"ĠÚ©Ø§Ø´":4807,"ĠØ±Ø¯Ø¹ÙħÙĦ":4808,"Ġ,":4809,"ĠØªÙĤØ±ÛĮØ±":4810,"ĠØ§Ø·ÙħÛĮÙĨØ§ÙĨ":4811,"ĠÙħÙĨØ§ÙģØ¹":4812,"Ø±Ø³Ø§Úº":4813,"ĠÙĨÙħØ§Ø¦ÙĨØ¯Ú¯ÛĮ":4814,"ĠÚ©ÛģØªØ§":4815,"ĠØ¹Ø§Ø±":4816,"ĠØ§Ø®ÙĦØ§ÙĤÛĮ":4817,"ÙģØ§Ø±Ùħ":4818,"ĠÙ¾Ø®ØªÙĪÙĨØ®ÙĪØ§Ûģ":4819,"Ú©ÛĮÙħ":4820,"ĠÙĦØ§ÙĦ":4821,"ĠÛµÛ":4822,"ÙĤØ§ÙĨ":4823,"ĠÙĨØ´Ø³ØªÙĪÚº":4824,"ĠÙ¾ØªÚ¾Ø±":4825,"Ø®Ø§ÙĦ":4826,"ØªØŃØ±ÛĮÚ©":4827,"Ġ37":4828,"ĠØ§ÙĦØ§":4829,"ĠÙħØºØ±Ø¨ÛĮ":4830,"ĠÚ©Ø§Ù¾":4831,"ĠÙħØ¹Ø¨ÙĪØ¯":4832,"ĠÛĮÙĪÙĨØ³":4833,"ĠØ¢Ø¯Ùħ":4834,"ĠÙħÛĮÙĪÙĨØ³Ù¾ÙĦ":4835,"ĠÙĪØ³Ø·ÛĮ":4836,"ĠØ¹ÛģØ¯ÛĮØ¯Ø§Ø±":4837,"ĠÙĨÚ©Ø§ÙĦÙĨÛĴ":4838,"Ø¸Ø§Ùħ":4839,"ĠÚĨØ§Ø±ÙĪÚº":4840,"ĠÙħÛĮÚ¯Ø§":4841,"ÙĪØ³Ø·":4842,"ÙħØ¬":4843,"ĠÙģØ±Ø´":4844,"ĠØ³Ø±ÙĪØ±":4845,"Ø§ÙĨÚ¯ÛĮØ±":4846,"ĠÙģØ§Øª":4847,"ĠÙ¹Ø§Ù¾":4848,"ĠÙ¾ÛĮÙ¹":4849,"ĠØ±ÙĪÛĮÛģ":4850,"ÛĮÛĴ":4851,"ĠØ³ÙħØ¬Ú¾Ø§":4852,"ĠØ¶ÛĮØ§Ø¡":4853,"ĠØ¢ÙģØª":4854,"ĠØ¹Ø§Ø¨Ø¯":4855,"ĠØ¬Ø§Ø¤":4856,"ĠÚ¯ÛĮØ§Ø±Ûģ":4857,"ĠØ¯ÙĦÛĮ":4858,"ĠØ±ÙĪØ³ÛĮ":4859,"ĠØ¨Ø¯Ø¹":4860,"ĠÙĦØ§Ù¾":4861,"ĠØ¯Ø¨Ø§Ø¤":4862,"Ø§ØŃÙĤÛĮÙĨ":4863,"ĠØ¢Ø²Ùħ":4864,"ĠÙħÙĤØ§ØµØ¯":4865,"ĠØªØ§Ø¬Ø±ÙĪÚº":4866,"ĠØ²ÙħØ§ÙĨÛģ":4867,"ĠØ¯ÙĪØ³ØªÛĮ":4868,"ĠØ¹ÙĤÙĦ":4869,"ĠÚ©Ø±Ù¾Ù¹":4870,"ĠÚ©Ú¾ÚĳÛĮ":4871,"ĠÙħÛģØ§Ø¬Ø±ÛĮÙĨ":4872,"ĠØ§ÙĨØ¹Ø§ÙħØ§Øª":4873,"ĠØ¨ØªØ§Ø¦ÛĮ":4874,"Ø§Ø³ØªÛĮ":4875,"ÙģØ±ÛĮ":4876,"ĠØ³Ø±ÚĨ":4877,"ĠÙ¹Ø±Ø§ÙĨØ³Ù¾ÙĪØ±Ù¹":4878,"ĠÚĨØ§ÙĦ":4879,"ĠÙĨØ±Ø®":4880,"ĠÚĪÛĮÙ¹Ø§":4881,"ĠÙĪØ¬ÙĪØ¯":4882,"ĠØ¬Ø§ÙĨÙĪØ±":4883,"ĠÚĨÛģ":4884,"ĠØ§ÙĨÛģÛĮ":4885,"ĠØ§Ø´ØªÛģ":4886,"ĠØºÙĦØ·ÛĮ":4887,"ĠÙĤØ§Ø¯Ø±":4888,"Ú©ÚĨÚ¾":4889,"ĠÙħÙĤØª":4890,"Ù¹Ú¾Ø§":4891,"ĠØªØ§Ø±":4892,"ĠÚ©ÙħÙ¾ÛĮ":4893,"ÚĪØ±ÙĨÚ¯":4894,"ĠÚ©ÛĮÙģ":4895,"ĠØ¢Ú¯Ø¦ÛĮ":4896,"ĠÛģÙħØ¯":4897,"ĠØ¨Ø±ÙĪØ¦ÛĴ":4898,"ĠØŃÙĦØ§ÙĦ":4899,"Ø¬ÛģØªÛĮ":4900,"ĠÙ¾ÚĳÛĮ":4901,"ĠØ³Ù¾ÙĦ":4902,"Ġ38":4903,"ĠØ¯ÛĮÚ©Ú¾ÛĮÚº":4904,"ĠÙħÙĤØµÙĪØ¯":4905,"ĠØ³ÙħÛĮ":4906,"ĠØ³Ú©ÙĨÛģ":4907,"Ø§ÙģØ±":4908,"ĠØ¯Ø±ÙĪØ§Ø²ÛĴ":4909,"ĠØ®Ø·Ø±ÛĴ":4910,"Ú©ÙĪÚ©":4911,"ĠÙħÛĮØ¬Ø±":4912,"ĠØ¨Ø±Ø¢ÙħØ¯Ø§Øª":4913,"ĠØ¨ÛĮØ´ØªØ±":4914,"Ø§ÙĨÚ©Ø§":4915,"ÚĪÛĮÙĨ":4916,"ĠØ±ÛĮÙ¹Ø§Ø¦Ø±ÚĪ":4917,"ĠÙĤØ±Ø¨Ø§ÙĨÛĮØ§Úº":4918,"ĠØ±Ø¬ÙĪØ¹":4919,"ÙĨØ¦ÛĮ":4920,"ÙĨÛĮÙ¹":4921,"ĠÚ¯Ø±ÛĮØ²":4922,"ĠØ¹Ø´":4923,"Ø§Ø¸Ø±":4924,"ÙħÙĦØ²ÙħØ§ÙĨ":4925,"Ø·Ø±":4926,"ĠÙħØ´ØªØ§ÙĤ":4927,"ĠÛĮÚ©Ø³":4928,"ĠÙĪÚ©ÙĦØ§Ø¡":4929,"ĠØ¨ÛģØ¨ÙĪØ¯":4930,"Ø°ÛĮØ¨":4931,"ÙĪØ±Ø§Øª":4932,"ĠØ¨ÙĦØ¯ÛĮ":4933,"ĠÙĨÙħØ§Ø¦ÙĨØ¯ÛĴ":4934,"ĠØ³ÙģÛĮØ¯":4935,"ĠÚĪØ§Ú©ÙĪ":4936,"ĠÙħØ§ÙĨÛĮÙ¹Ø±ÙĨÚ¯":4937,"ĠÙħØ°Ø§Ú©Ø±Ø§Øª":4938,"ĠØ¯ÙģØ§Ø¹ÛĮ":4939,"ĠØªÙĤØ±ÛĮØ¨Ø§Øª":4940,"ĠØ¬Ø§Ø¯ÙĪ":4941,"ĠØ¢ÙĦÙĪØ¯":4942,"ĠÙħØ§ÛģØ±":4943,"ĠÙħÙģØªÛĮ":4944,"ÛģÛĮÙĨ":4945,"ĠØ³ÛĮÙħÛĮÙĨ":4946,"ĠØ´Ø±Ùħ":4947,"ĠÚ©Ø§Ø´ØªÚ©Ø§Ø±ÙĪÚº":4948,"ĠÙ¾ÛĮÙħØ§ÙĨÛĴ":4949,"Ø§ØŃÙĤ":4950,"ĠÛģØ§Ø±ÙĪÙĨ":4951,"ĠÚ©Ú¾Ø§":4952,"ĠØ§ÙħØ¬Ø¯":4953,"ĠØ§ÙĦØª":4954,"ĠØ¨ÛĮÙĪØ±ÙĪ":4955,"ĠØ³ÙĨØª":4956,"ĠÙ¾Ø±ÙĪÙ¹":4957,"ĠÙĪÚ©Ù¹ÙĪÚº":4958,"ĠÙĪÙĪÙ¹Ø±Ø²":4959,"ĠØ§ÙĦÛģ":4960,"ĠØ¯ÛĮÙĪØ§Ø±":4961,"ÙĨÙĪØ§ÙĨÛĮ":4962,"ĠØ§Ø³ÙĦØŃÛģ":4963,"Ùĵ":4964,"ĠØ±ÙĪÚ©Ø§":4965,"ØµØ±Ùģ":4966,"ÚĨÙĪÛģ":4967,"ĠØ¬ÙĨØ§Ø²Ûģ":4968,"ĠØ§ÙĤÙĦÛĮ":4969,"ĠÙ¾ÛĮØ³Ûģ":4970,"ĠØ±Ø§Ø´Ø¯":4971,"ĠØªØ¯":4972,"Ù¹ÛĮÙĦÛĮ":4973,"ĠÙħØªÙĪÙĤØ¹":4974,"ĠØªØ±Ø¯":4975,"ĠÙĤØ§Øª":4976,"ÙĪØ±Ø²":4977,"ĠØ§Ø¸ÛģØ±":4978,"ĠÙ¾ÚĨØ§Ø³":4979,"Ø¬Ø¦ÛĴ":4980,"ĠØ³ÙĦÙĪÚ©":4981,"ĠØ®ÛĮØ²":4982,"ĠØºØ±Ø¨Øª":4983,"ĠÚ©ÙĪØ¦Ù¹Ûģ":4984,"ĠØ¨Ø±ÙĪØ²":4985,"ĠÚ©Ø§Ø±Ù¾ÙĪØ±ÛĮØ´ÙĨ":4986,"ĠÚ©Ø±ÚĨÚ©ÛĴ":4987,"ĠÛģÙĪØ³Ú©ÛĴ":4988,"ĠØ¬ÙĨÚ¯ÙĦØ§Øª":4989,"ĠØ¨Ø±Ûģ":4990,"ĠØ®Ø¯Ø´Ûģ":4991,"ĠÚ©Ú¾ÛĮÙĦÙĪÚº":4992,"ĠØ¬Ø§ÙĨÙĪÚº":4993,"ĠØ³ÛĮÙħÛĮÙĨØ§Ø±":4994,"ĠØ§ÙĨÚ¯ÛĮ":4995,"ĠØ±ÛĮÚ¯":4996,"Ø§ÙģØ³Ø±":4997,"ĠØµÙĨØ¹ØªÛĮ":4998,"ĠÛ±Û´Û":4999,"ĠØ§ÛĮØ´ÛĮ":5000,"ĠÚĪÛĮØ²":5001,"ĠØ¨ÚĳÚ¾ØªÛĮ":5002,"ĠÙ¹ÙĪØ¦":5003,"ĠÚĨÚ¾Ù¹ÛĮ":5004,"ĠÚ©ÛģØ§ÙĨÛĮ":5005,"Ø§Ø¯ÛĮØª":5006,"Ø´ÛĮØ®":5007,"ĠÙħØ¯Ø§ØŃ":5008,"ĠØ«Ø§ÙĨÛĮ":5009,"ĠØ§ÙĨØµ":5010,"Ġ32":5011,"ĠÙĦØ§ÙĨÚĪØ±ÙĨÚ¯":5012,"ĠØ³ÛĮÙĨÙ¹":5013,"ĠÙħØ±Ø¯Ø§ÙĨ":5014,"ĠÙ¾ÙĨØ¯Ø±Ûģ":5015,"ĠØªÙĪÛģÛĮÙĨ":5016,"Ø¨Ø¹Ø¶":5017,"ĠØ¬Ø´ÙĨ":5018,"ĠÙħØªØ§Ø«Ø±ÛĮÙĨ":5019,"ÚĳÚ©Ø§ÙĨÛģ":5020,"ĠÙħÙģÛĮØ¯":5021,"ĠØ¨ÙĦØ§ÙĪÙĦ":5022,"Ú©ÙħÛĮ":5023,"Ø¢Ø²Ø§Ø¯":5024,"ĠÙĦÙĪØ§ØŃÙĤÛĮÙĨ":5025,"ĠÚĨÛĮÚ©ÙĨÚ¯":5026,"ĠØ¹Ø§Øµ":5027,"ĠØ¹ÙħØ¯":5028,"ĠÙĤØ§Ø¶ÛĮ":5029,"ÙĪØ¹Ûģ":5030,"ÙħÙĦØ§ÙĤØ§Øª":5031,"Ø¯Ø§Ø±ØªÛĮ":5032,"ĠØºØ§ÙĦØ¨":5033,"ĠÙħÙĪÙĨ":5034,"ĠØ¯ÙĪÚº":5035,"ĠØ¬ÙĨØ³":5036,"ĠØ³ÛĮØ§ØŃØª":5037,"ĠØ¢ÙĪØ±":5038,"Ø±ÛĮÚ©Ù¹":5039,"ĠÙĪØŃÛĮ":5040,"Ø¨ÛĮÛģ":5041,"ĠØ¢Ø±ÛģÛĮ":5042,"Ø¹Ø§ÙĦÙħÛĮ":5043,"ĠÙĨÙģØ³":5044,"ĠÙĤØ±Ø¶":5045,"ĠÙĦØ§Ø²ÙħÛĮ":5046,"ĠØ¨Ø§ÙĨÛĮ":5047,"ĠØ¬ÙĨÚ¯ÛĮ":5048,"ĠØ±ÛģÙĨÙħØ§Ø¦ÛĮ":5049,"Ø±Ø§Ùħ":5050,"ĠÙħØ¬Ø§ÛģØ¯":5051,"Ø¹Ø¨Ø¯Ø§ÙĦ":5052,"ĠÙħØ¹ØµÙĪÙħ":5053,"ÙĦØ§Ø¦ÛĮ":5054,"Ø¹Ùħ":5055,"ÙĨÛĮØ²":5056,"ĠÙĤØ³ÙħØªÛĮ":5057,"Ø§Ø¦Ø³ÙĨØ³":5058,"ĠÙ¹Ú¾Ú©":5059,"ĠØ¨Ø²Ø±":5060,"Ø§ÛĮÙģ":5061,"ĠÙĨÛĮÙĨØ¯":5062,"ĠØ®Ø²Ø§ÙĨÛĴ":5063,"Ø§Ø¯ÛĮØ§":5064,"ĠØ¨ÚĨÙĨÛĴ":5065,"ĠÙħÙĨØ²ÙĦ":5066,"ĠÙħØ§Øª":5067,"ÚĪÙĨ":5068,"ÙħÙĪØ¬ÙĪØ¯":5069,"Ø¶Ø±":5070,"ĠÚĪÛĮÙĪ":5071,"ĠÙħÚĨÚ¾":5072,"ĠÙ¾Ø³Øª":5073,"ĠØ®Ø¨Ø±Ø±Ø³Ø§Úº":5074,"ĠÙ¹Ø§Ø±":5075,"ĠÙĤØ§Ø³Ùħ":5076,"ĠØªØ±Ú©ÛĮ":5077,"ĠÚ©ÙħØ§ÙĨÚĪØ±":5078,"ĠÙħÙĪØ³ÙħÛĮØ§Øª":5079,"ĠÙ¾ÛĮØ¯Ø§Ø¦Ø´":5080,"Ø®Ø§ÙĨÛģ":5081,"Ø³Ø±Ú¯ÙĪØ¯Ú¾Ø§":5082,"ĠØ¬Úĳ":5083,"ĠÙħØ´Ø±ÙĪ":5084,"ĠÚĪÙĪ":5085,"ĠÙĤØ±Ø¶ÙĪÚº":5086,"Ø²Ø¨":5087,"Ú©ÛĮØ§Úº":5088,"ĠÚĨÚ¾ÙĪÙ¹ÛĮ":5089,"ĠØ³ØªÚ¾Ø±":5090,"ĠØ§Ú¯Ø±ÚĨÛģ":5091,"Ú©Ø¨":5092,"ĠÚ¯ÙĪÙĦÛĮ":5093,"ĠÛĮÙĪØ±Ù¾ÛĮ":5094,"ĠÙħÙĪØ¶ÙĪØ¹":5095,"Ø§Ú©Øª":5096,"ĠÛģÙĦØ§Ú©Øª":5097,"ĠØ±ÙĨ":5098,"ĠØ´Ø§Ø¹":5099,"Ø§ÙĪØª":5100,"ĠØºØ±Ø¶":5101,"ĠØ¨Ø¯ÙĦÛģ":5102,"ĠÙĤØ±Ø¨Ø§ÙĨÛĮÙĪÚº":5103,"Ġ:-":5104,"ĠÙĨÚ©Ø§ÙĦØ§":5105,"ĠØ¨ÛĮÚĨ":5106,"ĠÚĪÛĮÙĦ":5107,"Ø·Ûģ":5108,"Ø±Ú©Ø§Ø±":5109,"ĠÙĪÙģØ§Øª":5110,"ĠØ±Ø³Ø§ÙĦØª":5111,"Ø¬ÛĮØ³Ø§":5112,"ĠØ´Ø§Ø¦":5113,"ĠÙĪØ±Ú©Ø±Ø²":5114,"ĠØ¨ÛĮØ±ÙĪÙĨÛĮ":5115,"ĠÙĨÙĪØ§ØŃ":5116,"ÙģØ±Ø¯":5117,"Ø´ÙĪ":5118,"Ú¯Ø§Ø±ÛĮ":5119,"ÙħØ¸ÙģØ±":5120,"ĠÙ¾ÚĨÚ¾ÙĦÛĴ":5121,"ĠØ¨ÛĮØ¬":5122,"Ú¯ÛĮØ§":5123,"ĠØŃØ¨ÛĮØ¨":5124,"ĠÙĦØ§ØªÛĴ":5125,"ĠÚ¯Ø§Ùħ":5126,"ĠØ´ÙĪØ§ÛģØ¯":5127,"ĠØ§ÙĤØ³Ø§Ùħ":5128,"ĠØ¯ÙĦØ§ÛĮØ§":5129,"ÙĨØ§ÚĨÛģ":5130,"ĠØ¹Ø³Ú©Ø±ÛĮ":5131,"........":5132,"ĠÙĨØ²":5133,"ĠÚ¯ÙĪØ§Ø¯Ø±":5134,"ĠÙĨÛĮÙĪØ²ÛĮ":5135,"ØµÙĪØ¨ÛĴ":5136,"ĠÙĪØ¬ÙĪÛģØ§Øª":5137,"ĠØ§Ù¾ÙĨ":5138,"ĠØ´ÙĨØ§Ø®ØªÛĮ":5139,"ĠØŃØ§Ø¯Ø«Ø§Øª":5140,"ÙĪÚ©Ø±ÛĮ":5141,"ĠØ´Ø±ÛĮØ¹Øª":5142,"ĠÚ©Ø±Ùħ":5143,"ĠÙĦÛģØ±":5144,"ĠØ®Ø§Ú©":5145,"ĠÙĨÙĪÚ©Ø±ÛĮ":5146,"ĠØ¬Ø°Ø¨Ûģ":5147,"ĠØ³Ù¾ÙĦØ§Ø¦ÛĮ":5148,"ĠØ®Ø¨Ø±Ø¯Ø§Ø±":5149,"ĠÙģØ±ÙħØ§ØªØ§":5150,"ĠÚĨÛĮÙħØ¨Ø±":5151,"ĠÙ¾Ø±ÙĨØ³Ù¾ÙĦ":5152,"ĠØ·ÙĦØ§ÙĤ":5153,"ÙħÛģÙħ":5154,"Ġ48":5155,"Ú©Ø§Ø±ÛĮ":5156,"ĠÚ¯ÙĦÙĪ":5157,"ĠØ¨Ø±Ùģ":5158,"ĠØ¢Ø³Ø§ÙĨÛĮ":5159,"ĠÙħÛĮØ²Ø§Ø¦ÙĦ":5160,"Ø®ÛĮØ¨Ø±":5161,"ĠØ¨ÛĮÙ¹Ø§":5162,"ĠØŃØ§Ø±Ø«":5163,"ĠÙĪÚ©Ù¹ÛĮÚº":5164,"Ø´ÛĴ":5165,"ĠØ¸Ø§ÙĦÙħ":5166,"ĠÙĦÛĮØ¦ÛĴ":5167,"ĠâĢľÛĶ":5168,"Ø§ÙĦØ§":5169,"ĠÚĪØ§Ú©Ù¹Ø±ÙĪÚº":5170,"ĠØªØ±Ø¯ÛĮØ¯":5171,"ĠØ§Ø³Ú©ÙĪ":5172,"ĠØ¨ÚĳÚ¾ÙĨÛĴ":5173,"ĠÙĨØ°ÛĮØ±":5174,"ĠÙħÙĨØ¹":5175,"ĠØ±ÛĮØ³Ø±ÚĨ":5176,"ĠÚĪÙĪÙĨÙĦÚĪ":5177,"ĠÚĨØ§Ø±Ø¬":5178,"ĠÙ¹Ø±Ú©":5179,"ĠØ²ÛĮØ¯":5180,"ĠÙĦÚĳØ§Ø¦ÛĮ":5181,"ĠØ§ØªØŃØ§Ø¯ÛĮ":5182,"ĠØ±ÙĪØ³":5183,"ĠØ±ÙĪÙĦ":5184,"ĠØµØŃØ§Ø¨Ûģ":5185,"ĠÚĨØ§ÛģÛĮÚº":5186,"ĠØ§Ø³ØªØ¹ÙģÛĮ":5187,"Ø¶Ùħ":5188,"ĠØ¨Ø§ÙĨØ¯":5189,"ÛĮÚ©Ùħ":5190,"ĠØ²Ø¨ÛĮØ±":5191,"ĠÚ©ÙħÙ¾ÙĦ":5192,"ĠÙĤÙĪÙĨ":5193,"ĠØ¯ÛĮÙĪ":5194,"ĠÙħØ¸Ø§ÙĦÙħ":5195,"ĠØ§Ù´":5196,"ĠÙģØ·":5197,"ĠÛ³":5198,"ÚĪÛĮØ´ÙĦ":5199,"ÙħØ§ÛĮØ§":5200,"ĠÙ¾Ø§ÙĦÛĮØ³ÛĮÙĪÚº":5201,"ĠØ§ÙħØ§ÙĨ":5202,"ĠØ¹ÙĦÛĮØŃØ¯Ûģ":5203,"ĠÙħØ³ÛĮ":5204,"ĠØ´Ø§ÛĮØ¯":5205,"ĠÙħØ¯Ø§Ø±":5206,"ĠÛ¶Û":5207,"ĠÙħÛĮÙħÙĨ":5208,"ÙĪÛĮÙ¹Ø±":5209,"ĠØ¨Ú¾Ø§Ø¦ÛĮÙĪÚº":5210,"ĠØ³ÛĮÚ©ÙĨ":5211,"ĠØ³ÙĪØ¦":5212,"ØªØŃÙĤÛĮÙĤ":5213,"ĠÛģØ§Ø´ÙħÛĮ":5214,"ĠØ§ÙģØ²Ø§Ø¦ÛĮ":5215,"ĠÚĨÚ¾Ø§Ù¾Ûģ":5216,"Ø³Ø¹ÙĪØ¯ÛĮ":5217,"ĠØ§ÙĨÚĨØ§Ø±Ø¬":5218,"ĠØ²ÙĦØ²":5219,"ĠÙħÛĮÚ¯":5220,"ĠÛģØ§":5221,"Ø²Ø²":5222,"ĠØ¢Ø±Ø§Ùħ":5223,"ĠØªØŃÙģØ¸Ø§Øª":5224,"ĠÚĨÚ¾ÙĪÙ¹":5225,"ĠÚĪÛĮÚĳÚ¾":5226,"ĠØ³Ø±ÙĪÛĴ":5227,"ĠÙħÙĪØ±":5228,"ĠÙ¹Ú©":5229,"ĠÙĦÛĮØªØ§":5230,"ĠØ®Ø¨Ø±ÛĮÚº":5231,"ĠÙ¾Ø³ÙħØ§ÙĨ":5232,"ĠØ¹Ø¸ÙħÛĮ":5233,"ĠØ®Ù¹Ú©":5234,"ÙģÙĪÙĨ":5235,"Ø§ÛģÛĮÙĪØ§ÙĦ":5236,"Ø²ÛĮØ¨":5237,"Ø¬ÛĮØ¨":5238,"ÙĪÙħÙĨÙ¹":5239,"ĠÚ©Ø§Ø±Ø±ÙĪ":5240,"ĠÙħØ®ØªØµØ±":5241,"ĠÙĨØ§ÙħÛģ":5242,"ĠØ¨Ø§ÙĦØ®ØµÙĪØµ":5243,"ĠÚ©ÙħØ§Ø±":5244,"ĠØ§Ø³Ú©ÛĮÙħ":5245,"ĠÛģÙĪÙĦ":5246,"ĠØ¨Ø¯ØªØ±ÛĮÙĨ":5247,"ĠØ±Ø¹":5248,"ĠØ³ÛĮØ¯ÙĨØ§":5249,"ĠØ®Ø·Ø±Ø§Øª":5250,"ĠÙģØ³":5251,"ĠØ®Ø§ÙĦÙĤ":5252,"ÙĹ":5253,"ÚĨÙĪÛģØ¯Ø±ÛĮ":5254,"ĠÙħÙĨØµØ¨":5255,"Ø§ÙĦØ±":5256,"ĠÙĦØ§Ø¦Ø³ÙĨØ³":5257,"ĠÚ©ÛĮÙĨÙ¹":5258,"ÛĮØ¯Ø§Ø±":5259,"ĠØ¬ÛģØ§ÙĨÚ¯ÛĮØ±":5260,"ÛĮÚ©ÛĮØ´ÙĨ":5261,"ÙģØ§Ø±ÙħÛĮØ´ÙĨ":5262,"ĠØ¨ÙĨÙĪ":5263,"ĠÚ©Ø±Ø³Ú©ÛĴ":5264,"ĠÙĤÛĮØ¯ÛĮÙĪÚº":5265,"ĠÙ¾ÙĦØ§ÙĨÙ¹":5266,"ĠÙĨÙĪØ§Ø¨":5267,"ĠØ¨Ø§Ø·ÙĦ":5268,"ĠØ´ÛģØ±Øª":5269,"Ø±ÛĮÙĦÙĪ":5270,"Ġ2014":5271,"ÛĮÙĨÛĮÙ¹Ø±":5272,"Ø¬ÙħØ¹":5273,"ĠÙħØ·Ø§ÙĦØ¨Ø§Øª":5274,"ĠÛĮÚ©Ø¬ÛģØªÛĮ":5275,"ĠØŃØ§ÙħØ¯":5276,"Ġ44":5277,"ÙĪØ³Ûģ":5278,"Ø§ÙĦÛĮÚ©Ø´ÙĨ":5279,"ĠØ¯ÛĮÚ©Ú¾ÙĨØ§":5280,"ÙħÛĮÛģ":5281,"ĠÙĪÛĮØ²":5282,"ĠØµØ¯Ø§Ø±ØªÛĮ":5283,"ĠØ§ÛĮÙĪØ¨":5284,"ĠØ§ÙħØ¯Ø§Ø¯ÛĮ":5285,"ĠÙħØ°Ø§ÙĤ":5286,"ĠÙĤØ§Ø¨Ø¶":5287,"ĠØ¨Ø¯Ø±":5288,"ĠÙħÙĤØ§Ø¨ÙĦÙĪÚº":5289,"ĠØ°ÙĪØ§ÙĦÙģÙĤØ§Ø±":5290,"ĠØ§Ø·Ø±Ø§Ùģ":5291,"ĠÚ¯ÙħØ±Ø§Ûģ":5292,"ĠØªØ¹Ø¨ÛĮØ±":5293,"Ù¹Ú¾ÛĴ":5294,"ĠÙħÛĮÚĨÙĪÚº":5295,"Ø§ÚĳÛĮ":5296,"ĠØ³Ú©ÛĮÙħ":5297,"ĠÙĪØ§Ø¦":5298,"ÙħØ«":5299,"ĠÙĨØ§Ú©Ø§ÙħÛĮ":5300,"ØµØŃ":5301,"ĠÙģØ±Ø´ØªÛĴ":5302,"ÙĨÛĮÙģ":5303,"ÙħØ®Øª":5304,"ĠØªØ¹Ø²":5305,"ĠØ¬ÙħØ§Ø¹ØªÛĮÚº":5306,"ĠØŃÙģØ§Ø¸ØªÛĮ":5307,"ĠÙĪÛĮÙĦÙģÛĮØ¦Ø±":5308,"ĠÚ©Ø±Ø¯ÛĴ":5309,"ĠØ¹Ø§ÙħÛģ":5310,"ĠÙħÙĨØ§ÛĮØ§":5311,"ÙģÙĪØ±Ø³":5312,"ĠÚĪÛĮÙģ":5313,"ĠØ·ÙĦØ¨Ø§":5314,"ĠÙħÙĦØ§Ø²ÙħØª":5315,"ĠØ³ÙĦÛĮÙħØ§ÙĨ":5316,"ĠÙģÙĪØ±Ø§":5317,"ĠØªØŃÙĤÛĮÙĤØ§ØªÛĮ":5318,"ĠØ¬Ø§Ù¾Ø§ÙĨ":5319,"Ġ55":5320,"ĠÙ¾Ú¾ÛĮÙĨÚ©":5321,"Ø§ÙĦÙĪÚº":5322,"ĠØ¨ÛĮÚ¯Ùħ":5323,"ĠØ´Ø¨Ûģ":5324,"ĠÛģÚĳØªØ§ÙĦ":5325,"ĠÙģØª":5326,"ĠÚ¯Ø§Ø±":5327,"ĠÚ¯ÙĪÙĨ":5328,"ĠØªÚ¾Ø±ÛĮ":5329,"ĠÙ¾ÛģÚĨØ§ÙĨ":5330,"ÙĦØ§Ø¦ÙĨ":5331,"ĠØ´ÙĪÚ¯Ø±":5332,"ĠØ³ÛĮÙģÙ¹ÛĮ":5333,"ĠÙħØ¹Ø¯":5334,"ĠÙģØ±Ø´ØªÙĪÚº":5335,"ÙĨÚĪÛĴ":5336,"ĠØ¨Ø¹":5337,"Ø²Ø§Ø¯ÛĮ":5338,"Ġ|\"":5339,"ĠÚ¯ÙĨØ§ÛģÙĪÚº":5340,"ĠÚ©Ø§ÙħØ±Ø§ÙĨ":5341,"ĠÚ¯Ø±ÙĦ":5342,"Ø¶ÙĦØ¹":5343,"ĠÙ¾Ø±Ø³ØªÛĮ":5344,"ĠØºØµ":5345,"ĠÛĮØ§Ø³Ø±":5346,"Ú¯Ù¹":5347,"ĠÙģÙĦØ§":5348,"ĠÚ©Ú¾Ø±":5349,"ĠØ±ÙĪØ§ÛĮØ§Øª":5350,"Ġ39":5351,"ĠÙĪÙĪÙ¹ÙĪÚº":5352,"ĠØºØ°Ø§Ø¦ÛĮ":5353,"ĠÙħØªÙĨØ§Ø²":5354,"ĠØ¨ÛĮÙħØ§Ø±":5355,"ĠØ³ÛĮÙĨÛĮÙ¹":5356,"ĠÙ¾ÛģÙĨÚĨÛĮ":5357,"ĠØªÛĮØ³Ø±Ø§":5358,"ĠØ³ÙģØ§Ø±Ø´Ø§Øª":5359,"ĠÚĨÚ¾ÛĮÙĨ":5360,"Ø³Ø±ÛĮÙĨÚ¯Ø±":5361,"ĠÙĦØ·ÛĮÙģ":5362,"ĠÙ¹Ø§Ø¦":5363,"Ø§ÙģÙ¹":5364,"ĠÚ¯Ø§ÙħØ²ÙĨ":5365,"ĠÙĤØ³":5366,"ĠÙħÙĦØªØ§":5367,"ĠØ¯ÙĪØ³ØªÙĪÚº":5368,"Ø¯Ø§Ùģ":5369,"ĠØ¯Ø§Ø±ÛĮØ§Úº":5370,"ĠØ¨Ø±ÛĴ":5371,"ĠÙħØŃØ¨ÙĪØ¨":5372,"ĠÙ¹ÛĮÚ©ÙĨØ§ÙĦÙĪØ¬ÛĮ":5373,"ĠÚ¯ÛĮØ´ÙĨ":5374,"ĠØ´Ø§ÙħÛĮ":5375,"ĠÙĦØ¨Ø§Ø³":5376,"ÙĪØ§Úº":5377,"ĠÙĤÛĮØµØ±":5378,"Ġï·º":5379,"ĠØ¨Ø§Ø´":5380,"ĠÚĪÛĮÙĨ":5381,"ĠØ§Ú©Ø§Ø¤ÙĨÙ¹":5382,"Ù¾ÛĮÙ¾ÙĦØ²Ù¾Ø§Ø±Ù¹ÛĮ":5383,"ĠÙĪÙĨÚ¯":5384,"ĠÙĨØµÛĮØŃ":5385,"ĠØ·Ø§ÙĦØ¨Ø§ÙĨ":5386,"Ø§ÙħÙĪÚº":5387,"ĠØ³Ù¾ÛĮØ´ÙĦ":5388,")-":5389,"ĠØ§Ø³Ú©ÛĴ":5390,"ĠÚ©ÛĮØ±ÛĮ":5391,"Ø³ÛĮÙĦ":5392,"ØªØ±ÙĤÛĮ":5393,"ĠØ¯ÛĮØ¯ÛĮ":5394,"ĠØ±ÙĪØ§ÛĮØªÛĮ":5395,"ĠØ§Ø³ÛĮÚ©ÛĮ":5396,"ĠØ¯Ø±Ø¬ÙĨÙĪÚº":5397,"ĠØ¬ÛģÙĦÙħ":5398,"ĠÙĪØ¹Ø¯ÛĴ":5399,"ØªÛĮØ³":5400,"ĠØ±Ø§Ø³ØªÙĪÚº":5401,"ĠÙĨÛĮØª":5402,"ĠÙħÛģÙĦØª":5403,"ĠÙĪØ§Ø¯ÛĮ":5404,"ĠÛģØ²Ø§Ø±Ûģ":5405,"ĠÙħØªØŃØ¯":5406,"ÚĳÛĮØ§Úº":5407,"ĠÛģÛĮÙĦÛĮ":5408,"ØŃØ§ÙĦØ§ÙĨÚ©Ûģ":5409,"ĠÚ©ÙĪÛģØ§Ù¹":5410,"ĠÚ¯Ø±ÙĨÛĴ":5411,"Ø³Ø§ÙĨ":5412,"ĠÚ©ÙħÙ¾ÛĮÙĪÙ¹Ø±":5413,"ĠÛĮÙĤÛĮÙĨØ§":5414,"ĠÚ©ÛĮÙĦÛĮÛĴ":5415,"ĠÙĪÛĮÙĨ":5416,"ĠØ¨Ú¾ÛĮØ¬ÛĴ":5417,"ĠØ¢Ø±Ú¯ÙĨ":5418,"ĠØªØ±Ø¨ÛĮØªÛĮ":5419,"ĠØ¨ÙĦÚĪ":5420,"ĠÙħÛĮØª":5421,"ĠÙ¾ÙĨØ¬":5422,"ĠØ§ÛģØ¯Ø§Ùģ":5423,"ĠÚ©Ø§Ø±Ø±ÙĪØ§Ø¦ÛĮØ§Úº":5424,"ĠØ²ÛĮØ¨":5425,"Ø§Ø¯ÛĮØ«":5426,"ĠØ®Ø§Ø±Ø¬":5427,"ÙĦØ±":5428,"ĠØ¢ÙĦØ§Øª":5429,"ĠØ³ÙħØª":5430,"ĠØ±ØŃÛĮÙħ":5431,"Ø¯ÛĮØ±":5432,"Ø§Ø¦Ø²ÛĮØ´ÙĨ":5433,"ĠÙ¹Ú¾ÛģØ±":5434,"ĠØ§ÛĮÙĪÙĨ":5435,"Ø§Ø·Ø¨":5436,"Ú¾ÛĮÙĦ":5437,"ĠØ§ÙĦÙħØ¹":5438,"ĠÚĪØ§ÙĦÛĮ":5439,"Ø¯Ú¯Ø§Ø±":5440,"ĠÙĦØ§ÙĨØ§":5441,"ĠØ¢Ù¾Ø±ÛĮØ´ÙĨØ²":5442,"ÙĨØ¯ÛĴ":5443,"ĠØ¬Ø§ÙĨÙĨÛĴ":5444,"ĠÙħØ¹Ø§ÙĪ":5445,"ÛĮØ±ÛĴ":5446,"ÙĤÙĪÙħ":5447,"Ø¬ÛĮÙĦ":5448,"ĠØ±Ø¦ÛĮ":5449,"ĠÙ¾ÛĮØ´Ú©Ø´":5450,"ĠØ§Ø¹ÙĦØ§ÙħÛĮÛģ":5451,"Ø§ÙĦØ¨ØªÛģ":5452,"ĠÙ¹Ø§Ø³Ú©":5453,"ĠØ§ÙĨÙģØ§Ø±ÙħÛĮØ´ÙĨ":5454,"ĠØ¨ÛģØ§Ø¯Ø±":5455,"ÙĪØ¶":5456,"ĠÙĨØ§Ù¾":5457,"ĠØ§ÙĨÚĪØ±":5458,"ĠØ±ÛģÙĪ":5459,"ĠØ³ØªØ§Ø±":5460,"ĠØ§ÙĦÙĤØ±Ø¢ÙĨ":5461,"ĠÚ©Ø´ØªÛĮ":5462,"Ø§ÙĦÛĮÙģ":5463,"ĠØ³Ø±Ø¯":5464,"Ø¨ÛĮØ§ÙĨ":5465,"ĠØ¯Ø§Ø¹Ø´":5466,"ÙĨÙĪØ¬ÙĪ":5467,"Ø·Ø±Ùģ":5468,"ĠÙĨÚ©ÙĦÙĨÛĴ":5469,"Ú¾ÙĪ":5470,"ĠÙĨØ§Ø§ÛģÙĦ":5471,"Ø¯ÛģØ´Øª":5472,"ĠØ«ÙĪØ§Ø¨":5473,"ĠØ³ÛĮØ§Ûģ":5474,"ĠØªØ³ÙĦ":5475,"ĠØ¢Ø¬Ø§Ø¦ÛĴ":5476,"ĠØ®ÙĪØ§ÛģØ´Ø§Øª":5477,"ÛģÙĪÙħ":5478,"ĠÚĨÙĪØ±":5479,"ÙĪÙĦÛĮØ§ØªÛĮ":5480,"ĠØ§Ø³Ù¹Ø§Ùģ":5481,"ĠÙģØ±ÛĮÙĤÛĮÙĨ":5482,"ĠÙĨØ§Ø§ÛģÙĦÛĮ":5483,"ĠØ¬Ø±ÙħØ§ÙĨÛĴ":5484,"ĠØ§Ú©ÛĮÚĪ":5485,"ĠÚ©ÙĪØª":5486,"ĠÙĨØ´Ø§ÙĨÛĮ":5487,"ØŃÛĮØ¯Ø±":5488,"ĠÙģÙĦÛĮ":5489,"Ø·ÙĦØ¨":5490,"ĠØ§Ø¬Ø±":5491,"ÙĨÙĦ":5492,"ØºÛĮ":5493,"ĠÙħØ±Ø¶ÛĮ":5494,"ĠÙħØ§ÛĮÙĪØ³":5495,"Ø¨Ø§ÙĨÛĮ":5496,"ĠØ´Ø±Ø·":5497,"ĠØ¢ÙĦÙĪØ¯Ú¯ÛĮ":5498,"ĠØªØ®ÙĦÛĮ":5499,"ĠÙĨÙĪÙ¹ÛĮÙģÚ©ÛĮØ´ÙĨ":5500,"ĠØ´ÙģÛĮÙĤ":5501,"ĠØ§ÙħØ§Ø±Ø§Øª":5502,"ĠØ±ÛĮÙħØ§ÙĨÚĪ":5503,"ĠÙĦØ§Ø²Ùħ":5504,"ĠØ³Ø±Ù¹ÛĮÙģ":5505,"Ġ75":5506,"ĠØ§Ø®ØªÙĦØ§ÙģØ§Øª":5507,"ĠÙħØ³ÙĨØ¯":5508,"Ø·Ø¨ÛĮ":5509,"Ù¾Ø§Ø±":5510,"ĠØªÛĮØ§Ø±ÛĮØ§Úº":5511,"ÙĨØ¸Ø±":5512,"ÙħÛĮØ±ÛĴ":5513,"ĠÙħØºÙģØ±Øª":5514,"ĠÚ©Ø±Ø§Ø¦Ùħ":5515,"ĠØ´Ø§ÛģØ±Ø§Ûģ":5516,"ĠØºØ§Ø¦Ø¨":5517,"ĠÙĦØ§Ø¦ÛĮÙĪ":5518,"ĠØ¹ÙħØ¯Ûģ":5519,"Ø¯Ø±ÛĮÚº":5520,"ĠØ§ÙĨÙĪ":5521,"Ø¸Ûģ":5522,"ĠÚ¯Ø±ÚĪ":5523,"ĠÙħÙĦÛĮØ±":5524,"ĠÙĨØµÛĮØŃØª":5525,"ĠØ«ÙĤØ§ÙģØª":5526,"ĠØ¨Ø±ØªØ±ÛĮ":5527,"ĠÙĦØ¹":5528,"ĠØ§ÛĮÚĪÙħÙĨ":5529,"ĠØ³ÛĮÚ©ÙĨÚĪ":5530,"ĠÙĤØ¯ÛĮÙħ":5531,"ĠØºØ§Ø²ÛĮ":5532,"ÙĪÙĨÚĪ":5533,"ĠÙħØ±ØŃÙĦÛģ":5534,"Ø±ÙĪØ²":5535,"ÙĤÙĦÛĮ":5536,"ĠÙĦØº":5537,"ĠØ¬ÙĪÚĪÛĮØ´ÙĦ":5538,"Ø¸Ø§ÛģØ±":5539,"ĠØ§ØªÙĨÛĴ":5540,"ĠÚ¯ÛĮØ±":5541,"ĠØ®Ø±Ø§Ø¨ÛĮ":5542,"ÙĪØ²Ø§Ø±Øª":5543,"Ø§ÛģÛĴ":5544,"ĠØ§ÛĮØ´ÛĮØ§":5545,"ĠØ§Ø³Ù¹Ø§Ø±":5546,"ĠÙħØªØŃØ±Ú©":5547,"ĠØ±Ø§ØŃ":5548,"ĠÙĤØ§Ø¯Ø±ÛĮ":5549,"ĠÙ¾Ø³ÙĨØ¯ÛĮ":5550,"ĠÙĪØ§Ú©":5551,"ĠÙĪØ§Ø¬Ø¨":5552,"ĠÙģÙĨØ§ÙĨØ³":5553,"ĠÙģØ§Øµ":5554,"Ġ43":5555,"ĠØ¬Ø¨Ø±":5556,"ĠÙħÙĨØ´ÙĪØ±":5557,"ĠÙĨØ¸Ø±ÛĮÛģ":5558,"ĠÚ©Ø±ÛĮÚ©":5559,"ĠÚ©ÙħØ±Ø´ÙĦ":5560,"ĠÚ¯ÙĨØ¬Ø§Ø¦Ø´":5561,"Ø´Ø§Ø±":5562,"ĠÚ¯Ú¾Ø±ÛĮÙĦÙĪ":5563,"ĠØ¬Ø°Ø¨Ø§Øª":5564,"Ú¯ÛĮØ±":5565,"ĠØ§ÙģØ±ÛĮÙĤ":5566,"ĠØ¬ÙħØ§ÙĦ":5567,"Ø³ØªØ§":5568,"ĠØ±Ø§Ø²":5569,"ĠØ´Ø¨ÛĮØ±":5570,"ØªØ§Ø¨":5571,"ØŃÙĤÛĮ":5572,"Ú¯Ø±Ûģ":5573,"ĠÛĮØ±":5574,"Ġ65":5575,"ĠÙĪØ¹":5576,"ĠØ¨ÙĦÛĮÚ©":5577,"ÛĮØ¨Øª":5578,"ĠØ§ÙĦØ·Ø§Ùģ":5579,"ĠØ§Ø´ØªÛģØ§Ø±":5580,"ĠØ±ÛĮØ§Ø³ØªÛĮ":5581,"ĠØ¯Ú©":5582,"ĠØ¬Ø§ÙĨÚĨ":5583,"Ø§ÙĤØ§ÙĨ":5584,"ĠÚĨØ§ÛģØ¦ÛĮÚº":5585,"ĠÚĪÙĪØ¨":5586,"ĠÙĨØ´Ø±ÛĮ":5587,"ĠØ´Ø§Ø¯":5588,"ĠØ¢ÙģØªØ§Ø¨":5589,"ĠØ²Ú©ÙĪÛĥ":5590,"ĠØ¯Ø¹ÙĪÛĴ":5591,"ĠÚĨÙħÚ©":5592,"ĠØªØ°":5593,"ĠØŃÙĪØ«":5594,"ĠØ¯ÙĪÙ¾":5595,"ĠØ®Ø§ÙħÙĪØ´":5596,"ĠØ¨ÙĨÚĨ":5597,"ĠØ³ÙħÙĨØ¯":5598,"ĠØ§ÙĨÚĪÛĮØ²":5599,"ĠØ§ÙĨÙĪØ§Ø±":5600,"Ġ1122":5601,"ĠØ¬Ø§Ø±ØŃ":5602,"ĠØ³ÛĮÙħÛĮ":5603,"Ø´Ø§Ù¾":5604,"ĠØ®Ø±Ùħ":5605,"ĠØ§ØŃØ§Ø¯ÛĮØ«":5606,"ĠÚ©ÙĨÙĪ":5607,"ÙĨÚ¯Ø§":5608,"ĠØ¢ØªØ´":5609,"ÙĪÙĦØ±":5610,"ĠÙĨÙħØ§Ø¦ÙĨØ¯Ûģ":5611,"ØĲ":5612,"ĠÙ¾Ø±ÙĪØ±Ø¯Ú¯Ø§Ø±":5613,"ĠÚĨØ´":5614,"ĠÚ¯Ú¾ÛĮ":5615,"ÙĪÚĳÛĮ":5616,"ĠØ¯Ø±Ø®ÙĪØ§Ø³ØªÛĮÚº":5617,"ĠÙĨØµÛĮØ¨":5618,"ĠÙĤÙĪØªÙĪÚº":5619,"ĠÙħØ´Ø±ÙĤÛĮ":5620,"ĠÙ¹ÛĮÙĦ":5621,"ĠØ²ÛģØ±ÛĮ":5622,"ÙĪÙĨØ§":5623,"Ø¯ÙĪØ±":5624,"ĠØ³ÛĮØ±":5625,"ĠÚĨÙĦÛĮ":5626,"ĠØ§Ø¬ØªÙħØ§Ø¹ÛĮ":5627,"Ú©ÙĪÚº":5628,"Ø§Ú©Ø§":5629,"ĠÙħØ§Ø±Ø§":5630,"ÙĪØ§ÙĤ":5631,"ĠØµØ¯ÛĮÙĤ":5632,"ĠÙĨÙĪØŃ":5633,"ĠØ§Ø³Ú©ÙĪÙĦÙĪÚº":5634,"ĠÚ©ÙĪØ±ÙĨÚ¯ÛĮ":5635,"ĠØ¢Ø³ÙħØ§ÙĨÙĪÚº":5636,"ĠØ¸Ûģ":5637,"ĠØ§ÛĮØ¨Ù¹":5638,"ĠØ±ÛĮÙ¹Ø±":5639,"Ø¨Ø±Ø·Ø§ÙĨÙĪÛĮ":5640,"ĠÙħÙĨÙĤ":5641,"ĠØ§Ú©Ø§Ø¤ÙĨÙ¹Ø³":5642,"ĠÙĨÛĮÚ©ÛĮ":5643,"ĠÚĨØ¦ÛĮØ±":5644,"ĠØ¬ÛĮØªÙĨÛĴ":5645,"ĠÙħÙĨØ§ÙĨÛĴ":5646,"ĠÙĦÛĮÚ©":5647,"ĠÙĨØµÛĮØ±":5648,"ĠØ¢ÙħØ¯ÙĨ":5649,"ĠÙĨÙģØ§Ø°":5650,"ĠÙ¾Ø±ÚĨÙħ":5651,"ĠÚĨÛĮÙħÙ¾Ø¦ÙĨ":5652,"Ú©Ø§Ùħ":5653,"ĠØ§ÛĮØ±ÛĮØ§":5654,"ĠØ§ÙĨØ´Ø§Ø¡":5655,"ĠØ¢ÙħØ¯ÙĨÛĮ":5656,"Ø¹Ø²ÛĮØ²":5657,"ĠØ¢ØºØ§":5658,"ĠØ·ÛĮØ¨":5659,"ĠÚ©ÙĦÛĮÙĨ":5660,"ĠØ§ØŃØªÛĮ":5661,"ĠØªÚ¾Ø±":5662,"ĠØ³Ø±Ø®":5663,"ĠÚĨÛĮÙĨÙĦ":5664,"ĠØ±Ø§":5665,"ĠØªÙĦØ§Ø´ÛĮ":5666,"ÙģØ³Ø§Ø±":5667,"Ø¯ÛĴ":5668,"ĠØ±ÛĮØ²":5669,"ĠÙĦÛģØ°Ø§":5670,"ĠÙħØ§ÙĦÛĮØ§ØªÛĮ":5671,"ĠØ§Ú©Ú¾":5672,"ĠØ´ÛĮÙĦ":5673,"ĠÙģÛĮØµÙĦÙĪÚº":5674,"ĠÚ©Ø±ÙĨÙĦ":5675,"Ø¨ÙĪØ±ÚĪ":5676,"ĠØ±ÛĮÚĪ":5677,"ĠÚ©ÛĮÙĦ":5678,"Ø§ÙģØªÛĮ":5679,"Ġ47":5680,"ĠÙ¾ÛĮØ±Ø§":5681,"ÚĨÛĮÙħ":5682,"ĠØªÛĮØ³":5683,"ĠØ®Ø¨Ø±ÙĪÚº":5684,"ĠØŃÙħØ²Ûģ":5685,"ĠÙħØ®Ø§Ø·Ø¨":5686,"ĠØ±Ø²ÙĤ":5687,"ĠØ°Ø®Ø§Ø¦Ø±":5688,"ĠÙħÛĮØ²Ø¨Ø§ÙĨ":5689,"Ù¹ÛĮØ¬":5690,"ĠÙĤÙĦÙħ":5691,"ĠÚ¯Ø§Ø¤Úº":5692,"Ø£":5693,"ĠØ¬Ø¹":5694,"ĠØ´Ø±Ø§Ú©Øª":5695,"ÙĨÛĮØ¯":5696,"ĠØ¹Ø¸ÙħØª":5697,"ĠØ¯Ø±Ø§ÙĨÛĮ":5698,"Ġ46":5699,"ĠØ±ÛĮÙĦÙĪÛĴ":5700,"ĠØ¬Ú¾ÙĪÙ¹ÛĴ":5701,"ĠØ¨Ø¯Ø¹ÙĨÙĪØ§ÙĨÛĮ":5702,"Ø§Ø²Ø§Úº":5703,"ĠÛģÙĪÙ¹ÙĦ":5704,"ĠÙħØ¹Ø²Ø²":5705,"ĠØ§ÙĨÚ¯ÛĮØ²":5706,"ĠÙħØ¯Ø¯Ú¯Ø§Ø±":5707,"ĠÛĮÚ©Ø³Ø§Úº":5708,"ĠÙ¹ÙĪÛĮÙ¹Ø±":5709,"ĠÙħÙĦØªÛĴ":5710,"Ù¾ÛĴ":5711,"ÙħÙĦØªØ§ÙĨ":5712,"ĠØ¬ÙĪØ§ÙĨ":5713,"ĠØ§Ø³ØªÙģØ³Ø§Ø±":5714,"ĠÙĨÚ©ÙĦÛĴ":5715,"ĠØ§ÛĮÙ¹":5716,"ÚĳÙĨÛĴ":5717,"ĠÙ¾Ø±ÙĪÙģ":5718,"ĠÛ´":5719,"ĠØ³Ø§Ø±Ø§":5720,"Ú©Ø²Ø¦ÛĮ":5721,"Ø¹ÙĤÙĪØ¨":5722,"Ø±ÛĮØ§Ø¶":5723,"ĠØ¯ÛĮÚ©Ø±":5724,"ØªÙģ":5725,"Ø±ÙĪØª":5726,"ÙĦÙĪÚ¯ÙĪÚº":5727,"ĠØ¢Ø¦ÙĨØ¯":5728,"ĠØ®ÛĮÙĦ":5729,"ĠÚĪØ¨ÙĦ":5730,"ĠØ±Ø¬Ø³Ù¹Ø±ÚĪ":5731,"ĠÙ¹Ú¾ÙĪØ³":5732,"ĠÙĨØ§ÙħÙĪØ±":5733,"ĠÙħÙĦØ§Ø²Ùħ":5734,"ĠÚ©ÙĪØ±Ø³":5735,"ĠØ§ØµØºØ±":5736,"ĠÙ¹ÛĮÙĪÙ¹":5737,"ĠÙ¾Ø±ÙģØ§Ø±Ùħ":5738,"ĠØ§Ú©Ø§Ø¦ÙĪÙĨ":5739,"Ø§ÙģØ³Ø±Ø§ÙĨ":5740,"ĠØ¯Ø±Ú©Ø§Ø±":5741,"ĠÚ¯ÛĮÙĦØ§ÙĨÛĮ":5742,"Ø´ÛģØ±Ûģ":5743,"ĠØ¬ÙĦØ¯ÛĮ":5744,"ĠØ¹Ø¨Ø¯Ø§ÙĦØ±ØŃ":5745,"ĠÙħØ¸Ø§ÛģØ±ÛĴ":5746,"ĠØ¬ÛĮÚ©":5747,"ĠÚ©Ø§Ø±ÙĪØ¨Ø§Ø±":5748,"ĠØ§Ø´ØªÛģØ§Ø±ÛĮ":5749,"ĠØªÚ¾Ø§ÙĨÛĴ":5750,"ĠØºØ±":5751,"ĠÙħÙĨÛĮØ±":5752,"ĠØ¬Ø§Ø³":5753,"ĠÙĤØ§Ø¦Ø¯ÛĮÙĨ":5754,"ĠØ¨ÛģØ§ÙĪÙĦ":5755,"Ø³Ø±Ú©Ø§Ø±ÛĮ":5756,"ØŃØ§ØµÙĦ":5757,"ĠÙĨØ§Ø¯":5758,"ĠØ¢ÙĨÚ©Ú¾ÛĮÚº":5759,"ĠØ§ÙħØªØŃØ§ÙĨØ§Øª":5760,"ĠÚ©Ø±ÙĨØ³ÛĮ":5761,"ĠØªØŃØ±ÛĮØ±ÛĮ":5762,"Ġ197":5763,"ĠØ§ÙĨÙ¹Ø±ÙĨÛĮÙ¹":5764,"ĠÙ¹Ø§Ø±Ú¯Ù¹":5765,"ĠÚĨØ§ÙĦÛĮØ³":5766,"ĠØ¨Ø§Ø¬ÙĪÛģ":5767,"ĠÙ¹ÙĪØ¦ÙĨ":5768,"ĠÛģØªÚ¾ÛĮØ§Ø±":5769,"ĠÙĪØ§Ø±Ø¯Ø§ØªÙĪÚº":5770,"Ú©ÙħÛĮÙ¹ÛĮ":5771,"ĠÚ©Ø±Ø³":5772,"ĠÚ©ÙĨÚ¯":5773,"ĠÛģÙĪÙħ":5774,"ÙĦÛĮØª":5775,"ĠØ¨ØªØ§Ø¦ÛĮÚº":5776,"Ø´Ú©Ø±":5777,"Ø®ÙĪØ§ØªÛĮÙĨ":5778,"ĠØ§ÙĦØµ":5779,"ĠÙħÙģÛģÙĪÙħ":5780,"ĠØ³Ø±Ø§Ø¬":5781,"ĠÙħÙĨÙģØ±Ø¯":5782,"ĠØŃÛĮØ±Øª":5783,"ĠØ·ÙĪÙģ":5784,"ĠÚ©ÙĪØ´Ø§Úº":5785,"ĠØ³Ø§Ø¬Ø¯":5786,"Ø¨Ø±ÙĪ":5787,"ĠÙĨÙģØ±Øª":5788,"ĠÚĨÛĮÙħÛģ":5789,"ĠÙħÙĨØªÙĤÙĦÛĮ":5790,"ĠÙĨÚ¯Ø±Ø§Úº":5791,"ĠØ¨Ø±Ø³ÙĪÚº":5792,"ĠØ³Ø±Ø²ÙħÛĮÙĨ":5793,"ĠØ¹ÛģØ¯Ûģ":5794,"ĠØ¯Ú¾Ø±ÙĨÛĴ":5795,"ĠÙħÙĨØµÙĪØ±":5796,"ĠÙĪÙĦØ§":5797,"ĠØ¨Ø³ØªÛĮ":5798,"ĠÚ©ÙĪÙĦ":5799,"ĠØŃØ¨":5800,"ÙħÚ©":5801,"Ø¨ÛģØª":5802,"ĠØ§ÙĦÚ©":5803,"Ø³ÙĦÙħØ§ÙĨ":5804,"Ø³Ø±Øª":5805,"Ø§ÙħÛĴ":5806,"ĠÚ©ÙĦÚĨØ±":5807,"ĠØ¹Ø§Ø±Ø¶ÛĮ":5808,"ĠÙħØŃÙĦ":5809,"ĠÙħÙĤØªÙĪÙĦ":5810,"ĠØ´Ø§Ø¦ÙĤÛĮÙĨ":5811,"ĠP":5812,"ĠØ§Ø³ØªÙģ":5813,"Ø¨Ø§Ø¯ÙĦ":5814,"Ø¦ÛĮÙĨ":5815,"ĠÙħÛĮÚ©":5816,"ĠÙĦÚĳÚ©ÛĮÙĪÚº":5817,"ĠÙĪØµÙĪÙĦÛĮ":5818,"Ú¯Ú¾":5819,"ĠÚ©Ø§Ø´ØªÚ©Ø§Ø±":5820,"ĠØ§ØŃØªÛĮØ§Ø·":5821,"ĠÙĦØ§ØŃÙĤ":5822,"Ø¹Ú©Ø³":5823,"ĠØªØ±Ø¬ÛĮØŃØ§Øª":5824,"ĠA":5825,"ĠÙ¾ÛĮØ±ÙĪÛĮ":5826,"ĠØ³Ø¬Ø§Ø¯":5827,"ĠÚ©ÙħÙ¾ÙĦÛĮÚ©Ø³":5828,"ĠØŃØ²Ø¨":5829,"ĠÚ©Ø±ÙĪØ§Ø¦ÛĴ":5830,"ĠØ¨Ø§Ø±Ø´ÙĪÚº":5831,"ĠÙĨØ§ÙħÙĪÚº":5832,"Ø²Ø§Ø±":5833,"ĠÛĮÙĨ":5834,"ĠÛ·Û":5835,"ĠÙ¾Ø±ÙĪØ¬":5836,"ĠÙ¾Ø§Ø³Ù¾ÙĪØ±Ù¹":5837,"ĠÙ¾Ø±Ø§Ù¾":5838,"ĠÚ©Ø§ÙĦØ¬Ø²":5839,"ĠØ¹Ø±Ø¶":5840,"ĠÙĨÙĪØ§Ø²Ø§":5841,"ĠÙĪØ±Ú©Ø´Ø§Ù¾":5842,"ÙĪØ´ÛĮ":5843,"ĠÙĦÛĮØ³":5844,"ĠÚ©ÙħØ±ÛĴ":5845,"Ø´ÛĮØ¦Ø±":5846,"ĠØ³ÙĪÙħ":5847,"Ø§Ø±ÛĮÛģ":5848,"Ø´Ø§Øª":5849,"ĠØ®ÙĪØ±Ø´ÛĮØ¯":5850,"Ø¶Ø¨":5851,"ÙĦÙĤÛģ":5852,"ĠØ§ÙĨÙĤÙĦØ§Ø¨":5853,"Ø¦ÙĪÚº":5854,"ÙĦÛĮÙĪÚº":5855,"ĠØ¹Ø§Ø¯Øª":5856,"ÛĮØ²":5857,"ĠÙħØ®ØªØ§Ø±":5858,"ĠØ¨ÛĮÙĦÙ¹":5859,"ĠÙħØµØ±":5860,"ĠÙĨÙĤØ§Ø¨":5861,"Ø¨ØªØ§":5862,"ĠØ§ÙĨÙĪÛĮ":5863,"ĠØŃÚ©ÛĮÙħ":5864,"ĠÙĪØ§Ø¦Ø±ÙĦ":5865,"ĠÚ¯ÙĪØ¬Ø±Ø§ÙĨÙĪØ§ÙĦÛģ":5866,"ÚĨÛĮÙĨ":5867,"ĠØ¯ÛĮÚ©Ú¾ÛĮ":5868,"ĠØ³ÙģØ§Ø±ØªÛĮ":5869,"ÙĪÙĨÛĮÙĪØ±Ø³Ù¹ÛĮ":5870,"ĠØ¨Ø§Ø¤":5871,"ĠÙħØ§Ø¦ÛĮÚ©":5872,"ÙĤÛĴ":5873,"ĠÚ¯ÙĪÙĦÛĮØ§Úº":5874,"ĠÙħØµÛĮØ¨Øª":5875,"ĠØ¨Ø¬Ù¹":5876,"ĠØªØ¹Ø²ÛĮØª":5877,"ĠØ§ØµÙĪÙĦÙĪÚº":5878,"ĠÙĦÛĮÙĨ":5879,"ĠÚ©Ù¾Ø§Ø³":5880,"ĠØ³Ù¾Ø±Ø¯":5881,"ĠØ´Ú©ÛĮÙĦ":5882,"ĠØºØ°Ø§":5883,"ĠÚ©Ù¾ÚĳÛĴ":5884,"ĠÙħØ§ØŃÙĪÙĦÛĮØ§ØªÛĮ":5885,"ĠÙĪØ±ÙĨÛģ":5886,"Ø§ÙĨÛģÙĪ":5887,"Ø¯Ø¨Ø¦ÛĮ":5888,"ĠØ¬Ú¾Ù¹":5889,"ĠÚ©ÙĦÙĪÚ¯Ø±Ø§Ùħ":5890,"Ù¾ÙĨÛĮØ§Úº":5891,"Ø¬Ø§Ø±ÛĮ":5892,"Ġ198":5893,"ĠÚ¯ÛģØ±":5894,"ĠÙĪØ§Ø±Ø«":5895,"ĠØ´ÙĪÙĤ":5896,"ĠØ§ÙĨØ¯Ú¾ÛĮ":5897,"ĠÙ¹ÙĪØ¦ÙĨÙ¹ÛĮ":5898,"ĠÛĮØ§Ø³ÛĮÙĨ":5899,"ĠØ®ØµÙĪØµØ§":5900,"Ø¨ÙĦØ§":5901,"ØŃØ§Ø¯Ø«":5902,"ÚĳÚ¾ÛĮ":5903,"ĠØ§ÙĪØ³Ø·":5904,"ĠÙħØŃØ³ÙĨ":5905,"ĠÚĪØ±Ø§ÙħÛģ":5906,"ĠÙħÙĪÛĮ":5907,"ĠØ¯Ø±Ø§Ø²":5908,"ĠÙĨØ§Ø®":5909,"ĠÛģÛĮØ±ÙĪ":5910,"ĠØ±Ø¬ØŃØ§ÙĨ":5911,"ĠÛĮØ¹ÙĤÙĪØ¨":5912,"ĠÚĨÚ¾Ø§Ù¾ÛĴ":5913,"ĠØ§Ù¹Ú©":5914,"ĠÙ¾ØªØ§":5915,"ĠØ¢Ø±ÚĪØ±":5916,"ĠÚ©Ø§Ù¾Ù¹Ø±":5917,"ĠØ¯ÛĮÚ©Ú¾ÛĴ":5918,"ĠÙ¾Ø³ØªÙĪÙĦ":5919,"ĠØªØ±Ø¬ÙħÛģ":5920,"ĠØ³Ø²Ø§Ø¦ÛĴ":5921,"ĠØ¨Ø±Ø¹Ú©Ø³":5922,"ĠØ¬ØªÙĨÛĮ":5923,"ĠÙħØ³ÛĮØŃ":5924,"Ø³ÙĨÚ¯":5925,"Ø³ÛĮØ§Ø³ÛĮ":5926,"ĠÚ©ÛĮÙħÙ¾Ø³":5927,"ĠÚĨÚ¾ÙĪÚĳÙĨÛĴ":5928,"ĠÚĨÛĮÙĦÙĨØ¬Ø²":5929,"Ø§Ø¯Ø§Ú©Ø§Ø±Ûģ":5930,"ĠÙģØ¶Ø§":5931,"Ø§Ø¦Ù¹Ø³":5932,"ĠÚ¯Ø§Ø¦ÙĪÚº":5933,"ĠØ§ÛĮØ¬ÙĨÚĪÛĴ":5934,"ĠØ¹Ø§ØµÙħ":5935,"ĠÙħÙĤØ¯Ø³":5936,"ĠÙĨÙĪØ§ØŃÛĮ":5937,"ĠÛĮÙĪØªÚ¾":5938,"Ø§ÙħÛĮÙĨ":5939,"ĠÙħØ±Ø¨":5940,"ĠØŃØµÙĪÚº":5941,"ĠÙ¾ÚĳÚ¾ÙĨÛĴ":5942,"ĠÛģØ¬Ø±Øª":5943,"ØµÛĮØ¨":5944,"ĠÙħÙĦÛĮÚº":5945,"Ø§ÛģØªÙħØ§Ùħ":5946,"ĠØ³Ú©ÙĪØ±":5947,"ĠÙģÙĦØ§ØŃÛĮ":5948,"ĠÙ¾Ø³ÙĨØ¯ÙĪÚº":5949,"ĠØ®Ø§":5950,"ÙħÙĤØ§ÙħÛĮ":5951,"ĠÚ¯ÚĳÚ¾":5952,"ÚĨÙĨØ§ÚĨÛģ":5953,"ĠØ¹Ø§Ø¯ÙĦ":5954,"ÙĪÙħØ§":5955,"ĠØ³ÙĨØ¬ÛĮØ¯Ûģ":5956,"ĠØ´Ø§Ù¾":5957,"ĠÙħÙĨÛĮØ¬Ø±":5958,"Ù¹Ø±Ú©ÚĨØ±":5959,"Ø§ÙģØºØ§ÙĨ":5960,"Ø¯ÙĪØ³Ø±ÛĴ":5961,"ÙĦØ§Ú©":5962,"ĠÙĪÙ¹":5963,"ĠØ¯Ø±ÛģÙħ":5964,"Ø³Ø±Ø¯Ø§Ø±":5965,"Ù¾Ù¹":5966,"ĠÙħØ´Ú©ÙĪÚ©":5967,"ĠØ¹Ø±ÙĪ":5968,"ĠØ§Ø³ØªØº":5969,"Ø¬ÙĨØ±ÙĦ":5970,"ĠØ§Ø³Ø§Úº":5971,"ĠØ§Ø±Ø³Ø§ÙĦ":5972,"ĠÙĦÛĮØ¨Ø±":5973,"ĠÙģÙĪØ¬ÛĮÙĪÚº":5974,"ĠÙĤØ±Ø¶ÛĴ":5975,"ĠÙģÙĪØ§Ø¦Ø¯":5976,"ĠÙĪØ§Ø¦Ø±":5977,"Ú©Ø§ÙĦ":5978,"ÙĨØ¯Ú¯Ø§ÙĨ":5979,"ĠÙĦÚ¯Ø§Ø¦ÛĮÚº":5980,"Ø§Ø¢":5981,"ĠÙ¾Ø§Ùħ":5982,"ĠÙģØ¹ÙĦ":5983,"ĠØ¨ÙĨØªØ§":5984,"Ø§Ø²ÙħÛĮÙĨ":5985,"ĠÚĪØ§ÙĦØ±Ø²":5986,"ĠØ§Ø¯Ø§Ú©Ø§Ø±ÛĮ":5987,"ĠØ¨Ø±Ø§ÙĨÚĨ":5988,"ĠÙ¹Ø±Ø§Ø¦ÙĦ":5989,"ÙħÛĮÙĨÛģ":5990,"ĠØ³Ú©ÙĪÙĨ":5991,"ĠØ§ÙĦØ³":5992,"ĠØªÙĨÙĪÛĮØ±":5993,"Ø§Ø³Ù¾":5994,"Ùĸ":5995,"ÙĤØ±ÛĮØ¨":5996,"ĠØ¨ÙĨØªÛĮ":5997,"ÙģÙĪØ±":5998,"ĠØŃØ§ÙĦØ§ÙĨÚ©Ûģ":5999,"Ø´ÛģØ¨Ø§Ø²":6000,"ØŃÙĤÛĮÙĤØª":6001,"ĠØ¯Ø§Ø¦Ø±Ûģ":6002,"ĠÙĦÛĮÙģ":6003,"ĠØ¨ÙĪØª":6004,"ÙĨÙĪØ§ÙĨ":6005,"ĠØµÙĦ":6006,"ÛĮÙĨÙ¹":6007,"ĠØªØ±Ø¬ÛĮØŃÛĮ":6008,"ĠÛģÙĪØ§Ø¦ÛĮ":6009,"ĠØ§Ø³ØªÙģØ§Ø¯Ûģ":6010,"Ø§ÙĨØµØ§Ùģ":6011,"ĠÚĨÚ¾Øª":6012,"Ø§Ú©ÙĨÚĪ":6013,"ĠØ¯Ø±ÛĮØ§Ø¦ÛĴ":6014,"ĠÙĪØ±Ø²":6015,"ĠØ¬ÙħÛģÙĪØ±ÛĮØª":6016,"ÙģÛĮØ¹":6017,"ĠS":6018,"ĠØªØ§Ø¦ÛĮ":6019,"ĠØªÙĦØ§":6020,"ĠØ³Ø¬Ø¯Ûģ":6021,"Ġ63":6022,"ØŃØ±":6023,"ĠÙħØ§ÛģÛĮ":6024,"ĠÙħØªØ¨Ø§Ø¯ÙĦ":6025,"ĠØ¬Ø°Ø¨ÛĴ":6026,"ĠØ¢Ø±ÛģØ§":6027,"ĠØªØ¹ÙħÛĮØ±Ø§Øª":6028,"ĠØ¬ÛĮÙĦÙĪÚº":6029,"ĠÚ©Ø§Ú©Úĳ":6030,"Ø±ÛĮØ§Úº":6031,"ĠÙħØ²Ø¯ÙĪØ±":6032,"ÙĨØ§Ø¯":6033,"ĠÙħÙĦØŃ":6034,"ĠÙĨØµÙģ":6035,"ĠÙģÛĮØ¶":6036,"ĠØ¨Ú¾Ú¯Øª":6037,"ÙĤØ§ÙĨÙĪÙĨ":6038,"ĠØ®Ø§ÙĨØ¯Ø§ÙĨÙĪÚº":6039,"ĠÙħØ³Ø§Ø¬Ø¯":6040,"ĠÚĪØ§ÙĦÛĴ":6041,"Ġ500":6042,"ĠØªØ±ØªÛĮØ¨":6043,"ĠÚ¯ÙĨØ§":6044,"ĠÙĦØ§ÚĳÚ©Ø§ÙĨÛģ":6045,"ĠÙħØ±ØªØ¶ÛĮ":6046,"Ġ)ØĮ":6047,"ĠØ°Ø±Ø§":6048,"ĠØ¯Ú©Ú¾Ø§ÙĨÛĴ":6049,"ĠÚĪÙĪÛĮÚĺÙĨÙĦ":6050,"ĠØ·ÛĮØ§Ø±Ûģ":6051,"ĠÙ¹ÛĮÚ©Ø³Ù¹":6052,"ĠØ±ØŃÙħØ§ÙĨ":6053,"ĠÙĨØ³ÛĮÙħ":6054,"ĠØ¢Ø±Ù¹ÛĮÚ©ÙĦ":6055,"ĠØ®Ø§ÙĤØ§ÙĨ":6056,"ĠØ¹Ø¨Ø±":6057,"ĠÚ©Ø³Ø§ÙĨÙĪÚº":6058,"ĠÙģØ§Ø±Øº":6059,"ĠÙħØ´ÙĤ":6060,"ĠØªÙģØªÛĮØ´ÛĮ":6061,"ÙĪÙĨÙĦ":6062,"ĠØ³ÛĮØ§ÙĦÚ©ÙĪÙ¹":6063,"ĠÙ¾Ø±Ø¯Ûģ":6064,"ĠØ´ÙħØ§Ø±ÛĮ":6065,"ĠÚ©ÙħÙ¾ÙĨÛĮØ§Úº":6066,"ĠØ§ÙĦØ´":6067,"ĠØ¨ÚĨÚ¾":6068,"ĠÙħÙħÙĨ":6069,"Ø¨Ø±ÛĮ":6070,"ĠÙħØ²Ø¯ÙĪØ±ÙĪÚº":6071,"Ú¯Ø°":6072,"Ġ62":6073,"ĠØ³Ø§Ø¦ÙĨ":6074,"ĠØ²Ø¯Ûģ":6075,"ĠØ°ÛģÙĨ":6076,"ÙĪÙ¹ÙĪ":6077,"ĠÙĤÙĪÙĨØµÙĦ":6078,"ĠÙĨØ¸ÛĮØ±":6079,"ĠØªÛĮØ±ÛĴ":6080,"ĠÙĪØ§ÙħØ§ÙĨ":6081,"ÚĨÙĪÚº":6082,"Ø¨ÙĦÙĪÚĨ":6083,"Ø·Ø±ÙģÛģ":6084,"ĠØªÙĦÛĴ":6085,"ÙģÛĮØ¯":6086,"ĠØ¶Ø¨Ø·":6087,"Ġ64":6088,"ĠÛ¸Û":6089,"ĠØ±Ø§ØŃÛĮÙĦ":6090,"ĠÙĦÙĤ":6091,"ĠÛĮØªÛĮ":6092,"ÛĮÙĤ":6093,"ĠØ¨Ø¯ÙĨ":6094,"ĠØ®ÙĪØ±Ø¯":6095,"ĠÚ©ÚĳÛĮ":6096,"ĠÙ¾ÙĦÛĮ":6097,"Ø³Ù¾Ø±ÛĮÙħ":6098,"ĠØ¨ØŃØ±ÛĮ":6099,"ĠØ¨Ø´Ø§Ø±Øª":6100,"ĠÙħÙĪÛĮØ´ÛĮ":6101,"ĠØ³Ø±Ú¯Ø±ÙħÛĮØ§Úº":6102,"ĠÙħØ¶Ø±":6103,"ĠØ³ÙĨÙ¹":6104,"ĠØŃÙĨÛĮÙģ":6105,"Ø§Ø¹Ø¯":6106,"ĠØ®ÙĪØ§ÙĨÛĮ":6107,"ĠØ§ÛĮØ§Ø²":6108,"ĠÙħØ§ÛģØ§ÙĨÛģ":6109,"ĠØ¯Ø±ÛĮØ§":6110,"ĠØŃØ§ÙħÛĮ":6111,"âĢ¤":6112,"ĠÚ©Ø§ÙĪØ´ÙĪÚº":6113,"ĠØ±Ø§Ø¶ÛĮ":6114,"ĠÚ©ÛģÛĴ":6115,"ĠÙħÛģØ§Ø±Øª":6116,"ĠØ¯ÛĮØ¯ÛĮØ§":6117,"ÙĨÛĮÙĪÛĮØ§Ø±Ú©":6118,"ĠÚ©Ø§Ø³Ù¹":6119,"ĠØµÙģØª":6120,"ĠØ§Ø´ØªØ±":6121,"Ø«ÙĪÙħ":6122,"ĠÙĨÙģØ±ÛĮ":6123,"ĠÙ¾Ø§Ø¦ÙĦ":6124,"ĠÙħØ·ÙĦÙĪØ¨Ûģ":6125,"Ġ42":6126,"ĠØ±Ø¶ÙĪØ§ÙĨ":6127,"ĠÚĪÛĮØ²Ø§Ø¦ÙĨ":6128,"ÙħÙĪØ¬ÙĪØ¯Ûģ":6129,"ĠØ§ÙĪÙĨÙ¹":6130,"ĠÚ¯ÛģØ±ÛĴ":6131,"ØŃØ³ÙĨ":6132,"ĠØ¯ÛĮØ´":6133,"ĠØŃØ¬Ùħ":6134,"Ø¹ÙĪ":6135,"ĠØªÛĮÙħ":6136,"Ø§Ø±ÙĨÛĮ":6137,"ĠØ¯ÙĪÙ¾ÛģØ±":6138,"ĠØ®ÙĦÛĮÙĦ":6139,"Ø§Ø¦ÙĪÙĨÚĪÛĮØ´ÙĨ":6140,"Ġ300":6141,"ĠÚĪÛĮÙģÙĨØ³":6142,"ĠØ§Ø¬Ø±Ø§Ø¡":6143,"ĠÙħØ¯ÙĨØ¸Ø±":6144,"ĠØ¬Ø¬Ø²":6145,"Ø¹Ø¨Ûģ":6146,"Ø±ÙĪØ§Úº":6147,"Ù¹ÛĮÙĦ":6148,"ĠØ¯Ú©Ú¾Ø§ÛĮØ§":6149,"Ġ53":6150,"ĠÚ¯Ø±ÙħÛĮ":6151,"ĠØ¯ÛĮÛģ":6152,"Ø²ÛĮÛģ":6153,"Ù¹ÙĪØ±ÙĨØ§ÙħÙĨÙ¹":6154,"ĠÙĤØ¨Ø±Ø³ØªØ§ÙĨ":6155,"ĠØ§Ø³Ù¹Ø±ÛĮÙ¹":6156,"ĠÙħØ°Ú©ÙĪØ±":6157,"ĠÙĤØ§Ùģ":6158,"ĠÙħØŃÚ©ÙħÛĴ":6159,"ĠØ§Ú©ÛĮÚĪÙħÛĮ":6160,"ĠÚ¯ÙĨØªÛĮ":6161,"ĠØ³Ø±Ø¬":6162,"ĠØ°ÛĮÙĦ":6163,"ĠØ±Ø³ÙĪÙĦÙĪÚº":6164,"ĠØ´Ø§ÙĨÛģ":6165,"ĠØ¨ÙĨØ¯ÛĴ":6166,"ĠØ§ÙģØ·":6167,"ĠÚĨØ¦ÛĮØ±ÙħÛĮÙĨ":6168,"ÙĪØ§Ø¡":6169,"ĠÙĦØ§Ø¦ØŃÛģ":6170,"ĠÚ¯ÛĮÙħØ²":6171,"Ø´ÙĨØ²":6172,"ĠØ±ÛĮØ§Ø¶":6173,"ÙĨØ¯Ú¯ÛĮ":6174,"ĠÙ¹Ø±ÛĮÚĪ":6175,"ĠÙĨÙģÛĮ":6176,"ĠÚ©Ú¾Ø§Ø¯":6177,"Ù¾Ú¾":6178,"ĠØ³ÛĮÙĨÙ¹Ø±ÙĦ":6179,"ĠÙĨØ§Ø±Ø§Ø¶":6180,"ĠÙħØ´Ø±ÙĤ":6181,"ĠØ±ÛĮÚ¯ÙĪÙĦÛĮ":6182,"Ø³ÛĮÚ©Ø±Ù¹Ø±ÛĮ":6183,"ĠÙ¾Ø§ÙĨØ§ÙħØ§":6184,"ĠÙģØ§Ø³Ù¹":6185,"ĠÙģØ§":6186,"ĠØ²Ø¯":6187,"Ú©ÙĪÙĨ":6188,"ĠØ³Ø§ÙĨØ³":6189,"ĠÚ¯ÙĦÛĴ":6190,"Ø´ÛĮØ±":6191,"Ø¦ÙĦ":6192,"ĠÙģØ§Ø·":6193,"ĠÙħØ´ÛĮÙĨØ±ÛĮ":6194,"ĠÚ©Ø¨ÛĮØ±":6195,"ĠÙħÙĦØªØ§ÙĨ":6196,"ĠØ²ÙĦØ²ÙĦÛĴ":6197,"ĠÙħØ§ÙĨÙĨÛĴ":6198,"ĠÚ©Ø±Ø§Ø¦ÛĮÚº":6199,"Ù¾Ø§ÙĦ":6200,"ÙĪØ¨Ú©Ø±":6201,"ĠØ³ÛĮØ§ØŃÙĪÚº":6202,"ĠØ¯Ø±Ø¬ÛĴ":6203,"ĠØ§ÙĨØ¬ÛĮÙĨØ¦Ø±ÙĨÚ¯":6204,"ĠÙĦÛĮÙĪÙĦ":6205,"ĠÙĦÙĦ":6206,"ĠÙħÙĪÚĳ":6207,"ĠØ¨Ø§ÙĦÙĪÚº":6208,"ĠØ¯Ú¾ÙħØ§Ú©Ûģ":6209,"ĠØ´Ø§ÛģÛĮÙĨ":6210,"Ø¹Ø±Ø¨":6211,"ĠØ¯ÛģØ´ØªÚ¯Ø±Ø¯ÙĪÚº":6212,"Ø§Ø¦ÛĮØ±":6213,"ĠØªØŃØ±ÛĮØ±":6214,"ÙħÚ©ÙĨ":6215,"ĠÙħÛĮÙĪØ²":6216,"ĠØ§ÙĪÙĪØ±Ø²":6217,"ĠÙħØ¯Ø§ØŃÙĪÚº":6218,"ÙĨØ¹":6219,"Ø§Ø¨Ú¾ÛĮ":6220,"ĠØ§Ù¹Ú¾Ø§Ø¦ÛĮÚº":6221,"ÚĨØ±Ø²":6222,"ĠØªØµØ§Ø¯Ùħ":6223,"ĠÙħØ±Ø¯Ûģ":6224,"ĠÙ¾ÙĪØ¯ÙĪÚº":6225,"ĠÙĤØ§Ø¦ÙħÛģ":6226,"ĠÙĦØ§Ù¾ØªÛģ":6227,"Ø¹ÙģÛĮ":6228,"ĠØ±ÛĮØ¬ÙĨÙĦ":6229,"ĠØ²ÛĮØ±Ø§ÛģØªÙħØ§Ùħ":6230,"Ø¢Ø¦ÙĨØ¯Ûģ":6231,"ĠÙĦÙĨÚ©Ø§":6232,"ĠI":6233,"ĠØ§Ø±Øª":6234,"ÙħØ¦ÙĨ":6235,"ĠØŃÙħÛĮØ¯":6236,"ĠØ¨ÙĦÚĪÙĨÚ¯":6237,"ĠÙħØ±Ø§ØŃÙĦ":6238,"ĠØ±Ùģ":6239,"ĠØ´Ø±ÙħØ§":6240,"ĠÚ©Ø±Ú©":6241,"Ø§Ø³Ø¯":6242,"ØªÛĮÙĨ":6243,"Ø¢ÙģÛĮØ³Ø±":6244,"ĠÙħÙĦØ§ÙĤØ§ØªÛĮÚº":6245,"ĠØ¨Ø§Ø²Ø§Ø±ÙĪÚº":6246,"ĠØŃØµØµ":6247,"ĠØ¯Ú©Ú¾Ø§":6248,"Ø·Ùģ":6249,"ÙĪÙĨØ¯":6250,"ĠØŃÚ©ÙħØ±Ø§ÙĨÛĮ":6251,"ĠØ³ÛĮÚ©Ú¾":6252,"ÙĪÙ¹ÙĨÚ¯":6253,"ĠØ§ÙĦØªÙĪ":6254,"ĠØ¨Ø§Ø±ÚĪØ±":6255,"ĠÚ¯ÙĪØ§ÛģÛĮ":6256,"ĠÙĪÚ©":6257,"âĢ¦":6258,"ĠØ§ÙģØªØªØ§ØŃÛĮ":6259,"ĠÚ©ÙħØ§ÙĨÚĪ":6260,"Ø§ÛĮÙĪÚº":6261,"ĠÙ¹ÙĪÛĮÙ¹":6262,"ĠÙħØ±ÙħØª":6263,"ĠÙ¾Ø±ÙĪÚĪ":6264,"ĠØ±ÛĮÙ¹Ø±ÙĨÙĨÚ¯":6265,"ĠÚ¯ÛģØ±ÛĮ":6266,"Ø´Ø§ÛģØ¯":6267,"ĠØªÙĨØ®ÙĪ":6268,"Ø³ÛģØ±Ûģ":6269,"ĠÙ¾ÙĪØ±Ûģ":6270,"ĠØ¬ÙħÙĦÛģ":6271,"ĠØ«ÙĨØ§Ø¡":6272,"ĠØ§ÙĨÙ¹ÛĮÙĦÛĮ":6273,"ĠÚ©ÛĮØ±":6274,"ĠÙħÙĪØ¯ÛĮ":6275,"ĠØ§ÙĨÛĮØ³":6276,"ÙĨØ¬ÛĮ":6277,"Ø®ÙĪØ§Ø¬Ûģ":6278,"ĠØ¨Ø±Ø§Ø¦ÛĮ":6279,"ĠØ³Ø±Ø¨Ø±Ø§ÛģØ§ÙĨ":6280,"ĠÙħØ¸ÛģØ±":6281,"ĠÙĨÛĮØ²":6282,"ĠÙģØ±Ø§ÙĨØ³":6283,"ĠÙĦÚĳÚ©ÛĴ":6284,"ĠØ¢Ø¨ÛĮ":6285,"ĠØ³Ø±Ú©ÙĦ":6286,"ĠØ¨ÙĦÛĮ":6287,"ĠÙĦÙĪÚ©ÙĦ":6288,"ĠØªØ¹ÙĦÛĮÙħØ§Øª":6289,"ÙĪØ§Ø±ÛĮ":6290,"ĠÚĨÙĪØªÚ¾ÛĴ":6291,"ĠØ®ÙĦØ§":6292,"ĠÙĨÙĤØ¯ÛĮ":6293,"ĠÙĨØ§ÙĨ":6294,"ĠØ¬ÙĨÙħ":6295,"ÙħÙ¹":6296,"ÙĪÚĳØ§":6297,"ĠÙ¾Ù¹Ø±ÙĪÙĦ":6298,"Ġ49":6299,"Ġ54":6300,"Ø³Ú©Ú¾Ø±":6301,"Ú¯ÙĪØ±ÙĨ":6302,"ØªØ±Ø§ÙĦ":6303,"ĠØ§ÙĦÙĨØ§Ø³":6304,"ÙħØ³Øª":6305,"Ġ56":6306,"ÙĨØ¨ÛĮ":6307,"Ø§Ø¯ÛĴ":6308,"ĠØ¨ÙĦØ§ÛĮØ§":6309,"ÙģÙĨ":6310,"Ø´Ø§Ùħ":6311,"ĠÙĤØ§Ø±ÛĮ":6312,"ĠØ¬ÙĪÙĨÛĮ":6313,"ĠÛģÙ¹Ø§ÙĨÛĴ":6314,"ĠÙĦØ¹ÙĨØª":6315,"ĠØŃØ³Ø¨":6316,"Ø¶ÙħØ§Ùħ":6317,"ĠØ§Ø³Ù¹ÛĮØ´ÙĨØ²":6318,"ĠÙĨÙģØ¹":6319,"ĠÙģÛĮØ§Ø¶":6320,"ĠÙĦÚ©Ú¾ÛĴ":6321,"ĠÙħØ¹Ø°ÙĪØ±":6322,"Ø§Ø´ÙĤ":6323,"ĠÙĤÙĦØ¨":6324,"ĠØ§Ø¨ÙĪØ¨Ú©Ø±":6325,"ĠÚĨÙħÚĨ":6326,"ÙħØ¸ÙģØ±Ø¢Ø¨Ø§Ø¯":6327,"ĠÙħÙĨØ¸Ùħ":6328,"ĠØ¨ÙĦÛĮÙĨ":6329,"Ø§Ø¨ÙĪ":6330,"ĠÚ©ØªÙĨÛĮ":6331,"ĠÛģØªÚ¾":6332,"Ú©Ø±Ú©":6333,"ĠØ³ÛĮØ²ÙĨ":6334,"ĠØªÙĨØµÛĮØ¨":6335,"ĠÙ¹Ø±ÛĮÙĦ":6336,"ĠÙħØ±ÙĨÛĴ":6337,"ĠØ²ÛģØ±":6338,"ÛĮÙĦÛĮÙĨ":6339,"Ù¾Ø±ÛĮØ³":6340,"Ø³Ù¹ÙĦ":6341,"Ø§ÛĮØ³Ø§":6342,"ĠØ¨ØªØ§ØªÛĴ":6343,"Ø§Ø¯Ú¾Ø±":6344,"ĠÚ©Ø§Ø³":6345,"ĠÙĪÙģÙĪØ¯":6346,"ĠÙ¹ÛĮÚ©Ø³ÛĮ":6347,"ĠÙĨÚĨ":6348,"Ú¯Ø²Ø§Ø±":6349,"ĠØ§ÙĦÙħÙĤ":6350,"Ø³ÙĪÙĦ":6351,"ÙģÙĤÛģ":6352,"ÚĨÛĮÙĨÛĮ":6353,"ĠØ§ÙĨÚ©Ø§":6354,"Ø§Ø´Ø§":6355,"ĠÙ¹Ø±Ø§ÙĨØ³":6356,"ĠÙĦØ¨ÛĮÚ©":6357,"ĠØªÙģØ±ÛĮØŃ":6358,"ĠØ¹ÛģØ¯ÛĮØ¯Ø§Ø±ÙĪÚº":6359,"Ø¨Ø¯":6360,"ĠÙ¾ÛĮØ§Ø±":6361,"ĠØ¨Ø§ØºÛĮÙĪÚº":6362,"ĠØ³Ø±Ø§ÛģØªÛĴ":6363,"ĠØ¢Ø¦Ø±":6364,"Ø´ÛĮØ§Øª":6365,"ĠØ§Ø²Ø§ÙĦÛģ":6366,"ĠØªÙĦØ§ÙĪØª":6367,"ĠØ¢ÙĨÛĮ":6368,"ĠÙħØ±ÚĨ":6369,"ĠØ¨ÛĮÙĨÚ©ÙĪÚº":6370,"ĠÚĨÙĦØ§Ø¦ÛĮ":6371,"ĠØ¨Ø±Ø¨Ø§Ø¯":6372,"Ġ66":6373,"ĠÙ¾Ø´ØªÙĪÙĨ":6374,"ĠØªØ®ÙĦÛĮÙĤ":6375,"Ø§Ø¹Ø§Øª":6376,"ĠØªØ¬Ø²ÛĮÛģ":6377,"ĠÙ¾Ú¾ÙĦÙĪÚº":6378,"ĠØŃØ±ÛĮÙģ":6379,"ĠØ§Ø³ÛĮÚ©ÛĮÙĪÙ¹Ø±":6380,"ÙĪØ§Øª":6381,"ĠØ³ÙĪØ±Øª":6382,"Ø´ÙĨØ§Ú©":6383,"ĠÚ¯Ø²Ø±ÙĨÛĴ":6384,"Ú¯Ø§ÛģÙĪÚº":6385,"ĠØ®ÙĪØ´Ú¯ÙĪØ§Ø±":6386,"Ø§ÙħØ±ÛĮÚ©Ø§":6387,"ĠØ§ÙħÚ©Ø§ÙĨØ§Øª":6388,"ĠØ§ØµØŃ":6389,"ÙħÙĨØª":6390,"ĠØ®Ø³Ø§Ø±Ûģ":6391,"ĠÙ¾Ù¹Ø±ÙĪÙĦÛĮÙħ":6392,"ĠØ¨Ú¾Ú¯":6393,"ĠÙĪØ§ÙĤØ¹ÛĮ":6394,"ĠØ¨Ø§Ø¦ÛĮÚ©":6395,"Ø§Ø±ØªÚ¾":6396,"Ú¯ÙĦÙĨÚ¯":6397,"ĠÙħØ·ÙħØ¦ÙĨ":6398,"ĠÙĪÙĪÙ¹Ø±":6399,"ĠÛģÚĪÛĮ":6400,"ĠÙĦÛĮÚ©Ø³":6401,"ĠØ§ÙĨÚĪÛĮÚ©Ø³":6402,"ĠÙħØ´ØªØ¨Ûģ":6403,"ĠØ²ÙħÛĮÙĨÙĪÚº":6404,"ĠØ¨Ø±ÛĮÚ¯ÛĮ":6405,"ĠØ³ÙħÙĨØ¯Ø±ÛĮ":6406,"ĠØªØ´Ø±ÛĮØŃ":6407,"ĠØ¹Ø¨Ø±Øª":6408,"ĠØ¹ÛģØ¯ÛĮØ¯Ø§Ø±Ø§ÙĨ":6409,"ÛĮÙĪÙĨÛĮÙĪØ±Ø³Ù¹ÛĮ":6410,"Ú¯Ú¾Ø±":6411,"ĠÙ¾Ø±ÛĮØ´Ø±":6412,"ÙĪÛģÛĮ":6413,"ĠÛģÙħØ¯Ø±Ø¯ÛĮ":6414,"ĠÚ©ÚĨÛģ":6415,"ĠÙĨØ¹ÙħØªÙĪÚº":6416,"Ø§Ø¦Ù¾":6417,"ĠØ¨Ø¯ÙĦÛĴ":6418,"ĠÚĨØ§ÙĦØ§ÙĨ":6419,"Ø¯Ø§Ø¡":6420,"Ù¹Ùħ":6421,"ĠØŃØªÛĮ":6422,"ĠÙħØºÙĦ":6423,"ĠØ§Ø«Ø§Ø«ÙĪÚº":6424,"ĠÙħÙĦÚ©Ø±":6425,"Ø§Ø¦ÛĮÙĨÚ¯ÛĴ":6426,"Ø¬Ø§ÙĨÛĴ":6427,"Ú¯Ø±ÛĮÙ¹":6428,"ĠÙ¾Ø±Ø´ÛĮØ¦Ø±":6429,"ĠÙĪÙĤÙĪØ¹Ûģ":6430,"ĠØ¯Ø±Ø³":6431,"ĠØ±ÙĪØ§Ø¨Ø·":6432,"Ø§Ø±ÛģÛĴ":6433,"ÚĪØ§Ø¦":6434,"ĠÙħØ¹Ø§Ø´Ø±Ûģ":6435,"ĠØ®Ø¯Ø´Ø§Øª":6436,"ĠÚ©ÛĮØ¦ÛĴ":6437,"ĠØªØ¨Øµ":6438,"ĠÚ¯Ø±ÙĦØ²":6439,"ĠØ§ÙĦÛĮÙĪÙĨ":6440,"Ø§Ø²ÙĨ":6441,"âĢĺâĢĺÛĶ":6442,"Ù¹ÛĮÙĨÙĨÙ¹":6443,"ĠØ¨Øµ":6444,"ĠØ¢ÚĪÙ¹":6445,"ĠØ®ÙĦÛĮ":6446,"ĠÛģÙ¹Ø§":6447,"ĠØ§Ø«ÙĨØ§Ø¡":6448,"ĠÙħØ²Ø§ØŃÙħØª":6449,"ĠØ¸ÛģÙĪØ±":6450,"ĠØ®Ø§ÙħÙĪØ´ÛĮ":6451,"ĠØ±ÙĪØŃØ§ÙĨÛĮ":6452,"ĠÙĨÚ¯Ø§Ûģ":6453,"Ø®Ø§Øµ":6454,"ĠØ§Ø·ÙĦØ§ÙĤ":6455,"ĠØ³Ø±Ú¯Ø±Ùħ":6456,"Ø§ÙĨØªØ®":6457,"ĠØ³ØªØ±":6458,"ĠØ¨Ø§ÙĨØ¯Ú¾":6459,"ĠÚ©Ú¾ÙĪØ³Ûģ":6460,"ĠØ§Ø´ØªØ±Ø§Ú©":6461,"ĠÛģÙĪØ´":6462,"ĠØ¨ÙĨØ¯Ø±":6463,"ĠØ¬ÛģØ§ÙĨ":6464,"ĠÚ©ØªÙĨÛĴ":6465,"ĠØ´Ø§ÛģÛĮ":6466,"ĠØ§ÙĦÛĮÚ©Ù¹Ø±":6467,"ĠØ¯Ú¾ÙĪÚ©Ûģ":6468,"Ø§Ø³ØªÛģ":6469,"ĠØªØ§Ø«Ø±":6470,"ØµØŃØª":6471,"Ø¨ÛĮØŃ":6472,"Ø²Ø§Ø¡":6473,"ØºÛģ":6474,"ĠØªØ³ÙĦØ³ÙĦ":6475,"ĠÙ¾Ú¾Ø§ÙĨØ³ÛĮ":6476,"ĠÚ©ÙĪØªØ§ÛģÛĮ":6477,"ĠÚ¯ÛĮÙ¹":6478,"Ø±Ø§Ø¦ÛĴ":6479,"ĠÛģÙħØª":6480,"ĠØ³ÙħØ¬Ú¾ØªØ§":6481,"ĠØ¨Ú¾ÛĮØ¬ÙĨÛĴ":6482,"ĠØ³ÛĮÚ©Ø±Ù¹Ø±ÛĮÙ¹":6483,"ĠØ§ÙĦÛĮÚ©Ù¹Ø±Ú©":6484,"ĠØ³ÙħØ¬Ú¾ÙĨÛĴ":6485,"ĠÙ¹Ø±Ø§ÙģÛĮ":6486,"ÙĪØ±Ø§":6487,"ĠØµØ±":6488,"Ø±ÛĮØ¹Ûģ":6489,"ĠØ³Ø§ÙĦÚ¯Ø±Ûģ":6490,"ĠØ³ÛģÙĪÙĦ":6491,"Ø§ÙģÙĦ":6492,"ĠØ±Ú©Ú¾ÙĪ":6493,"ĠØ¹Ø¬ÛĮØ¨":6494,"ĠÙģØ§ÙĦ":6495,"ĠØ³Ù¹Ø§Ú©":6496,"ĠÙĪØ§Ø±ÚĪ":6497,"ĠØ¯Ø±Ø§ØµÙĦ":6498,"ĠØªØ´ÙĪÛĮØ´ÙĨØ§Ú©":6499,"ĠÚĪØ³Ù¾":6500,"ĠÙģØ³Ø§Ø¯":6501,"ĠØ¨ÚĳÚ¾ØªÛĴ":6502,"ĠØµÙģØ§Øª":6503,"ĠØ¹ÙĦØ§ÙħØª":6504,"Ġ57":6505,"ĠØ§ÙĨØ¯Ø±Ø§Ø¬":6506,"ĠÙĨØ¹Ø´":6507,"Ø§ÙĨØªØ¸Ø§Ùħ":6508,"ĠØ¹ÙħØ§Ø±ØªÙĪÚº":6509,"ĠØªÙĨØ§Ø²Ø¹Ûģ":6510,"Ú¯Ø°Ø´ØªÛģ":6511,"ĠØ¹ÙĨØ¯":6512,"ÛĮÙĨÚĪÙĦ":6513,"ĠÛģØªÚ¾ÛĮØ§Ø±ÙĪÚº":6514,"Ø¨Ø§ÙĦÛĮ":6515,"ĠÙħØ§Ø³Ù¹Ø±":6516,"ÙĪÙĨÛĴ":6517,"ĠØ¨ÙĪÙĦÛĮ":6518,"ĠØ¯Ú¾ÙħÚ©ÛĮØ§Úº":6519,"ÙĪØ§ÙĨÛĮ":6520,"ĠØ¯Ú¾ÙĨØ¯":6521,"ĠØ²ÙĦ":6522,"ĠÛģÙģØª":6523,"ÙģØ§":6524,"ĠÙģØ§Ø¦ÙĪÙĨÚĪÛĮØ´ÙĨ":6525,"ĠØ¢ÛĮØªÙĪÚº":6526,"ØĴ":6527,"ĠÙħÙĪÙĪÙħÙĨÙ¹":6528,"ĠØ¬ØªÙĨØ§":6529,"ĠØªØŃÙĪÛĮÙĦ":6530,"ĠÚ©Ú¾ÙĪÙĦÙĨÛĴ":6531,"ÙĪÚ©ÛĮ":6532,"ĠÚ¯ÙħØ±Ø§ÛģÛĮ":6533,"ÙĪÙĨÚ©":6534,"ÙģÙĪÚĪ":6535,"ĠØ§Ø´ÛĮØ§":6536,"Ø§ÙĨÙ¹Ø±":6537,"ĠØ¢ÙĨØŃØ¶Ø±Øª":6538,"ĠÚ©ÛĮØ±ÛĮØ¦Ø±":6539,"ĠØ¯Ø¹ÙĪ":6540,"ĠØ¯Ø´ÙħÙĨÛĮ":6541,"ĠÙ¾Ø§Ø±Ú©ÙĨÚ¯":6542,"Ù¾ÙĪØ±Ûģ":6543,"ĠÙģÛĮÚĪØ±":6544,"ĠØ±Ø¹Ø§ÛĮØª":6545,"ĠÙĦÙħØ¨":6546,"ĠØ¨ØŃØ±":6547,"ĠÚ©Ú¾Ø§ØªÛĴ":6548,"ĠÚĪØ§ÙĦÛĮÚº":6549,"ĠØ¬ÙĪØ§Ø²":6550,"Ú¯Ø±ÙĪ":6551,"ĠÚĨÚ¾ÛĮ":6552,"Ú¯Ø±ÙģØª":6553,"Ø§Ø¹ÛĮ":6554,"ĠØ±Ø§Ø¨Ø·ÙĪÚº":6555,"ĠÚ¯Ø§ÙĨÛĴ":6556,"Ġ:ÛĶ":6557,"ĠØ³ÛĮÙĨÙ¹ÛĮ":6558,"Ø³ÛĮÛģ":6559,"Ø§Ù¾ÙĪØ²ÛĮØ´ÙĨ":6560,"Ù¾ÛĮÙ¹":6561,"ĠÙħÚĨÚ¾ÙĦÛĮ":6562,"Ø§Ø¨Ø±ÛĮ":6563,"ĠØ§ÙĦØ¨ØªÛģ":6564,"ĠÙħØ¸ÙĦÙĪÙħ":6565,"ĠØ§ÛĮÙĪÛĮ":6566,"ĠÙ¾Ø§ÙĨÚĨÙĪÛĮÚº":6567,"ĠØ³Ø³ØªÛĮ":6568,"ĠÙħØ³ØªØ¹ÙģÛĮ":6569,"Ø§ÙĨØ³ÛĮØ³ÛĮ":6570,"ĠÙĪØ±Ø«Ø§Ø¡":6571,"ĠÙħØ§Ø¦":6572,"ĠÙĤØ§ØªÙĦ":6573,"ĠÙħØ²Ø§Ø±":6574,"ĠÙĪØ§ÙĤÙģ":6575,"ĠÚ©ØªØ§Ø¨ÙĪÚº":6576,"ĠØ³Ø±Ø¯ÛĮ":6577,"ĠÙĨØ¸Ø±ÛĮØ§ØªÛĮ":6578,"ÙģÙĪØ¬":6579,"Ù¾ÙĪØ±Ù¹Ø³":6580,"ÙĪÚ©Ú¾Ø±":6581,"ĠØªØ¬Ø±Ø¨Ø§Øª":6582,"Ø§ÙĦÛĮÚº":6583,"ÙĪÙĨØ³":6584,"ĠÚ©Ø´ÛĮØ¯Ú¯ÛĮ":6585,"ĠØ¨ÙĨØ¯Ûģ":6586,"ĠÚ©ÙĪØ§ÙĦÛĮÙģ":6587,"ĠÙĦÛĮØ¨":6588,"ÙĨØ§ÙħÛģ":6589,"Ø§ÙħØ§Ùħ":6590,"ĠØ³Ø§ÛģÛĮÙĪØ§ÙĦ":6591,"ÙģØ±ÙħØ§ÛĮØ§":6592,"ĠØªØ³ÙĦÛĮ":6593,"ĠØªÙĨØ®ÙĪØ§ÛģÙĪÚº":6594,"ĠÙħØºØ±Ø¨":6595,"ĠØ¹ÙĤÛĮØ¯Ûģ":6596,"ĠØ¨Ø§Ø¦":6597,"ĠØ¯ÙĦÛģ":6598,"ÚĨÙĪØ±ÛĮ":6599,"ĠÙ¾ÙĦØ§ÙĨÙĨÚ¯":6600,"ÛĮÚ©Ù¹Ø³":6601,"ĠÙĦÚĳÙĨÛĴ":6602,"ĠØ¯Ø§Ø±Ø§ÙĨ":6603,"ØªØ¬":6604,"ĠØ§Ø«Ø§Ø«Ûģ":6605,"ĠÚ©Ø±Øª":6606,"Ø§Ù¾ÛĴ":6607,"ĠØ´ÙģÙĤØª":6608,"ĠØ¹Ø±ÙĪØ¬":6609,"ĠØ¯Ø§Ø¤":6610,"ĠØ¬ÙĨÛĮØ¯":6611,"ĠØ¹Ø¯ÙĦ":6612,"Ø±Ø§Ø¯":6613,"ĠØªØ§Ú©":6614,"ĠÙĨÛģØªÛĴ":6615,"ĠÙħØ±Ú©ÙĪØ²":6616,"ĠØ°Ø®ÛĮØ±Ûģ":6617,"ĠÙ¾Ø±Ø³ÙĨ":6618,"ĠØ¨Ø±Ø¯Ø§Ø±ÛĮ":6619,"ĠØ¬ÙħØ§ÙĦÛĮ":6620,"ĠÙĨØ§ÙħÛĴ":6621,"ĠØ§Ú©Ø§":6622,"Ø¨ØªØ§ÛĮØ§":6623,"ÙĪØ§ÙĨÛĴ":6624,"ĠÙħÛĮÙĨÚĪÛĮÙ¹":6625,"ĠØ±ÙĨØ¬":6626,"ĠÙģÙĪÙĦ":6627,"ĠÛģØ±Ø§":6628,"ĠÙĪÛĮÚĺÙĨ":6629,"ÙĪØ±ÛĴ":6630,"Ø±Ù¹ÛĮ":6631,"ĠØ¯Ø§Ø®ÙĦÛĴ":6632,"Ø¨ÙĪÙĦÛĮØª":6633,"ĠØ®ÙĪØ¯Ú©Ø´":6634,"ĠÙ¾Ø±ÙĪØ¬ÛĮÚ©Ù¹":6635,"ÙĨÙģ":6636,"ĠÙħÙĨØµÙģ":6637,"ĠØ¯Ú©Ø§ÙĨÙĪÚº":6638,"ĠÙ¾Ù¹":6639,"Ú©Ø±Ûģ":6640,"ÙħØ®ØªÙĦÙģ":6641,"ÚĨÚ©":6642,"Ø§ÙĦÙ¹ÛĮ":6643,"Ú¾ÙĨ":6644,"ĠØ³ÛģÙĪÙĦØªÛĮÚº":6645,"ĠÙĪØ§ÙĨ":6646,"ĠØ¬ÙĪÚĳ":6647,"ĠÚĪØ±Ø§Ø¦ÛĮÙĪÙĨÚ¯":6648,"ĠØ¢ÙħÛĮØ²":6649,"ØµÙĪØ¨Ûģ":6650,"Ø®Ø§Ø±ÛĮ":6651,"ĠØ§ÙĨØªÙĤØ§Ùħ":6652,"ĠØ§ÙĦÛĮØ§Ø³":6653,"Ø±Ø²Ø§ÙĤ":6654,"ĠØ§Ø³Ù¹ÛĮÚĪÛĮÙħ":6655,"ĠÙħÚ©ÛĮÙĨÙĪÚº":6656,"Ø¹ÙĦÙħØ§Ø¡":6657,"ĠØªØ®Øª":6658,"ĠØ³Ø¨ÛĮ":6659,"ĠÚ©ÛĮÚĨ":6660,"Ø§Ø¦Ø²Ø±":6661,"ĠØ¢Ø²ÙħØ§Ø¦Ø´":6662,"ĠÚ©ÙħØ´ÙĨØ±Ø²":6663,"ĠÙĦØ´Ú©Ø±":6664,"ĠÙ¹Ø§Ø¦Ù¹ÙĦ":6665,"ĠØ¨ÙĦÙĨØ¯ÛĮ":6666,"Ø¨Ø§Ø±Ù¹Ø±ÛĮ":6667,"ÙħØ«ÙĦØ§":6668,"ĠÛµ":6669,"ĠØ¨Ú¾ÙĦØ§":6670,"Ù¾Ø±Ø²":6671,"ĠØ§ÛĮØ´ÛĮÙĨ":6672,"Ø±ÙħØ§ÙĨ":6673,"ĠØ¨ÙĨÛĮÚº":6674,"ĠØ¶ÙħÛĮØ±":6675,"ĠÚ¯Ø±Ø§ÙĨ":6676,"ĠÙħÙĤØ¨ÙĪÙĦÛĮØª":6677,"ĠÚ©Ú¾ÛĮÙĦÛĮ":6678,"ĠÙħØ±ØªÚ©Ø¨":6679,"ÙģÙ¹":6680,"Ø·ÛĮÙĦ":6681,"Ø±ÙħØ§ÙĨÛĮ":6682,"ĠÙħÙĦÚ©ÛĮØª":6683,"ĠØ¹ÙĦÛĮÛģÙħ":6684,"ÙģÙĪØ¬ÛĮ":6685,"ĠØ¬ÙĦØ§":6686,"ĠØ§ÙĦÙĤØ§Ø¯Ø±ÛĮ":6687,"ØµÙĪØ±ØªÛĮ":6688,"Ø²Øª":6689,"ĠÙ¹ÛĮÚ©Ø³Ù¹Ø§Ø¦ÙĦ":6690,"ĠØ³ÙĨÚĨ":6691,"ĠÚ©Ú¾ÙĪÚ©Ú¾Ø±":6692,"ĠÙĦÚ¯ÛĮÚº":6693,"ÛģÙħØ§Ø±Ø§":6694,"Ø¶Ø¯Ø§Ø±":6695,"ĠØ·Ø¨ÙĤÛĴ":6696,"ĠÛģÙĪÙĦÚĪ":6697,"ĠÙĤØ§ÙĦ":6698,"ĠØ§Ø³Ù¾ÛĮØ´ÙĦ":6699,"ĠØ¹Ú©Ø³":6700,"ĠÙħØªÙģÙĤÛģ":6701,"ĠØ³ÛĮÙĪØ±ÛĮØ¬":6702,"ÙĤÛĮÙħ":6703,"Ø¬ÛĮÛĴ":6704,"ĠØ³ÛĮÚ©Ø´ÙĨ":6705,"Ø³ÛĮØ²":6706,"Ø°ÛĮÙĨ":6707,"ĠØ³Ù¹Ø§Ø±":6708,"ĠØŃÙĪØ«ÛĮ":6709,"ĠÚ©ÙĦØ«ÙĪÙħ":6710,"Ø§Ø¦Ø·":6711,"ĠØªÚ©ÙĨ":6712,"ĠÙħÙģØ³":6713,"ĠÚĨÙĦØªØ§":6714,"ĠÙĪØ¶Ø¹":6715,"ĠÙ¹ÙĪØ¦Ù¹Ø±":6716,"ĠÚ©Ø±ÛĮÚ¯ÛĮ":6717,"Ø§ÛģØ±Ûģ":6718,"ĠÙĪØ§Ø¦Ø±Ø³":6719,"ĠÙħØ«Ø§ÙĦÛĮ":6720,"ØºÛĮØ¨":6721,"Ġ59":6722,"ĠÚĨÙĦØªÛĴ":6723,"ĠÙ¾Ú¾ÙĨØ³":6724,"ĠØ¹ÙĪØ¶":6725,"ĠØ¨ÙĨØ§Ø¡":6726,"ĠÙ¾Ø§Ø¦ÛĮØ¯Ø§Ø±":6727,"ĠÚ¯ÙĦÙĪÚ©Ø§Ø±":6728,"ĠØªØ¹ÙħÛĮØ±Ø§ØªÛĮ":6729,"ĠÙħÙĦØ§Ø¦ÛĮ":6730,"ĠÚ©Ø§ÙħØ±Ø³":6731,"ÙħØ±Ûģ":6732,"ĠØ£":6733,"ĠØªÙħØ§":6734,"ĠØ¯ÛĮÛģÛĮ":6735,"Ø±Ø³ÙĪÙĦ":6736,"Ú©Ø±ÙĪ":6737,"ĠØ³Ø¨ÙĤ":6738,"ĠÚ©ÙĪØ¦":6739,"ĠØ¬ÙĪØ§Ø¦ÙĨÙ¹":6740,"ĠÙħØŃØ±Ùħ":6741,"ÙĨÚĪØ±":6742,"ĠÙĤØ±ÛĮØ´":6743,"ĠÙģØ·Ø±Øª":6744,"Ø§Ø¨ÙĨ":6745,"ĠÙĦÙĪÙ¹ÙĨÛĴ":6746,"ĠÙħØ¹Ø°Ø±Øª":6747,"ĠØ³ÛģÙĪÙĦØªÙĪÚº":6748,"ĠÙ¾Ø§Ø¤Úº":6749,"ĠØ§Ù¹Ú¾Ø§Ø±Ûģ":6750,"ĠØ¢Ø¨Ù¾":6751,"ĠÛģÙģØªÙĪÚº":6752,"ĠÙĨØ§ÙģØ±ÙħØ§ÙĨÛĮ":6753,"ĠÙħØ§ÙĨØªÛĴ":6754,"ĠØ±Ø´ÙĪØª":6755,"Ø¨Ø³":6756,"ĠÙħØ¯Ø§Ø±Ø³":6757,"ĠÙĨÚ©Ø§ÙĦÛĮ":6758,"Ø¹ÙĦØ§ÙĤ":6759,"Ø§ÙĪØ§Ù¹":6760,"ĠØ¨Ø±ÛģÙħÛĮ":6761,"ĠØ§ÙĨØ¯Ø±ÙĪÙĨÛĮ":6762,"ĠÙĨÙģØ³ÛĮ":6763,"Ø¬ÙĪØ±":6764,"Ø¨ÙĦØ´":6765,"ĠØ§ÙĨØ¬ÙħÙĨ":6766,"ĠØ´ÙģØ§ÙģÛĮØª":6767,"ĠØ¨Ø§Ø³":6768,"ĠØ§Ø³Ø±Ø§Ø±":6769,"ĠÙ¾Ø§Ø¨ÙĨØ¯ÛĮÙĪÚº":6770,"ĠØ¬ÙħØ´ÛĮØ¯":6771,"ĠÚ¯Ø±Ø¯Ø´":6772,"Ġ41":6773,"ĠÛģÛĮÚĪÚ©ÙĪ":6774,"ĠÚ©Ø±ÙĪØ§Ø¦ÛĮÚº":6775,"ĠÙ¾Ú¾ÛĮÙĦØ§ÙĨÛĴ":6776,"ĠÚĪØ§Ø¤ÙĨ":6777,"ĠÙħÛģÙħØ§ÙĨÙĪÚº":6778,"ĠØ¨Ø²Ø±Ú¯":6779,"ĠÚĨÙĪØ¯Ûģ":6780,"ĠØ²Ø§Ø¦":6781,"ÙĨÛĮÙĪÙ¹":6782,"Ø§ØµÛģ":6783,"ĠÙĨØ´Ø±":6784,"ÙĪÙĨÛģ":6785,"ĠØ¬Ú¯ÛģÙĪÚº":6786,"ÙħÙĨÚ¯ÙĦ":6787,"ĠØ§Ø¯Ú¾Ø±":6788,"ĠØ¯Ø´ÙħÙĨÙĪÚº":6789,"ĠØ§Ø´ÙģØ§ÙĤ":6790,"ĠØ§ÙĪÙĦÛĮ":6791,"ĠØ¨Ú¾Ù¹":6792,"ĠÚ¯ÙĦÙĪÚ©":6793,"ĠÛģØ§Ø¦ÙĪØ³ÙĨÚ¯":6794,"ĠØ¨ÙĪØªÙĦ":6795,"Ø¬ÛĮÙ¹ÙĦ":6796,"ĠÚ©ÛĮÙħØ±ÛĴ":6797,"ĠØ§Ù¹Ø§Ø±ÙĨÛĮ":6798,"Ø§ÛģÙ¹":6799,"ĠØªÙĤØ§Ø¶Ø§":6800,"ĠÙħÛĮØ§ÙĨ":6801,"Ø®ÙĪØ´":6802,"Ø³ÛĮÙĨÛĮÙ¹Ø±":6803,"ÙĪÙĤØª":6804,"ĠØ¹ÛĮÙĨ":6805,"ÙģÛĮØµ":6806,"ĠÚ©ÛĮÙħÛĮÚ©ÙĦ":6807,"ĠØ·ÛĮØ§Ø±ÙĪÚº":6808,"ĠÚ¯ÛĮÙĨÚ¯":6809,"ĠØ§ØºÙĪØ§Ø¡":6810,"ÛģÙĪÚ¯Ø¦ÛĴ":6811,"ĠØªÙĤØ¯ÛĮØ±":6812,"Ø¹Ø§":6813,"ĠÙħØ³ØªÙģÛĮØ¯":6814,"Ġ150":6815,"ĠÙħØ¸ÙģØ±Ø¢Ø¨Ø§Ø¯":6816,"ĠØ§ÛĮÚ©Ø³Ù¾Ø±ÛĮØ³":6817,"ÛģØ§Ø¦ÙĪØ³":6818,"ĠÚ©Ø³Ù¹Ùħ":6819,"ĠÚĪØ±Ø§Ø¦ÛĮÙĪØ±":6820,"Ø³Ø²":6821,"ĠÛ¹Û":6822,"ĠÙħÙģØ±":6823,"ĠØ´Ø±Ø§Ø¦Ø·":6824,"ĠÙĪØ§Ù¹Ø³":6825,"ĠÙħØ¬Ø³Ù¹Ø±ÛĮ":6826,"ÙħØ¨Ø§Ø±Ú©":6827,"ĠØ¨ÙĦØ¯ÛĮØ§Øª":6828,"ĠØ±ÛĮÙĨÚ©":6829,"Ú©ÙħØ´ÙĨ":6830,"ĠØ¯ÛĮÙĨÚ¯ÛĴ":6831,"Ø¨Ø¯Ú¾":6832,"ĠÙħØŃØ§Ø°":6833,"Ġ58":6834,"ÙħÙĨÚ¯":6835,"ĠÚ¯Ø¬Ø±":6836,"ĠØ§ÙĦÙħÙĤØ¯Ø³":6837,"ĠØ³ÛģØ§Ø±Ø§":6838,"ĠÚĨØ§ÙĪÙĦ":6839,"ĠØºÛĮØ¨":6840,"Ø¨ÙĦÙĪÚĨØ³ØªØ§ÙĨ":6841,"ĠÙĨØ¹Ø±Ûģ":6842,"ĠÙģØµ":6843,"Ø§ÙĨØªØ¸Ø§ÙħÛĮÛģ":6844,"ĠÙĨÛģØ±":6845,"ĠØ§ÙħØ§ÙĨØª":6846,"ĠÙħØ¤ÙĤÙģ":6847,"ĠØ·ÙĪ":6848,"ĠÚ©ÙĨØ§Ø±ÛĴ":6849,"ĠÙ¾ÛĮÚ©Ø¬":6850,"Ú©Ù¾":6851,"ĠØªØ¨ÙĦÛĮ":6852,"ĠÙģØ±ÛĮØ¶Ûģ":6853,"ÚĪØ§Ø¦Ø±ÛĮÚ©Ù¹Ø±":6854,"ĠØ®ÙĪØ¨ØµÙĪØ±ØªÛĮ":6855,"ĠÙħÛĮÙ¹Ø±Ú©":6856,"ÙĪÙĨØ´ÙĨ":6857,"Ú©Ú¾Ø§":6858,"ĠÙ¾ÛģÚĨØ§ÙĨÛĴ":6859,"ĠØ¨Ø°":6860,"ĠÙĨØ¨Ú¾":6861,"Ø·Ø¹":6862,"Ø³ÙĪÛĮÚº":6863,"ĠØ§ÙĪÛĮ":6864,"ĠÚ©Ø±ÙĦÛĴ":6865,"ÙħÛĮÙ¹ÚĪ":6866,"ÙĪÛģØ±ÛĮ":6867,"ĠØªØ¨Ø§Ø¯ÙĦÛĴ":6868,"ĠØ§Ø«Ø§Ø«ÛĴ":6869,"ØŃØ§Øª":6870,"ĠÙ¾ÛĮØ´ÛĮ":6871,"ÙĤØ¨":6872,"Ø®ÙĪØ¯":6873,"Ø§ÛģÙĦÚ©Ø§Ø±ÙĪÚº":6874,"ĠÚĪÛĮÙħØ²":6875,"ĠØĲ":6876,"ĠØ§ÙĪØ±ÙĨÚ¯":6877,"ĠØªÚ©Ø°ÛĮØ¨":6878,"ĠÙĦÙĪØ¯":6879,"ĠØ§ÙĨØ³Ù¹":6880,"ĠÙ¾Ø§Ø±Ù¹ÙĨ":6881,"ÙĨÚĪÙĨÙ¹":6882,"ĠÙ¾ÚĳØªØ§ÙĦ":6883,"Ġ120":6884,"ĠØ¯Ú¾ÙħÚ©ÛĮ":6885,"Ġ?":6886,"ÙħØµ":6887,"ÛĮÙĨØ²":6888,"ĠÙħÙĨØ§ÙģÙĤÛĮÙĨ":6889,"ĠÙħÛĮÚ¯Ø§ÙĪØ§Ù¹":6890,"ÚĨÛĮÙĨØ¬":6891,"Ø§Ø«Ûģ":6892,"ĠØ³ÙĨØ§ÛĮØ§":6893,"ĠØ¯Ø§Ø®ÙĦÛĮ":6894,"ĠÙģØ¶ÛĮÙĦ":6895,"ĠØ§ÛĮÚĪÙĪÚ©ÛĮÙ¹":6896,"ĠØ³ÙĪØ¦ÛĮ":6897,"ĠØ¯Ø±Ø®ÙĪØ§Ø³ØªÙĪÚº":6898,"Ø§Ø³Ø¨Øª":6899,"ĠØ·Ø¨ÛĮØ¹Øª":6900,"ĠÙ¾ÛĮØ¯Ø§ÙĪØ§Ø±ÛĮ":6901,"ĠØ¨ÛĮØ´":6902,"ĠÙĪÚĺÙĨ":6903,"ĠØ¯Ø¨Ø§Ø¦ÙĪ":6904,"ÙģÙĪØ±Ø³Ø²":6905,"ÙħÛĮÚĨ":6906,"ĠØªÙĤØ±Ø±ÛĮ":6907,"Ø¬Ø±Ø§Øª":6908,"ÚĳÙ¾":6909,"ĠØ¢ÛģÙĨÚ¯ÛĮ":6910,"ĠØ¬Ú¾Ú¯ÚĳØ§":6911,"ĠØ·Ø±ÙģÛģ":6912,"ĠÙħØ±Ø§Ø¹Ø§Øª":6913,"ĠØ®Ø±ÛĮ":6914,"ĠÚĨÚĳ":6915,"ĠÙħÙĨØ§ÙģÙĤ":6916,"ÙĨÙ¹ÛĮ":6917,"ĠÙĪÛģÛĮÚº":6918,"ĠØ¨Ú¾ÙĦØ§Ø¦ÛĮ":6919,"ĠÚ¯ÙĪÙ¹Ú¾":6920,"ĠÚĪØ§Ø¦ÙĪÙĨ":6921,"ĠØ®Ø±ÛĮØ¯ÙĨÛĴ":6922,"ĠØ²ÙħØ§ÙĨÛĴ":6923,"Ø®Ø§Øª":6924,"ĠØ®Ø§ÙĦØµ":6925,"ĠØªÙĪØ±Ø§Øª":6926,"Ġ52":6927,"ĠÙĦÛĮØ¨Ø§Ø±Ù¹Ø±ÛĮ":6928,"ĠC":6929,"ĠÙģØ±ÛĮØ¯":6930,"Ø§Ø·Ùģ":6931,"ÙĪØ¨ÛĮØ³":6932,"Ø§Ø´Ø¨Ûģ":6933,"Ú©ÙħÙ¾":6934,"ĠØ§ØŃØ¯":6935,"ĠÙħÙĨØ§Ø³Ø¨Øª":6936,"ĠÙħÛĮÙĨÚ¯ÙĦ":6937,"ĠÙĨÙĤØµØ§ÙĨØ§Øª":6938,"ĠØ¹Ø¨Ø¯Ø§ÙĦØ¹Ø²ÛĮØ²":6939,"ĠØ³ØªÚ¾Ø±Ø§Ø¦ÛĮ":6940,"ĠÙĤÙĪÙħÙĪÚº":6941,"ĠØªØ¹Ø·ÛĮÙĦ":6942,"ĠÛĮÚº":6943,"ĠØ³ÚĨÛĴ":6944,"ĠØŃØ§Ø¬":6945,"ĠÙ¾ÛĴ":6946,"ĠÙĨÙĪØ´ÛģØ±Ûģ":6947,"Ġ85":6948,"Ø±ÛģÛĴ":6949,"ĠØµØ¯ÙĤÛģ":6950,"Ø¬ÙħØ¹Ûģ":6951,"ĠÙħØ¬Ø±ÙħÙĪÚº":6952,"ĠÚĨÚ©Ø±":6953,"ĠÙħØ³ÙĦÙħÛģ":6954,"ĠØ¹Øµ":6955,"ĠØ¬ÙĨØ§ØŃ":6956,"ĠÛĮÙĪØ±Ù¾":6957,"ĠÚ¯Ø±ÛĮÙĨÚĪ":6958,"ĠØ§ÛĮÚ©Ø³Ø§Ø¦Ø²":6959,"ĠÙĨÛĮØ§Ø²ÛĮ":6960,"Ø¢Ø±ÙħÛĮ":6961,"ĠÙĨÙĪÙ¹":6962,"Ú¯Ø±ÛĮØ³":6963,"Ø·Ø³":6964,"ĠÙħØŃØ±ÙĪ":6965,"ĠØ¨Ø§Ø¶":6966,"ĠÚ©ÛĮÙĨÛĮ":6967,"Ø§Ø¶ØŃÛĮ":6968,"ĠØ¨ÙĨÚ¯ÙĦÛģ":6969,"Ø§ÙĦÙģ":6970,"Ġ196":6971,"ĠØ³ÛĮØ§Ø³ØªØ¯Ø§ÙĨ":6972,"ĠØ³ÙħÛĮØ¹":6973,"ØªØ§Ø¬":6974,"ĠØªØ¨Ø§ÛģÛĮ":6975,"ĠØªØ§Ø¦ÛĮØ¯":6976,"ĠØ³Ø§Ø¯Ûģ":6977,"Ø§ÙĨÙĪÛĮ":6978,"ĠÙħØŃÙĦÛģ":6979,"Ø§ÙĪÙĨØ¯":6980,"ĠÙģÛĮÚĪØ±ÙĦ":6981,"ĠÚ¯ÙĪÙĦÚĪ":6982,"Ø´ÛģØ±ÛĮÙĪÚº":6983,"ÙĨØ¦ÛĴ":6984,"ÙĦÛĮÙĨÚĪ":6985,"ĠØ®Ø§Ø¯Ùħ":6986,"ĠÙħØ¹Øª":6987,"ĠØ§ØŃØ§Ø·":6988,"ÚĪÛĮØ´ÙĨÙĦ":6989,"ĠØŃØ§Ú©":6990,"Ø§ÛĮØ³ÛĮ":6991,"ĠØ§Ø¹Ø§Ø¯Ûģ":6992,"ĠØ¨Ú¾ÙĪÚ©":6993,"Ø§ÙĨÚĨÛģ":6994,"ĠØ§ÙĨØµØ§Ø±ÛĮ":6995,"ÙĤØµÙĪØ±":6996,"ÙĪÙģØ¯":6997,"ĠØ³Ú©ÙĪÙĦØ²":6998,"ĠØ®Ø³Ø§Ø±ÛĴ":6999,"ĠØ±Ú©ÙĪ":7000,"ĠØ§ÙĪØ¨":7001,"ĠØ¯ÙĦØ§ÙĨÛĴ":7002,"ĠØ²ÛĮÙĨØª":7003,"ĠÙ¹ÙĪØ±":7004,"ÚĪÛĮØ§Ø³":7005,"ØªØ±ÙħÛģ":7006,"ÙĪÚĳÛĴ":7007,"ĠØ«ÙĤØ§ÙģØªÛĮ":7008,"ĠØ¬ÙĪÚĳÛĴ":7009,"Ú¯Ø²ÛĮØ±":7010,"ĠÙħØ¹ÙĨÙĪÚº":7011,"ĠÛģÙĪÙĨÛĮÙĪØ§ÙĦÛĴ":7012,"Ø¯ÙĪÙħ":7013,"ÙĨÙħØ§":7014,"ĠØ¨ÛĮØ±Ø³Ù¹Ø±":7015,"ĠÙħØŃÛĮ":7016,"ĠÚĨÙĪÙ¾":7017,"ÙĨØ³ÙĪ":7018,"Ú¯Ø¦ÛĮ":7019,"Ù¾Ø±ÛĮ":7020,"ĠÛĮÙĪÙĨÙ¹Ø³":7021,"ĠÚ¯Ø§ÚĳÛĮØ§Úº":7022,"ĠÙ¾Ø±ÙĪÚĪÚ©Ø´ÙĨ":7023,"ĠØ¨ÙĨØ¯Ø´":7024,"ĠÙĪÛĮØ±":7025,"ĠÙģÙĦÙħÛĮÚº":7026,"ĠØ¯Ø§Ø±ÛĮÙĪÚº":7027,"ÙħÛĮØ±Ø§":7028,"ĠÙģØ§Ø·ÙħÛģ":7029,"ĠÙĪØ§Ø¬Ø¯":7030,"ĠÚĨÛģØ±Ûģ":7031,"ĠÙħØ¹Ø§ÙĪØ¶Ûģ":7032,"ĠØ¨ÙĨØªÛĴ":7033,"ĠØªÚ¾Ø§ÙĨÙĪÚº":7034,"ĠØ²ÛĮÙĨØ¨":7035,"Ġ95":7036,"ĠÙ¾Ø±Ø§Ø¦Ùħ":7037,"Ø§ÛģÙĪ":7038,"ĠÙĨÙħÙ¹":7039,"ĠØ®Ø§ÙĨÛĮ":7040,"ĠÙĨÙħÚ©":7041,"ĠÙ¹ÛĮÙĨÚ©Ø±":7042,":ÛĶ":7043,"Ø±Ø§Ø¶":7044,"Ø§ØŃØ³ÙĨ":7045,"ĠØ¨ÚĨÛĮÙĪÚº":7046,"ĠØ³ÛĮØ§Ø³ØªØ¯Ø§ÙĨÙĪÚº":7047,"ĠØ°Ø¨ØŃ":7048,"ĠÙħÚ©Ú¾ÛĮ":7049,"ĠØ¯ÛĮØ±ÛĮÙĨÛģ":7050,"Ø³ØªØ§Ø®":7051,"ĠØºÛĮ":7052,"ĠØ³Ø¨Ø²ÛĮÙĪÚº":7053,"ĠÛģÙĪÙĦÚĪØ±Ø²":7054,"ĠÙ¹ÙĨÚĪ":7055,"Ù¹ÛĮÙĪ":7056,"ĠÙĨÙĤÙĪÛĮ":7057,"ĠØ¨ØªØ§Ø¦ÛĴ":7058,"ĠÙ¾Ø±Ø§Ù¾Ø±Ù¹ÛĮ":7059,"ĠØ¢Ø«Ø§Ø±":7060,"ĠÚ©ÙħØ²ÙĪØ±ÛĮ":7061,"ĠØ²Ø¨Ø±Ø¯Ø³ØªÛĮ":7062,"ĠÚ©ÙĨÚ¯Ø²":7063,"ØµÙĪ":7064,"ĠØ±ÙĤÙĪÙħ":7065,"ĠÙ¾ÛĮÚĨ":7066,"ØªÚ¾Ø§":7067,"ĠÙĪØŃÛĮØ¯":7068,"Ø§ÛģØ±ÛĮ":7069,"Ú¯ÛĮØ§Úº":7070,"ĠÙ¾ÛģØ§ÚĳÙĪÚº":7071,"Ø±Ø¬ÛĮ":7072,"ĠÙħÙ¹":7073,"ĠÚ©ÛĮÙ¹":7074,"ÛĮÚ©Ù¹Ø±":7075,"ĠØªÙĤØ§Ø¶ÙĪÚº":7076,"ĠÚĪØ§ÙĨ":7077,"Ø²ÛĮØ±":7078,"ÙĤÛĮÙĤÛĮ":7079,"ĠØ¦ÛĮÚº":7080,"ĠÚ©ØªØ¨":7081,"ĠÙĪØ±Ø§ÙĨÛģ":7082,"ĠÙ¾Ø§Ø¨ÙĨØ¯ÛĮØ§Úº":7083,"Ø¬ÙħØ¹Ø±Ø§Øª":7084,"ĠÙħÙĨØªØ¸Ø±":7085,"ĠÙĨØ¹ÙħØ§ÙĨ":7086,"ĠÙĪÙĤÙģÛĴ":7087,"ĠØ´ÙģÛĮØ¹":7088,"ĠØ³ÙĨØ¨Ú¾Ø§ÙĦÙĨÛĴ":7089,"ĠØªØ§ÙĪ":7090,"ĠØ¸ÛģÛĮØ±":7091,"ĠØ·ÙĪÙģØ§ÙĨ":7092,"ĠØªÙĨØ¨ÛĮÛģ":7093,"ĠÙħØ°Ùħ":7094,"ĠÙĨØµØ±Øª":7095,"ĠÙģÙĦØ§Úº":7096,"ÚĨÙĦ":7097,"Ù¹Ø±ÙĨ":7098,"ĠØ¬ÙĨÚ¯Ø¬ÙĪ":7099,"Ø¨ÛĮÙĦÛģ":7100,"ĠÙħØ§ÙĨÚ¯ÛĮ":7101,"ÛĮÙĨØ±":7102,"ĠÚ¯Ø§Ø¦ÛĴ":7103,"ÙĪØªÛģ":7104,"ĠÚĺ":7105,"ĠÙ¾ÛĮØ²":7106,"Ú©Ø´ÙħÛĮØ±ÛĮ":7107,"Ø¯Ø§Ø´Øª":7108,"ĠÚĨØªØ±Ø§ÙĦ":7109,"ĠÙħØ§Ø±ÙĨÛĴ":7110,"ĠÙĪØ§Ø±ÙĨÙ¹":7111,"ĠØ¯Ø§Ùħ":7112,"ĠØ±Ø¶ÙĪÛĮ":7113,"ĠÙģÙĦØ³Ø·ÛĮÙĨÛĮÙĪÚº":7114,"ÚĨÙĨ":7115,"ĠÙĤÙĦØ¹Ûģ":7116,"ĠØ±ÙĪÛģ":7117,"ĠÚ¯ÙĪÛĮØ§":7118,"ĠÚ¯Ú¾ÙĨÙ¹Ûģ":7119,"ĠØ§ÙĨÚ¯ÙĦØ´":7120,"ĠÙĨØ±Ø³":7121,"ÛĮÙĦÛĴ":7122,"ÚĪÛĮØ§Ø³Ø±ÙĪØ³":7123,"ĠØ´ÙĪÙ¹ÙĨÚ¯":7124,"ĠØ¨Ø§Ø¶Ø§Ø¨Ø·Ûģ":7125,"er":7126,"ÚĪÛĮÙĪØ²":7127,"ĠÙĨØ§Ú¯Ø²ÛĮØ±":7128,"Ø³Ùģ":7129,"ĠÚĪÛĮØ¬ÛĮÙ¹ÙĦ":7130,"ÙĪØ¬":7131,"ÚĳÙĪ":7132,"ĠØ±Ø§Ø¦ÛĮ":7133,"ÙħØ§Ø¶ÛĮ":7134,"ĠØ¹ÙĨØ§":7135,"ĠØ¢ÛģØ³ØªÛģ":7136,"ĠÙħØ±Ø¨ÙĪØ·":7137,"ĠÚĨØ§":7138,"ĠÙħÙĦÙ¹Ø±ÛĮ":7139,"ĠØ¬ØªÙĨÛĴ":7140,"ĠÙħÛĮØ±Ù¾ÙĪØ±":7141,"ĠÙĤÛĮÙħØªÛĮÚº":7142,"ĠØ¯ÛĮÚ©Ú¾ÙĪ":7143,"ĠÙĦÙ¹":7144,"ĠØªØ±Ùħ":7145,"Ø§Ø¨ÛĮØ·Ø³":7146,"ĠÙĨÛĮÙĦÙħ":7147,"ĠÚ©ÛĮØ§ÙĨÛĮ":7148,"ĠØ³Ø§ØŃ":7149,"ĠØ¯Ø§":7150,"ĠØ¹Ø±Ø¨ÛĮ":7151,"ĠØ®Ø§ÙĪÙĨØ¯":7152,"Ø§ÙĦØ²":7153,"ĠØ¹ÙħØ±Ûģ":7154,"ĠÙĤØ·Ø±ÛĴ":7155,"ĠØªØ§ÙĦ":7156,"ĠÙħØ§ØŃÙĪÙĦÛĮØ§Øª":7157,"ĠÚ©ÙĪÛģÙĦÛĮ":7158,"ĠØ¨Ø³Øª":7159,"ĠÙ¾Ø±ÙģØ§Ø±ÙħÙĨØ³":7160,"ĠÛ±Û³Û":7161,"Ø¹Ø²Ùħ":7162,"Ø§Ú¯Ø±ÚĨÛģ":7163,"ĠÙħØ®ÙĦØµ":7164,"ĠÚĨÚ©ÙĪØ§ÙĦ":7165,"Ø¨ÙĦØ´ÙħÙĨÙ¹":7166,"ĠØºØ²":7167,"ÙĨØ³Ù¹ÛĮ":7168,"ĠÚ¯ÙĪØ¯":7169,"ĠØªØ±Ø³ÛĮÙĦ":7170,"ĠÛĮÙħÙĨ":7171,"ÙĤØ§Ø¦Ø¯":7172,"ĠÚ©ÛģÙĪ":7173,"ĠØ§Ø¯Ø¨":7174,"Ø¢Ùģ":7175,"Ø§Ø®ØªÛĮØ§Ø±":7176,"ÛĮØ±ÙĪØ²":7177,"ĠØ¯Ø§Øº":7178,"ÚĨÙĨØ¯":7179,"ĠÚ©ØªÙĨØ§":7180,"ĠÙģØ±ÙĨÙ¹":7181,"ÙĦØ§Ø³Ù¹Ú©":7182,"ĠØªÛĮØ±ÛĮ":7183,"ÙĪØ§Ø³":7184,"ĠÚ©ÙĦÙħÛģ":7185,"Ø§Ø¨ÙĪÛĴ":7186,"ĠØ¹Ø¨Ø¯Ø§ÙĦÙĤ":7187,"ĠÙħØªÙĨØ§Ø²Ø¹Ûģ":7188,"ĠØ·Ø¨ÙĤÛģ":7189,"ĠÙĪØ³Ø¹Øª":7190,"ĠØ¹ÛģØ¯ÙĪÚº":7191,"ĠÛ¶":7192,"ĠØ¬Ø§ÙĨØ¨Ø¯Ø§Ø±":7193,"ÙħÙĤØ§Ø¨ÙĦ":7194,"ĠØ±ÙĪÙĨÙħØ§":7195,"ĠÙĨÙĪØ´":7196,"ĠÚĪØ±ØªÛĴ":7197,"Ø®Ø§ØªÙĪÙĨ":7198,"Ø¯Ú¾Ùħ":7199,"ĠØªÙĨØ§Ø¸Ø±":7200,"Ú¾Ø§Ø±":7201,"ÛĮÚ©ÙĪ":7202,"ĠÚĨÙĪØ¨ÛĮØ³":7203,"ÙħØ¨Ø§Ø¨ÙĪÛĴ":7204,"ĠØ³Ú¯Ø±ÛĮÙ¹":7205,"ĠØ®ÙĪØ´ØŃØ§ÙĦ":7206,"ÙĪÛģØ±ÛĮØ±Ûģ":7207,"ĠØ§ÙĨØ¶ÙħØ§Ùħ":7208,"ĠØ±ÙĪÛĮÛĴ":7209,"ĠØ±ÛĮÚĪÛĮÙĪ":7210,"ĠØ§ÙģØ³ÙĪØ³ÙĨØ§Ú©":7211,"Ø§Ø¦ÙĦÚĪ":7212,"ĠØ§Ø¨ÙĪÛģØ±ÛĮØ±Ûģ":7213,"ĠØ¹Ø¨Ø¯Ø§ÙĦØº":7214,"Ø§ÙħÛĮØ±":7215,"ÛĮÚ©ÙĦÙ¹ÛĮ":7216,"ÛĮØ§Ø¯Ûģ":7217,"ĠÙĪØ±Ø²ÛĮÙĪÚº":7218,"ĠØªØŃÙģÛģ":7219,"ĠØ¹Ø¨ÙĪØ±":7220,"ĠØ«ÙħØ±":7221,"ĠØ¯ÛĮØ§ÙĨØª":7222,"ĠØ¶ÛĮØ§":7223,"Ø§ÛĮØ¨Ù¹":7224,"ĠØ¢Ø±Ù¹Ø³":7225,"ĠÙħØ§Ø±Ø´ÙĦ":7226,"ØŃÙħ":7227,"Ø§ÙĦØŃÛģ":7228,"ĠØªÚ¾Ø§ÙĨÛģ":7229,"ĠÙĪØ§Ø±Ø§ÙĨÛģ":7230,"ĠÚĨÙĪÛģØ§ÙĨ":7231,"ĠÙħÙĨØ´ÛĮØ§Øª":7232,"ÙĪÙ¾":7233,"ĠØ¹ÙĦÛĮØŃØ¯Ú¯ÛĮ":7234,"ĠØªØ§Ú©ÛĮØ¯":7235,"ĠÙħÙģØ±ÙĪØ±":7236,"ÛĹ":7237,"ĠØ±ÙĨØ¯":7238,"ĠØ§ÙĦØ¹Ø²ÛĮØ²":7239,"ĠØ§ÛĮØ¬ÙĨÙ¹":7240,"ĠØ§Ø³ØªØ§Ø¯":7241,"Ø§Ø·ÙĦØ§Ø¹":7242,"ÙĪØ§Ø¨Ø·":7243,"ĠÚ©Ø±Ú©Ù¹Ø±":7244,"Ø¨Ø±Ú¯":7245,"ĠØ±Ø®Øµ":7246,"ĠÙ¾ÛĮÙ¾Ø±":7247,"ĠØ¨Ø¸Ø§ÛģØ±":7248,"ĠØ§Ú©Ù¹Ú¾ÛĴ":7249,"ĠÙħØ³ÙĦØ·":7250,"ĠØ¹Ø·ÛĮÛģ":7251,"ĠØ·Ø§ÙĤØªÙĪØ±":7252,"ĠÚĨÙ¾":7253,"ĠØ¨ÙħØ¨":7254,"ĠÙĪÙ¹Ø§ÙħÙĨ":7255,"ĠÙ¾ÙĪÙĦÛĮÙĪ":7256,"ĠØŃØ±Ùħ":7257,"Ø³ØªÙĪØ±":7258,"in":7259,"ØªÛĮÙĤ":7260,"ĠÙĨÚ©ÙĦØ§":7261,"ĠØ¯Ø±Ø®ØªÙĪÚº":7262,"ÙħØ¹Ø±ÙĪÙģ":7263,"ĠÚ¯ÙħØ§ÙĨ":7264,"Ø¦Ø±Ø²":7265,"ÛģØ§Ø¦ÛĮ":7266,"ĠØ§ÙģØ±ÛĮÙĤÛģ":7267,"ĠØ§Ø³Ø¨Ø§Ø¨":7268,"ĠÙģØ§Ø¦ÙĦ":7269,"ĠØ³Ú©ÙĨØ¯Ø±":7270,"ĠÙħÙģØ³Ø±ÛĮÙĨ":7271,"Ú©ÛģØ§":7272,"ÙĪÛģÛĮÚº":7273,"ĠÙ¾ÚĳÙĨÛĴ":7274,"ĠÙĦØ·Ùģ":7275,"ĠÚ©Ø§Ø´Ùģ":7276,"ĠØ§ÙĨØŃØµ":7277,"ĠØ±ÙĪÙ¹":7278,"ĠÙĦÛĮÙģÙ¹ÛĮÙĨÙĨÙ¹":7279,"ĠØ§ÙĦØ§Ù¹":7280,"ĠÙĨØ¸Ø±Ø¨":7281,"ÛĮØ«ÛĮØª":7282,"ĠÚ¯ÙĪØ¦ÛĮ":7283,"ĠØ¬ÚĳÛĮ":7284,"ĠÚ©ÚĨÛģØ±ÛĮ":7285,"ĠØ±Ø¨ÛĮ":7286,"ĠÛĮÛģÙĪØ¯ÛĮÙĪÚº":7287,"ĠØ¯ÙĨÛĮ":7288,"ÙĪØ§ÙĦÙĪÚº":7289,"Ø±ØªÛĮ":7290,"ĠØ§ÙĨÚĪÙĪÙĨÛĮ":7291,"ĠØ§ÙģØ·Ø§Ø±":7292,"ĠØ±ÛĮØ³Ù¹":7293,"ÙĨØªØ®Ø¨":7294,"ĠØ¹Ø·Ø§Ø¡":7295,"ĠØ±ÛĮÙģØ±ÙĨØ³Ø²":7296,"ĠØ¨ØºØ§ÙĪØª":7297,"ÙĪØ¨ÙĦ":7298,"Ġ74":7299,"ĠÚĨÚ¾ÙĪÙ¹Ø§":7300,"ĠØ§Ø´ÛĮ":7301,"ĠØ¨ÛģØ§ÙĪÙĦÙ¾ÙĪØ±":7302,"ĠØ³ÙĨØ¬ÛĮØ¯Ú¯ÛĮ":7303,"ĠÚ¯Ø±Ø§Ø¤ÙĨÚĪ":7304,"ĠÚ©ÙĨØ§ÙĦ":7305,"ĠÙĪØ§Ø¦Ù¹":7306,"Ù¹ÛĮÙĪÙ¹":7307,"ĠØ´ÛģØ¯Ø§":7308,"ĠÙĨØ±Ø®ÙĪÚº":7309,"ĠØ§ØµØŃØ§Ø¨":7310,"ĠÙĪØ§Ø±ÙĨÙĨÚ¯":7311,"ĠØ§Ú©Ø±Ø§Ùħ":7312,"Ø±Ø§Ø¬Ûģ":7313,"ĠØ´ÛģØ²Ø§Ø¯Ûģ":7314,"ĠÙģØ§ØªØŃÛģ":7315,"Ú©Ø¦ÛĮ":7316,"ĠÙĦÙ¾ÛĮÙ¹":7317,"ĠÙħÙĨØµÙģØ§ÙĨÛģ":7318,"ĠÙ¾Ù¹ÛĮ":7319,"ĠÙĦÙĪÙ¹Ø§":7320,"ĠØ§Ù¹Ú¾Ø§ØªÛĴ":7321,"ĠÙĦØ§Ø´ÛĮÚº":7322,"ĠÚ©ÛĮÙģÛĮØª":7323,"ĠÙħØ§Ùħ":7324,"ĠØ§Ø¹Ø¶":7325,"ĠØŃÙħØ¯":7326,"Ġ73":7327,"ĠØ±ÙĪØ¨":7328,"ĠØ´Ø¬Ø±":7329,"Ġ71":7330,"ĠØ§Ø¬ÙħÙĦ":7331,"Ġ2012":7332,"ĠØ³Ø§Ø¦ÙĨØ³Ø²":7333,"ÙĨÚĪÛĮ":7334,"ĠØ¨Ú¯Ù¹ÛĮ":7335,"Ø§ÙĪØ§":7336,"ĠØ±Ø´ØªÛĴ":7337,"ĠÙħÛģÛĮÙĨÙĪÚº":7338,"ĠØªØ±ÙħØ°ÛĮ":7339,"ÚĪÙĪÚº":7340,"ĠÚĪÚ¾ÛĮØ±":7341,"ĠØ³Ø§Ø²Ø´ÙĪÚº":7342,"ĠØ§Ø¬Ø²Ø§Ø¡":7343,"ĠØªØŃÙĤÛĮÙĤÛĮ":7344,"ĠØ§ÙĨÙĪÛĮØ³Ù¹ÛĮ":7345,"ĠØ§ÙĦØ¨Ø®Ø§Ø±ÛĮ":7346,"ÙħØ±Ø¯":7347,"ĠØ§ÙĤÙĦÛĮØªÙĪÚº":7348,"ĠØ§ÙĪØ±ÙĨÚ¯Ø²ÛĮØ¨":7349,"ĠØ³Ø±ØŃØ¯ÛĮ":7350,"ĠØ¨Ú¾Ø§ÙĦ":7351,"ĠØ¯Ø§ÙĨØ´":7352,"ĠØ´Ø§Ø¹Ø±":7353,"ĠØ¯Ø±Ø¢ÙħØ¯Ø§Øª":7354,"ĠÙģØ¶Ø§Ø¦ÛĮÛģ":7355,"Ú¯Ø±ÙģØªØ§Ø±":7356,"ĠØ®ÙĦÙĤ":7357,"ĠÚ¯Ú¾ÚĳÛĮ":7358,"ĠØ¹Ø¯ÙĨØ§ÙĨ":7359,"ĠÙ¾ÛĮÙĨÙĦ":7360,"ĠØ§ÛĮØ´ÛĮØ§Ø¦ÛĮ":7361,"ĠÚ©Ø§ÙħÙĦ":7362,"ĠÙĨØ´Ø§ÙĨÛĮØ§Úº":7363,"ÚĨÛĮØ³":7364,"ĠÚ©Ù¹Ú¾":7365,"Ù¾Ø§ÙĨÚĨ":7366,"ĠØ¨ÚĨØ§Ø¦ÙĪ":7367,"ĠÙĤÙĪØ§Ø¹Ø¯":7368,"ĠØµÙĪØ§Ø¨ÛĮ":7369,"Ø§Ø¯Ø§Ø±ÛĮ":7370,"ĠØ°ÙħÛĴ":7371,"ĠØ§ÙĨÚĨ":7372,"ĠØ§Ù¾ÙĨØ§ÛĮØ§":7373,"Ġ132":7374,"ĠÙģÛĮÚ©ÙĦÙ¹ÛĮ":7375,"ĠÚĪØ§Ø¦ÛĮ":7376,"ĠØ¨Ø§Ø¦ÛĮÚ©Ø§Ù¹":7377,"ĠÙ¾Ø§Ø±Ù¹ÛĮÙĪÚº":7378,"ĠØ¨Ø±Ú©Øª":7379,"ĠØ§Ø³Ù¹ÛĮØ¬":7380,"ĠØ¨Ø°Ø±ÛĮØ¹Ûģ":7381,"Ù¾ÛĮØ¯":7382,"ĠØ¹Ø§ÙĦÛĮÛģ":7383,"Ø´Ù¾":7384,"ĠÙħÙĪØ§ØµÙĦ":7385,"ĠØ³ÙħØ¬Ú¾ÛĴ":7386,"ĠØ¨Ø±Ø³ÛĮ":7387,"ÙĪØ§ÙĦØ§":7388,"Ø³Ù¹Ú©":7389,"ĠØ®ÙĪØ´Ø®Ø¨":7390,"ĠÚĪÙĪØ±":7391,"ĠÙĨÛĮØ§Ø²":7392,"Ġ78":7393,"Ú©ÙħØ´ÙĨØ±":7394,"ĠØ§Ú¯ÙĦÛĮ":7395,"ĠØ§ÙĦØ±Ù¹":7396,"ĠÙĦÚ©Ú¾ÛĮ":7397,"ĠØ¶ÛĮ":7398,"ÙĦÙĪÚ¯":7399,"ÙĪØ·ÙĨ":7400,"ĠØ³ÙĪØ²":7401,"ĠØ¢ÙģÛĮ":7402,"ĠØªØ¯Ø§Ø±":7403,"ĠÚ¯Ø³ØªØ§Ø®":7404,"ĠØ¢Ø¨Ù¾Ø§Ø´ÛĮ":7405,"ĠÙ¹Ø±Ø³Ù¹":7406,"ĠÙĤØ³ÙħØª":7407,"ĠÚĨØ§ÛģØ¦ÛĮÛĴ":7408,"ĠÙħÛĮØ²Ø¨Ø§ÙĨÛĮ":7409,"ĠØ§Ø³Ù¾ÙĪØ±Ù¹Ø³":7410,"ĠØ¨ÙĪÙĦÙĨÛĴ":7411,"ĠÙħØµÙĨÙĪØ¹ÛĮ":7412,"ĠÙĤÛĮØ¯ÛĮ":7413,"ĠÚ©ÙĦÛĮØ¯ÛĮ":7414,"Ø§ÛĮÚĪÛĮØ´ÙĨÙĦ":7415,"ĠØ§Ø¹ØªØ±Ø§Ø¶Ø§Øª":7416,"ĠÛĮØªÛĮÙħ":7417,"Ġ77":7418,"ĠØ§Ø´ØªØ¹Ø§ÙĦ":7419,"Ø¨ÙĨØ¯ÛĮ":7420,"ĠØµÙģØ±":7421,"ĠØ¯Ø¹Ø§Ø¦ÛĮÚº":7422,"ĠØ®ÙĦØ§Ø¦ÛĮ":7423,"Ø¹ÙħØ±":7424,"ØŃØ³ÛĮÙĨ":7425,"ĠØªÛĮØ±Ûģ":7426,"ĠÙĪÙĨÚĪ":7427,"ĠÙħØ¹ÛĮÙĨ":7428,"ĠÙĨÚ¯":7429,"ĠØ¢Ø¨Ø§Ø¦ÛĮ":7430,"ĠØ³ÙħØ¬Ú¾ÙĪØªÛģ":7431,"ĠØ¢Ø³Ú©":7432,"ĠØ¬ÙħÙĪÚºÙĪ":7433,"Ø°Ø¨":7434,"ĠØ±ÙĪØ²ÛĴ":7435,"ĠÙ¾ÛĮÙ¹Ø±ÙĪÙĦÛĮÙħ":7436,"ĠÙģØ¶ÛĮÙĦØª":7437,"ĠÛŃ":7438,"ĠÙĦÚ¯Ø§ÙĨØ§":7439,"Ú©ÙħÙ¾ÙĨÛĮ":7440,"Ú©Ø§ÙĨÙģØ±ÙĨØ³":7441,"Ø§Ø³ÙħØ¨ÙĦÛĮ":7442,"ĠÙ¾ÛģÙĨÚĨÛĮÚº":7443,"ĠØ±ÛĮÙĨÚ©ÙĨÚ¯":7444,"ĠØ±Ø§Ø¤":7445,"ĠØ±Ø§ØŃØª":7446,"ĠØ¯ÛģØ§Ø¦ÛĮ":7447,"ÛģØ±Ø§ÙĨ":7448,"ĠÚ¯Ø²Ø§Ø±ÙĨÛĴ":7449,"ĠÙ¾ÙĦØ§Ù¹":7450,"ĠÙħÙĨØ§Ø¸Ø±":7451,"Ø®ÛĮØ±":7452,"Ø³Ø±Ûģ":7453,"ĠÚ©ÙĪØ§ÙĦÙ¹ÛĮ":7454,"ÙĦÚĳ":7455,"Ø¹Ø§Ø±Ùģ":7456,"ĠÛģÛĮØ²":7457,"ĠÙ¾Ø³ÙĨØ¯ÛĮØ¯Ûģ":7458,"Ø§ÙĦÛĮÙĪÚº":7459,"ĠØ¨Ú¾Ø±ÙĪØ³":7460,"ĠÙ¾ÚĳÚ¾Ø§":7461,"Ø§ØŃØªØ³Ø§Ø¨":7462,"ĠÙĪØ±Ø²Ø´":7463,"ĠÙģØ§Ø¦Ø²":7464,"ĠØ§Ø³ØªØ¹Ø¯Ø§Ø¯":7465,"Ġ400":7466,"ĠØªÛĮØ§Ø±ÛĮÙĪÚº":7467,"ĠÙ¾Ø³ÙħØ§ÙĨØ¯Ûģ":7468,"ĠÙĪÛĮÙħÙĨ":7469,"Ġ67":7470,"ĠÚ©Ú¾ÛĮÙĨ":7471,"ĠÙĦÚ¯Ø§ØªÛĴ":7472,"ĠÙĪÙħ":7473,"ĠÙĨØµØ±":7474,"Ø²Ø§ÙĨÛģ":7475,"ĠÚ¯Ú¾Ù¹":7476,"ĠÚĨÙĪØªÚ¾ÛĮ":7477,"ĠÙĪÚº":7478,"Ø§Ø¦ÙĨØ³":7479,"ĠÙħØ§ØªØŃØª":7480,"Ø§Ø³Ù¹Ø±Ú©ÚĨØ±":7481,"ÙħÙ¾Ø¦ÙĨ":7482,"´¿":7483,"ĠØ¬Ø¯":7484,"ĠØ§ÙĪØ±Ùħ":7485,"Ø¢ØµÙģ":7486,"ĠØ¬Ø§ÛĮØ§":7487,"Ø§ÙĨØ³Ø§ÙĨ":7488,"ĠØ¯Ø§Ø¤Ø¯":7489,"ĠÙħÙĨØ³":7490,"ĠÙĪØ§Ø¬Ø¨Ø§Øª":7491,"Ú©Ø±Ú©Ù¹":7492,"ĠÙħØ«ÙĦØ§":7493,"ĠØºØµÛģ":7494,"ÙĤØ±Ûģ":7495,"ĠØ²Ø§Ø±":7496,"ĠØ³Ù¾Ø±ÙĨÙ¹":7497,"ĠÙģØ§ØªØŃ":7498,"ĠÛģØ§Ø¤Ø³ÙĨÚ¯":7499,"ĠÙ¾Ø§Ø¦ÙĦÙ¹":7500,"ĠÚ©ÙĨÙĪÙĨØ´ÙĨ":7501,"ĠØ¬Ø§ÛģÙĦÛĮ":7502,"ĠÙĨØ³ÙĦÙĪÚº":7503,"ÙĤØ§Ø±":7504,"ĠØ§ÙĨÙĤÙĦØ§Ø¨ÛĮ":7505,"ĠÛģÙĨØ¯ÙĪØ³ØªØ§ÙĨ":7506,"ĠÙ¾Ø®ØªÛģ":7507,"ĠÙħØ§ÛĮÙĪØ³ÛĮ":7508,"Ø§Ø³Ù¹ÛĮØ´ÙĨ":7509,"ĠØ§ÛĮØ¬ÙĨÚĪØ§":7510,"ĠÙģÙĨÚ©Ø§Ø±ÙĪÚº":7511,"ĠÙĪÙħØ§":7512,"ĠØ±ÙĪÛĮ":7513,"ĠØ§ÙĨÙģØ±Ø§Ø¯ÛĮ":7514,"ĠÙĨØ±Ùħ":7515,"ĠÙħØ²Ø§Ø¬":7516,"Ø§ÛģØ¯Ø§Ø±ÛĮ":7517,"ĠÙ¾ÙħÙ¾":7518,"´¾":7519,"Ø³ÙĪØ±":7520,"ĠÙħÙĦÙĨØ§":7521,"ÙħØªØŃ":7522,"ĠÙģØ±ÛĮÙĨ":7523,"ĠØªØ´Ûģ":7524,"ĠØ¹Ø¨Ø¯Ø§ÙĦØ±":7525,"ĠÚĨÚ¾ÙĪÚĳØ§":7526,"ĠÙħØŃØªØ±ÙħÛģ":7527,"ĠÙģØ±ÙĤÛģ":7528,"ĠØ¯ÛĮÛģØ§Øª":7529,"ĠØ¢ÙģÛĮØ³Ø±Ø²":7530,"ĠØ¨Ø§Ø¨Ø§":7531,"ĠÙ¾ÙĦÛĴ":7532,"ĠÙĦÛĮØªÛĮ":7533,"ĠØ¨Ø±Ø§Ø¯":7534,"on":7535,"ĠÙħÙĨØ¯ÛĮ":7536,"ĠØ¹ÙĦØ§":7537,"ĠÙħÙĨØ·":7538,"ĠØ¹ÙĪØ±ØªÛĮÚº":7539,"ĠÙĨÙĤØ¯":7540,"ĠØ±ØŃÙħÙĨ":7541,"ÙĪØ§ÚĪ":7542,"ĠØ§ÙĨÚĪÛĮÙĨ":7543,"ÚĪÙĪÛĮÚĺÙĨ":7544,"ĠØ®Ø·Ûģ":7545,"ĠÙĨØ§Ø³":7546,"Ø§ØµÙĦØ§ØŃ":7547,"ĠØ¨ÚĳÚ¾ÛĴ":7548,"ÙħÙĨØ¯":7549,"ĠÙ¹ÛĮÚ©ÙĨÛĮÚ©ÙĦ":7550,"Ú©ÛĮÙĨ":7551,"ĠÙĦÛĮÙĪÛĮØ²":7552,"Ø§Ø¹Ø¯Ú¯ÛĮ":7553,"ĠØ³Ø±Ú©Ø§Ø±":7554,"Ø±Ú©Ø§Øª":7555,"Ġ76":7556,"ĠÙ¾Ø§Ø±Ù¹ÙĨØ±":7557,"ĠØ®ÙĪØ´Ø®Ø¨Ø±ÛĮ":7558,"Ø§ÙĦÛĮØ§":7559,"ĠØ§ÛģÙĦØ®Ø§ÙĨÛģ":7560,"ĠÚ©Ø§ÙĦÛĴ":7561,"ĠØ¯Ø±Ø¬Ø§Øª":7562,"ĠÚ©Ø³Ø§ÙĨ":7563,"Ø§ÙĨØ³Ø§ÙĨÛĮ":7564,"ĠØ¯Ø±ÙĪØ§Ø²Ûģ":7565,"ĠÙģØ§Ø±ÙĪ":7566,"ĠÙĦØ§Ø¦ÙĤ":7567,"ĠÚ¯Ø±Ø§":7568,"ĠØµÙĨØ¹ØªÙĪÚº":7569,"ĠØ¬Ø¹ÙģØ±":7570,"ĠØªÙĨØ§Ø³Ø¨":7571,"ĠØ³ÙĨØªÛĴ":7572,"ÙģØ±Ø§ÛģÙħ":7573,"ÙģÙĪØ§Ø¯":7574,"ĠÙĦØ§Øª":7575,"ÙģÙĨÚĪ":7576,"ĠØªØ°Ú©Ø±Ûģ":7577,"ĠÙĦÚ¯ØªÛĮ":7578,"Ø«ÙĨÛĮ":7579,"ÙĪÚ©ÙĪÙĦ":7580,"ÙĪÙ¹Ø³":7581,"ĠØ¯Ø§ÙĨÙĪÚº":7582,"ĠÙħÙĨÚ©Ø±":7583,"ĠØ¬ÙĦØ§ÙĦ":7584,"ĠØ§Ø³Ù¹Ø§Ú©":7585,"ĠÚ¯Ø±ÙĪÙ¾ÙĪÚº":7586,"ĠØ§Ø³ÙħØ§Ø±Ù¹":7587,"ĠØªÙĪÙĤØ¹Ø§Øª":7588,"ĠÙ¹Ø±ÛĮÚ©":7589,"Ġ51":7590,"ĠÙ¾Ú¾ÛĮØ±":7591,"ĠÛģØ§Ø¦Ø±":7592,"ĠÙ¾Ø³Ù¹ÙĦ":7593,"ĠÙ¾Ø§Ø¦ÛĮÚº":7594,"ØªÙħÛģ":7595,"ĠÙĦÙħØŃ":7596,"ĠÙĦØ§Ø¦ÙĨØ²":7597,"ĠÚ¯Ú¾Ø¨Ø±":7598,"ĠÙħÙĨØ³ÙĪØ¨":7599,"ĠØµØ§ØŃØ¨Ø²Ø§Ø¯Ûģ":7600,"ĠØ±ÛĮØ²Ø±ÙĪ":7601,"ĠÚ©ÙĦÙħ":7602,"Ġ99":7603,"ĠÛģÛĮÚĪÚ©ÙĪØ§Ø±":7604,"ĠÙĪÛĮÚ©Ø³":7605,"ĠØ³ÛĮØ²":7606,"ĠØ¯Ø³ØªÛĮØ§Ø¨ÛĮ":7607,"Ġ68":7608,"Ø¨Ø±Ø¢ÙħØ¯":7609,"ĠØ§ÚĪÛĴ":7610,"Ú©ÛĮÙ¾":7611,"ĠÚ©ÙĦÛĮÙħ":7612,"ĠØ·Ø±ÛĮÙĤÙĪÚº":7613,"ĠÙĤØ±Ø·Ø¨ÛĮ":7614,"ĠÚ©ÙħÛĮÙ¹ÛĮÙĪÚº":7615,"Ú¾Ø§Ø¦ÛĮ":7616,"ĠÙħØ¹Ø¬Ø²Ûģ":7617,"ĠÙħÙĨØ¯Ø±":7618,"ĠØ¬Ø§Ø¦ÛĮÙĨÚ¯ÛĴ":7619,"ĠÚĪØ§Ú©":7620,"ĠØ§Ø³Ù¹ÛĮÙĦ":7621,"ĠØ¬ÙĦÙĪØ³ÙĪÚº":7622,"ĠØ¢ÙħØ¯ÛĮØ¯":7623,"ÙħÙĪÙĦØ§ÙĨØ§":7624,"ĠÙĪØ²Ø±Ø§":7625,"ĠØ¨ÙĪÚĳ":7626,"ĠÙĨØ§Ø´":7627,"ĠØ¬Ø§ÙĦ":7628,"ĠØ³ÙĦØ·":7629,"ĠÙģÙĪÙĨØ²":7630,"ĠØ¹ÙĦÙĪÛĮ":7631,"ĠÚ©Ø§Ø±ÙĪ":7632,"ĠØªÙĨØ§Ø²Ø¹Ø§Øª":7633,"ĠÙ¹Ú©ÚĳÛĴ":7634,"ĠÙ¾ÙĦØ§Ø³Ù¹Ú©":7635,"ĠÙĤØ¨ÙĦÛģ":7636,"ĠÚĨØ§Ø±Ûģ":7637,"ĠÙħØ¹Ûģ":7638,"Ù¹Ø³ÙħÛĮÙĨ":7639,"ĠØ¹Ø§Ø·Ùģ":7640,"Ù¾ÛĮÚ©Ø§":7641,"ĠØ¶Ø±Ø¨":7642,"ĠØ±ÙĪØ²Ú¯Ø§Ø±ÛĮ":7643,"ĠØ¨Ú¾Ø±ÙĪØ³Ûģ":7644,"ĠÙħØªØ±Ø§Ø¯":7645,"ĠØ§ÙĦØŃØ§ÙĦ":7646,"ĠÙ¾Ú¾ÛĮÙĦØ§":7647,"ĠÙĨØ²ÙĪÙĦ":7648,"ĠØ³Ú©ÙĪ":7649,"ĠØ³Ù¹Ø±":7650,"ÙĪØ¨Ûģ":7651,"ÙĤÙĤÛĮÙĨ":7652,"Ø§Ø¯Ø§Ú©Ø§Ø±":7653,"----":7654,"ĠØ¨Ø®ÙĪØ¨ÛĮ":7655,"ĠØ§Ø³Ú©ÙĪØ§ÚĪ":7656,"ĠØ§Ø³Ú©Ø§":7657,"ĠØ§Ø¨Ú¾Ø±":7658,"ĠÛģØ§ÙĦÛĮ":7659,"ÚĪÛĮØ§ÙĦÛģ":7660,"ĠØ¹ÙĨÙĤØ±ÛĮØ¨":7661,"ĠÙĦÚ¯ØªÛĴ":7662,"ĠØµÙĪÙģÛĮ":7663,"ĠÚ©Ø¹Ø¨Ûģ":7664,"ÙĪØ±ÙĨÛģ":7665,"ĠØªÙĪØ§Ø²ÙĨ":7666,"ĠØ¨Ø¬Ú¾":7667,"ĠØ¹ØªÛĮÙĤ":7668,"ĠØ¨Ú¾ÛĮØ¬ÛĮ":7669,"ĠØ¯Ø±Ø¨Ø§Ø±":7670,"ĠØ§ÙĨØ±Ø¬ÛĮ":7671,"Ø±ÙĪÚĪ":7672,"ĠØ¹Ø¨Ø¯Ø§ÙĦØŃ":7673,"Ø³ÙĪØ¯":7674,"ĠØ¯Ø®ÙĦ":7675,"ĠØ¯Ú©Ú¾Ø§Ø¦ÛĴ":7676,"ĠØªØ¨Ø¯ÛĮÙĦÛĮØ§Úº":7677,"ĠÙĪØ§Ø³Ø§":7678,"ĠØ§ÙĤØ±Ø§Ø±":7679,"ĠØ³Ø§ØŃÙĦ":7680,"ĠÙ¹ÛĮÙĦÙĨÙ¹":7681,"ĠØ³Ù¹ÛĮÙ¹":7682,"ĠÚ©ÙĪØ±ÛĮ":7683,"ÙĦØ¹":7684,"ĠØ¬Ú¾ÙĨÚ¯":7685,"ĠØ²Ø®ÙħÙĪÚº":7686,"ĠØµØ§ØŃØ¨Ø²Ø§Ø¯ÛĮ":7687,"ĠØ§ÙģÙĪ":7688,"ĠÙ¾Ø±Ø§Ø¦ÙħØ±ÛĮ":7689,"ÙħØ¹Ø§ÙĦ":7690,"ĠÙ¾Ú©ÚĳØ§":7691,"ĠØ¯Ø§Ø¦ÙĪØ¯":7692,"ĠÚ©Ú¾Ø¬ÙĪØ±":7693,"ĠØ§ÙĨØ¯Ø§Ø²ÛĮ":7694,"Ø§ÛģÙĦÚ©Ø§Ø±":7695,"ĠÙ¹Ø±Ø§ÙĨØ³Ù¾":7696,"ĠØ§ÙĦÙĨØ¨ÛĮ":7697,"ĠÙħØªØ±Ø§Ø¯Ùģ":7698,"Ú¯Ø±ÛĮØ²ÛĮ":7699,"Ø¨Ú¾ÙĪØ´ÙĨ":7700,"Ø¬ÙĦØ¯":7701,"ÛĮÚ©Ûģ":7702,"ĠÚ©ÛĮÙħÛĮ":7703,"ĠÙĨÛģØ§Ø¯":7704,"ĠÛĮÛģÙĪØ¯ÛĮ":7705,"ĠØªÙĦÙģ":7706,"Ø§ÙĦØ§Ø¶ØŃÛĮ":7707,"ĠÚĪÚ©ÛĮ":7708,"Ġ72":7709,"ÙĨØ§Ø³":7710,"ĠÙĪØ¨":7711,"ĠØ§ÛĮØ²":7712,"ĠØªÚ¾ÙĪÚĳÛĮ":7713,"ĠØ¨ÛĮÙĨØ±Ø²":7714,"ĠÛģØ§ÙĦÛĮÙĨÚĪ":7715,"Ú©Ø¨Ú¾ÛĮ":7716,"ĠÙĨÙĨ":7717,"Ø§Ø¯Ø§Ø±ÙĪÚº":7718,"ĠØ±Ø§Ø¤ÙĨÚĪ":7719,"ĠØ§ÛģÙĦÛĮ":7720,"ĠÙħØªÙĪØ¬Ûģ":7721,"ĠØ¢ÙĦÙĪ":7722,"ĠØ¨ÛĮÙ¹ÙĪÚº":7723,"ĠØ¯ÙĪØ·Ø±ÙģÛģ":7724,"ĠÙģØ§Ø¦ÛĮ":7725,"Ù¹ÛĮÙĪÚº":7726,"ĠØ´Ø§Ø¯Ø§Ø¨":7727,"Ø¨Ø§Ø¹":7728,"ĠÙħÛģÙħÙĨØ¯":7729,"ÙĪÛĮØª":7730,"ĠØ¹Ø§Ø¬":7731,"ĠÚĨÙĪØ±ÙĪÚº":7732,"ĠÙĨÙĪØ´ÛĮ":7733,"ĠØ³ÛĮÙĨÙħØ§":7734,"ĠØ§ÙĨØŃØµØ§Ø±":7735,"Ø³Ù¹ÛĮØ¨ÙĦ":7736,"ĠÙģØ§Ù¹Ø§":7737,"ĠØºØ±ÛĮØ¨ÙĪÚº":7738,"ĠÙ¾Ú¾ÙĪÙĦÙĪÚº":7739,"Ø§Ø¯Ú¯ÛĮ":7740,"ĠÙĪØ±Ú©ÙĨÚ¯":7741,"ĠØ¨Ø±Ø·Ø±Ùģ":7742,"ĠØ³ÙĨÛģ":7743,"ĠÙĤØ§Ø¦ÙĦ":7744,"Ø§ÛĮØ¦Ø±":7745,"ĠØ°ÛĮØ§Ø¨ÛĮØ·Ø³":7746,"ĠÚ©ÙħØ§":7747,"ĠØ´ÛģØ±ÛĮØª":7748,"ĠØ¬Ø°Ø¨":7749,"ÛģØ³Ù¾ØªØ§ÙĦ":7750,"Ù¹Ú¾Ûģ":7751,"ĠØ¨Ø¯ÙĦÙĨÛĴ":7752,"Ú¯ÙĦÛģ":7753,"ĠØ®Ø¶Ø¯Ø§Ø±":7754,"ĠØ¬ÙħØ§Ø¹":7755,"ĠØ¨ÚĳÚ¾Ø§ÛĮØ§":7756,"ĠÙĦÙħØ¨ÛĮ":7757,"ĠÙĦÙħØŃÛģ":7758,"ĠÙħÛĮØ³":7759,"ÙĪÙĦÛĴ":7760,"ĠÙħØ§Ø±Ú©":7761,"ÙĪÙĨÙĪ":7762,"Ġ88":7763,"ĠØ§ÙĪÛĮØ³":7764,"Ø±ÛģØ§":7765,"ĠØ®Ø·ÙĪØ·":7766,"ĠØ§ÛĮÙħØ¨ÙĪÙĦ":7767,"ĠØªØ¨ÙĦÛĮØº":7768,"40":7769,"ĠØ³Ø§ÙģÙ¹":7770,"ĠÙĦÙĪØ·":7771,"ĠÙħÛģÙĨÚ¯ÛĮ":7772,"ĠØ§Ú©ÙħÙĦ":7773,"ĠÚ©Ø§ÙĨÚ¯Ø±ÛĮØ³":7774,"ĠÙ¾Ø±ÙĪÚ¯Ø±Ø§ÙħØ²":7775,"Ø´ÛģØ±ÛĮ":7776,"ÙĨÙĪÛĮØ±":7777,"ĠØ¨ØŃÛĮØ«ÛĮØª":7778,"ĠÙĨØ±ÛĮ":7779,"Ø§ÛģØ¨":7780,"ĠØ¨ÙĦÙĪ":7781,"ÙĦÙĨ":7782,"Ø§Ø³Ø±":7783,"Ø´Ø±ÛĮ":7784,"ĠÙĤØ§":7785,"ĠÚĪØ±ÙĪÙĨ":7786,"ĠØ³ÙĪÛĮ":7787,"ÙĦÛĮØ³":7788,"ĠØ³ÙħØ±ÛĮ":7789,"ĠÚ©Ø±Ú©Ù¹Ø±Ø²":7790,"ĠÚĨØ§Ø¦":7791,"ĠØ¹ÙĨÙĪØ§ÙĨ":7792,"ĠÙ¹ÛĮØ¨ÙĦ":7793,"ĠØ³Ø§Ø¦ÙĨØ³Ø¯Ø§ÙĨÙĪÚº":7794,"ĠÚ©ÛĮØ¬Ø¦ÛĴ":7795,"Ø§Ø³Ù¹ÛĮ":7796,"ĠØ³Ø§Ø®":7797,"ĠØ´Ø±Ø¹ÛĮ":7798,"ĠØ¨Ø§Ø²ÙĪÚº":7799,"ĠØ®ÙĪÙģÙĨØ§Ú©":7800,"ĠØ²Ø§Ø¦Ø±ÛĮÙĨ":7801,"ĠØ§Ø³ÙĨØ§Ø¯":7802,"ĠÙħØ¶Ø¨ÙĪØ·ÛĮ":7803,"ĠÙģØ§Ø³":7804,"ĠÚĨÛĮÙĨÙĦØ²":7805,"ĠØªØ¯Ø§Ø±Ú©":7806,"an":7807,"ĠÙ¾Ø±Ø¹Ø²Ùħ":7808,"Ø§Ø¶ÙĦ":7809,"ĠØŃØ§Ø¯Ø«Ûģ":7810,"ĠØµÙĦØŃ":7811,"ĠØ§ÛĮØ§Ùħ":7812,"ĠÚ©Ø±ÙĦØ¦ÛĴ":7813,"ĠÙģÙĪÙ¹ÙĪ":7814,"Ġ2011":7815,"ĠØ§Ú©ÙĨØ§Ùħ":7816,"Ø¯ÛĮÚ©":7817,"ÚĪÛĮÙĪØ³Ø±":7818,"Ù¹ÛĮÚ©Ø³":7819,"ÙĤØµ":7820,"ĠÚĪÛĮÙħÙĪÚ©Ø±ÛĮ":7821,"Ø·ÛĴ":7822,"ĠÚĪØ§Ø¦Ø±ÛĮÚ©Ù¹":7823,"ĠØ§Ø³ÙħØ¨ÙĦÛĮÙĪÚº":7824,"ĠØ¶Ø§Ø¨Ø·":7825,"ĠØªÙĤÙĪÛĮ":7826,"Ø§ÙĤÙĪØ§Ùħ":7827,"Ø¢Ø¡":7828,"ĠØ§ÙĤØ¯Ø§Ø±":7829,"ĠÙħÙĤØ±Ø±ÛĮÙĨ":7830,"ĠØ³ÛĮÙĦØ²":7831,"ĠÙĨØ§Ø±ØªÚ¾":7832,"ĠØ§ÚĳØ§":7833,"ĠÙĨØ´Ø±ÛĮØ§Øª":7834,"ØŃÛĴ":7835,"ĠØªØ¯Ø¨ÛĮØ±":7836,"ĠØ³Ø§Ú©":7837,"ĠØ´ÙĤ":7838,"ĠØ§ÙĨØ¯Ø±ÙĪÙĨ":7839,"ĠÙħØ§ÙĨØ³ÛģØ±Ûģ":7840,"ĠØ¢Ø²Ø§Ø¯Ø§ÙĨÛģ":7841,"ĠØ§Ú©Ù¹Ú¾Ø§":7842,"ÙĨÛĮÙĪ":7843,"Ø§ÙħÙĦÛģ":7844,"ĠØ§Ø³Ú©Ø±ÛĮÙĨ":7845,"ĠØ´Ø¬Ø±Ú©Ø§Ø±ÛĮ":7846,"ĠØ§ÙĦÙħÙĨ":7847,"Ø¯Ø±ÙĨ":7848,"ĠÚĪÚ¾Ø§Ø¦ÛĮ":7849,"ĠÙħÚ©ÛĮ":7850,"ĠÚ©ÙĪØ§Ø±Ù¹Ø±Ø²":7851,"Ø¡ÙħÛĮÚº":7852,"ĠØ§ÙħÙĦØ§Ú©":7853,"ĠÙĪÛĮÚĪÛĮÙĪØ²":7854,"ĠØµØ§ØŃØ¨Ø²Ø§Ø¯":7855,"ĠØ¬Ú¾ÙĪÙ¹Ø§":7856,"ĠØ§ÛĮÚ©Ø³ÚĨÛĮÙĨØ¬":7857,"ĠØ±Ø®ØµØª":7858,"Ø§Ù¾ÙĪØ±":7859,"ÙģØ§Ø±ÙĪÙĤ":7860,"ĠÚ¯Ø¬Ø±Ø§Øª":7861,"ĠØ¨ÚĨØª":7862,"ĠÙ¾ÚĳØªÛĮ":7863,"Ø³Ø¯Ûģ":7864,"ĠØªØ¬Ú¾":7865,"ĠØ¢Ø³ÛĮÛģ":7866,"Ø¨ÛĮØ¬ÙĨÚ¯":7867,"ĠÙħØªØ¹ÛĮÙĨ":7868,"ĠØ§ÙĨØ¬ÙĨ":7869,"ĠÚ¯Ø±Ø§Ø¦ÙĪÙĨÚĪ":7870,"ĠÙ¾ÚĨÛĮØ³":7871,"ĠØ§ÙĨØ¯ÛĮ":7872,"ĠØ¬Ø§ÙĨÛĮÚº":7873,"ĠÙģØ±Ø§ÙĨØ³ÛĮØ³ÛĮ":7874,"ĠØ¸Ø§ÛģØ±ÛĮ":7875,"ĠØ¨Ú¾Ø±ÛĮ":7876,"ĠÙ¾Ø§Ø±ÙĦÛĮÙħØ§ÙĨ":7877,"ĠØ§ÙĨÙģ":7878,"ĠØ¨ÙĦØ§Ø´Ø¨Ûģ":7879,"ĠÚĨØ§Ú©":7880,"ĠÙħÙĪØ³ÙħÛĮØ§ØªÛĮ":7881,"ĠÙ¾ÙĪÛĮÙĦÛĮÙĨ":7882,"ĠÙĤØµÛģ":7883,"Ø¦Ùħ":7884,"ĠØ¨ÛĮÙ¹Ø³ÙħÛĮÙĨ":7885,"ĠØ¨ÚĨÙĨ":7886,"ĠØ§ÙĨÚ©Ùħ":7887,"Ø¯ÙĪØ²":7888,"ĠØªÚ©ÙĨÛĮÚ©ÛĮ":7889,"200":7890,"ĠÙħØŃÚ©Ùħ":7891,"Ø¯ÛĮØ§":7892,"Ø¨Ø¹":7893,"Ø¢ÛĮØª":7894,"ĠØ·Ø±":7895,"ĠØªØ³Ø¨ÛĮØŃ":7896,"ÙĨÛĮÚĨØ±":7897,"Ø¨Ø±Ø§Ûģ":7898,"ĠÙħØ³Ø±Øª":7899,"ĠÙħØµÙĨÙģ":7900,"ĠØ§ÙĨØ¬Ùħ":7901,"ĠØ¬Ø§Ø±ØŃÛĮØª":7902,"ĠØ³Ø§Ø¦ÙĨØ³ÛĮ":7903,"ĠØ§Ø´ÛĮØ§Ø¦ÛĴ":7904,"ĠÚ©Ø§Ø±ÙĨØ±":7905,"ĠÙħØ¯Ø±":7906,"ĠØµÛĮ":7907,"ĠÙħØ·Ø§ÙĦØ¨":7908,"ĠÙģÛģÛĮÙħ":7909,"ĠÙĨÙĪÙħÙĨØªØ®Ø¨":7910,"ĠÙ¾ÚĳÚ¾ØªÛĴ":7911,"ĠØ§ÙĤÙĦÛĮØªÛĮ":7912,"ĠÚĪÙĪÛĮ":7913,"ĠØ±ÙĪÙ¹ÛĮ":7914,"Ø§ÙħÛĮÙĪÚº":7915,"ĠØ§Ø¯Ø§Ú©Ø§Ø±ÙĪÚº":7916,"ĠØ±Ø¬Ø³Ù¹Ø±Ø§Ø±":7917,"ĠØ¨ÙĦØ¯ÛĮØ§ØªÛĮ":7918,"Ø³ÛĮÙģ":7919,"ĠÙĨÛĮÙĪÛĮØ§Ø±Ú©":7920,"Ø¬ÙħØ§Ø¹Øª":7921,"ĠÙ¾Ø±ÙĪÙ¹ÙĪÚ©ÙĪÙĦ":7922,"Ø¬Ø§ÙĪ":7923,"ĠÛģÙħÙĪØ§Ø±":7924,"ĠÚ©ÛĮÙħÛĮØ§Ø¦ÛĮ":7925,"Ø§ÙĦÙħÙĪÚº":7926,"Ø§ÙħÙĪØ´":7927,"ĠØ¨Ø§Ø²ÙĪ":7928,"ĠØ®ÙĪØ§ÛģØ§Úº":7929,"ĠØ±ÙģØªØ§Ø±ÛĮ":7930,"ĠÙħÙĤØ§Ø¨ÙĦ":7931,"ĠÙĪÙĤØ§Øµ":7932,"ĠÙħÙĪÙ¹":7933,"ĠÚ¯Ø§ÙĦÛģ":7934,"ÚĪÙĨÙ¹":7935,"ĠÚ©ÙĪØ¢Ø±":7936,"Ø®ÙĪÙ¾ÙĪØ±Ûģ":7937,"ĠØªØ¨ØµØ±Ûģ":7938,"ÙħØ±Ú©":7939,"ĠØ³ÙĪÙĦÛģ":7940,"ĠØ¢Ø¬Ø§Ø¦ÛĮÚº":7941,"ĠØ§Ù¹Ú¾Ø§ÙĨØ§":7942,"ĠD":7943,"ĠØ¬ÛĮÚ©Ø¨":7944,"Ø²Ø¯Ûģ":7945,"ĠØ¢Ø±Ú¯ÙĨØ§Ø¦Ø²ÛĮØ´ÙĨ":7946,"ÙħØ±ÛĮÙħ":7947,"ĠØŃÚ©ÙĪÙħØªÛĮÚº":7948,"ĠÙģÙ¹ÙĨØ³":7949,"ÙĪØ¬Ûģ":7950,"ĠÛģÙĨ":7951,"ĠØ¯Ø§Ø¦ÛĮÚº":7952,"ĠØ¨Ú¾Ø§":7953,"ĠØ´ÙģØ§Ø¹Øª":7954,"Ø§ÛĮÙĨÚĪ":7955,"ĠØ¯ÙģÙĨ":7956,"Ø§Ø±Ø¶":7957,"Ø¸ÛĮ":7958,"ĠØ§ØºÙĪØ§":7959,"ĠÙħÙĦØ§Ø¦ÛĮØ´ÛĮØ§":7960,"ĠØªÙĪÙģÛĮÙĤ":7961,"ĠØ§ÙħÙĪØ§Øª":7962,"Ø¨ÚĨÙĪÚº":7963,"ĠØ¢ÚĨ":7964,"ĠØ¬Ø§ÙħØ¹Ø§Øª":7965,"ĠÙ¾Ø±ÙĪÙģÛĮ":7966,"ĠØ¨ÙĪØ§Ø¦Ø²":7967,"ĠM":7968,"ØµØ§ØŃØ¨":7969,"ĠØ§Ø®Ø¨Ø§Ø±Ø§Øª":7970,"ĠÚ©Ø±ÙĨÛĮÙĪØ§ÙĦÛĴ":7971,"ĠØ³ÛĮØ§ØŃØªÛĮ":7972,"ĠÛ±Û´Û±Û":7973,"Ø±ÙĪØ¨":7974,"Ú©Ø§ÚĳÛģ":7975,"ĠØ¨ÚĨØ§Ø¤":7976,"ĠØ¨ÙĨØ¯Ú¯ÛĮ":7977,"Ø±ÛĮÙĤÛĮ":7978,"ĠÙ¾ÚĳÚ¾ÛĮ":7979,"ĠØ§Ù¹Ú¾Ø§Ø¦ÛĮ":7980,"ÚĨØ§Ûģ":7981,"ĠØ¨ÙĦÙĪØ±":7982,"Ø§ÛĮØ³ÙĪ":7983,"ĠØ³Ø¹ÙĪØ¯":7984,"Ø±Ø§Ú©":7985,"Ø¬ÙĨÙĪØ¨ÛĮ":7986,"ĠÙħØ§Ø±Ù¹Ùħ":7987,"ĠØºÙģÙĪØ±":7988,"ĠÙģØ§ØµÙĦÛĴ":7989,"ÙĪØ§ÙĨÛĮÙĨ":7990,"ĠØªØ²":7991,"ÚĪØ±Ø²":7992,"ĠØ¨ÙĨÙĨØ§":7993,"Ù¾ÛĮÚ¯":7994,"ĠØ¨ÛĮÙ¹Ú¾ÙĨÛĴ":7995,"ĠÛģØ§ÙĪØ³":7996,"ĠÙħØ±ÙĪØª":7997,"ĠÙ¾Ø±Øª":7998,"ĠØ³ÛĮØ±Øª":7999,"ÙħØ±Ø§Ø¯":8000,"ĠØ§ÚĨÚ¾":8001,"ĠØªÙĨÛģØ§":8002,"ĠØ¬Ú¾Ù¹ÙĦ":8003,"ĠØ¬Ú¾ÙĪÙ¹ÛĮ":8004,"ĠÙĤØ·Ø±":8005,"ĠÙħØ¤Ø«Ø±":8006,"Ø¨ÙĪØ³":8007,"Ø®Ûģ":8008,"ĠÙħÛĮÙĨØ²":8009,"ĠØ¯Ø§Ø¯ÙĪÚº":8010,"Ø¯ÛĮÚ¯Ø±":8011,"ĠØªØ´Ø±ÛĮÙģ":8012,"ï·º":8013,"ĠÙ¾Ø±Ø³":8014,"ĠÙĦÙĪÚ¯ÙĪ":8015,"ĠØ³Ø¨Ø³":8016,"ĠØ¹Ø¨Ø¯Ø§ÙĦØ±Ø²Ø§ÙĤ":8017,"ĠÙĦÙĨÚ©":8018,"Ø§ÙĨØ¬":8019,"ĠÚ©Ø§Ù¾ÛĮ":8020,"Ġ87":8021,"ĠØ§ÚĨÚ©Ø²Ø¦ÛĮ":8022,"ĠÛģØ¯":8023,"ĠØ´ÛģØ±ÛĮØ§Ø±":8024,"ĠÙĦØ§Ø¦Ùģ":8025,"ĠØ§ÙĨÚ¯Ø±ÛĮØ²ÛĮ":8026,"Ø§Ø¦Ø¯ÛĮÙĨ":8027,"Ø¢Ù¾Ø±ÛĮØ´ÙĨ":8028,"ĠÙħØ·Ø§":8029,"ĠÙħØ±Øº":8030,"ĠÙĨÚ¯Ûģ":8031,"ĠØ¯ÙĦØ§":8032,"ĠÛģÛĮÚºØ§ÙĪØ±":8033,"ĠØ³ÙĨØ§ØªÛĴ":8034,"Ø¯Ø§ÙĨÛĮ":8035,"ĠÙħÛģÛĮÙĨÛģ":8036,"Ù¾ÛĮØ¦ÙĨ":8037,"ĠÙħÛĮÙ¹Ø±ÙĪ":8038,"ĠÙģÚ©Ø³":8039,"ĠØ³ØŃØ±":8040,"Ø§ÙĦØ¯ÛĮÙĨ":8041,"ÙħØªØ§Ø«":8042,"ĠØ§ÙĨÚĪØ³Ù¹Ø±ÛĮÙĦ":8043,"ĠÙĪØ§Ø´":8044,"ĠÚĨÙ¹":8045,"ĠØ¨Ø±ÙĤÛĮ":8046,"Ø¨Ø§Ø±ÛĮ":8047,"ĠÙ¾ÙĪÚĨÚ¾ÛĴ":8048,"ĠØ§Ø³ÙĦØ§ÙħÛĮÛģ":8049,"ĠØ¨ÛĮÙĪ":8050,"ĠÙħØ³ÙħØ§Ø±":8051,"ĠØ®Ø§Úº":8052,"ĠÚ¯Ú¾ÙĪÙħ":8053,"ÙħÙĤØ¨ÙĪØ¶Ûģ":8054,"ĠØ®Ø³Ø±Ûģ":8055,"Ú©Ø§Ø¨":8056,"Ø§Ø¦Ø±Ùħ":8057,"ĠÙ¾ÛĮÙ¾Ø±Ø²":8058,"ĠÙģÛģÙħÛĮ":8059,"ĠÙħØ´Ø±ÙĪØ·":8060,"ÙĪØ§Ù¾":8061,"ĠØ«ÙĨØ§":8062,"ĠØ§ÚĪÛĮØ§ÙĦÛģ":8063,"ĠØŃØ§":8064,"ĠØªØ¯Ø±ÛĮ":8065,"Ġ69":8066,"ÛģÙĪØ¦ÛĴ":8067,"Ø´ÛĮØ¯Ûģ":8068,"ĠØ¬Ø±ÙħØ§ÙĨÛģ":8069,"ĠÙģÛĮÚĨØ±":8070,"ĠÙħÙĪØ²":8071,"ĠØ³Ú©ÛĮÙħÙĪÚº":8072,"ĠØ§Ø³Ù¾ØªØ§ÙĦÙĪÚº":8073,"ĠÙħØ§ÙĨÚ¯ÙĨÛĴ":8074,"ĠÙħÙĨÙĤØ·Ø¹":8075,"ĠØ±Ø§ÛģØ¯Ø§Ø±ÛĮ":8076,"ĠØªÚ¾ÙĪÚĳØ§":8077,"Ø§Ø¤ÙĨÚĪÛĮØ´ÙĨ":8078,"ĠØ¢ÙĨØ³ÙĪ":8079,"ÙĤÙĪØ§ÙĨÛĮÙĨ":8080,"ĠÚ¯ÙĪØ±":8081,"ĠØ¹Ø§Ø¯ÛĮ":8082,"ĠÙģÙĨÛĮ":8083,"ĠÙħØ§Ø±Ú©ÛĮÙ¹ÙĪÚº":8084,"ĠÙ¾Ø§Ø¦Ù¾":8085,"ĠØ¬ÙĦØ³Ûģ":8086,"ĠÚ©ÙĪÙ¹ÙĦÛĮ":8087,"ĠØ³Ø³Øª":8088,"ĠØ¯Ú©Ø§ÙĨØ¯Ø§Ø±ÙĪÚº":8089,"ĠÙħØ³ØªÙĪÙĨÚ¯":8090,"ĠÙħÙĦØŃÙĤÛģ":8091,"ĠÙĦÙħÛĮÙ¹ÚĪ":8092,"Ø§Ø²Ùħ":8093,"ĠØ³Ù¹Ø±ÛĮÙ¹":8094,"ÛĮØ±ÙĪÚº":8095,"ĠØ¨Ø±ÛĮÚ¯ÛĮÚĪ":8096,"ĠÙĨÙħØ§Ø¦ÙĨØ¯Ú¯Ø§ÙĨ":8097,"ĠÚ©ÛģØªÛĮ":8098,"ĠÚĪÛĮÚĪ":8099,"ĠÛģÙħÛģ":8100,"Ø³ØªÛĴ":8101,"ĠØ¢Ø¦Ø³":8102,"ÚĪÙĨÛĮ":8103,"ĠÙĨØ§ÙħÙħÚ©ÙĨ":8104,"ĠØªÙĨØ§Ø²Ø¹":8105,"ĠØ³ÙĪØ§Ø±ÛĮ":8106,"Ø§Ù¾Ø§":8107,"ĠØ¨Ø§Ú©Ø³":8108,"ĠÚ©Ø§Ø¬":8109,"ĠÚ©ÛĮÙ¹ÛĮ":8110,"Ø¬ÙĨÙ¹":8111,"Ø¨Ø¹Ø¯Ø§Ø²Ø§Úº":8112,"ĠØŃÙĨ":8113,"ĠØ§Ø´Ø¯":8114,"ĠÚĨÛĮØ±":8115,"ĠÙĤØ·Ø±ÛĮ":8116,"ÙħÙĤØ¯Ùħ":8117,"Ø§ÙĦØŃÙĤ":8118,"ĠØ§ÙĨØ³Ù¹ÛĮÙ¹ÛĮÙĪÙ¹":8119,"ĠØ¨Ø§Ø¦ÛĮÚº":8120,"ĠØ³Ú©ÙĪØ§ÚĪ":8121,"ĠØºØ¶Ø¨":8122,"ĠØ§ÙĨÛģÙĪ":8123,"ĠØ¬Ú¾Ú©":8124,"Ġ144":8125,"ĠØ§ÙĨÙ¹Ø±ÛĮ":8126,"ĠØ¢Ø³Ù¹Ø±ÛĮÙĦÙĪÛĮ":8127,"ÙħÙĨØµÙĪØ¨ÛĴ":8128,"Ú©Ø§Ø±Ú©ÙĨ":8129,"ĠØ¨ÙĪÙĦØ§":8130,"ĠÚ©Ø«Ø±Øª":8131,"ĠØ´Ø§Ø®":8132,"ĠÙħÙĦØ§ØŃ":8133,"Ø±ØŃØ§ÙĦ":8134,"ĠØ¯ÛĮÚ©Ú¾ØªØ§":8135,"Ø¬Ø§ÙĪÛĮØ¯":8136,"\\&":8137,"ĠÚĨØ§Ø¯Ø±":8138,"Ù¹ÛĮÚ©ÙĦ":8139,"ĠÚ¯ÙĦØ²Ø§Ø±":8140,"ĠØ¬ÙĪÙĨÛĮØ¦Ø±":8141,"Ø³ÙħØ§Ø¹Øª":8142,"Ø¯ÙĪØ±Ø§ÙĨ":8143,"ĠÙħØŃØ§ÙģØ¸":8144,"ĠÛ·":8145,"Ġ2010":8146,"ÙĦØ§ÙĨÛĴ":8147,"ÙħØ·ÙĦØ¨":8148,"ĠØªÙģØ±ÛĮÙĤ":8149,"ĠØ¹ÙĨØ¯ÛĮÛģ":8150,"ĠØªØ¨Ø¯ÛĮÙĦÛĮÙĪÚº":8151,"Ø§ÛĮÙħØ§ÙĨ":8152,"ĠÙħØ¬Ø³Ù¹Ø±ÛĮÙ¹":8153,"ĠØ¨ÛĮÙ¹Ú¾Ø§":8154,"Ø§Ø¦Ø±ÙħÙĨÙ¹":8155,"ĠØ¨ÛģØ§Ø±":8156,"ĠÚ©Ø§ÙĦØ§":8157,"ĠÙħØ´Ø§ÛģØ¯Ûģ":8158,"ĠØ²ÙĨØ¯Ú¯ÛĮÙĪÚº":8159,"Ø§ØºØ¨":8160,"ĠØ§ÙĪÙħ":8161,"ĠØ¯ÛģØ§Ø¦ÛĮÙĪÚº":8162,"ĠÙĤØ¨Ø§Ø¦ÙĦ":8163,"ĠB":8164,"ĠØ¹ÛĮØ³":8165,"ĠÙ¾Ú©ÚĳÛĴ":8166,"ĠØ¹ÙĤØ§Ø¦Ø¯":8167,"ĠÙ¾ÛĮØ´Ø±ÙģØª":8168,"ĠÚ©Ú¾ÛĮÙĦØªÛĴ":8169,"ĠØ¨ÚĨØ§ÛĮØ§":8170,"ĠØ¨ÛĮØ¯Ø§Ø±":8171,"ÛĮÙħØ²":8172,"ĠØ§Ø´ØªÛģØ§Ø±Ø§Øª":8173,"ĠÚĪØ±Ø§ÙħÛĴ":8174,"47":8175,"Ø¨Ø±Ø¯":8176,"ĠØ¹ÙĦÙħÙĪÚº":8177,"ĠØ¨Ø§ÚĪÛĮ":8178,"ĠÙģÙĤÛģ":8179,"ĠÙĦÙĨÚ©ÙĨ":8180,"ĠØ¬ØªÙĪ":8181,"ÛģÙĪØ§":8182,"ĠØ³Ø±Ù¹ÛĮÙģÚ©ÛĮÙ¹":8183,"ĠØ§ÙĦØ§ÙĨ":8184,"ĠÙ¾ÙĪØ´ÛĮØ¯Ûģ":8185,"ĠÙģÙĦÙħÛĮ":8186,"ĠØ³Ø±ÙģÛģØ±Ø³Øª":8187,"ĠØ´Ø§ÛģØ±Ø§ÛģÙĪÚº":8188,"Ø§ÛĮØ³ÙĪØ³ÛĮ":8189,"ĠØ²ÙħØ¨Ø§Ø¨ÙĪÛĴ":8190,"Ø±ÛĮØ³Ú©ÛĮÙĪ":8191,"ĠØ³ÚĨØ§Ø¦ÛĮ":8192,"ĠØ§Ú©Ø§Ø¦ÙĪÙĨÙ¹Ø³":8193,"ĠØ¯Ø§ÙħØ§Ø¯":8194,"ĠÙħØ·Ø§ÙĦØ¹Ûģ":8195,"ĠØ³Ù¹ÛĮÚĪÛĮÙħ":8196,"ĠØ¯ÙħØ§ØºÛĮ":8197,"ĠÛģØ§Ø¦ÛĴ":8198,"ĠÙ¾Ø±ÙĨÙ¹":8199,"ĠØ·Ø§ÙĤ":8200,"ĠÙ¾ÚĳÚ¾ÛĴ":8201,"Ø¯ÙĦØ§ÙĦ":8202,"ĠØ§Ø¨Ø§Øª":8203,"ĠÛĮØ§Ø¯Ú¯Ø§Ø±":8204,"ĠÙħØ´Øº":8205,"ĠØ¹Ø¨ÙĪØ±ÛĮ":8206,"ĠÙħØ®Ø¯ÙĪÙħ":8207,"ĠÙħØ¹Ø§Ø´Ø±ØªÛĮ":8208,"Ø¹Ø¯Ø§ÙĦ":8209,"Ù¾ÛģÙĦÛĮ":8210,"ĠÙ¾Ø±ÙĪÙ¾ÛĮÚ¯":8211,"ĠØªÙĨØ®ÙĪØ§ÛģÛĮÚº":8212,"ĠØªØ¬Ú¾ÛĴ":8213,"ĠØ¸Ø§ÙĦÙħÙĪÚº":8214,"ĠØ¢Ø±Ø²":8215,"ĠÙħØµØ¯":8216,"ĠØ±Ú©Ø§ÙĪÙ¹ÛĮÚº":8217,"ĠØ§ÛĮØ´ÛĮØ§Ø¡":8218,"ĠÚ¯Ø§ÛģÙĪÚº":8219,"ÙħÙĦÚ©ÛĮ":8220,"ÙħØ³ÙĦÙħØ§ÙĨ":8221,"ĠÙĨÙĤØ´":8222,"ĠØ¬Ø±ÙħÙĨÛĮ":8223,"ĠÙħØ¯ÙħÙĤØ§Ø¨ÙĦ":8224,"ĠÛģÙĦØ§Ú©ØªÙĪÚº":8225,"ÙģØ§Ø¦ÙĨ":8226,"Ù¾Ø§ÙĨÛĮ":8227,"Ø¬Ø±Ø²":8228,"ĠÙĦØ§Ø¡":8229,"ĠØµØ§Ø¨Ø±":8230,"ĠØ¨Ú¾Ø¬ÙĪØ§":8231,"ĠÚ¯Ø´Øª":8232,"ĠØ±Ú©ÙĨÛĮØª":8233,"ĠÙħÙ¹Ú¾":8234,"Ù¾Ú©ÙĪ":8235,"ĠØ²Ø¦ÛĮ":8236,"ĠØ§ÛĮÙħØ¨ÙĪÙĦÛĮÙĨØ³":8237,"ÙħØ±ÛĮ":8238,"ĠØ¯ÙģØ¹Ø§Øª":8239,"ĠØ¨Ø´ÙħÙĪÙĦ":8240,"ĠØ´Ø¬Ø§Ø¹Øª":8241,"ĠÚ©Ø§Ø±ÚĪØ²":8242,"ĠÚ©Ø§Ù¹ÙĨÛĴ":8243,"Ø¢Ø³Ù¹Ø±ÛĮÙĦ":8244,"ĠØ¨Ø¯ÙĨØ§Ùħ":8245,"ĠØ¯ÙĦØ§Ø¦ÛĮ":8246,"Ø§ØºÛĮ":8247,"ĠÚĨÚ¾Úĳ":8248,"ĠÙ¾ÛĮØºØ§ÙħØ§Øª":8249,"ĠÚĪÚ¾ÙĪÙĨÚĪ":8250,"ĠØ§ÙĦÙħØ¨Ø§Ø±Ú©":8251,"ÙĪÙĪ":8252,"ĠÙħØ·ÙĦØ¹":8253,"ĠØ¹Ú©":8254,"ĠØ±ÛĮÙ¾":8255,"ĠØ§Ø³ØªÙĪØ§Ø±":8256,"ĠØªØ¬Ø±Ø¨ÛĴ":8257,"Ø§Ú©ÙĪÙ¹":8258,"Ø±ÛĮÙĦÙĪÛĴ":8259,"ĠØ¯Ø±ÛĮØº":8260,"Ø¯ÙħØª":8261,"ÙĦÛĮÙģÛģ":8262,"ĠØ¬Ø§ÛģÙĦÛĮØª":8263,"ĠÙĨÛĮÙħ":8264,"Ø§Ø±ÛĮØ±":8265,"ØµØ§Ø±Ùģ":8266,"ĠÙĨØ´Ø³ØªÛĮÚº":8267,"ĠØ¨ØªÙĪÚº":8268,"ĠÙģØ§Ø±ÙĪÙĤÛĮ":8269,"ĠØ´ÙħØ³":8270,"ĠÙ¹Ø±Ø§ÙĨØ²":8271,"ĠÚ©Ø±ÛĮÚĪÙ¹":8272,"ĠÚ©ÙĦÛĮØ¦Ø±":8273,"ØªØ¨Ûģ":8274,"Ø´Ø±ÛĮÙģ":8275,"ĠØ¯ÛĮØ¬Ø¦ÛĴ":8276,"Ø§ÙĦØ³":8277,"ĠØ±ÙĤØ¨Ûģ":8278,"ĠØ¬Ú¾Ú¯ÚĳÛĴ":8279,"ĠÙ¹Ø§Ø¦ÛĮ":8280,"ÙĦÙĪÛĥ":8281,"ĠØªÛģØ°ÛĮØ¨":8282,"ÙħÙĤØ±":8283,"Ø³Ø§ØªÚ¾":8284,"ĠÚ¯Ø±Ø¯ÙĨ":8285,"ĠØ¨Ø§Ú©Ø³Ø±":8286,"ĠØ®Ø´":8287,"ĠÙħØ°ÙħÙĪÙħ":8288,"ĠÙħØŃØªØ§Ø¬":8289,"ĠÚ¾ÙĪ":8290,"ĠØ¹ÙĦØ§ÙħØ§Øª":8291,"ĠØªÙĪÚĳÙĨÛĴ":8292,"ĠÙ¾ÙĦØ§ÙĨÙ¹Ø³":8293,"Ø¯Ú¾ÛĮ":8294,"ĠØ§ÛĮØ´":8295,"ĠØ¹ÙħØ§Ø¦Ø¯ÛĮÙĨ":8296,"ÙĪØ®":8297,"ĠÙ¾Ú¾Ù¹":8298,"Ú©ÛĮÙ¾Ù¹ÙĨ":8299,"35":8300,"ĠÙ¾Ø§Ø³Ø¯Ø§Ø±ÛĮ":8301,"ĠÛĮÙĪØ³ÛĮ":8302,"ĠØ³Ù¹ÙĪØ±":8303,"ĠÙĦØ§Ø¦Ø¨":8304,"ĠÙĪØ§Ûģ":8305,"Ø§Ø¨ÛĮØ±":8306,"Ø§Ú©ÙĪÚº":8307,"Ú©Ú¾ÙĦØ§":8308,"ĠØ¬Ú¾ÚĳÙ¾":8309,"ĠØ§ÙĨÚĪÛĴ":8310,"ĠØŃØ±ÙħØª":8311,"ĠØ§ÙĨÚ©Ø´Ø§ÙģØ§Øª":8312,"ĠÚĨØ§ÙĨØ¯ÛĮ":8313,"ĠØªÛĮÙħÙĪØ±":8314,"Ø¬ÙħÙĪÚº":8315,"Ú¯ÙĦÚ¯Øª":8316,"Ø¢Ø²Ø§Ø¯Ú©Ø´ÙħÛĮØ±":8317,"ĠØ§Ø³ØªØ¯ÙĦØ§ÙĦ":8318,"ÙĨØ§Ø¦ÛĮ":8319,"ĠÚĪÙĪÚ¯Ø±":8320,"ĠØ±Ø§Ú©":8321,"ĠÙĨÚ¯Ø§Ø±":8322,"ÙħÙĨÛģ":8323,"ĠÛĮÙĪÙĨÛĮÙĪØ±Ø³Ù¹ÛĮÙĪÚº":8324,"ÙģÙĪØ¬ÛĮÙĪÚº":8325,"Ù¹ÛĮÙĪÙĦ":8326,"ĠØ§ÙģØ±ÛĮÙĤÛĮ":8327,"ĠÚ¯ÙĪÚ¯ÙĦ":8328,"ĠÙħØ¸Ø§ÛģØ±ÙĪÚº":8329,"Ø¨Ø¬":8330,"ĠÙ¾Ø±Ø§Ø¦Ø³":8331,"ĠØ¨Ø§ÙĦØ§Ø¯":8332,"ĠÙ¾ÛĮØ±Ø³":8333,"ĠÚĨÙĦØ§ÛĮØ§":8334,"ĠÙħØ¬ÙĪ":8335,"ĠØ³Ø¯":8336,"ĠÙ¾ÛģØ§ÚĳÛĮ":8337,"ĠØ§ÛĮÙħÙĨØ³Ù¹ÛĮ":8338,"ĠÚĪØ§Ø¦Ø±ÛĮÚ©Ù¹Ø±Ø²":8339,"ĠØ¬Ø§Ù¾Ø§ÙĨÛĮ":8340,"ĠÙ¾Ø±ÙĪÚĪÛĮÙĪØ³Ø±":8341,"Ú©ØªØ§Ø¨":8342,"ĠØ§Ø¯Ø¨ÛĮ":8343,"ĠØ·Ø¨ÙĤØ§Øª":8344,"ĠØ§ÙĨÚĪÙĪÙĨÛĮØ´ÛĮØ§":8345,"ĠØ¹Ø§":8346,"ĠØ´Ø§Ø±Ù¹":8347,"ĠÚĨÚ©ÙĨ":8348,"ĠÚĪÙ¾":8349,"ĠØ³Ø²Ø§Ø¦ÛĮÚº":8350,"ÙħØ§ÙĨÛĮ":8351,"ĠÙģØ±ÙħØ§Ø¦ÛĮÚº":8352,"Ġm":8353,"ĠØ¶ÙĪØ§Ø¨Ø·":8354,"ĠÙĨØµØ§Ø¨":8355,"ĠØ±Ø¶Ø§Ú©":8356,"ĠÚ©ÙĪÙĨØ³ÙĦØ±":8357,"ĠÙģÛĮØ³Ù¹ÛĮÙĪÙĦ":8358,"ĠÙĤÙĪØªÛĮÚº":8359,"ĠØ§ÛĮØ¬Ø§Ø¯":8360,"ĠÙģØ§Ø¤ÙĨÚĪÛĮØ´ÙĨ":8361,"ÙģØ±ÙĪØ´ÙĪÚº":8362,"ĠØ°ÛĮØ´Ø§ÙĨ":8363,"ĠØ§Ø³Ù¹ÛĮØ¨ÙĦØ´ÙħÙĨÙ¹":8364,"Ø¢ÙĨÛĴ":8365,"ÚĨÛĮÙħØ¨Ø±":8366,"ĠÙ¾Ø±ÙĪÙģÛĮØ´ÙĨÙĦ":8367,"ĠÚ©ÙħØ§Ø¦ÛĮ":8368,"Ø±ÛĮØ§Ø³Øª":8369,"ØªØ±ØªÛĮØ¨":8370,"Ø³ÙĪØ´ÙĦ":8371,"ĠÚ©ØªØ§Ø¨ÛĮÚº":8372,"ĠÙ¾ÚĨÚ¾ÙĦÛĮ":8373,"ĠØ³ÛĮÙĦØ§Ø¨":8374,"ĠÙħÙĪØ§ØµÙĦØ§Øª":8375,"ĠÙħØ·Ø§ÙĦØ¨ÛĴ":8376,"ĠÙħÛģÙĨÚ¯Ø§":8377,"ĠÙħÚ©Ø§ÙĨØ§Øª":8378,"ĠÙħÛĮÚ©Ø³":8379,"Ø¹ÛĮØ¯":8380,"ĠØ¢Ù¾Ø±ÛĮÙ¹ÙĨÚ¯":8381,"Ø¬Øª":8382,"ĠØ¢ÙĪÛĮØ²":8383,"ĠÚ©Ú¾ÛĮØª":8384,"ĠÙĨÙĪÙ¹Ø³Ø²":8385,"Ø³Ø¹ÛĮØ¯":8386,"ĠÙ¹Ø±ÛĮÙĦØ±":8387,"ĠØ¨ÙĪØ±ÛĮ":8388,"Ø§ØªØ¨":8389,"ĠÙĦØ§Ú¯ÙĪ":8390,"ĠÛģÙĪÙĨÚ¯ÛĮ":8391,"Ø±Ø¯Ûģ":8392,"ĠÙĪÛģØ§Ø¨":8393,"ĠÙĦÛĮÚĪÛĮ":8394,"ĠÙħØ¯Ø¹ÙĪ":8395,"ÙħØ¸Ø§ÛģØ±ÛĮÙĨ":8396,"ĠÙħÙĦØ¨ÙĪØ³":8397,"Ø§Ø±ÛģÛĮ":8398,"ĠØ§ØªØ¨Ø§Ø¹":8399,"ĠØ¢ÙģÛĮØ³Ø±Ø§ÙĨ":8400,"ĠÚĪÛĮÙĪÚĪ":8401,"ĠÙ¹Ø§Ø³":8402,"ĠÚ©ÙĪØ§ÙĦÛĮÙģØ§Ø¦ÛĮ":8403,"Ø±Ú©Ø±":8404,"ĠØ¯Ø§Ø¯Ø§":8405,"ĠØ§ÙĪÙĪØ±Ø³ÛĮØ²":8406,"ĠÙħØ¹Ø¯ÙĨÛĮ":8407,"Ġ''":8408,"ĠÙħØ§Ø¬Ûģ":8409,"ĠØ¹ÙħÙĪÙħØ§":8410,"ĠØ¢ÙģÛĮØ´ÙĦ":8411,"ĠØ³Ø§Ø¦ÙĦ":8412,"Ø§Ø¯ÛĮÚº":8413,"Ø¨ÛĮØ´Ú©":8414,"Ø³Ø¨Ø²":8415,"ĠØ³ÙĪÙħØ±ÙĪ":8416,"ĠÚĨÙĦÛĮÚº":8417,"ĠØªØ¯Ø§Ø¨ÛĮØ±":8418,"ĠÚĨÚ¾Ù¾Ø§":8419,"ÙĤØ§Ø¦Ùħ":8420,"ĠÙĪÙĤÙģ":8421,"ĠØ³ÚĳÚ©ÛĮÚº":8422,"ĠØ¨Ø²Ø¯Ø§Ø±":8423,"ÙĪÚĪ":8424,"ĠÙħÛĮÙħ":8425,"ĠÙĪØ§ÙĦÙĪ":8426,"Ú©Ø±ØªÛĴ":8427,"Ø³ÙħØ§Ø¬ÛĮ":8428,"ĠÙħØŃØ§Øµ":8429,"ĠØ¨Ú¾ØªÛģ":8430,"ĠØ¬Ø²Ø§":8431,"ĠØ§ÛĮÙ¾ÙĦ":8432,"ĠØ³Ø¨Ø³ÚĪÛĮ":8433,"ÙĨÚ¯Ø±Ø§ÙĨ":8434,"ĠÙĦÚ©Ú¾ÙĨÛĴ":8435,"ĠÙħÛģØ±Ø¨Ø§ÙĨ":8436,"ĠØ¯Ø¦ÛĴ":8437,"ĠÚ©ÙĦØ±":8438,"ĠÚ¯Ú¾Ø³":8439,"ĠØ³Ø§Ø¦Ø¨Ø±":8440,"Ø´Ø±ÙĪØ¹":8441,"ØŃØ§ÙģØ¸":8442,"ĠØ¯Ø±ÙħÛĮØ§ÙĨÛĮ":8443,"ĠØŃØ§Ú©Ùħ":8444,"ĠÚ¯Ø°Ø±":8445,"ÙĪØ¸":8446,"ĠÙĨØ§Ø¯Ø±":8447,"at":8448,"ĠÙĪÛĮÙħ":8449,"ĠØ¨ÛĮÙĪØ±":8450,"ĠÚ¯ÙĦØ´ÙĨ":8451,"ĠÙĨÚ©Ø§ÙĦÛĴ":8452,"ĠÚĪÛĮÙĪØ§Ø¦Ø³":8453,"ĠÙħØ«ÙĦ":8454,"Ø³ØªØ§Ø±":8455,"ĠÚ©Ú¾Ø±Ø¨":8456,"ĠØ§Ø±ØªÚ©Ø§Ø¨":8457,"Ú©Ø§ÙħÛĮ":8458,"Ġ2008":8459,"ĠÛģØ§Ø¦ÛĮÚĪ":8460,"ĠØ¹ÙĦÙĪÙħ":8461,"ĠØªÙĦØ®":8462,"ĠØ§ÙĦÛĮÚ©Ù¹Ø±Ø§ÙĨÚ©":8463,"ĠÙĨØ¸Ùħ":8464,"ĠØ¹ÙĦÙħÛĮ":8465,"ÙĦÙĨÚ¯":8466,"ĠÛģÛĮÙĦÙħÙ¹":8467,"ĠØªØ±Ø§Ùħ":8468,"ĠÙĨØ§Ø¨":8469,"Ø±ÙĪÙ¹":8470,"ĠØ§ÙĨÙģØ±Ø§Ø³Ù¹Ø±Ú©ÚĨØ±":8471,"ĠØ¨Ø§Ø®":8472,"ĠÚĨØ§ÙĨÚĪÛĮÙĪ":8473,"ĠØ²ÛĮØ§Ø±Øª":8474,"ĠÚ©ÙĦÛĮÙĨÚ©":8475,"ĠØ§ÙĦØ§Ø³ÙĦØ§Ùħ":8476,"Ø§Ø²ÙĪÚº":8477,"ĠÙģØµÙĦÙĪÚº":8478,"ĠÙĨÚ©ÙĦÛĮÚº":8479,"ĠÚ©ÙĨÙ¹Ø±ÛĮÚ©Ù¹":8480,"ĠÙģØ±Ø§ÚĪ":8481,"Ġ84":8482,"ĠÙĤØª":8483,"ĠÚĨÚ¾Ø§ÙĨ":8484,"ĠÙĨØ§ÙĦÙĪÚº":8485,"Ø§Ø¯Ø§":8486,"ĠÙģÛĮØ´ÙĨ":8487,"ÙħØ§Ù¹Ø±":8488,"ĠØ¹Ø²Ø§Ø¦Ùħ":8489,"ĠØ§ÙĪØ¨Ø§ÙħØ§":8490,"ĠØ§Ø³ØªØŃØµ":8491,"Ù¾Ø±ÙĪÙģÛĮØ³Ø±":8492,"ĠÙ¹Ú¾Ú©Ø§ÙĨÛĴ":8493,"ĠÚĨÛĮØ®":8494,"ĠØ§ÙĦØ§Ø¦ÙĨØ³":8495,"Ġ61":8496,"ĠØ®Ø§ÙĨÙĪÚº":8497,"Øĵ":8498,"ĠÛ±Û°Û":8499,"ĠØ¬Ø±Ø§Øª":8500,"ĠØ§Ø¯Ø±Ø§Ú©":8501,"ĠØ§ØµÙĦÛĮ":8502,"ÙħØ§Ø³":8503,"ĠØ¹ÙĨØ§ÛĮØª":8504,"Ù¾ÙĨØ±":8505,"ĠÚ©Ø§Ø±ÙĪØ§Ø¦ÛĮÙĪÚº":8506,"ĠØ±Ú¯":8507,"ÙĪØ³Ù¹ÛĮ":8508,"Ġ86":8509,"ĠÚ©ÛĮÙħØ±ÙĪÚº":8510,"ĠØ§ÛĮÚ©Ø³Ù¾ÙĪØ±Ù¹":8511,"ĠÙģØ±ÙĨÛĮÚĨØ±":8512,"ĠÙĪØ·Ø§ÙĦØ¨Ø§Øª":8513,"ĠØ³ÙĪÙĨØ§":8514,"Ú¯ÙĪØ±ÙĨØ±":8515,"ĠØ¯Ú¾ÛĮ":8516,"ĠØ±Ø§ØºØ¨":8517,"ÙĦÛĮÙħÙĨÙ¹":8518,"ĠÚ©Ø§ÙĨÚ¯":8519,"Ø¹Ø§ÙħØ±":8520,"ĠÚ©ÙĨØ¯":8521,"ĠØ³ÚĨØ§":8522,"ÙĤØ§Ø¨":8523,"Ø¹ÛĮÙģ":8524,"ĠØ¨Ø§ÙĦØ§Ø¯Ø³ØªÛĮ":8525,"ĠÙ¹ÛĮÙĪØ¨":8526,"ĠØ¯ÛģØ±":8527,"ĠÚ©Ø§Ø±ÙĪØ§Ø¦ÛĮØ§Úº":8528,"ĠÙĤÙĪÛĮ":8529,"ĠÙĦÛĮÙ¾":8530,"ĠØ§ÛĮØ¦Ø±ÙĦØ§Ø¦ÙĨ":8531,"ĠØ±ÙĪÙĨØ¯":8532,"ĠÙĨØ§Ø¦ÙĨ":8533,"ĠÙ¾Ø§ØªÛĴ":8534,"ÙĪØ±ÙĦÚĪ":8535,"ĠØ¨ÛĮÙ¹Ø±ÛĮ":8536,"ĠÙĨØµØ§Ø±ÛĮ":8537,"ĠØ²ÛĮÙĪØ±Ø§Øª":8538,"ĠØ¯ÙĦÛģÙĨ":8539,"Ø¨Ø§ØŃ":8540,"Ø±ÙĪØŃ":8541,"ĠØ§ÙĦØ¹Ø²ÛĮØ²ÛĮÛģ":8542,"99":8543,"ĠØ§ÙĦØŃØ±Ø§Ùħ":8544,"ĠØ¹Ø±Ø§ÙĤ":8545,"ĠØ¬Ø±ÙĨÙĦ":8546,"ĠØ¨ÛģØ§":8547,"ĠØ§ÙĦÙģÙĪØ±":8548,"ĠØ³ÙĨÙ¹Ø±ÙĦ":8549,"ĠØ¯Ø¨Ø§":8550,"ĠÚ¯ÚĪ":8551,"ĠØ¨Ú¾ÚĳÚ©":8552,"ØªØ§ÙĦÛĮØ³":8553,"ĠÚ©ÛĮØ¦Ø±":8554,"ĠÛĮØ¯":8555,"ĠÙħØ¯Ø¹ÛĮ":8556,"ÙĨÚĪÛģ":8557,"ĠØ§Ø°ÛĮØª":8558,"ĠÙħØ§Ø¯Ûģ":8559,"ĠÙĨØº":8560,"ĠÙģØ±Ø§ÙħÙĪØ´":8561,"ĠÚĨÙĪÙ¾ÚĳØ§":8562,"ĠÚĪÙĪÙĦ":8563,"Ø¯Ø±Ûģ":8564,"ĠÙĤÙĦØ§Øª":8565,"ĠØ¨Ø±Ø§Ø¯Ø±Ø§ÙĨ":8566,"ĠÙĪØ§Ú¯Ø²Ø§Ø±":8567,"ĠØ¢Úĳ":8568,"ĠÙģÛĮØ±ÙĪØ²":8569,"ĠÚ¯Ø±Ø¬":8570,"ĠÙ¾ÛĮØ§Ø²":8571,"Ú©Ú¾ÛĴ":8572,"ĠØ´Ú©ÙĨÛĮ":8573,"ĠÙĦÙĪØ¯Ú¾ÛĮ":8574,"ÚĪÛĮØ±Ûģ":8575,"ĠØ°ÙĦØª":8576,"ĠØªÙĤØ§Ø±ÛĮØ±":8577,"ĠØ§ÙĨØ¬ÛĮÙĨØ¦Ø±Ø²":8578,"ĠÙ¾ÙĨØ´ÙĨ":8579,"ĠØ¬ÙĪØ¦ÛĮ":8580,"ĠÙ¾Ø§Ú©ÛĮ":8581,"ĠØªØ¶":8582,"ĠÙģØŃ":8583,"Ù¾Ø±ÙĪÚ¯Ø±Ø§Ùħ":8584,"ĠØªØ¹Ø§ÙĤØ¨":8585,"ĠØ²ÙħÛĮÙĨÛĮ":8586,"ĠØ³Ù¾Ø±ÙĨÙ¹ÙĨÚĪÙĨÙ¹":8587,"ÙĨØ¸Ø§Ùħ":8588,"Ø§ÙĨÚ¯ÛĮ":8589,"Ø±ÙĪØ´":8590,"Ø§ÙĨÚĪØ³Ù¹Ø±ÛĮ":8591,"ĠÛģØªÚ¾Ú©ÙĨ":8592,"ĠÚ¯Ú¾Úĳ":8593,"ĠÙ¾Ø±ÙĪÚ¯Ø±Ø§ÙħÙĪÚº":8594,"Ú¯ÚĳÚ¾":8595,"ĠØ¨Ú©Ø±":8596,"ÛĮØ§Ø¬":8597,"ĠØ¹Ø¨ÛĮØ¯":8598,"ĠØ·Ø§ÙĦØ¨Ø¹ÙĦÙħ":8599,"ĠØ§ÙħØªØŃØ§ÙĨÛĮ":8600,"ĠØºØµÛĴ":8601,"ĠÙħØ¹Ø¬Ø²Ø§Øª":8602,"Ø¬Ú©":8603,"ĠÛĮØ³":8604,"ĠÙĨØ§Ø§ÙĨØµØ§Ùģ":8605,"ĠØ¢ÙĪÛĮØ²Ø§Úº":8606,"ĠÚ©ÛĮØ´ÙĨ":8607,"ĠØ±ÛĮØ³Ù¹ÙĪØ±":8608,"Ø¨ÙĨÛĮ":8609,"ĠØ§ÙĦÙĨØ³":8610,"ĠØµØ¯Ø§ÙĤØª":8611,"Ø§ÙĦÙģØ·Ø±":8612,"ĠÙĪØ§Ù¹":8613,"ÙĪÙĨÙĪØ´":8614,"ĠØ¯Ú¾Ø±ÙĨØ§":8615,"Ø§Ø¨Ú¾":8616,"ĠÚĨÙħÙ¾Ø¦ÙĨ":8617,"ĠÚĪØ§ÙĦØªÛĴ":8618,"Ú¯ÙĪØ¬Ø±Ø§ÙĨÙĪØ§ÙĦÛģ":8619,"ĠØ®ÙĪØ¯Ø§Ø±":8620,"Ø¶ÙĦØ¹ÛĮ":8621,"ĠÙħÛģØ§Ø¬Ø±":8622,"Ø¨ÙĦÛĮ":8623,"ÚĪÚ¾":8624,"ĠØ±ÛĮØ§Ø³ØªÙĪÚº":8625,"ĠØ³ÛĮÚ©ÙĨÚĪØ±ÛĮ":8626,"ĠØ³ØªØ±Ûģ":8627,"ĠØ¨Ø³ÛĮÚº":8628,"ĠØ¯Ú©Ø§ÙĨÛĮÚº":8629,"ĠØ³Ø·ØŃÛĮ":8630,"ĠÚ¯Ùħ":8631,"Ø§Ø¦ÛĮÙ¹ÚĪ":8632,"Ø§Ø¶Ø¹":8633,"ÛĮÙĪÙħ":8634,"Ú©ÙĪÙĦ":8635,"ĠÛ¸":8636,"Ø¹ÙĦØ§Ùħ":8637,"ĠÚ¯Ø¯":8638,"ĠØ¯ÙĪØ§":8639,"Ø¨ÛĮÙĨÚ©":8640,"ÛģØ§Ø¤Ø³":8641,"ĠØ¬ÙĨÚ¯ÙĦ":8642,"ÙĤÛĮØ¨":8643,"ĠÙħÙĪÙħÙĨÛĮÙĨ":8644,"ĠØ¨Ø§ÙĦØ¢Ø®Ø±":8645,"ĠÙ¾Ø±Ø§":8646,"ĠÛģÙĦÚ©ÛĮ":8647,"ÚĪØ³Ù¹Ø±Ú©Ù¹":8648,"ĠØ¯Ø±ØŃÙĤÛĮÙĤØª":8649,"ĠÙ¾ÚĳÛĮÚº":8650,"Ú¯Ø±Ø§":8651,"ĠØ¨ÙĨØ¯ÙĪÙĤ":8652,"ĠØ²Ø±ÛĮ":8653,"ÙħØªØŃØ¯Ûģ":8654,"ÙģÚ©Ø±":8655,"Ø§ÙĨØ´Ø§Ø¡":8656,"ĠÙħØ´ÙĤØª":8657,"Ú¯Ø§Ùħ":8658,"ĠØ¢ÙĨØ¯":8659,"ĠØ´ÙħØ§ÙĦ":8660,"ĠØ§ÛĮØ³Ù¹":8661,"ĠÙĪÛĮØ²Ø§":8662,"ĠÙ¹Ø§ÙĪÙĨ":8663,"ÙħØ±ÙĦ":8664,"Ø¨Ø§Ø¯ÙĦÛģ":8665,"ĠÙħÛģÙĨÚ¯ÛĴ":8666,"Ø¬ÙĪÚ©Ûģ":8667,"ĠÙħØµÙĦ":8668,"ĠÚĨÚ¾Ù¾Ø§ÙĨÛĴ":8669,"ĠØ¨Ø´Ø±":8670,"ĠØ±ÛĮÚ©ÙĪØ±ÛĮ":8671,"ĠØ±Ø§ÙĨ":8672,"Ø§Ø¹ÙĦÛĮ":8673,"ĠÙħÙĤØ¯Ø±":8674,"ĠÚ©Ø§ÙĨØ³Ù¹ÛĮØ¨ÙĦ":8675,"Ú¯Ø²ÛĮÙĨ":8676,"ĠØºÙĦØ¨Ûģ":8677,"ĠÙĨØ§Ø®ÙĪØ´":8678,"Ø§Ø³Ú©ÛĴ":8679,"en":8680,"ĠÚĪØ³":8681,"ĠØ¨ÙĦØ§Øª":8682,"ĠÛģØ¯Ø§ÛĮØªÚ©Ø§Ø±":8683,"Ø§Ø¨ØªØ¯Ø§Ø¦ÛĮ":8684,"ĠÙĨØ§Ù¾Ø³ÙĨØ¯":8685,"ĠÚĨØ´ÙħÛģ":8686,"ĠØ¯Øª":8687,"Ø¯ÛĮÙĨÛĴ":8688,"ĠØ³ÙĪØ¯ÛĴ":8689,"Ġ97":8690,"ĠÙĨØ§Ø²Ú©":8691,"Ø¨ÙĨØ§ÙĨÛĴ":8692,"ĠØ§ÙĨØªØ´Ø§Ø±":8693,"Ø³Ù¹ÛĮØ´ÙĨ":8694,"ĠØ§ØªØ±ÙĨÛĴ":8695,"ĠÙ¾Ù¹Ú¾":8696,"Ø±ÙĪØ§":8697,"ĠÙĨØ´Ø±ÛĮØ§ØªÛĮ":8698,"Ø§ÙħØ±":8699,"ĠÚĨÙĦÙĨØ§":8700,"ĠÙħÙĨÛģØ§Ø¬":8701,"ĠØ´Ø§Ø±":8702,"ÙĪÙĨÙ¹ÛĮ":8703,"ĠØªØ±Ø§ÙħÛĮÙħ":8704,"ĠØªØ±ØºÛĮØ¨":8705,"ĠÚĨÙĦØªÛĮ":8706,"ĠØ³Ø§ÙĨÙ¾":8707,"ĠÙĨØ´Ûģ":8708,"ĠØ§ÛĮÙħØ§ÙĨØ¯Ø§Ø±ÛĮ":8709,"ĠÚĨÙĪØªÚ¾Ø§":8710,"ĠÙĤØ§ÙģÙĦÛĴ":8711,"ĠÙ¹ÛĮÚ©Ø³ÛĮØ´ÙĨ":8712,"ĠØ³ÙħØ¬Ú¾ÙĪ":8713,"ĠÛģØ§Ø´Ùħ":8714,"ĠÚ©Ú¾Ø§Ø¦ÛĮ":8715,"Ø¯ÙĪØ³Ø±Ø§":8716,"ĠÚ©ÙĨÚ©Ø´ÙĨ":8717,"Ø¦ÙĨØ²":8718,"ĠØ§ÙĦÙ¹":8719,"ĠØ°ÙĦÛĮÙĦ":8720,"ĠØ¨ÙĪØ±ÚĪØ²":8721,"ĠØ±ÙĪØ¦ÛĮ":8722,"ĠØ³ÙħØ§Ø±Ù¹":8723,"ĠØ±Ø§Ùħ":8724,"ĠÙĨØ§ÙħÙĪØ³":8725,"ĠR":8726,"ĠÚ©Ø±Ø§ØªÛĴ":8727,"ĠÙģÙĦÛĮÚ¯":8728,"ĠØ¹Ø¨Ø¯Ø§ÙĦØ±ØŃÙħÙĨ":8729,"ĠÙģØ§ÙĨ":8730,"Ø®ÙĪØ±":8731,"Ø´ÛģÛĮØ¯":8732,"ĠØ³ÙĪÚĨØ§":8733,"ĠØ´Ø§Ù¾ÙĨÚ¯":8734,"ÛĮÙĨÛĮØ´ÙĨ":8735,"ĠÙĨØ¸Ø±ÛĮØ§Øª":8736,"ĠÙĪÛĮØ±Ø§Øª":8737,"ĠØ§ÙĦØ°ÛĮÙĨ":8738,"ĠØµØ§ØŃØ¨Ø²Ø§Ø¯ÛĴ":8739,"ÙħÛĮÙ¹":8740,"ĠØ²ÙĨØ§":8741,"ĠØªØ§Ø¨Ø¹":8742,"Ø®Ø²Ø§ÙĨÛģ":8743,"ĠÙ¾Ø§ÙĦÛĮØ³":8744,"Ù¾ÙĪÙĦ":8745,"ĠÙħÙĨØ§Ø¦ÛĮ":8746,"ĠØªÚ©Ø¨Ø±":8747,"ĠÚĪÛĮÙħÙĪÚº":8748,"ĠL":8749,"ĠÛĮØª":8750,"ÙĦÙ¹":8751,"Ø³Ù¹Ø³":8752,"ĠÙģÙ¹Ø¨Ø§ÙĦ":8753,"Ø§Ø·ÙĦØ§Ø¹Ø§Øª":8754,"Ø§Ø¦ÛĮÚĪÙĨÚ¯":8755,"ĠÚ¯Ú¾ÛĮØ±":8756,"ĠØ¯Ø§ÙĦ":8757,"ĠØ¢Ø±Ø§Ø¦ÛĮ":8758,"ĠÙĨÚ©Ø§Øª":8759,"ÛĮÚ©ÛĮØ¬":8760,"ĠØŃØ§Ø¦ÙĦ":8761,"ĠØ±Ú©Ø´Ûģ":8762,"ĠØ±Ù¹":8763,"ĠÙ¹ÛĮÚĨØ±":8764,"ĠØ¨Ø§Ø²ÛĮØ§Ø¨":8765,"ĠØ³ÙģØ±ÛĮ":8766,"ĠØ¯Ø³ØªÛĴ":8767,"ĠÙģÙĤÛĮØ±":8768,"ĠØ±ÙĨØ¨ÛĮØ±":8769,"ÙĪØ±ÛĮÙ¹":8770,"ĠÙģØ±Ø³Ù¹":8771,"ĠÚ¯Ø±ÛĮØ¬":8772,"ĠÙħØªÙģÙĤ":8773,"ĠØ¨Ø§Ø±ÙĪØ¯ÛĮ":8774,"ĠÙ¹Ø§ÙĨÚ¯":8775,"ĠÙħØ¹Ø§ÛģØ¯ÙĪÚº":8776,"ĠØ±ÛĮÚ¯ÙĪÙĦÛĮÙ¹Ø±ÛĮ":8777,"ĠÚĨÙĨÛĮÙĪÙ¹":8778,"ĠØ¨Ø±Ø§ÙĨÚĪ":8779,"ĠØµØ¯ÙĪØ±":8780,"ĠØ¯Ú¾ÙħØ§Ú©Ø§":8781,"ĠÙģØ§ØµÙĦÛģ":8782,"ĠÚ¯ÙĨØ¯Ú¯ÛĮ":8783,"ĠÙĪÛĮÙĪ":8784,"ĠÙħØ²Ø§Ø±ÛĮ":8785,"ĠØ«Ùħ":8786,"ĠØ³Ø±Ø¬Ø±ÛĮ":8787,"ÙĪØ´Ú©Ø§":8788,"Ú©ÛĮØ®ÙĦØ§Ùģ":8789,"ÙħÛĮÙĨØ§Ø±":8790,"ĠØ¬Ø¹ÙĦ":8791,"ÙĪÚ¯":8792,"ÙĦÙĪØ§Ø±":8793,"ĠØŃÙĪØµÙĦÛĴ":8794,"Ø³Ø±Ø¨Ø±Ø§Ûģ":8795,"80":8796,"ĠØŃÛĮØ¯":8797,"ĠÙģØ§Ø¦Ø¯":8798,"ĠØ¨Ø§ÙĤØ§Ø¹Ø¯Ú¯ÛĮ":8799,"ÙĪÙĨÚ¯Ø§":8800,"ĠÚĪÚ©":8801,"ĠÛģÙĨØ³":8802,"ĠØ¨Ø±Ø¯Ø§Ø±":8803,"Ø´Ø±Ú©":8804,"ĠØ¨ÙĨØ§ØªØ§":8805,"ĠØ¶Ø¹ÛĮÙģ":8806,"ĠÙ¾ÙĪØ³Ù¹Ø±":8807,"ĠÙħÙĨÙĪØ±Ûģ":8808,"Ø³Ù¹ÙĨ":8809,"ÙģÛĮØ³":8810,"ĠÚ©ÙĦØ¨Ú¾ÙĪØ´ÙĨ":8811,"ĠØ±ÛĮØŃ":8812,"ĠØ±ÙĪÚ©ÙĨØ§":8813,"ĠØ¬Ú¾ÛĮÙĦ":8814,"Ø§ÙĨÛĮÙĪÚº":8815,"ĠØ®Ø·Ø§":8816,"ĠØªÛģÛģ":8817,"ĠÙĪÙħÙĨ":8818,"ĠÙħØ±Ø§Ø³":8819,"ÙĪØ³ÛĮÙħ":8820,"ĠØ³Ø§ÙĦÛĮ":8821,"ĠÙĪÛĮØ²ÛĴ":8822,"ĠØ±Ú©ÙĪØ¹":8823,"Ø¢Ø®":8824,"Ø®ØªÙħ":8825,"34":8826,"Ø§ÙĨÙĪØ§ÙĦÛģ":8827,"ĠØ²Ø§Ø¯":8828,"ĠÙĪØ²Ø±Ø§Ø¦ÛĴ":8829,"ĠØ¨ÚĳÚ¾ØªØ§":8830,"ĠØ¬Ú¯":8831,"Ù¾Øª":8832,"ØºÙĦ":8833,"ĠØ´Ø±Ú©Ø§":8834,"ĠÙĪØ¹Ø¯ÙĪÚº":8835,"Ġ125":8836,"ĠÚ¯ÙĪØ±ÙĨÙĨØ³":8837,"ĠØ®ÙĪÙģØ²Ø¯Ûģ":8838,"ĠN":8839,"ĠØ¨Ø¹Ø¯Ø§Ø²Ø§Úº":8840,"ĠÙ¹ÙĪØ¦Ù¹":8841,"ĠÙ¾Ø§Ø¤":8842,"ĠØ®ÙĦÛĮÙģÛģ":8843,"ĠØ¢Ø±Ø§Ø³ØªÛģ":8844,"ĠÙģÙĨÚ©Ø§Ø±":8845,"Ú©Ø§Ø¨ÛĮÙĨÛģ":8846,"Ø¹Ø±":8847,"ĠÙħØ´Ø§ÛģØ¯":8848,"ĠØ§Ø³ØªØºØ§Ø«Ûģ":8849,"ÛĮÚ©ÛĮÙĪØ±Ù¹ÛĮ":8850,"Ø§ÛĮÙĦ":8851,"ĠÙ¾Ø§Ù¾":8852,"Ø³ÙħØ§ÙĨÛĮ":8853,"ØŃØ§Ø¯Ø«ÛĴ":8854,"ØŃØ¯":8855,"Ġ89":8856,"ĠØ¬Ú¯Ø±":8857,"ĠÚ©Ø§ÙĦÛĮ":8858,"ÙĨØ§Ø²":8859,"ĠØªØ§Ø¬Ø±Ø§ÙĨ":8860,"ØªØ±Ú©":8861,"ĠÛģØ§Ø³":8862,"ÛĮØ±Ø§ÙĨÛĮ":8863,"ĠØ¨Ø±Ù¾Ø§":8864,"ĠØµØŃØ§ÙģØª":8865,"Ø³Ø§Ø¦ÙĨØ³":8866,"ĠÙĨÛĮÙĦØ§ÙħÛĮ":8867,"ØŃÙħØ¯":8868,"ÚĳÙĨ":8869,"ÚĪØ§ÙĦ":8870,"ĠÙĨØ¹ÙħØªÛĮÚº":8871,"ĠØ±Ø§ÙĪÛĮ":8872,"ĠÙĨØ±ÛĮÙĨØ¯Ø±":8873,"ĠÙħÛĮÚĪÙĦ":8874,"ĠØ§ÙĨØ¯Ú¾Ø§":8875,"ĠÚĪØ±Ú¯":8876,"Ø§Ø¹Ø¸":8877,"ÛģØ§Úº":8878,"ĠÚ©Ø³Ø±":8879,"Ù¾Ø±ÙĪÛĮØ²":8880,"Ø§Ø±Ø¨":8881,"ĠÚ¯ÙĦÙĪÚ©Ø§Ø±Ûģ":8882,"ĠØ³Ø§ØŃÙĦÛĮ":8883,"Ø¹ÙĦØ§ÙħÛģ":8884,"Ġ250":8885,"ĠØ±ÛĮØ²Ø±ÙĪØ§Ø¦Ø±":8886,"ĠØ¯Ø³ØªØ¨Ø±Ø¯Ø§Ø±":8887,"ĠØ®ÙĪØ§ÛģØ´ÙħÙĨØ¯":8888,"ĠÚ¯Ø§ÙĨØ§":8889,"ĠØ³Ø±ÙĨÚ¯":8890,"ÚĪÛĮÙĨÙĨØ³":8891,"ĠÙħÙĨÚĪÛĮÙĪÚº":8892,"ĠØ¨ÙĪØ³":8893,"ĠØ§Ø³ÙħÚ¯ÙĦÙĨÚ¯":8894,"Ø¹ÙħØ§ÙĦ":8895,"Ø³ÛĮØ§Ø³Øª":8896,"ĠØªØ´Ø®ÛĮ":8897,"ĠÙħÙħØ¨Ø¦ÛĮ":8898,"Ø§ÙĨØ²":8899,"Ø§Ø±Ø§ØªÛĮ":8900,"ĠÚĨÙĦØ§Ø¦ÛĮÚº":8901,"ĠØ²ÛĮØ±ÙĪ":8902,"Ø§Ø´ØªÛģ":8903,"ĠÙħØªÙĨØ§Ø²Ø¹":8904,"Ø§ÙĨØªØ®Ø§Ø¨":8905,"Ù¾ØªÙĨ":8906,"Ø¨Ø±ÛĮØª":8907,"ĠØ³ÙĨØ¬Ø±":8908,"ĠÙħÙĨØ§ÙģÛĮ":8909,"ĠØ¬ÛģØ§Ø²ÙĪÚº":8910,"ĠØ§ÙĨØ¯ÙĪØ²":8911,"Ġ96":8912,"ĠØ¨Ø´Ø§ÙĨÛģ":8913,"ĠØ®ÙĪØ¯Ø§Ø±Ø§Ø¯ÛĮØª":8914,"ĠÙĦÛĮÙħÙĪÚº":8915,"ĠÚ¯Ø±Ø§Úº":8916,"ĠØ§ÙĦÙħØ¯":8917,"ĠÙħÙĨÙĪØ±":8918,"ĠÙ¾Ú¾ÙĪÙ¹":8919,"Ø¨ÙĦØ§ÙĪÙĦ":8920,"al":8921,"ĠÙĪÙĦÛĮÙħ":8922,"ÚĪØ±ÙĨ":8923,"Ø§ÙĤØªØ¯Ø§Ø±":8924,"ĠØ¢Ù¾Ø´ÙĨ":8925,"ĠØ§Ø«ÙĨØ§":8926,"ÙħÛĮÚĪÛĮÚ©ÙĦ":8927,"Ø§Ø²ÛĮÙĦ":8928,"Ø§ÛĮØ§Ø¬":8929,"ĠÚ¯Úĳ":8930,"Ø§ÙħØ±ÛĮÚ©Ûģ":8931,"ĠÙħÙĪØ²ÙĪÚº":8932,"Ú¯Ø³":8933,"Ø³ÛĮØ§ÙĦ":8934,"ĠØ¹ÙĦÙħØ§Ø¦ÛĴ":8935,"ĠØ°ÛĮÙĦÛĮ":8936,"ĠÙĨØ§Ø¦":8937,"ĠÙħÙĨØŃ":8938,"ĠØ§ÛĮÙ¹ÙħÛĮ":8939,"Ù¾Ø³ÙĨØ¯":8940,"ĠØ¶Ùħ":8941,"ĠÚĪÛĮÙĦÛĮ":8942,"ĠÛĮØ§Ø¨ÛĮ":8943,"ĠÙ¹ÛĮØ±":8944,"ÙģÛĮÚĪ":8945,"Ġ83":8946,"ĠØŃØ¬Øª":8947,"ĠF":8948,"ĠÙģÙĪÙ¹ÛĮØ¬":8949,"ĠÙ¾Ø±Ø§Ø¬ÛĮÚ©Ù¹Ø³":8950,"ĠØ¨Ú¯Ø§":8951,"ĠÙĨØ§Ú©Ûģ":8952,"ÙħÙĦØ§Ø²ÙħÛĮÙĨ":8953,"ĠØ±ÙĨÙĪÛĮØ±":8954,"ĠØ³Ù¾Ø±ÛĴ":8955,"ĠØŃØ±Ø¨":8956,"ĠØ§Ø¹Ø¶Ø§Ø¡":8957,"ĠÙĪÛĮÙħÙĨØ²":8958,"ĠÙĤØ¯ÙħÛĮ":8959,"Ø§ÙģØ±Ø§Ø¯":8960,"ĠØ±ÙĤØµ":8961,"ĠÙĪØ§Úº":8962,"Ú¯ÙĨØ§":8963,"ĠÙħØ³Ú©Ø±":8964,"ĠØ³ÙĨØ¬ÛĴ":8965,"ĠØ§Ú©ÙĨØ§ÙħÚ©":8966,"ĠØ±ÙĪØ¨Ø±ÙĪ":8967,"ĠØ¬ÙĪØ§Ø¯":8968,"Ù¾ÛĮÚĪ":8969,"ĠØ³ÙĨÚ¯ÙĦØ²":8970,"ĠØ¢Ø¯Ú¾Ø§":8971,"Ø¸ÛĮØ±":8972,"ĠÚºÙĨÛĴ":8973,"ĠÙħÚĪÙĦ":8974,"ĠÚ¯ÚĨÚ¾":8975,"ĠÚĨØ§ÙĤ":8976,"ĠØªÚ¾ÛĮÙ¹Ø±":8977,"ĠØ³Ù¾Ø§ÛģÛĮ":8978,"ĠÙĪÛĮÚ©Ø³ÛĮÙĨ":8979,"ĠÙħÙĪÙĤØ¹Ûģ":8980,"ĠØ§ÙĨØªÙĤØ§ÙħÛĮ":8981,"ÙĪØ§ÙĤØ¹ÛĴ":8982,"ĠØ¨ÙĪÙĦÙĨÚ¯":8983,"ĠÙĪØ§ÙĨÛĮ":8984,"ĠÙĪÙĤÙģÛģ":8985,"ĠØ¯Ø§ÙħÙĨ":8986,"Ø¶Ø§":8987,"ĠÙģÙĦÙ¾":8988,"Ú©Ø±ÛĮØ§":8989,"ĠÙ¾ÙĨÚĪ":8990,"ĠØªØ¹Ø²ÛĮ":8991,"Ú©Ø±ÛĮÚº":8992,"ĠØ§ÛĮÙĨÚ©Ø±":8993,"ÙħÙĤØ§Ø¨":8994,"ĠØªÛĮØ±Ø§":8995,"ÙĪØ±Ù¹Ø±Ø²":8996,"Ø±ÙħØ°ÛĮ":8997,"Ġï´¿":8998,"Ú©ÙĪÛģ":8999,"ĠØ¨Ø§ÙĦØ§Ø¦ÛĮ":9000,"ĠØ·ÛĮØ¨Ûģ":9001,"ÙĪØ¦ÛĮ":9002,"ĠØ¬ÛĮÙĨ":9003,"Ġ92":9004,"ØµØ¯":9005,"ĠÙħØ¹Ø·":9006,"ĠØ´Ø§ÙĨÚ¯ÙĦÛģ":9007,"ÚĨÙĨÚ¯":9008,"ĠØ³ÙĨØ³":9009,"ĠÙĦÙĪÙĨ":9010,"ĠØ´ÙħÛĮÙħ":9011,"ĠÚ©Ø§ÙħÛĮØ§Ø¨ÛĮÙĪÚº":9012,"°Û°Û":9013,"ĠØ§Ø¨ØªØ¯Ø§Ø¡":9014,"ĠØ±ÛĮÙ¹Ø§Ø¦Ø±ÙħÙĨÙ¹":9015,"ĠÙĦØ§ÙĨÚĨ":9016,"ĠÚĨØ§Ø±Ø³Ø¯Ûģ":9017,"Ġ01":9018,"Ø§Ø¯Ø§Ø±":9019,"ĠØ§ØŃÙĪØ§ÙĦ":9020,"ĠØ³ÙĨÛĴ":9021,"ĠÙħÚ©Ø±ÙħÛģ":9022,"70":9023,"ÙĤØ§Ùģ":9024,"ĠÙĦÛĮØ²":9025,"ĠÙĤØ§ØªÙĦÙĪÚº":9026,"ÙĨØ§Ø±":9027,"ĠÙĨÙĪÙĨ":9028,"ĠÙ¾ÛģØ±":9029,"Ø§ÛĮÙĪØ§ÙĨ":9030,"ĠØ§ÙħÛĮØ¯ÙĪØ§Ø±Ø§ÙĨ":9031,"Ø³ÙĨÛĮ":9032,"ĠØ¨ØµÙĪØ±Øª":9033,"ÙħÛĮØ¦Ø±":9034,"ØªÛĮÙĪÚº":9035,"ĠÙħØŃØ³ÙĪØ¯":9036,"ĠØ³ÛĮÙĨÛĴ":9037,"Ù¾ÛĮØ¯Ø§":9038,"ĠØ±Ø¬Ø¨":9039,"ØµØ§Ø±ÙģÛĮÙĨ":9040,"ÙħØ§ÙĦÛĮ":9041,"ĠØ¬Ø¯Ø§":9042,"ĠÙ¾ÙĦÙĪØ§Ùħ":9043,"ĠØ¨Ø§ØºØ§Øª":9044,"ĠÙĦØ§Ø´ÙĪÚº":9045,"ĠØ³Ø§Ø²Ø´ÛĮÚº":9046,"ĠØªØ´ÛģÛĮØ±":9047,"ĠØ³ÙĨØ¬Ø±Ø§ÙĨÛĮ":9048,"ĠØ³Ù¹ÙĪ":9049,"ØŃÙĦ":9050,"ĠØ§ÙģØ³Ø±ÙĪÚº":9051,"ĠÙĤØ³ÙħÛĮÚº":9052,"ĠÙĨÙĤØ·Ûģ":9053,"ĠÙĨÙħÙ¹Ø§":9054,"ĠØªØ®ÙħÛĮÙĨÛģ":9055,"Ø§ÙĤØ¨Ø§ÙĦ":9056,"ĠÚ©Ø§ÙĨÙĪÚº":9057,"ĠÙģØ±ØŃØ§ÙĨ":9058,"ĠØ¬ÛĮØ¨":9059,"ĠØ¬Ø§Ø¤Úº":9060,"ĠÛ¹":9061,"Ø¬Ø§Ù¾":9062,"ĠØ¨Ø§Ø´ÙĨØ¯ÙĪÚº":9063,"ĠÚ©Ú¾ÛĮÙĨÚĨ":9064,"ĠØŃØ§ÙħÙĦÛģ":9065,"ĠÚ¯Ø§Ø±ÚĪØ²":9066,"ĠÚ©ÛĮÙħØ±Ûģ":9067,"ĠØ¨Ú¾Ø±ØªÛĮÙĪÚº":9068,"ÙĪØ§Ø¦Ø³":9069,"Ø²ÛĮØ§Ø¯Ûģ":9070,"Ø£Øª":9071,"ï´¾":9072,"ĠÙħØ§Ø¦ÙĨ":9073,"ĠØŃÙĪ":9074,"ĠØ¢Ù¹ÙĪ":9075,"ĠÙĨÙģØ³ÛĮØ§ØªÛĮ":9076,"ĠÙĨÚ©Ø§Ø³ÛĮ":9077,"ĠÙ¾Ø§ÙĦÛĮØ³ÛĮØ§Úº":9078,"Ø³Ø§Øª":9079,"ĠØªØ§Ø«":9080,"Ø§Ø¦ÙĨÚ¯":9081,"ĠØ³Ø§Ù¹Ú¾":9082,"ĠÙĤØ¹":9083,"ĠØ¹ÙĦÛĮÙħ":9084,"ĠÚ©ÛĮØ³Ø§":9085,"Ø³ÙĨØª":9086,"ĠÙĦÙĦÛģ":9087,"ĠÚ©Ø§ÙĦØ²":9088,"ĠØ±Ø¨ÛĮØ¹":9089,"ĠØ¢ÙģØ§Øª":9090,"Ġ79":9091,"ĠØ¬Ø±ÛĮØ±":9092,"ĠØ±Ø¦ÛĮØ³Ø§ÙĨÛĮ":9093,"Ø±Ø¬":9094,"Ø§ÙĦØ¨Ûģ":9095,"Ù¾Ø´ÙĨ":9096,"ØŃØªÛĮ":9097,"ĠÙĨØ´ÙĪ":9098,"ĠÙ¾Ø±ÛĮÚ©":9099,"Ø³ØªÚ¯ÛĮ":9100,"ĠÙĪØ²ÛĮØ±Ø³ØªØ§ÙĨ":9101,"ĠÙħØ§Ø¦ÛĮÚ©Ø±ÙĪ":9102,"ĠØ§ÙĨØ¯ÛĮØ´Ûģ":9103,"ĠÙĪÛĮØ³ÛĴ":9104,"ĠÙħØµØ¨Ø§ØŃ":9105,"ĠØ±Ø¦ÛĮØ³":9106,"ĠÙħØŃÛĮØ·":9107,"ĠØ¬ÙĨÙĪØ¨":9108,"ĠØ¶Ø¯":9109,"ĠØ¨Ú¾ÙĪ":9110,"ĠÙ¾ÛģÙĨÚĨØ§Ø¦ÛĮÚº":9111,"ĠØ®ÙĦØ§ØµÛģ":9112,"ĠÙħØ§ÙħÙĪØ±":9113,"ĠØ¨Ø±ÛĮÚ©":9114,"ĠØµÙĦÛģ":9115,"Ø±ÙĪÚ©":9116,"ĠÚĪÛĮÙ¹":9117,"ĠÙħØ±Ø¬":9118,"ĠÙħØ¨Ø§ØŃ":9119,"Ø±ÛĮÙ¹":9120,"ĠÙ¾Ø±ÙĪÙħ":9121,"ĠÛģÛĮÚ©":9122,"Ø§Ø¦ÛĮÙĦ":9123,"ĠØ§Ø®ØªØªØ§ÙħÛĮ":9124,"ĠØ§Ø¹ÙĦØ§ÙħÛĮÛĴ":9125,"45":9126,"ĠÙĨÙħÙĪÙĨÛģ":9127,"ĠØ³Ø§Ø¦ÛĮÚ©ÙĦÙĪÚº":9128,"ĠÚ©ÙĪÚĨØ²":9129,"ĠÛģÙĨØ±":9130,"ĠØ³Ø¯Ú¾":9131,"Ø¢ÙĦ":9132,"ĠÙ¾Ú¾ÙĨ":9133,"ĠØ³Ø§ØªÙĪÛĮÚº":9134,"âĢľ-":9135,"Ú¯ÙĪÛĮØ§":9136,"ĠØ¨ØªØ§ÙĨÛĴ":9137,"ÙĦØ§Ø¦ÛĴ":9138,"ĠÙĪØ«":9139,"ÚĨÙĪÙĨÚ©Ûģ":9140,"ĠØ´ÛĮØ®ÙĪÙ¾ÙĪØ±Ûģ":9141,"ÚĺØ§Ø¯":9142,"ĠØ§Ú©Ø§Ø¦ÙĪÙĨÙ¹":9143,"ÙĦÚ¯":9144,"ĠÚ¯Ø²Ø±ÛĴ":9145,"ĠÙ¾Ø±ÛĮØ§ÙĨÚ©Ø§":9146,"ĠÙģÙĦÛĮÙ¹":9147,"ĠØŃÙħØ§Ø¯":9148,"ĠØºØ±ÙĤ":9149,"ĠÚ©ØªÛĴ":9150,"ĠÚĪÙ¹":9151,"ÙħØªØ¹":9152,"ĠØ¨Ø¯Ø³ØªÙĪØ±":9153,"ĠØ§Ø³ØªØŃØµØ§ÙĦ":9154,"ÙĪØ¦ÙĦ":9155,"Ø¨Ú©":9156,"ĠØ§ÛĮÙĨÚĪØ±":9157,"ĠØ§Ø³ØªØºÙģØ§Ø±":9158,"ĠÙħÙħØ§ÙĨ":9159,"Ø§ÙģÛģ":9160,"ĠÙħØ¬ÙĪØ²Ûģ":9161,"ĠØ®Ø¶Ø±":9162,"ÙĤÙĪ":9163,"ĠÙ¾Ú¾ÛĮÙĨ":9164,"ĠÚ¯Ú¾Ø§Ù¹":9165,"Ø¯Ú¾Ø±":9166,"Ø³ÛĮÙĨØ¦Ø±":9167,"ĠÙħØŃÚ©ÙħØ§ÙĨÛģ":9168,"ĠÙĨØ§Øµ":9169,"ĠØ§Ø±Ø¯ÙĨ":9170,"ĠØ§ØŃØ§Ø·Ûģ":9171,"ĠÙĤÙĨØ¯":9172,"ĠØ§ÛĮÚĪÙħØ±ÙĦ":9173,"ĠØ¯Ú¾ÙħØ§Ú©ÙĪÚº":9174,"ĠÛģÛĮÙĨÚĪ":9175,"ĠØ¯Ú©Ú¾Ø§Ø¦ÛĮÚº":9176,"ĠÙĨØ¬Ùħ":9177,"ĠÙħØ·ÙĦÙĤ":9178,"ĠÙĤØ¨ÛĮÙĦÛĴ":9179,"ĠÙģØ±Ø§Ø²":9180,"ĠØ¨Ø§ÙĨÚĪ":9181,"Ø§Ú¯Ø±Ø§Ùħ":9182,"ÙĪÛĮÛģ":9183,"ĠØ²ÙĦÙħÛĮ":9184,"ĠØ²Ø±ÛĮØ¹ÛĴ":9185,"Ø¨Ø§Ú©ÙĪ":9186,"ĠØ±Ø³Ùħ":9187,"ĠÙħÙĦÚ©ÛĮÙĪÚº":9188,"ĠØ¢Ø¦Ø±ÙĦÛĮÙĨÚĪ":9189,"ĠÙĨÚ©ØªÛģ":9190,"ĠÙħÙħØ§ÙĨØ¹Øª":9191,"ĠØ¹Ø§Ø´ÙĤ":9192,"Ġ93":9193,"ĠÙĪØ³Ø·":9194,"ĠÛģÙĪÙĨÛĮÙĪØ§ÙĦÛĮ":9195,"Ú¯ÙĪØ±":9196,"ĠØ§ÙģØ¹Ø§ÙĦ":9197,"Ġ98":9198,"ĠÙħÙĨØ¯ÙĪØ¨":9199,"ĠÙĪÙĪÙ¹ÙĨÚ¯":9200,"ĠØ´Ø§Ú©Ø±":9201,"ĠÙģØ±ÙħØ§ÙĨÛĴ":9202,"Ġp":9203,"ĠÙĪØª":9204,"ĠÚ©ÙĪÚĪ":9205,"ĠÙģÛģÙħ":9206,"ĠÙħÛģØ¯ÛĮ":9207,"ĠØ±Ø¨Ø§ÙĨÛĮ":9208,"ĠØªØ§Ø±Ú©":9209,"Ø§ÙĨÚ¯ÙĦ":9210,"ĠØ¬ÙĨÚ¯ÙĦÛĮ":9211,"ĠÙ¹Ú©Ø±Ø§":9212,"ĠE":9213,"ĠØ¹ÛĮØ§Ø¯Øª":9214,"ĠÙħØ¹Ø§ÙĦ":9215,"ĠØ°ÙĦÚ©":9216,"ÙħØ±Ø§":9217,"ĠØ³Ø±Ú©Ø´ÛĮ":9218,"ĠÙ¹ÛĮÚ©Ø³ÙĪÚº":9219,"ĠØ¬Ø§Ø±ØŃØ§ÙĨÛģ":9220,"ĠØ´Ú¯":9221,"Ù¹ÛĮØ²":9222,"ĠÙĨØ±ÙħÛĮ":9223,"¿½":9224,"ÛģØ±Ø§":9225,"ÙĦÙĪØ¹":9226,"ĠØ¯ÛģÙĦÛĮØ²":9227,"ĠÚĪØ§":9228,"ĠØ§ÙħÙ¾":9229,"Ø³Ø§Ø²":9230,"ĠØ¨Ø§Ø¢":9231,"ÙĤÛĮÙĪÙħ":9232,"ĠØ¯Ú¾ÙĪÙ¾":9233,"ØŃØ§Ø¯Ø«Ø§Øª":9234,"ĠØ¬ÙĨØ§Ø¨":9235,"ĠØ¬ÙĦØ³ÙĪÚº":9236,"ĠÙħØ¬Ø±ÙħØ§ÙĨ":9237,"ĠØ¨Ø§Ø±ÛĮÚ©":9238,"ĠØªØ¹Ø·ÛĮÙĦØ§Øª":9239,"ĠØ¨Ø±Ø³Ø±":9240,"ĠØ´Ø§Ø¹Ø±ÛĮ":9241,"ĠØªØ´Ø®ÛĮØµ":9242,"ĠØ§ÙĨÚĪÛĮØ§":9243,"ĠÙģØªÙĨÛģ":9244,"ĠØ¨Ø³Ø±":9245,"ĠØ¬ÙĨØ§Øª":9246,"ÚĳÚ¾Ø§Ø¦ÛĮ":9247,"Ø´ÙĪØ±ÙĨØ³":9248,"ĠÚĪØ§ÙĦÙĨØ§":9249,"ĠÙħØ±ÙĪÛĮ":9250,"Ø·Ø§Ø±ÙĤ":9251,"ĠØ§Ø±Ø¶":9252,"Ø¢ÙģØ³":9253,"ĠÙħØ³Ù¹Ø±":9254,"Ø´Ùģ":9255,"ÙĪØ¨Ø³Øª":9256,"ØŃÚ©ÙĪÙħØªÛĮ":9257,"ĠÙħÙĪÙĦÙĪÛĮ":9258,"ĠÙģÛĮÚĪØ±Ø²":9259,"ÛģÙĨ":9260,"ĠØ³Ø§Ú©Ú¾":9261,"Ø°Ø®":9262,"ÙĴÙĵ":9263,"ĠØ³ÙĪØ§ØªÛĮ":9264,"ĠØ±Ø¶Ø§Ùħ":9265,"ĠÙ¾ÚĳÙĪØ³ÛĮ":9266,"ÙĨÙĪØ§":9267,"ĠÛ±Û²Û":9268,"ÙĪØ§ÙĤØ¹Ûģ":9269,"ĠÙħØ±ÙĪ":9270,"ĠØ³Ø§Ø¦Ø²":9271,"ĠØ¨Ø§ÛģÙħ":9272,"ĠÙħÙĦØ§ØŃØ¸Ûģ":9273,"Ú©ØªØ¨":9274,"ĠØ§Ø±Ø¨Ø§Ø¨":9275,"ĠÙħØ´ÙĪØ±ÛĴ":9276,"ĠÙħØ´ØªØ¹ÙĦ":9277,"ĠØ±Ø³ÛĮ":9278,"ĠØ¨ÛĮÚĪ":9279,"Ø§ØªÚ¾Ø§":9280,"ĠØ§ÙģØ³":9281,"Ø¨Ø§ÙĤÛĮ":9282,"ĠÙ¹ÙħØ§Ù¹Ø±":9283,"ĠØ¬Ø§Ú¯":9284,"ĠØ³Ø±Ø§Øº":9285,"ĠÙħØ¹Ø²Ø²ÛĮÙĨ":9286,"ĠØ§Ø¹Ø´":9287,"ĠØ¬ÛģØ§ÙĦØª":9288,"ĠÙĪØ±Ø«Ûģ":9289,"Ø§ØªÙĪØ§Ø±":9290,"ØµØ¨ØŃ":9291,"ÙĪÙĨÙħØ§":9292,"ĠØ§ÛĮÙĪ":9293,"ĠØ¬ÙħØ§Ø¹ØªÛĮ":9294,"ĠØ§Ø¯ÙĪØ§Ø±":9295,"Ø³Ù¹Ø±ÛĮØ²":9296,"ĠÛĮÙĪÙĨØ§Ø¦ÛĮÙ¹ÚĪ":9297,"Ġ03":9298,"ĠÙħÚ©ÛĮÙĨ":9299,"ĠØ³Ø¹Ø§Ø¯Øª":9300,"ÙĦØ§ÙĨÛĮÛģ":9301,"ĠÙĦØ§Ø¤":9302,"ĠØŃØ´Ø±":9303,"ĠØ§ÛĮØ±ÛĮ":9304,"ĠØªÙĤÙĪÛĮØª":9305,"ĠÛ±Û±Û":9306,"ĠØ¨Ø§Ø¦ÛĮÙĪ":9307,"ĠÚ¯Ø±Ø§ÙĨÙ¹":9308,"ĠÚ©Ú¾Ø§Ø¦ÛĮÚº":9309,"ĠØ§Ø¬ØªÙĨ":9310,"Ø´ÙĤ":9311,"ĠÙĪØµÛĮØª":9312,"ĠÙĪØ§Ø³Ø·ÛĴ":9313,"ĠØ¢Ø±Øª":9314,"ĠÙħØŃÙģÙĦ":9315,"ĠØ³Ø§Ø¦Ù¹Ø³":9316,"ĠÙħØ§ÙĨÚ¯Ø§":9317,"ĠØ¯Ø³ØªÙĪØ±":9318,"ĠÙħÙĪÙħÙĨÙĪÚº":9319,"Ø³ÛĮÚ©ÛĮÙĪØ±Ù¹ÛĮ":9320,"ØºÙĦØ§Ùħ":9321,"Ø¨ÛĮØ§":9322,"ÙħØŃÙħÙĪØ¯":9323,"ĠØ¯Ø§ÙĨØªÙĪÚº":9324,"ĠÙħÙĨØ·ÙĤÛĮ":9325,"Ú¾Ú©":9326,"ĠÙħØ¨Ø´Ø±":9327,"ĠÙ¾Ø°ÛĮØ±Ø§Ø¦ÛĮ":9328,"ĠØ¨Ø§ÙĪØ±":9329,"ĠÙĨÚĺØ§Ø¯":9330,"ĠØ§ÙĦØ¹Ø§ÙĦ":9331,"ĠØ§ÛĮÚĪÛĮØ´ÙĨ":9332,"ĠÙĪÛĮÙĦÛĮ":9333,"ĠØ¹Ø°Ø±":9334,"ĠÚ©ÙĪÙ¹Ûģ":9335,"ĠÚĨØ§Ø±ÛĴ":9336,"ĠØ¬ÙĪÚĳÛĮ":9337,"ĠÚĨÙĪÚ©ÛĮ":9338,"ĠÙ¾ÛĮØ³":9339,"ĠØ§Ø¨Ø±":9340,"Ø§Ø®Ø±":9341,"Ø¯ÙĨ":9342,"ĠØ³Ø³ØªÛĴ":9343,"ĠÙħØ°ÛĮØ¯":9344,"ĠØ®ØµÙĪØµÛĮØ§Øª":9345,"ĠÚ¯ÙĨÛĴ":9346,"ĠÛģÙĨÚ¯ÙĪ":9347,"ÙħÚ©ÙħÙĦ":9348,"ĠÙ¾ÙĦÙĪØ§ÙħÛģ":9349,"ĠÛĮØ§Øª":9350,"ĠÙĨÛĮØ´ÙĨ":9351,"Ú©ÙĨÚ¯":9352,"ĠÙ¾ÙĪÙĨ":9353,"ĠØ¨ÚĨÙ¾ÙĨ":9354,"ĠØ¢Ø±ÚĪÛĮÙĨÙĨØ³":9355,"Ø§ØŃØªØ¬":9356,"ĠÙĦÛģØ³ÙĨ":9357,"ĠÚĨÙĪÙĨ":9358,"ĠØªÙħØ§Ø´":9359,"ĠÛģÙĪÙĦÚĪØ±":9360,"Ú¯Ø±ÙĪÙ¾":9361,"Ø®Ø´":9362,"ĠÙĦØ§Ø¦Ù¹":9363,"Ú¯Ø±ÛĮØ´ÙĨ":9364,"ĠÙ¾ÚĪ":9365,"ĠØ¨Ø§ØºÛĮ":9366,"ĠÙĦÙĪÙ¹ÛĮ":9367,"ĠØ³ÙĦÛĮÚ©Ø´ÙĨ":9368,"ĠØªØ¬Ø¯ÛĮØ¯":9369,"ĠØ¨Ø§Ø¯ÙĦ":9370,"Ġ2007":9371,"ÙĪÙĪØ§ÙĦ":9372,"60":9373,"ĠÚ©Ø³Ù¹":9374,"ĠÙ¹ÛĮÙĨÚ©":9375,"ĠÛĮÙĪØ±ÙĪ":9376,"Ø§Ø¦ÛĮÙ¹":9377,"Ø±ÛĮÚ©ÙĦ":9378,"ĠØ¨Ø§ÙĦØªØ±ØªÛĮØ¨":9379,"ĠØ§Ø¬ØªÙĨØ§Ø¨":9380,"Ú©Ú¾ÛĮ":9381,"ØªÛĮØ§Úº":9382,"ĠØ¨ØªØ§ÙĨØ§":9383,"ĠÙħØ±Ûģ":9384,"ÙģÛĮÙĨ":9385,"ĠØ¨ÛģØ§Ø¯Ø±ÛĮ":9386,"Ø·Ø§ÛģØ±":9387,"ĠÙģÛĮØ²":9388,"ĠØ§Ø¨Ø±Ø§Ø±":9389,"ÙĦÛĮØ§":9390,"ĠÙ¾ÛĮÙ¹Ø±":9391,"ĠÚ©ØªØ±ÛĮÙĨÛģ":9392,"ĠØ²Ø®Ùħ":9393,"Ø³ÙĦÛĮÙħ":9394,"ĠÙ¾Ø±ÙĪØ±Ø´":9395,"ĠÚ©ÙĪØ¢Ø±ÚĪ":9396,"Ù¾ÙĪØª":9397,"ĠÙģØ´":9398,"Ø·Ø§ÙĨÛĮÛģ":9399,"ĠÚ¯ÙħØ´":9400,"ÙĤØ§":9401,"ÙĨÙĪØ±":9402,"ĠØ¨ÙĨØ¯ÙĪØ¨Ø³Øª":9403,"ĠÙģØ±ÙĪØ´ÙĪÚº":9404,"ar":9405,"Ø¯ÛĮØ¯Ûģ":9406,"ĠÚ©ÙĨÚĪ":9407,"ĠØ®ÙĪØ±ÛĮ":9408,"ĠÙģØ±ÛĮÙħ":9409,"ÛĮØªÙĪÙĨ":9410,"ĠÙ¾Ø±ÙĪØ§ÙĨ":9411,"ĠØ´Ø±Ù¹Ø³":9412,"Ġ195":9413,"Ø§ÙĨÙ¹Ø±ÙĨÛĮØ´ÙĨÙĦ":9414,"ĠØ¯ÙĨÛĮØ§ÙĪÛĮ":9415,"Ø®ÙĪØ§":9416,"ĠØ¹Ø¨Ø¯Ø§ÙĦØ±Ø´ÛĮØ¯":9417,"ĠÙĪÙĤÙĪØ¹":9418,"Ġ81":9419,"ĠÛģÛĮÙĪÙħÙĨ":9420,"Ø±ÛģÛĮ":9421,"ĠØŃØ¬Ø§Ø¬":9422,"Ø¹Ø¯Ø§ÙĦØªÛĮ":9423,"ĠØ±Ø§Ø¦Ù¹Ø³":9424,"ÙĦÙĤÛĮÙĨ":9425,"ĠØ§Ù¹Ú¾ÛĴ":9426,"Ø¹Ø§Ø¯":9427,"ÛĮØ±ÙĨ":9428,"ĠÙ¾ÙĪØ¯Ø§":9429,"ĠÙĤÙĦÙħØ¨ÙĨØ¯":9430,"ĠÚĪÛĮÙħÙĪÚ©Ø±ÛĮÙ¹Ú©":9431,"ĠØ¹Ø¬":9432,"ĠÙ¾Ø§Ú©ÛĮØ²Ûģ":9433,"ĠÙħØ¬Ø§ÙĦØ³":9434,"Ø³ÛĮØ§ÙĦÚ©ÙĪÙ¹":9435,"ØµØºÛĮØ±":9436,"ĠØªØ¹Ø¬Ø¨":9437,"Ø§ÛģÙħØª":9438,"ĠÙħØ§ÙĨØ§":9439,"ĠÙ¹Ø±ÛĮÚ©Ù¹Ø±":9440,"ĠÙģÙĦØ³Ø·ÛĮÙĨ":9441,"ĠÛģÙĨÚ¯Ø§ÙħÛģ":9442,"ĠØ¬ØªÙĪØ¦ÛĮ":9443,"ĠÙħØ¬Ø§Ø²":9444,"ØŃØ¶ÙĪØ±":9445,"ĠØ¶ÛĮØ§Ø¹":9446,"Ø¯Ú¾ÙĨ":9447,"ĠÙ¾Ø³ÙħØ§ÙĨØ¯Ú¯ÛĮ":9448,"ĠÛģÛĮÚĪÚ©ÙĪØ§Ø±Ù¹Ø±":9449,"ĠÙ¾Ø±ÛĮÚĪ":9450,"ĠÙħÙĪÙĦØ§ÙĨ":9451,"ĠØ¯ÛĮÙĪÛĮ":9452,"ĠÚ©Ø§Ø±ÙĨØ§ÙħÛģ":9453,"ĠØ³ÙĪØ§Ø¦ÛĴ":9454,"Ġ2009":9455,"ĠÙħØµØ§ÙĦØŃ":9456,"Ø¯Ú¾ÙħØ§Ú©ÛĴ":9457,"ĠÚ©Ù¹ÙĪ":9458,"ĠØ§ÙĦØ±Ø´ÛĮØ¯":9459,"ĠÚ©ÙĦÙħØ§Øª":9460,"Ø¨ÙĨØ§":9461,"ĠØ³ØªØ§Ø±ÙĪÚº":9462,"ĠØ¥":9463,"ĠÙĪØ¨Ûģ":9464,"ÙĪÙĦÛĮÙĨ":9465,"ĠÙĦØ§Ø³":9466,"ĠØ§ÙĨÙĪØ´Ú©Ø§":9467,"ĠØ§ÛĮØ§ÙĨ":9468,"Ø§Ø³Ú©ØªÛĴ":9469,"Ø¬Ú¾ÛĮ":9470,"ĠÙ¾ÛĮØ³Ù¹":9471,"ĠØ§ÙĨÚ¯ÙĦÛĮ":9472,"ĠÙħÛĮÙĨÛĮ":9473,"ĠØ¬ÛĮØªÛĴ":9474,"ĠØ§Ø´Ø§Ø¹Øª":9475,"Ø³ÙĦØ²":9476,"ĠÙĪÛĮØ²Ûģ":9477,"Ø§Ø«ÛĮÙħ":9478,"Ø³Ø§ÛģÛĮÙĪØ§ÙĦ":9479,"ĠØ±ÛĮØª":9480,"ĠÙģØ±Ø´ØªÛģ":9481,"ÙħØ±Ø²":9482,"ĠØ¨Ú¾Ø±ÛĴ":9483,"Ø§Ø³Ø±Ø§Ø¦ÛĮ":9484,"Ø§Ø¦ÛĮÛģ":9485,"ĠØ§ÙĦØ¬Ú¾":9486,"Ø±ÙĪÙĤÛģ":9487,"ĠØ¯Ø§Ø±ÙĦ":9488,"ĠØ¢ÙħØ§Ø¯Ûģ":9489,"Ø±Ú©Ú¾":9490,"Ø§ØªÙħ":9491,"ÛĮØ±Ø§":9492,"ĠÙħØªÙĨØ¨Ûģ":9493,"ĠØ±Ø§Ø¦Ùģ":9494,"ĠÙĤØ±Ø¹Ûģ":9495,"ĠØ§Ù¹Ú¾ÙĨÛĴ":9496,"ĠØ±Ø¬Ø³Ù¹Ø±ÛĮ":9497,"ĠØ§ÙĦÙĪ":9498,"ØªØ¹ÙĦÛĮÙħ":9499,"ĠØ§ÙĦØªØ±ÙħØ°ÛĮ":9500,"Ø§Ø®Ø¨Ø§Ø±":9501,"ĠÙĨØ´ÛĴ":9502,"ĠÙħØ±ØºÛĮ":9503,"Ø³Ú©ÙĪÙĨ":9504,"Ù¾Ø§ÙĨ":9505,"ĠØ³Ú©Ø±ÛĮÙĨ":9506,"ĠÙħØ´ØºÙĪÙĦ":9507,"ĠØ±Ø§ÛģÙĨÙħ":9508,"Ø§Ø¦ÙĤÛģ":9509,"Ø±ÛĮÙĪ":9510,"ĠÙ¾ÛĮØ³ÙĪÚº":9511,"ÙĪØ§ÙĦØ¯ÛĮÙĨ":9512,"ĠÚ©Ø±ÛĮÚ¯Ø§":9513,"ĠÙĦÚ©ÚĳÛĮ":9514,"ØªÙģØªÛĮ":9515,"ĠÚĨØ±Ø¨ÛĮ":9516,"ĠÙĨØ§Ø¦Ù¹":9517,"ÙģÛĮÙĦ":9518,"ĠÛĮØ¹":9519,"ĠØ³ÙĨÛĮÚº":9520,"ĠÙħØ°Ø§ÛģØ¨":9521,"ĠØ§ÙĪÙĦÙħÙ¾":9522,"ĠØ¨Ø§Ø¢Ø³Ø§ÙĨÛĮ":9523,"ÙĪÛĮÙĦÛĮ":9524,"ĠÙħØµØ§Ø¦Ø¨":9525,"ĠÙĪØŃØ¯Øª":9526,"ĠØ§ÙĨÙĪØ³Ù¹ÛĮ":9527,"ĠØ¯ÙĪÚ©Ø§ÙĨ":9528,"Ø³Ù¹Ø±ÛĮØ´ÙĨ":9529,"ĠØ¨ÙħØ¨Ø§Ø±ÛĮ":9530,"ÙĨØ¨ÙĪÙĦ":9531,"ĠØ¯ÙĪÙħ":9532,"ĠÙģØ§Ø¶ÙĦ":9533,"ØµØ§ÙĦ":9534,"ĠÙ¾ÛĮØ¯ÙĦ":9535,"ĠØ¨Ø§ÙĦØ§ØªØ±":9536,"ĠÛģÛĮÙĦÙ¾":9537,"ĠØ«ÙħØ±Ø§Øª":9538,"ĠÙĦØ§Ø¦Ø¨Ø±ÛĮØ±ÛĮ":9539,"ĠÚ©ÛĮÚ©":9540,"Ø§Ù¹Ú©":9541,"ĠÙĪØ±Ú©Ø³":9542,"ĠØ±Ø§Ø¦ÙĪÙĨÚĪ":9543,"ĠÙĦØ¹ÙĦ":9544,"ĠØ¢ÙĪ":9545,"ĠØ³Ø¨Ø²ÛĮØ§Úº":9546,"ĠÚ©Ø±ÙĦÙĪ":9547,"ĠÚ¯ÙĪÙĦÛģ":9548,"ĠÚĨÚĨØ§":9549,"ĠØ¯ÙĪØ±Ø§ÙĨÛĮÛģ":9550,"ĠØ¬ÛģØ¯":9551,"ĠØ¨ÙĨÚ¯Ø´":9552,"Ø®Ø§ÙĦØ¯":9553,"ØªØŃØµÛĮÙĦ":9554,"ÛĮØ±ÙĪ":9555,"ĠÙħÛĮÙĦÛĴ":9556,"ĠØ±Ú©Ø§ÙĪÙ¹ÙĪÚº":9557,"Ú©ÙĪÙĨØ³ÙĦ":9558,"ĠØ³ÛĮÚ©Ú¾ÙĨÛĴ":9559,"ĠØ¹Ú©Ø³Ø¨ÙĨØ¯ÛĮ":9560,"ĠÙģÙĦØ§Ø¦Ù¹":9561,"ÙħØ¬ÛĮØ¯":9562,"ĠÙħØ³Ø§ÙĪÛĮ":9563,"Ø§Ø±Ø³":9564,"ĠØŃÙģØ¸":9565,"ĠÙĨÙħÙĪ":9566,"ĠÛģØ§Ø±Ù¹":9567,"ĠØ²ÛĮØ¯ÛĮ":9568,"ÙĪÙĦÛģ":9569,"ĠÚ¯Ø±Ûģ":9570,"Ġ82":9571,"ĠØ¨Ø§Ø®Ø¨Ø±":9572,"ÙĤØ·":9573,"ĠÙħÙĦÚ©Ûģ":9574,"ĠÙ¾Ú¾ÙĪÚĳ":9575,"ĠÙģÙĪØª":9576,"ĠÚĪØ§ÙĨØ³":9577,"ĠÙħÙĦØ§Ú©ÙĨÚĪ":9578,"ĠØ¶Ø§ÙħÙĨ":9579,"ĠÛģÙĦØ§ÙĦ":9580,"Ø³Ú©ÙĪÙĦ":9581,"ĠÚ¯ÙĦÛĮÙĪÚº":9582,"ĠØªØ¹Ø²ÛĮØªÛĮ":9583,"ĠØ¢ÙĦÛģ":9584,"ĠØ§ÛĮÚĪÙħÙĨØ³Ù¹Ø±ÛĮ":9585,"ĠØªÙĦÙĤÛĮÙĨ":9586,"ĠØ´ÙĨÚ¯":9587,"ĠØ§Ø¯Ø±ÛĮØ³":9588,"ĠØ¶Ø±Ø±":9589,"ĠØ³Ø§ÛĮÛģ":9590,"ĠØ¯Ø§Ø¦ÙħÛĮ":9591,"ÙĪØ±ÙĨÛĮØ§":9592,"ĠÙ¾ÛĮÚ©ÛĮØ¬":9593,"ĠØ²Ø¨Ø§ÙĨÛĮ":9594,"ĠØ´Ø±ÙħÙĨØ¯Ûģ":9595,"ĠØ¨ÛĮÙĪØ±ÙĪÚ©Ø±ÛĮ":9596,"Ġ91":9597,"ĠÚ©ÚĨØ±Ø§":9598,"ĠØ¢Ú©Ø³ÛĮ":9599,"Ú©Ø§Ø±Ø§":9600,"Ø±ÛĮØ¯ÛĴ":9601,"or":9602,"ÙĦØ§Øµ":9603,"Ø§Ø¯Ø§Ø±ÛĴ":9604,"ĠØ³Ø±ÛĴ":9605,"ĠÚĨÚ¾ÙĪÚĳÛĮÚº":9606,"ĠØ§ÙĨÚĪØ³Ù¹Ø±ÛĮØ²":9607,"ĠØªÛģÙĪØ§Ø±":9608,"ĠÙħØµØ±ÛĮ":9609,"Ø¸ÙħÛĮÙĨ":9610,"ĠÙĨÛĮÙĪÙĦ":9611,"ĠØ§ÙģØ§Ø¯ÛĮØª":9612,"ØŃØ¨":9613,"ĠØ¬Ø§Ø¨Ø±":9614,"ĠÙĪÛĮÚ©":9615,"ĠØ±Ø§ÙĪÙĦ":9616,"ĠØ¬Ø§ÙĨÛĮÙĪØ§ÙĦÛĮ":9617,"ww":9618,"ĠØ§ÙĨØ´ÙĪØ±ÙĨØ³":9619,"ĠØ§Ø¬ØªÙħØ§Ø¹Ø§Øª":9620,"ĠÙħÛĮÙĪØ²Ú©":9621,"ĠØ§ÙĤÙĪØ§ÙĦ":9622,"ĠØ¨Ø§Ø§Ø«Ø±":9623,"ĠØ§ØŃØªÛĮØ§Ø·ÛĮ":9624,"ĠÙ¾Ø±ÛĮÚ©Ù¹Ø³":9625,"ĠÛģØ§Ø¦ÛĮØ±":9626,"ĠØ±ÛĮÙģØ±":9627,"ĠÙħÚ©Ø³":9628,"ĠØ¨Ø³ÙĨÛĴ":9629,"Ø²ÙĦØ²":9630,"Ġ2000":9631,"ĠÙĨØ´Ø§ÙĨØ§Øª":9632,"ÙĨØ¯ÙĪ":9633,"ĠØ³ÛĮÚ©Ø±":9634,"ĠÛĮÙĪØ³ÙģØ²Ø¦ÛĮ":9635,"ÙģÛĮØ§Øª":9636,"Ġ94":9637,"ĠØ³ÛĮÙ¹Ú¾ÛĮ":9638,"ĠØºØ§ÙģÙĦ":9639,"Ø§Ù¾ÙĨØ§":9640,"ĠÙ¾ÛģÙĨÚĨØ§ÙĨØ§":9641,"ĠØ±Ø³ÙĪÙħ":9642,"ĠØªØ¹Ø·ÙĦ":9643,"ĠÙģØ§Ø¦Ø¯ÛĴ":9644,"ĠØ¨ÙĪÙ¹":9645,"ĠØ±ÙĪÙĦØ²":9646,"Ú©Ø±Ù¾Ø´ÙĨ":9647,"Ú©ÙĪÙģ":9648,"Ø³Ø§ÛĮÛģ":9649,"ÙħØªØ§Ø«Ø±Ûģ":9650,"ĠÙĨØ§Ø¯Ûģ":9651,"Ø±Ú©Ø§":9652,"ĠÙħØ§Ø±ÛĮ":9653,"ĠÙ¾Ø§Ø¤ÙĨÚĪ":9654,"ĠØ§Ø³ØªØ¹ÙģÛĴ":9655,"ÙĨØ¬Ø±":9656,"ĠÙĨØ§Ø§ÙĨØµØ§ÙģÛĮ":9657,"ĠÙħØ§Ø¦ÛĮÚ©ÙĦ":9658,"ĠØ§ÛģÙĦÛĮØª":9659,"ĠØ¢ÛģÙĨÚ¯":9660,"ĠÚ©ÛĮÙ¹ÛĮÚ¯Ø±ÛĮ":9661,"ĠT":9662,"ÙĤØ¯Ø±":9663,"ĠÙģØ·Ø±ÛĮ":9664,"ĠG":9665,"ĠÚ©Ø±Ø³ÛĮ":9666,"ĠÙħÛĮÙ¹":9667,"ĠØ¨Ø±Ø§Ø¨Ø±ÛĮ":9668,"ĠØ¨ÙĦØ§ÙĨÛĴ":9669,"Ø¦Ø³":9670,"ÙĪÚ©ÙĪÙĨ":9671,"ĠØ±ÛģÙĨÙħØ§ÙĪÚº":9672,"ĠÙħØ´Ø±ÙĪØ¨Ø§Øª":9673,"ĠØ§ÙħÛĮØª":9674,"ĠÚ©ÙĪÙĦÛĮ":9675,"ĠÛĮÙĨÚ¯":9676,"ĠÙ¾ÛĮÙĨØ§":9677,"ĠÚ¯ÛĮØª":9678,"ĠÙ¹Ø§ÙĪØ±":9679,"ĠØ¬Ø±Ø§Ø«ÛĮÙħ":9680,"ÙĨØ¬ÙĪ":9681,"ĠØ³Ø¯Ø±ÙĨ":9682,"ĠÙħÙĨØµ":9683,"ĠÙħØ§ÙĦØ§":9684,"ĠÙħØŃØ±ÙĪÙħÛĮ":9685,"ĠÙĦØºØ§Ø±ÛĮ":9686,"ĠÙĦØª":9687,"ĠØªÙĪØ«":9688,"ĠØ§ÙģØ±Ø§Ø¯ÛĮ":9689,"ĠÙħØ§ÙĨÙĨØ§":9690,"ÙħØ®Ø§ÙĦ":9691,"Ø³Ù¾ÙĪØ±Ù¹Ø³":9692,"ÛģÛĮÙĦ":9693,"ĠØ±Ø³ÙħÛĮ":9694,"ĠÙ¾ØªÙĦÛĮ":9695,"Ø³Ù¹Ø§Ú©":9696,"ĠÙħÙĪÙ¹Ø§Ù¾ÛĴ":9697,"ĠÚĪÙ¾Ø§Ø±Ù¹ÙħÙĨÙ¹":9698,"ĠÚĨÛĮÙĨØ¬":9699,"ĠÙĤÙĦØª":9700,"ĠØ¯Ú¾Ø§Ø±":9701,"ĠØ´Ø±Ø¬ÛĮÙĦ":9702,"ÛģÙĪØ¦ÛĮ":9703,"ÙĪØ±ÛĮØª":9704,"Ø§ÙĨØªÛģ":9705,"ÙħÛĮØ¬Ø±":9706,"ĠÙĨØ¹Ø±ÙĪÚº":9707,"ÙĪÚ©ÛĮÙĦ":9708,"ĠÙħÚ¯":9709,"ĠÛĮÙħÙĨÛĮ":9710,"ĠÙħÙĪØ§Ùģ":9711,"ÛģØ±ÙĪÚº":9712,"Ġ05":9713,"ĠÙħØ¹Ø¯ÙĨÛĮØ§Øª":9714,"ÙħÛĮÙħÛĮ":9715,"Ø§ÛĮÚĪ":9716,"ÙĪØ¹Ø§Øª":9717,"ĠÙħÙĨØ¬":9718,"ĠØ±ÛģÙĪÚº":9719,"ÙħÙĦÙĪÚº":9720,"ĠØ§ÙĨØ³Ù¹Ø§Ú¯Ø±Ø§Ùħ":9721,"ĠÚ©ÚĨÛĮ":9722,"ÛĮÙħÛģ":9723,"Ø§Ø³Ù¾ØªØ§ÙĦ":9724,"ĠÙĨØ§Ø®ÙĪØ´Ú¯ÙĪØ§Ø±":9725,"ĠÚĪØ±Ø§ÙħÙĪÚº":9726,"ĠØ§ÙĦØ¹Ø±Ø¨ÛĮ":9727,"ĠØ³ÙĦØ·ÙĨØª":9728,"ĠØ¬Ú¾ÙĦØ³":9729,"Ú©ÙħÛĮØ´ÙĨ":9730,"ÛĮØ§ÙĤ":9731,"ÙĨØ§Ùģ":9732,"ĠÙ¾Ø§Ø±Ú©Ø³":9733,"ĠÙĨØ§Ú©Ø§Ø±Ûģ":9734,"ĠÙħØŃØªØ§Ø·":9735,"ĠÙħØ´Ø§ÙĪØ±ØªÛĮ":9736,"ĠÙĪÛĮØ¦Ø±":9737,"Ø§Ù¹Ú¾":9738,"ĠØ³Ú¯ÙĨ":9739,"ĠÙħÛĮÙĦÛģ":9740,"ĠÚ©Ù¾ÚĳÙĪÚº":9741,"ĠØ³ÙħØ¬Ú¾ÙĨØ§":9742,"ÙĨÙħØ§Ø¦":9743,"ĠÙĦØ§Ø¬":9744,"ĠÚĨØ§Ø¦ÙĦÚĪ":9745,"ĠÛĮÙĦ":9746,"Ø¨Ø±Ø·Ø§ÙĨÛĮÛģ":9747,"Ø¸ÛģØ¨ÛĮ":9748,"ĠØ¹Ø§Ø²ÙħÛĮÙĨ":9749,"ĠØ¨Ø±Ø¨Ø±ÛĮØª":9750,"ĠØ§ÛĮÙĨØ¯Ú¾ÙĨ":9751,"ĠÚ¯Ø±ÙĪÛģÙĪÚº":9752,"ĠÚ¾Ùħ":9753,"ÙĪØ§Ø¦ÛĴ":9754,"ĠÚ¯Ø§ÙĦ":9755,"ØŃØ±ÛĮØª":9756,"ĠØ§Ø³Ù¹Ø±":9757,"ĠÙ¾Ø§ÛĮÛģ":9758,"ĠÙ¹Ú©Ù¹ÙĪÚº":9759,"ĠÙģØ±ÙĪØ´ÛĮ":9760,"33":9761,"ÙĤÛĮØ±":9762,"Ø±ÙĦÛĮÙĨÚĪ":9763,"ĠÙ¾Ø±Ø¯ÛĮ":9764,"ĠÙ¾ÛĮØ¬":9765,"ĠØ§Ø³ÙĦØ§ÙħÚ©":9766,"ĠØªØ¨Ø§Ø¯ÙĦÙĪÚº":9767,"ĠÙĨÙĪÙ¹ÛĮÙģÛĮÚ©ÛĮØ´ÙĨ":9768,"ĠØ¨Ø²Ø±Ú¯ÙĪÚº":9769,"ĠÙĨØ§Ø²ÛĮ":9770,"ÙħÙĨØ§Ú©":9771,"ĠØªÙĨØ²":9772,"ĠØ®Ø§Ø±Ø¬ÛĮ":9773,"ĠÙĨØ¨ÙĪÛĮ":9774,"ĠØ§ÙģÙĪØ§Ûģ":9775,"ĠØ§Ø¹Ø´Ø§Ø±ÛĮÛģ":9776,"ĠØ§ÙĦÙħØ¹Ø§ÙĨÛĮ":9777,"ĠÚ©ÛĮÙĨÛĮÚĪØ§":9778,"ĠØ¹Ø§Ø¬Ø²":9779,"ĠØªÙĪØ«ÛĮÙĤ":9780,"Ø¬ÛĮØª":9781,"Ú©Ø´ÙħÛĮØ±ÙħÛĮ":9782,"Ø§ØµÙĦØ§ØŃÛĮØª":9783,"ÚĪÙĨÙ¹Ø³":9784,"ĠÙ¾ÙĦØ§ÙĨÛĴ":9785,"ÚĨÚ¾ÛĮ":9786,"ĠÙħØ³Ø±ÙĪÙĤÛģ":9787,"ĠÙĨØ¹Øª":9788,"ĠÙģÙĨÚĪÙĨÚ¯":9789,"ĠÙĤÙĪÙħÛĮÚº":9790,"Ø§Ø¦Ø¯Ûģ":9791,"ÙģØªØŃ":9792,"Ø¯Ø±ÛĮØ¬":9793,"ĠØªÙĤØ§Ø¶ÛĴ":9794,"ØªÚ¾ÛĴ":9795,"ĠØ¨Ø§Ø²ÛĮØ§Ø¨ÛĮ":9796,"ÙĤÙĪÙĦ":9797,"ĠÚ¯ÛĮÙĨØ¯ÙĪÚº":9798,"ĠØ¢Ø±ÙĪØ§Ø¦ÛĮ":9799,"Ø§Ø±ÛģØ§":9800,"ĠØ´ÛĮØ¦Ø±Ø²":9801,"ĠÙ¾Ø±Ø³ØªÙĪÚº":9802,"Ø§Ø¯Ú¾":9803,"ĠØ¨ÙĪÙ¹ÛĮÙĪÚº":9804,"Ú¯ÛĮØ³":9805,"ĠÚĪÛĮØ²ÙĦ":9806,"ĠØ·ÙĦÙĪØ¹":9807,"ĠØ§ÙĪÚ©Ø§ÚĳÛģ":9808,"ĠØ´ÙĨÙĪ":9809,"ĠÙħÙĦÛĮØ´ÛĮØ§":9810,"ĠÙĦÛĮÚ©ÚĨØ±":9811,"ĠÚĨØ§Ø¦ÙĨÛģ":9812,"ÙħØªØ¹ÙĦÙĤÛģ":9813,"Ø§ÙħØ§ÙĨ":9814,"ĠÚĨÛĮØ±ÙħÛĮÙĨ":9815,"ĠØ¬ÙħÛĮ":9816,"ĠÙ¾ÛĮÙ¹Ø±ÙĪÙĦ":9817,"ĠØªÙħØ¨Ø§Ú©ÙĪ":9818,"Ú¯Ø²Ø±":9819,"ĠØ¹Ø±Ø´":9820,"ĠØ¨Ø²Ø¯":9821,"Ù¹Ø±ÛĮÙĨ":9822,"Ø±ÙĪØ¯":9823,"ĠØ³Ø±ØŃØ¯ÙĪÚº":9824,"Ø¨ÛĮØ³":9825,"ĠØ®ÙĪØ´Ø¨ÙĪ":9826,"ĠÙħÛĮÙĦØ§Ø¯":9827,"ĠØµØ±ÛĮØŃ":9828,"ĠØ¨Ø§Ø¤ÙĦØ±":9829,"ĠØªÙĦÙĪØ§Ø±":9830,"ĠÙĨØ¬ÛĮØ¨":9831,"Ø§Ø³ÙĦØ§ÙħÛĮ":9832,"ĠÙĦØ§Ø²ÙĪØ§ÙĦ":9833,"es":9834,"ĠÙĤÙĦÛĮÙĦ":9835,"ĠØ§ÛĮØ¯Ú¾ÛĮ":9836,"ÚĪÛģ":9837,"ĠØ¨ÛģØ§ÙĨÛĴ":9838,"Ġ600":9839,"ĠÙĤÛĮØ§Ø³":9840,"ĠØ¯Ø§Ø±Ø§ÙĦÙģÚ©Ø±":9841,"Ø±ÛĮÙĦÛĮ":9842,"ĠØ³Ú©ØªÛĮÚº":9843,"ĠÙħØ®ØªØ§Ø±ÛĮ":9844,"ĠØ§ØµØ±Ø§Ø±":9845,"ĠØ¬ÙĪØ³":9846,"Ø±ÛĮØ¨ÙĪÙĨÙĦ":9847,"ĠÚ©Ú¾Ø§ÛĮØ§":9848,"ĠØ³ÙĪØ§Ø±ÙĪÚº":9849,"ĠØ¨Ø§Ùħ":9850,"Ø±Ú©ÙĪ":9851,"ĠØ²ÙĪÙĨØ²":9852,"âĢ¦âĢ¦":9853,"ĠÚ©ÛĮØ±Ø¦ÛĮØ±":9854,"ĠÙ¾Ø±ÙĪØ§Ø²ÙĪÚº":9855,"ĠØ±Ú©Ø´":9856,"Ø«Ø§ÙĤØ¨":9857,"Ġ124":9858,"ĠØ§ÛĮÚ¯Ø²ÛĮÚ©Ù¹ÛĮÙĪ":9859,"Ú©Ø´ÙħÛĮØ±ÙħÛĮÚĪÛĮØ§Ø³Ø±ÙĪØ³":9860,"ĠÙ¾ØªÛĴ":9861,"Ù¾ÙĦØ§ÙĨ":9862,"ĠØ¨Ú¾Ù¹Ûģ":9863,"ĠØ¨ÚĳÚ¾Ø§ÙĨØ§":9864,"ĠØ±Ø§Ø¬Ù¾ÙĪØª":9865,"ÙħØ´Ú©ÙĦ":9866,"ÚĪÛĮØ§Úº":9867,"Ù¾Ø±Ø³ÙĨ":9868,"ĠÚ©Ø§ÙħÛĮØ§Ø¨ÛĮØ§Úº":9869,"ĠØ±ÙĪØ§ÙĨÚ¯ÛĮ":9870,"ĠØ§ØªØ§Ø±Ø§":9871,"Ø§Ø¦Ø²ÚĪ":9872,"ĠØ§ÛĮÙħØ§ÙĨØ¯Ø§Ø±":9873,"Ø¹Ø«ÙħØ§ÙĨ":9874,"ĠÙĪØ¯":9875,"ĠÙ¾ÚĳÚ¾ÙĨØ§":9876,"ĠØ¨ÙĪÙĦØ±":9877,"ĠÙĦØ³":9878,"ĠØ¨ÛĮØ±ÙĪØ²":9879,"ĠÚ©ÚĨÙĦ":9880,"ĠÙħØ¯Ø§Ùģ":9881,"ĠÙĦÚĳÚ©ÛĮØ§Úº":9882,"ĠÚ¯ÙĦÙĪØ¨ÙĦ":9883,"ÙŃ":9884,"ĠÙħÙ¹Ú¾ÛĮ":9885,"ÚĪØ§ÙĨ":9886,"ĠÙģØªÙĪ":9887,"Ø§Ø¯ÛĮÙĪ":9888,"ĠÚ©Ø±ÙĪØ§ÙĨØ§":9889,"ĠØ²Ø¨Ø§ÙĨÙĪÚº":9890,"ĠÙĤØ¨Ø±ÙĪÚº":9891,"ÙģØ±ÛĮÙĤ":9892,"ĠØ±ÙĪØ§":9893,"ĠÙ¾ÛģÙĨØ§":9894,"Ġ02":9895,"ĠØ§ÙĦØªØ±":9896,"ĠØ§Ú©Ú¾Ø§Úĳ":9897,"ÛģÙģØªÛģ":9898,"ĠÚ©ÙħØ±Ûģ":9899,"Ø§Ø´ÙĨ":9900,"ĠØ¨Ú¾ÙĦ":9901,"ÙĪØ§Ø²ÙĨ":9902,"ĠÙ¾ÛģÙĨÙĨÛĴ":9903,"ÙĨØ§ØµØ±":9904,"ĠÙĦØ§Ø±":9905,"ĠØºÛĮØ±Øª":9906,"ĠÙĦÚĳÚ©Ø§":9907,"Ø§ÙģØºØ§ÙĨØ³ØªØ§ÙĨ":9908,"ĠØ¯Ù¾ÛĮÚ©Ø§":9909,"Ø´Ø§ÙħÙĦ":9910,"ÙĪÛĮÚĪÛĮÙĪ":9911,"ĠØ¹ØµÙħØª":9912,"ĠÚ©ÙħÛĮÙ¹ÛĮØ§Úº":9913,"Ø®ÙĪØ´ØŃØ§ÙĦÛĮ":9914,"ĠÙ¾Ø±ÙĨØ¯ÙĪÚº":9915,"ĠØ§Ø¹Øµ":9916,"ĠØ¨Ø±Ø§Ø¦ÛĮÙĪÚº":9917,"ĠØµØ§ØŃØ¨Ø§ÙĨ":9918,"ÙĪÙĨÙħÙĨÙ¹":9919,"ÙĪÙĦÙĪ":9920,"ĠØ¬ÙĪØ²":9921,"ĠÚ¯ÙĪØ§ÛģÙĪÚº":9922,"ĠØªØ§ÙĪØ§ÙĨ":9923,"ĠÙħØ¹Ø·ÙĦÛĮ":9924,"ĠØ³Ø§Ø±Ûģ":9925,"ĠØ³Ø±Ø³Ø¨Ø²":9926,"ĠÚ©ÙĦØ§":9927,"ĠÚĨÚ©Ú¾":9928,"ÙħØ±Ú©Ø²ÛĮ":9929,"ĠØ§Ø³Ø§ÙħÛģ":9930,"ĠÚĨÚ¾ÙĪ":9931,"ĠØ¨Ø§Ø±Ú¯Ø§Ûģ":9932,"ĠÚ©ÙģØ§ÙĦØª":9933,"ĠÚ¯ÛģØ±Ø§Ø¦ÛĮ":9934,"ĠÙĨÙħÛĮ":9935,"Ù¾Ú©":9936,"ĠÚ¯Ø±ÛĮÚĪÛĮØ´ÙĨ":9937,"ĠÚĪØ§Ø¦Ø±ÛĮÚ©Ù¹ÙĪØ±ÛĮÙ¹":9938,"ĠÚĨÛĮÙħÙ¾ÛĮØ¦ÙĨ":9939,"ĠÙħØ´ÙĤÙĪÚº":9940,"Ø´Ø§Ø¯":9941,"Ø§ØªØŃ":9942,"ĠØ¯ÙĪØ³ØªØ§ÙĨÛģ":9943,"ĠØºÙĦØ§ÙħÛĮ":9944,"ĠÙģØ±ÛĮÙĨÚĪ":9945,"ÙĪÙģÛĮ":9946,"ĠÙ¾Ø§ØªÚ¾":9947,"ĠØ§ÙĪØ±Ø¨":9948,"ĠÙĦÚĳÚ©ÙĪÚº":9949,"ĠÙģØ¶Ø§Ø¡":9950,"Ø¬Ø§ÙĨØ¨":9951,"Ø§ÙĨØ²Ú©":9952,"ØŃÙĦÙĤÛģ":9953,"ĠØ¨Ø±Ø¢":9954,"ĠØ¯Ú¾ÙĪØ§Úº":9955,"ĠÙħØ¹Ø±Ø§Ø¬":9956,"ĠØ³ÛĮÙĪÙĨ":9957,"ÙĪØ§Ø±ÚĪØ²":9958,"ĠÙģÙĦØ³":9959,"ĠØ¨Ø³ÙĪÚº":9960,"ĠØ³ØªÚ¾Ø±Ø§":9961,"ĠØ´ÙħØ³ÛĮ":9962,"ÙħØ´Øª":9963,"Ø´ÛĮÙħ":9964,"ĠØ¨ÛĮÙ¹ÛĮØ§Úº":9965,"Ø°Ø®ÛĮØ±Ûģ":9966,"ĠØ³ØªØ§Ø¦Ø´":9967,"ĠØ®Ø§Ú©ÙĪÚº":9968,"ĠØŃØ§Ø¬Øª":9969,"ÙĦÛģØ§":9970,"ĠØ³ÛĮÙħÙĨÙ¹":9971,"ĠÙģÛģØ¯":9972,"ÛĮØ±ÛĮ":9973,"ĠÙ¾Ú©ÚĳÙĨÛĴ":9974,"ĠØ®Ø§ÙĨÛĮÙĪØ§ÙĦ":9975,"ÙĦØ§ÚĳÚ©Ø§ÙĨÛģ":9976,"ĠÚ©Ø§Ø¹":9977,"ĠÙĦÙģ":9978,"ĠÙĤØ§Ø¯ÛĮ":9979,"Ġ800":9980,"ĠÚ¯Ú¾ÛĮØ±ÛĴ":9981,"ĠØ¨ÙĪÙĨ":9982,"ĠÚ¯Ø§ÙĨ":9983,"ĠØªØµØ±ÛĮØŃ":9984,"ĠÛ±Û°":9985,"39":9986,"ĠÙħØ§Ø¦ÙĦ":9987,"ĠÛģØ§ÙĨÚ¯":9988,"ĠØ§ÙĪØ±Ú©Ø²Ø¦ÛĮ":9989,"ĠÙĦØ§Ø±ÚĪ":9990,"ĠØ¹Ø«":9991,"ĠÙħØ²Ûģ":9992,"ĠÚ©Ø§Ø¸":9993,"ĠØ¯Ø§Ø±ÙĦØŃÚ©ÙĪÙħØª":9994,"ĠØ¨ÛĮØ¯":9995,"ĠØªÙĨÚ¯ÛĮ":9996,"ĠØºÙĨÛĮÙħØª":9997,"Ø¢Ø³Ù¹Ø±ÛĮÙĦÛĮØ§":9998,"Ú©ÙħÙĦ":9999,"ĠÚ©Ú¾ÙĪÙĦÛĴ":10000,"ĠØ§ÙĪØ±ÙĨØ¬":10001,"Ø§Ø³ØªØ¹ÙħØ§ÙĦ":10002,"ĠØ³ÙĨÚ¯ÙĦ":10003,"ĠØªÙĦÙģÛĮ":10004,"ĠØ§ÙĦØªÙĪØ§Ø¡":10005,"ĠÛģÙħÚ©ÙĨ":10006,"Ø®ØµÙĪØµÛĮ":10007,"ĠÙ¹Ø±Ø§ÙĨØ³ÙģØ±":10008,"ĠÚĨÚ¾Ù¹":10009,"ĠØ¨Ø§Ø±ÙĪØ¯":10010,"ĠØ¨ÙĨØ¯Ø±Ú¯Ø§Ûģ":10011,"ĠÙħØ´Ú©ÙĪØ±":10012,"ĠØ³ÙħØ¬Ú¾ÛĮÚº":10013,"ĠÙĨØ§Ø¯Ø±Ø§":10014,"ĠØ§Ù¹Ú¾ÛĮ":10015,"ĠØ±ÙĪÚ©ÛĴ":10016,"ĠØ¨ÛģÙĨÙĪÚº":10017,"ĠØ¬Ø¨Ø±ÛĮ":10018,"ĠØ¹Ø±Ø³":10019,"ĠØ¯Ú¾Ø±ÙħÛĮ":10020,"ĠØ¨ÛĮÙĪÛĮÙĪÚº":10021,"Ø¸ÙħÛĮ":10022,"ĠØ¬ÙĪÚĳÙĪÚº":10023,"ĠØ³ÙĨØ¯Ú¾ÛĮ":10024,"ĠØ§Ø®ÙĦØ§Øµ":10025,"ĠÚĨØ§ÛģØ§":10026,"ĠØ¨Ø§Ø§Ø®ØªÛĮØ§Ø±":10027,"ĠØ¨Ø§ØµÙĦØ§ØŃÛĮØª":10028,"ĠÚ©Ø±ÙĨÙ¹":10029,"ÙģÛĮØµÙĦÛģ":10030,"36":10031,"ĠØ§ÙĦÙĪØ¯":10032,"ĠØ¬ÛĮÙħØ²":10033,"ĠØ±Ø§ÙĨÛĮ":10034,"Ù¾ÙĪÙĦÙĨÚ¯":10035,"ĠÙĦÙĪÚº":10036,"Ġ130":10037,"Ø±Ø§ÙĨØ§":10038,"ĠÚ©ÙĪÛĮØª":10039,"ĠØ¹Ø¨Ø¯Ø§ÙĦØ³ØªØ§Ø±":10040,"ĠØ§ÙĪÙĤØ§Ùģ":10041,"ĠÛĮÙĪÙħÛĮÛģ":10042,"ĠÚ¯Ø³ØªØ§Ø®Ø§ÙĨÛģ":10043,"ĠÙģÚ©Ø³ÙĨÚ¯":10044,"ĠÚĪØ±ÙĪ":10045,"ĠØ¨Ø±Ø§Ø¯Ø±":10046,"ĠÚ©Ø±ÛĮÚºÚ¯ÛĴ":10047,"ĠØ®ØµÙĪØµÛĮØª":10048,"ÙĨÙħØ§Ø²":10049,"ĠØ±ÙĪØ§ÙĨÛĮ":10050,"ĠÙģØ±Ø®":10051,"ĠØµÙģØŃÛģ":10052,"ĠÙĤØ·Ø¹ÛĮ":10053,"Ø·Ø§Ø¨ÙĤ":10054,"ĠØ³Ø¨ÛĮÙĦ":10055,"ĠÚĨÙħÙĨ":10056,"ĠØ¨Ú¾ØªÛĮ":10057,"ĠØ§ÛĮÙĨØ¬":10058,"ÙħÙĨØªÙĤÙĦ":10059,"ĠØ¬Ø§ÙĨØ¯Ø§Ø±":10060,"ĠØµØŃØ±Ø§Ø¦ÛĮ":10061,"ĠÙĪÛĮÙ¹":10062,"ĠØ³Ø§Ú©ÙĨ":10063,"ĠÙ¾ØªÛĮ":10064,"ĠÙ¾ÛĮØ±ÙĪÚº":10065,"ĠØ¨Ù¹Ú¾":10066,"ÙħÙģ":10067,"Ø±ÙĪÙ¾ÛĴ":10068,"ÙħÛģØ±":10069,"ĠØ§Ø¨ØªØ¯Ø§":10070,"ĠÛĮØ§Ø¯ÛĮÙĪ":10071,"ĠÚ©ÛĮÙĨØ§ÙĦ":10072,"ĠÚĨÙĪÙ¹":10073,"ĠÙĦÚ¯ÙĨ":10074,"ĠØ¯Ø§Ø±Ø§ÙĨÛģ":10075,"ĠØ§ÙĨØ¬Ø±ÛĮ":10076,"Ġ110":10077,"ĠÚ¯ÛģØ±Ø§":10078,"Ø§ÛĮØ§ÙĨ":10079,"ĠØ§ÙĨØ¬ÛĮÙĦ":10080,"ĠØªÙĤØ±Ø±":10081,"ĠÙĪØ¨ÛģØ¨ÙĪØ¯":10082,"ĠÙĨØ§ÙĦ":10083,"ÙģØ§Ø¦Ø±":10084,"ĠÙĦÛģÚĳÛĮ":10085,"Ø§Ø³Ù¹ÛĮÙ¹":10086,"ĠÛģØ§Ø¦ÛĮÚĪØ±ÙĪ":10087,"ØŃØ·":10088,"ĠØ³Ú©Ø§ÙĦØ±":10089,"ĠÙĦÛĮÚ¯ÙĦ":10090,"ĠÙ¾ÛĮÚĪ":10091,"ĠØ¦ÙĪ":10092,"ĠÚ©ÙģØ§ÛĮØª":10093,"ĠÚ©ÙĨÛĮ":10094,"ĠØ±ÛĮÙĨ":10095,"ĠØ§Ø³Ù¾ÛĮÙĨ":10096,"ĠÙħØ«Ø§ÙĦÛĮÚº":10097,"ĠØ¢Ù¾Ø±ÛĮØ´ÙĨÙĦ":10098,"ĠØ§ÙĦØº":10099,"Ø³Ù¹ÙħÙĨÙ¹":10100,"ĠÙħØ§ÙĦØ§Ú©ÙĨÚĪ":10101,"ĠÙĪØŃØ´ÛĮØ§":10102,"ĠÙĪÙĦÛĮØ¯":10103,"75":10104,"Ø§ÙĨÚĨÛĴ":10105,"ĠØ§Ø³Ù¹ÛĮØ´ÙĨÙĪÚº":10106,"ĠÚ¯Ø§Ø¬":10107,"ĠØ±ÙĪØ§Ø¬":10108,"ĠÙĨØ´Ø§ÙĨÛĮÙĪÚº":10109,"ĠØ³ÙĨØ³ÙĨÛĮ":10110,"ĠÙĦØ§ÙĦÚĨ":10111,"ĠÙħØ§Ø±Ú©ÛĮÙ¹ÙĨÚ¯":10112,"ĠÚĨÛģØ±ÙĪÚº":10113,"ĠÙ¹Ú¾ÙĨÚĪØ§":10114,"Ġ........":10115,"ĠØ¨ÛĮØ§ÙĨÛĮ":10116,"ĠØ¨Ø±Ú¯":10117,"ĠØ¢ÛĮØªÛĮÚº":10118,"ĠØ³ÛĮÙĦÙģÛĮ":10119,"ĠÛģÙĨØ¯ÙĪØ³ØªØ§ÙĨÛĮ":10120,"ĠÛģÙħÚ©ÙĨØ§Ø±":10121,"ÙĪØ§ÛĮØ§":10122,"ĠØ¨ÙĤØ§Ø¡":10123,"Ø¨ÙĨÚ¯":10124,"ĠÚ©Ú¾ÛĮØªÙĪÚº":10125,"ĠØ¢Ø´ÛĮØ§":10126,"ĠØ±ÛĮÚĳÚ¾":10127,"Ú¯ÙĪØ¯ÛģØ§":10128,"ĠØ¬ÙħØ§":10129,"Ø¢Ú¯":10130,"ĠÙ¾ÛĮØ´Ú¯ÛĮ":10131,"ĠÙ¹ÙĪØ¦ÛĮ":10132,"ĠØ¬Ø§Ø¯ÙĪÚ¯Ø±":10133,"ĠØ§ÙĨØµØ§Ø±":10134,"ĠØ¨Ú¯Ø§Úĳ":10135,"Ø³Ø§Ø±":10136,"ĠØ¯Ø§ÙĨÛĮ":10137,"Ø¹ÙĪØ±":10138,"ÙĦÛĮØ¯":10139,"ĠÙģØ±ÙĨÚĨ":10140,"ÙĨÙħØ¨Ø±":10141,"ĠÚĪÙĪÙħÛĮ":10142,"ĠØªØ¹ØµØ¨":10143,"ĠÙħÙĦØ§ÙĤØ§ØªÙĪÚº":10144,"ĠØ¨ÛĮÙĨÚ©ÙĨÚ¯":10145,"Ù¾Úĳ":10146,"Ø§ÙħØ¬Ø¯":10147,"ĠØ¢ÙģØ±":10148,"ĠØ¹ØµØ±":10149,"ĠØ¨Ø®Ø´ÙĨÛĴ":10150,"ĠÙ¾ÙĦØ§Ø²Ûģ":10151,"ĠÚĨØ±ÚĨ":10152,"48":10153,"ÙĨØªÛĮ":10154,"ĠÚĨÚ¾Ù¹ÛĮÙĪÚº":10155,"ĠØ´Ø§Ùģ":10156,"ĠÙĤØªØ§ÙĦ":10157,"ĠÛĮØŃÛĮ":10158,"ĠØ·Ø§Ø±ÛĮ":10159,"Ù¹ÛĮØ³Ù¹":10160,"ĠÙħÙĪØ®Ø±":10161,"ĠØ§ÙĨØ¯Ú¾ÛĮØ±ÛĴ":10162,"Ø§ÙĨÙ¾":10163,"ĠØ±Ù¾ÙĪØ±":10164,"ĠØ¨Ø±Ø§Ø²ÛĮÙĦ":10165,"ÚĪÛĮØ¦Ø±":10166,"ĠÚ©Ø§ØºØ°":10167,"ĠØ´ÛģØ²Ø§Ø¯ÛĴ":10168,"ĠÛĮØ§Ø¨":10169,"ĠÛĮØ±Øº":10170,"ÙħÙĦÛĮ":10171,"ĠØ§Ø³ÙĦÙĪØ¨":10172,"ĠØ¨ÛĮØ¬ÙĨÚ¯":10173,"ĠØ¨ÛĮØ±Ø§Ø¬":10174,"ĠÚ©ÛĮÙ¹Ú¯Ø±ÛĮ":10175,"ĠØ¢Ø³ÙħØ§ÙĨÛĮ":10176,"ĠØ¨Ú¾Ø±Ø§":10177,"ĠØ´Ø±ÙħÙĨØ§Ú©":10178,"ĠØªÛģØ§Ø¦ÛĮ":10179,"Ú©Ø§Ø´":10180,"ÙĨÛĮÙĨ":10181,"ĠÙĦÛĮØ§Ø±ÛĮ":10182,"ĠØ§Ø¹ÙĦØ§ÙĨÛĮÛģ":10183,"ĠØ³Ø±Ø§Ø³Ø±":10184,"ĠÙħØ¶Ø§ÙħÛĮÙĨ":10185,"ĠØ§Ø¦ÛĮØ±Ù¾ÙĪØ±Ù¹":10186,"ĠÚ¯ÙĦØ§Ø³":10187,"ĠØ§Ø°Ø§":10188,"ĠÙĨÚĨÙĦÛĮ":10189,"ĠØ¢Ø±ØªÚ¾Ø±":10190,"ĠÙ¾ÚĪÙĪÚ©ÙĪÙĨ":10191,"ĠÚ©ÙĪØ±ÛĮØ¬":10192,"ĠÛĮÙģ":10193,"ĠØ¹Ø²ÛĮØ±":10194,"ĠÙĦØ§ÙĨÚ¯ÙĪ":10195,"Ø¢Ú¯ÛĴ":10196,"ĠØ¬ÙĪÙĨÚ¯":10197,"ĠØ¨ØªØ¯Ø±ÛĮØ¬":10198,"ĠØªØŃØ§Ø¦Ùģ":10199,"ĠÙ¾Ø±ÙĪÛĮÙĨ":10200,"ĠØ¢Ø¯Ú¾ÛĮ":10201,"ÚĨØ§ÛģÛĴ":10202,"ĠØ§ØªØ±ÛĴ":10203,"ĠØ¨ÛĮÙ¹ÛĮÙĪÚº":10204,"ĠØ§ÙĦØªÙĪØ§":10205,"ĠØŃØ¯ÛĮ":10206,"ĠÙģØ²":10207,"ĠØ¢Ø¨Ø§Ø¯ÛĮÙĪÚº":10208,"ĠØ¨ÙĤÛĮÛģ":10209,"ĠÙħÚ©Ø§ØªØ¨":10210,"ĠØ¹Ø±Ø§ÙĤÛĮ":10211,"ĠØ®Ø§ÙĨØ¯Ø§ÙĨÛĮ":10212,"ĠØ³ÛĮØ¯Ú¾Ø§":10213,"ĠØ³Ù¹ÙĪØ±Ø²":10214,"ĠØªÙĪÙĦÛģ":10215,"ĠÙĪÛģØ§ÚĳÛĮ":10216,"Ø´ÙħØ§ÙĦÛĮ":10217,"ĠÚ©ÛĮÙ¾Ø±":10218,"ĠÚ¯Ø±ÛĴ":10219,"ĠØ¨Ø²ÙĨØ¬ÙĪ":10220,"ĠÙĤØ³Ø·":10221,"ĠØ±Ø§ØªÙĪÚº":10222,"ĠØŃØ³ÛĮ":10223,"ĠÙħÚĨÚ¾Ø±":10224,"ĠÙħÙĦØ§Ø²ÙħØªÙĪÚº":10225,"Ø§ÙĨØªØ®Ø§Ø¨ÛĮ":10226,"Ø§Ø¦Øª":10227,"Ø²ÙĦÛģ":10228,"Ù¾ÛĮØ±Ø³":10229,"ĠÙĪÚĳ":10230,"ĠÛģÙħØ§ÛĮÙĪÚº":10231,"ĠÙ¹Ø±ÙĨ":10232,"Ø¨ÚĳÛĮ":10233,"ĠÙĦÚ©Ùħ":10234,"ĠÚĨØ±Ø§Øº":10235,"ÙĪÙĨÙĪØ§ØŃ":10236,"ĠØ³Ø§Ø®ØªÛģ":10237,"ĠØ¢ÙĨØ¯Ú¾ÛĮ":10238,"Ø¨ÚĳÚ¾":10239,"ĠÙĪØ²ÛĮØ±Ø®Ø²Ø§ÙĨÛģ":10240,"ĠØ¯Ú¾Úĳ":10241,"ĠØ³ØªØ§Ø±Ûģ":10242,"ĠØ¬ÙħÛģÙĪØ±ÛĮÛģ":10243,"Ø§Ø´ÙĤØ¬ÛĮ":10244,"Ø¹ÛĮÛģ":10245,"Ø±ÙĪØ¶":10246,"ĠÚ¯Ø±ÙģØªØ§Ø±ÛĮÙĪÚº":10247,"ĠØªØ§Ø±Ú©ÛĮÙĨ":10248,"ĠØ±ÛĮØ³Ù¹ÙĪØ±ÙĨÙ¹":10249,"ĠØ¬Ø§Ø¦ÙĪ":10250,"ĠØ²ÙĪØ§ÙĦ":10251,"ĠÙĦØ§Ø¦ÙĨÙĪÚº":10252,"ĠØ²ÙĨ":10253,"Ø³ÙĪØ±Ûĥ":10254,"ĠØ·Ø§ÙĤØªÙĪÚº":10255,"Øĳ":10256,"Ù¹Ø²":10257,"Ø±ÛĮÙĨØ¬Ø±Ø²":10258,"ĠÙĦÙĪÙ¹ÛĴ":10259,"ĠÙĨØ¨ÛĮÙĪÚº":10260,"ĠÙĪØ§Ù¹Ø±Ø¨ÙĪØ±ÚĪ":10261,"Ø§ÙĦÚ©":10262,"Ø§ÙħØªÛĮ":10263,"ÙĨÚ¯Ø§Ø¦ÛĮ":10264,"ĠØ²ÙĦÙģÛĮ":10265,"ĠØ®ÛĮØ±Ù¾ÙĪØ±":10266,"Ø¹ÛĮÙĨ":10267,"ĠØ±Ø§Ø¦ÙĦ":10268,"ĠØ®Ø±ÛĮØ¯ÛĮ":10269,"ĠØ´Ú©ÙĨ":10270,"ĠÙĪØ¶ÙĪ":10271,"ĠØ³Ø§Ø¦ÛĮÚĪ":10272,"ÙĤÙħ":10273,"ĠÛģÙħØ¯Ø±Ø¯":10274,"ĠØ§ÛĮÚĪÙħÙĨØ³Ù¹Ø±ÛĮØ´ÙĨ":10275,"ĠÙħÛĮØ§ÙĨÙĪØ§ÙĦÛĮ":10276,"Ú©Øª":10277,"Ø¬ÙĪØ¹Ûģ":10278,"ĠØ¬Ø§Ø³ÙĪØ³":10279,"Ø§ÙĦØ«":10280,"ĠÙħÙĪØ¶ÙĪØ¹Ø§Øª":10281,"ĠÙĨØ¸Ø±Ø¨ÙĨØ¯":10282,"ĠÙ¾ØªÙĪÚº":10283,"ĠØ¹ÙħØ§Ø¯":10284,"ĠÙħØ¹Ø¯ÛĴ":10285,"ĠÛģØ³ØªÛĮ":10286,"ĠØŃÙĦÛĮÙħ":10287,"ĠØ§ÛĮØªÚ¾":10288,"ĠØ§ÛĮÙĪØ§Ø±ÚĪØ²":10289,"ĠØ®ÙĪØ§ÙĨ":10290,"ĠÙĨÛĮÙ¾Ø§ÙĦ":10291,"ĠÙħÙĨØªØ¸ÙħÛĮÙĨ":10292,"ĠÙħÚ¯Ø³ÛĮ":10293,"ĠØ²ÛĮØªÙĪÙĨ":10294,"ĠØ¨Ø§ÙĦÙĦÛģ":10295,"ĠØ¨Ø¹Ø«":10296,"ĠÙħÙĨØªØ´Ø±":10297,"ĠÙĨØ°Ø±Ø§ÙĨÛģ":10298,"it":10299,"ĠØ³ÙĦÛĮ":10300,"ĠØ¯ÙĪØ±ÙĪÚº":10301,"ĠÙħÙĪØ³ÛĮÙĤÛĮ":10302,"Ø¢Ø¦ÛĮÙĨ":10303,"ĠØ¬Ø°Ø¨Ø§ØªÛĮ":10304,"Ø¬ÙĨÚĪ":10305,"ĠØ§Ø·ÛģØ±":10306,"ĠÚ©Ù¹ÛģØ±ÛĴ":10307,"ĠÙģÙĦÛĮÙ¹Ø³":10308,"ĠØ§ÙĪØ±ÙĨÚ¯ÛĮ":10309,"ĠØ¢Ù¹Ú¾ÙĪÛĮÚº":10310,"ĠÙĨÙĤÛĮØ¨":10311,"ĠØ§ÙĦØ´Ø§ÙĨ":10312,"ĠÙħØ´Ø¹ÙĦ":10313,"ĠÙħØ¹Ø¨ÙĪØ¯ÙĪÚº":10314,"ĠÚ©ÛĮØ¬ÛĮÛĴ":10315,"Ø§Ø¦ÚĨ":10316,"ĠØ±ÛĮÙĪ":10317,"Ø§Ø¤ØªÚ¾":10318,"ĠØ®ÙĪØ±Ø¯ÙĪÙĨÙĪØ´":10319,"ĠØªØ±Ø³ÛĮ":10320,"ĠØŃÙĤØ§ÙĨÛĮ":10321,"ĠÚ©ÙħÛĮÙĪÙĨÛĮÚ©ÛĮØ´ÙĨ":10322,"ĠØ´ÙĨÚ¯Ú¾Ø§Ø¦ÛĮ":10323,"ĠÙħØªÙĪØ§Ø²ÙĨ":10324,"ĠÛģÙħØ³Ø§ÛĮÛģ":10325,"ĠÚ¯Ø±ÙħÛĮÙĪÚº":10326,"ĠÙħØµÙĦØŃØª":10327,"37":10328,"ĠÚ©Ø±ÛĮÙĨÛģ":10329,"ĠØ±Ø§Ø²ÛĮ":10330,"Ø§Ø¯ÙĪÚº":10331,"ĠØ³ÛĮØ¯Ú¾ÛĮ":10332,"ÛĮÚ©ÛĮÙ¹":10333,"ÙħÙĨØªØ®Ø¨":10334,"ĠØ³Ø§Ø±Ú©":10335,"ĠÚ©ÛĮØ³ÛĮ":10336,"ĠÙģÙĪÙĤ":10337,"ĠØ³ÙħØ§Ø¬":10338,"Ø§ÛĮØ§Ø¨":10339,"ĠÙħØ¨Ø§ØŃØ«":10340,"ĠØ§ÙĦØ¯":10341,"ĠØ±ÙĪØ²ÛĮ":10342,"ĠÙģÙĤØ¯Ø§ÙĨ":10343,"86":10344,"ĠØ³ÛĮÚ©ÚĳÙĪÚº":10345,"ÙħØ¹ÛĮ":10346,"ĠØ¯Ø§ÙħÙĪÚº":10347,"ĠØ·Ø§ÙĦØ¨Ûģ":10348,"Ú©Ø´ÙħÛĮØ±ÛĮÙĪÚº":10349,"ĠÚ¯ÙĪÛģØ±":10350,"ĠØ²Ú©Ø±ÛĮØ§":10351,"ĠØ¨Ø±Ø¬":10352,"ÙĤØªÙĦ":10353,"ĠØ¬Ø§Ø¦ÛĮØ¯Ø§Ø¯ÛĮÚº":10354,"ĠÙĨÙħÙĪÙĨÛĴ":10355,"ĠÙ¾ÙĦÙ¹":10356,"ĠØ¨Ø§Ø¦ÛĮØ³":10357,"Ø¢ÙĨÛĮ":10358,"ĠØ¯Ø§Ø³Øª":10359,"Ø³ÛĮÙħÛĮÙĨØ§Ø±":10360,"Ø§Ø³ÙĦ":10361,"ĠØ§Ø¨ÙĪØ¯":10362,"ĠÚ©Ù¹Ø§Ø¦ÛĮ":10363,"ĠÙĦÛĮÙĪØ§":10364,"ĠØ§Ø±Ø¯Ú¯Ø±Ø¯":10365,"Ú©Ø±Ù¾Ù¹":10366,"Ø¯ÛĮÚ©Ú¾":10367,"ĠØ§Ø¹ÙĦÙħ":10368,"ÙĦØ§ÙĨÚ¯":10369,"ĠÛģÙĪÙĦÙĨØ§Ú©":10370,"ĠÚĨØ§Ø¦ÙĨØ§":10371,"ĠØ®ÛĮØ§ÙĨØª":10372,"ĠÙ¾ÛĮØ±ÙĪ":10373,"ĠØ¯Ø´ÙĪØ§Ø±ÛĮ":10374,"ĠØ§ÛĮØ¬ÙĨØ³ÛĮÙĪÚº":10375,"ĠØŃÙĤØ¯Ø§Ø±":10376,"ÚĨÙĪØ¯Ú¾Ø±ÛĮ":10377,"ĠÙ¹Ø§Ø¦Ø±":10378,"ĠÙģÙĤÛģØ§Ø¡":10379,"Ù¾Ø§Ù¹":10380,"Ø¬Ø§Ø¦ÛĴ":10381,"ĠÛģÛĮÙ¹":10382,"Ú©Ø±Ø²":10383,"ĠØ¯Ú¾Ú©ÛĮÙĦ":10384,"ĠØ³ÙĪØ§ÙĦÛĮÛģ":10385,"Ġ2020":10386,"Ø§Ø¦ÙĨÛĮ":10387,"ĠØŃØ§ÙĦÛĮ":10388,"ĠØŃÚ©ÙĪ":10389,"ĠÙĤØµØ¨ÛĴ":10390,"ĠØ¨ÙħØ§":10391,"ÙĪØ§Ù¾Ø³":10392,"ĠØŃÛĮØ¯Ø±ÛĮ":10393,"Ø±ÛĮÙģÛĮ":10394,"ĠÚ©ÛĮÚĳÛĴ":10395,"Ø±ÛĮÚ©ÙĨ":10396,"ĠÚ©Ø´Ø§Ø¦ÛĮ":10397,"ĠÚ©Ú¾ÙĪÙĦØ§":10398,"Ú©ÛĮÛģ":10399,"Ø§Ø·ÛĮÙĨ":10400,"ĠØ§ØªØ§Ø±ÙĨÛĴ":10401,"ĠØºØ°Ø§Ø¦ÛĮØª":10402,"ĠØ³Ø±Ø§":10403,"ĠÙ¾Ø§ÙĨØ§ÙħÛģ":10404,"ĠØ¨ÛĮØ´ÙħØ§Ø±":10405,"ÙģÙĪØ±ÛĮ":10406,"ĠÙħÙħÙĨÙĪØ¹":10407,"ĠÙĨÙĪØ¨":10408,"Ø¸ÙĪØ±":10409,"ĠØ§Ø±Ø¬ÙĨÙ¹":10410,"ĠØ§ÛĮØ¬ÙĨÙ¹Ø³":10411,"ĠÙ¹Ø±ÛĮÙĨÙĪÚº":10412,"ĠØ³Ø§ÙĨÚ¯":10413,"ĠØ§ÛĮØ¦":10414,"ĠÙħÚ©ØªØ¨Ûģ":10415,"is":10416,"Ø³Ú©ÛĮ":10417,"ĠØ¬ÙħØ¹ÛĴ":10418,"ĠØ¹Ø·ÛĮØ§Øª":10419,"ĠØĢ":10420,"ĠØ§ÙħØªÛĮØ§Ø²ÛĮ":10421,"Ø±ÛĮÙ¹Ø±":10422,"ĠØ§ÙĨØ´Ø§":10423,"ĠÙ¾Ø±Ùħ":10424,"ĠØ´ÛģØ§Ø¨":10425,"Ġ2005":10426,"ĠØ§ÙģØ²Ø§Ø¦Ø´":10427,"ĠÚ©Ø´Ùħ":10428,"ÙĪØ²ÙĦ":10429,"ĠØ§Ø±Ø§Ø¯ÛĮØª":10430,"ĠØ¨ÛĮÙĨØ¸ÛĮØ±":10431,"ĠÚĪÙ¾Ø±ÛĮØ´ÙĨ":10432,"ĠÙħÙĪØ°ÛĮ":10433,"ĠØ¬ÙĨÙĪÙĨ":10434,"ĠØ¨Ø®Ø´ÛĮ":10435,"ĠÚ©ÙĪÙĨÛĴ":10436,"ĠØ®Ø§Ø´ÙĤØ¬ÛĮ":10437,"ĠÙħØ¹Ø§Ø¦":10438,"ĠÙħÛĮÚ¯Ø²ÛĮÙĨ":10439,"ĠØ³ÙħØ¬Ú¾ØªÛĮ":10440,"ĠÙĦØ§Ù¹Ú¾ÛĮ":10441,"ĠÙħÛĮÙĪØ²ÛĮÙħ":10442,"ĠØ§ÙĦØ§ÙĪÙĦ":10443,"ĠÙħØŃØµÙĪÙĦ":10444,"ĠØ¬Ú¾ÙĨÚĪÛĴ":10445,"ÚĨÙĪØ±ÙĪÚº":10446,"Ø§Ø¦ÛĮØª":10447,"ĠÚ¯ÙĪÙĨØ¯ÙĦ":10448,"ĠÙĨØ§ÙĦÛĴ":10449,"ĠÙħØŃÙĤÙĤÛĮÙĨ":10450,"ĠØ§ÙĦØ®Ø¯ÙħØª":10451,"ĠØ¨Ø§Ú©Ø³ÙĨÚ¯":10452,"ĠØ±ÛĮØŃØ§Ùħ":10453,"ĠÙĨØ´ØªØ±":10454,"ĠØ¯ÙĪØ±ÛĮ":10455,"ØªØ§Ø±ÛĮØ®":10456,"ĠÙ¾ÙĨÚ¯":10457,"ĠÙĦÛĮÙĪÙĨ":10458,"ĠØ¬Ø±ÙħÙĨ":10459,"ĠÙ¾Ú¾ÛĮÙĦÙĨÛĴ":10460,"ĠØ¬Ú¾Ù¹ÙĦØ§ÛĮØ§":10461,"ĠØºØ²ÙĪÛģ":10462,"ÛĮØ§ÙģØªÛģ":10463,"ĠØŃØ§ØªÙħ":10464,"ĠØ¨ÙĤØ§":10465,"ĠÙģØ±ÛĮØ¨":10466,"ÙħÙĪÙ¹Ø±":10467,"ĠØªÙģØ±ÛĮØŃÛĮ":10468,"Ø¨Ø§Ø³":10469,"ĠÙĪØ§ÙģØ±":10470,"ĠÚ©ÙĪØ§":10471,"ĠØ¬ÙĪÚ©Ûģ":10472,"ÚĨÛĮÙħÙ¾":10473,"ĠØ¬Ø±ÛĮØ¯ÛĴ":10474,"Ù¾ÛĮÙĪ":10475,"ed":10476,"ĠØ±Ø§Ø¦ÙĪ":10477,"ĠØ·ÙĪÙĦ":10478,"Ú©Ù¾ØªØ§ÙĨ":10479,"ĠÙħÛĮÚ©Ø³ÛĮÚ©ÙĪ":10480,"ÛĮÙĪØ±":10481,"ĠØ§Ø³Ù¹ÛĮÚ©":10482,"ĠØ¨ÙĪÙĦÛĴ":10483,"ĠÙĨØ§ÙģØ±ÙħØ§ÙĨ":10484,"ÙĤØ±ÛĮ":10485,"Ø³Ø§ÙĨØŃÛģ":10486,"ĠÙħØ¯Ø«Ø±":10487,"Ø®Ø§ÙĦÙĤ":10488,"ĠØ§ÙĦØ¹Ø§ÙĦÙħÛĮÙĨ":10489,"ĠK":10490,"ĠØ±Ø§Ø¦":10491,"ÚĨØ±ÙĦ":10492,"ĠÙ¹ÙĪÙĦ":10493,"ĠÚĨÚ¾Ù¾ÛĮ":10494,"ĠØ´Ø±ÙĤÛĮ":10495,"ĠØ§Ø³Ú©ÛĮÙĨÚĪÙĦ":10496,"ÙĪÛĮÙĦÛĮØ§Úº":10497,"ĠÙ¾Ø±Ø§Ø¦ÛĮÙĪÙ¹":10498,"Ø§ÙĨÙĪ":10499,"ÙĦÛĮÚ¯":10500,"ØªÚ¾Ø±ÛĮ":10501,"ĠÚ©ÛĮØ´":10502,"ĠÙĦØ§Ú©":10503,"ĠØ´Øª":10504,"ĠÙħÛģÙĦÚ©":10505,"ĠØ®Ø·ÛĮØ±":10506,"Ø¹ÙħÙĦ":10507,"ĠØªÛĮØ²Ø§Ø¨":10508,"ĠØ§ÙħÛĮØªØ§Ø¨Ú¾":10509,"ĠØ«Ø§ÙĨÛĮÛģ":10510,"Ø¯ÙģÛĮÙĨ":10511,"ĠØ¨Ø³ØªØ±":10512,"ĠÚĨÙĦØ§Ø¦ÛĴ":10513,"ĠØ¬Ú¾Ù¹Ú©ÛĴ":10514,"ĠÙ¹ÛĮÚĨÙĨÚ¯":10515,"ĠØ§Ø²Ø¯ÙĪ":10516,"ĠÚĨÙĦØ§ÙĨØ§":10517,"ĠÙ¹ÛĮÚ©Ø³Ø²":10518,"ĠØ®Ø§ØµÛĮ":10519,"ĠØµØ§Ø¯Ø±":10520,"Ù¹ÛĮÙħÙĪÚº":10521,"ĠØ±ÙĪÙ¾ÛĮÛģ":10522,"Ú©Ø±ÛĮÙĨ":10523,"ĠÙģØ±ÙĪÙ¹":10524,"ĠÛĮØ§Ø¯Ø¯Ø§Ø´Øª":10525,"ĠØ§Ø³ØªÙĤØ¨Ø§ÙĦÛĮÛģ":10526,"ÛĮØ§ÙĨ":10527,"Ø§Ø¦Ø®":10528,"ĠØ¹Ø¶Ø¨":10529,"ĠØ§ÙĦØ¹ÙĦ":10530,"ĠÙħØ²ÛĴ":10531,"ĠØªÙĤØ¯Ø³":10532,"ĠØ¨ÛģØ±ØŃØ§ÙĦ":10533,"Ø§ÙĪÙ¾ÙĨ":10534,"ĠØ¬ÛĮØªØ§":10535,"ĠÙģØ±ÙĪØ´":10536,"ĠØ®Ø·Ø¨Ûģ":10537,"ĠÚ©Ø±Ø¯ÙĪ":10538,"ĠÚĪÚ¾ÛĮ":10539,"ĠØ§ÙħØ§Ø±Ø§ØªÛĮ":10540,"ĠÙħÙĦØ§ÙĪÙ¹":10541,"ĠØ³ÙĪÙĨÙħ":10542,"ĠÚĪØ§Ú©ÙĪØ¦ÙĪÚº":10543,"Û±Û":10544,"ĠØ§ÛĮÚ¯":10545,"ĠØªØµØ±Ùģ":10546,"ÙĪÙħÙĨÛĮÙĨ":10547,"Ù¾ÙĨÚ¯":10548,"ĠØ¢Ú©Ø³":10549,"ØŃØ§Ø¬ÛĮ":10550,"ĠÚĨØ§ØºÛĮ":10551,"ĠØªÙħØºÛģ":10552,"ĠØ³ØªØ§Ø±ÛĴ":10553,"Ú©ÛĮÙ¹Ø³":10554,"ĠÙħÙĨØ³Ù¹Ø±":10555,"ĠÚĨÚ¾ÙĪÚĳÛĴ":10556,"Ø§ÛĮØ±Ø§ÙĨÛĮ":10557,"ĠØ¬ÙĨØ¬ÙĪØ¹Ûģ":10558,"ĠØ§ÙĦØŃÙħØ¯":10559,"ĠÙĤØ§Ø¨ÙĦÛĮØª":10560,"ĠÙ¾Ú¾ÙĨØ³ÛĴ":10561,"ĠØ³ÚĨÛĮ":10562,"Ø§ÙĨÛĮØ§Úº":10563,"ĠØ¨Ú¾Ú©Ø±":10564,"ĠÚĨÚ¾Ø§":10565,"ĠÙ¾Ø±ÙĪØ§Ûģ":10566,"ĠÛĮØ±ØºÙħØ§ÙĦ":10567,"ĠØ·Ø¹":10568,"ĠÙ¹Ø§ÙĦ":10569,"ĠÙĨÚ©Ø§ÙĦÙĨØ§":10570,"Ø§Ø´ÙĨÚ©ÙĪÙģ":10571,"38":10572,"ĠØ¢Ø¬Ø§ØªØ§":10573,"ĠØ¬Ø§ÙħÛģ":10574,"âĢľÛĶ":10575,"ĠÚ©ÙĪÙħ":10576,"ĠØµÙĪØ±":10577,"ÙĪÛĮØ´ÙĨ":10578,"ĠØ¨ÙĨØ§ÛĮØ§Ø¬":10579,"ĠÙĦØ§Ø¦Ù¹Ø³":10580,"ĠØ§ÙħÙĪØ§ÙĦ":10581,"ÙĪÛĮÙĦØ§":10582,"ĠØ§Ø³Ú©ÛĮÙħÙĪÚº":10583,"ĠÙĨØ´ÙĪÙĪÙĨÙħØ§":10584,"ÙĪØ±ÙĦ":10585,"ĠØ°Ø§Ø¦ÙĤÛģ":10586,"ĠÙ¾ÛģÙĨÚĨØ§Ø¦ÛĴ":10587,"ĠØ¯Ú¾ÙĨ":10588,"ĠÙĪØ±Ø§Ø«":10589,"ĠÙĦÚĳÛĮÚº":10590,"ĠÙ¾Ø±ÚĨÛĮ":10591,"ĠÙĪØ²Ø§Ø±ØªÙĪÚº":10592,"ĠØ±Ø§Ø¦ÙģÙĦ":10593,"65":10594,"ĠÙĨØ§ÛĮØ§Ø¨":10595,"ÛĮÙĨÚĪØ±":10596,"ĠÛģÙħØ§":10597,"ĠØªØ¹Ø¸ÛĮÙħ":10598,"ĠØ¨Ú¾Ø±ÙĨÛĴ":10599,"ĠØ§Ø³ÙħÚ¯ÙĦ":10600,"ĠØ±Ø§Ø¦Ø¬":10601,"ĠÙĨØ¸Ø±ÙĪÚº":10602,"ĠØ¹Ø¨Ø§Ø¯Ø§Øª":10603,"Ø§Ú©Ø³":10604,"ĠØµØŃÛĮ":10605,"ĠØ¹ÙĨØµØ±":10606,"ĠÙĪØ§Ø¨Ø³ØªÚ¯ÛĮ":10607,"Ø±ÙħØ¶Ø§ÙĨ":10608,"ĠÙ¹Ú¾ÛĮÚ©Ûģ":10609,"ĠÙħØ§ÙĨÚ¯ØªÛĴ":10610,"ĠØ§ÙĪÙĨÚĨÛĮ":10611,"90":10612,"Ú¾ÙĦ":10613,"ĠØºÙĪØ«":10614,"ĠÚ¯Ø²ÛĮÙĨÙĪÚº":10615,"ĠÚ¯Ú¾ÙĨ":10616,"ĠÙ¾Ø±ÙĪÙ¹ÛĮÚ©Ø´ÙĨ":10617,"ĠÚ¯ÙĪÙĦÛĮÙĪÚº":10618,"ĠØ¨Ø§Ø¤ÙĦÙĨÚ¯":10619,"ĠÙĪØ¨Ø§ÙĦ":10620,"ĠÚĪØ±Ø§ÙĨÛĴ":10621,"ĠØ¹Ø²ÙĪ":10622,"ĠÛĮÚ©Ù¹Ø±":10623,"ĠØ¨ÛĮÙħØ§Ø±ÛĮØ§Úº":10624,"ĠØ¬ÙĪÚĳØ§":10625,"ĠÚĪÛĮØ±ÛĮ":10626,"ĠÙĨÙĤØ´Ûģ":10627,"ĠØ§ÙĦØ§ØŃ":10628,"ÙĦØ§ÙģÛĮ":10629,"ĠØªÙĤÙĦÛĮØ¯":10630,"ĠØ§ØªØŃØ§Ø¯ÛĮÙĪÚº":10631,"ÙģÙĦØ³":10632,"ĠØ³Ø³Ø±":10633,"ÙĤØ§Ùħ":10634,"Ø³Ø±ÙĪØ±":10635,"ÚĨÚ©ÙĪØ§ÙĦ":10636,"ĠÙĨÚ©ÙĦÙĨØ§":10637,"ÙĪÙĨÙ¹Ø³":10638,"ĠÙĨÛĮÙĪÛĮ":10639,"Ø³ÙħÙĨÙ¹":10640,"ĠØªÙĨØ§Ø¤":10641,"Ø§ÙĦØ¦ÛĮ":10642,"ØµÙĨØ¹":10643,"ĠØ²Ûģ":10644,"Ø³Ù¹Ú¾":10645,"ĠØ¨ÙĦÙĪÚº":10646,"ĠØŃØ³Ø¯":10647,"ĠØ§ÙħÛĮÚ¯Ø±ÛĮØ´ÙĨ":10648,"ĠÙħÙĦØ²ÙħÙĪÚº":10649,"Ø§Ú¯ÙĦÛĴ":10650,"Ø®Ø¯Ø§":10651,"ĠØ´ÛĮØ´ÛĴ":10652,"ĠØ³Ø±Ú©Ù¹":10653,"ĠØ¯Ø¨Ø§ÙĪ":10654,"ĠÙħÙĦØ¨ÙĪØ³Ø§Øª":10655,"ĠØ®ÙĪØ´ÙĨ":10656,"ĠØ¬ÙĦÙĪÛģ":10657,"Ø¹Ø·":10658,"Ø¹ÙĦØ§ÙĤÛĴ":10659,"ĠØ¬Ø±ØŃ":10660,"ĠÙĦØ¦ÛĮ":10661,"ÚĪÛĮÙĦ":10662,"ĠØ¹ÛĮÙĨÛĮ":10663,"ĠÚĨÙĨØ§":10664,"ĠØ¹ÙħÙĪÙħÛĮ":10665,"ĠÙħØ¬Ø±ÙħØ§ÙĨÛģ":10666,"ĠÙ¾ÛĮÚĨÛĮØ¯Ûģ":10667,"Ø§ÙĨÚ¯ÙĦÛĮÙĨÚĪ":10668,"Ú¯Ø±ÛĮÙĨ":10669,"Ø²ÙĨØ¯Ú¯ÛĮ":10670,"ĠÙħÙĪÛĮØ´ÛĮÙĪÚº":10671,"Ú¯ÙĪØ¦ÛĮ":10672,"ĠØ¨Ú¯Úĳ":10673,"ĠÚ©ÙĪÙĦÙħ":10674,"Ø§ÛĮÙĪÙĨÙ¹":10675,"ĠÚĪØ±Ø§":10676,"ĠÚĨÙĨØ§Ø¨":10677,"ĠÙĦØ°":10678,"ĠØ´Ø±Ùģ":10679,"ĠØ±Ø§Ú©Ù¹":10680,"Ø³Ø±Ùģ":10681,"ØµØ±ÛĮÙĨ":10682,"Ø§Ø³Ø³Ù¹ÙĨÙ¹":10683,"ĠØ¯Ø¨Ø§ÙĨÛĴ":10684,"100":10685,"Ø¨Ø²":10686,"ĠØ§ÙĦÙħØ§ÙĦ":10687,"ÙģÛĮØ§ÙĨ":10688,"ĠØ´ÛĮØ±ÛĮÚº":10689,"Ú©Ø§Ø¨ÙĦ":10690,"Ø¬ÛĮÚ©":10691,"ĠØ±ÙĪØ¦ÛĴ":10692,"ĠÚĪÛĮØ³Ú©":10693,"ĠÙħØ¯Ø¹ÛĮØª":10694,"ĠÙħØ¨ÛĮÙĨ":10695,"ĠÙĨØ§Ø²ÛĮØ¨Ø§":10696,"ĠÙĨØ§Ø¦ÛĮÚ©":10697,"ĠØ±ÛĴ":10698,"ĠÛģÙĪØ´ÛĮ":10699,"ĠØ±ÙĨÚ¯ÛĴ":10700,"ĠØ§ÛĮÚĪÙħÙĨØ³Ù¹Ø±ÛĮÙ¹Ø±":10701,"Ø§ÙĪÙĨÚĪ":10702,"ĠØ³ÙĪÙĦØ±":10703,"ĠØ´ÙħØ§Ø±ÛĮØ§Øª":10704,"Ø§Ø³Ù¹Ø±":10705,"ĠØ¹ÙĪØ§ÙħÙĦ":10706,"ÙĦÙĪØ§":10707,"Ù¾ÛģÙĨÚĨØ§":10708,"Ø§Ø±ÙĪ":10709,"ØŃØ¬":10710,"ĠØ¨Ú¾ÛĮÙĨØ³":10711,"ĠØ¯Ø§Ø³ØªØ§ÙĨ":10712,"ĠØ±Ø§ÙĪ":10713,"ĠÙ¾ÛĮÙ¹Ú¾":10714,"ĠØ§ÙĨÚĪØ³":10715,"Ġ04":10716,"ĠÙĪÚĳØ§Ø¦ÚĨ":10717,"ĠØ§ÚĳÚ¾Ø§Ø¦ÛĮ":10718,"Ú©Ø§Ø±Ø±ÙĪØ§Ø¦ÛĮ":10719,"ĠØ³Ø³ØªØ§":10720,"ĠØ®ÙĦØ§ÙģØª":10721,"ĠÙ¾ÛģÙĨÚĨØªØ§":10722,"ĠØŃØ³ÙĨÛĮÙĨ":10723,"ĠÙ¹Ø±Ø¨ÛĮ":10724,"Ù¹ÙĪÚ©ÛĮÙĪ":10725,"ÙħÙĤØ±Ø±ÛĮÙĨ":10726,"ĠØªØ§ÙĨ":10727,"ĠØ§Ø³Ù¹ÙĪ":10728,"ÙĨÛĮØªÛĮ":10729,"ĠÙ¾ÚĳØªÛĴ":10730,"ĠØ§Ø¯Ø§Ú©Ø±":10731,"Ù¹ÛĮÚĪ":10732,"Ø¶Ø§ÙĦ":10733,"ĠØ¨Ø¯ÛĮÙĨ":10734,"ĠØ¨ØŃÛĮØ±Ûģ":10735,"ĠØ³Ø§Ø¦ÙĨØ³Ø¯Ø§ÙĨ":10736,"ĠÙ¾Ø±ÙĪØ§Ø²ÛĮÚº":10737,"ĠØ¯Ø±Ú¯Ø²Ø±":10738,"ĠØ³ÙĦØ§ÙħÛĮ":10739,"ĠØ®ÛĮØ±ÙħÙĤØ¯Ùħ":10740,"ĠÙĪØ¹ÛĮØ¯":10741,"ÙĦØ§ØªÛĴ":10742,"ĠÚ©ÛĮÚĳÙĪÚº":10743,"ĠÙ¾Ù¹ÛĮØ´ÙĨ":10744,"Ø¬Ø§ÙħØ¹":10745,"ĠÚĨØ§ÙĤÙĪ":10746,"ĠÙĪØªØ±ÙĤÛĮ":10747,"ĠÙĤØ¨ÛĮÙĦÛģ":10748,"ĠÚ©Ú¾Ø§ÙĨÙĪÚº":10749,"ĠÙĪØ·ÙĨÛĮ":10750,"ĠØªØ§ØŃÛĮØ§Øª":10751,"ĠØ±Ø¶Ø§ÙħÙĨØ¯ÛĮ":10752,"ĠH":10753,"ÛģÙĨÚ¯":10754,"Ø³Ø±ÙħØ§ÛĮÛģ":10755,"ĠÙģÙĦÙĪØ±":10756,"ÙĪØ·ÙĨÛĮ":10757,"ÙĦÚĳÙĨÛĴ":10758,"ĠØ¨Ø§Ø¨Øª":10759,"ĠØªÛģØ±Ø§ÙĨ":10760,"Ø§ÙĦØ§Ø¦ÛĮ":10761,"ĠØ§ÙĦØ§Ø±Ø¶":10762,"ĠÙ¾ÛĮÙĦÙ¹":10763,"Ø¯Ø§ÙĦÙĦÛģ":10764,"ĠØ§ÙħÛĮØ¯ÛĮÚº":10765,"ĠØ§ÙĨØ¯Ú¾ÛĮØ±ÙĪÚº":10766,"ĠÙħÙĦØŃÙĪØ¸":10767,"ĠÙĤØ§ÙģÙĦÛģ":10768,"ÚĨÙĨØ§ÙĨÚĨÛģ":10769,"ĠÚ©ÙĪØ¯":10770,"ĠØ±Ø¶Ø§Ú©Ø§Ø±":10771,"Ø§Ø±ÛĮØ¨":10772,"ĠØ§Ø¬ÙĨØ§Ø³":10773,"ĠÛĮÚ©Ø³Ø±":10774,"ĠÚ¯Ø§Ø±ÚĪÙĨ":10775,"ÙħØ§Úº":10776,"ĠØ§ÚĪÙĪÚº":10777,"ÙĪÛĮØ³Ù¹":10778,"ĠØ¨Ø´Ø±ÛĮ":10779,"ĠÚĪÚ¾Ø§ÙĨÚĨÛĴ":10780,"ĠØºØ±ÙĪØ±":10781,"ĠÙĪÚĪÛĮÙĪ":10782,"ĠÙħÛĮÚĪÛĮ":10783,"ĠÙĪØ²Ù¹":10784,"ĠØ³ÛĮÚ©Ø±Ù¹Ø±ÛĮØ²":10785,"ĠØ¸Ø§ÙĦÙħØ§ÙĨÛģ":10786,"ĠÙħØ§ÛģØ±Ûģ":10787,"ĠÚ©ÙĨÙ¹ÙĪÙĨÙħÙĨÙ¹":10788,"ØªØ¹ÙħÛĮØ±":10789,"ĠÙĨÙĪÚ©Ø±ÛĮØ§Úº":10790,"ĠØ¹Ø¨Ø¯Ø§ÙĦØ±ØŃÙħØ§ÙĨ":10791,"ĠØªØ±ÙħÛĮÙħÛĮ":10792,"ĠÚ¯ÙĦØ³ØªØ§ÙĨ":10793,"ĠÙĪØ±Ø«Ø§":10794,"ÙĤØ¯":10795,"ĠØ§ÙĦØ¨ÛĮØ§ÙĨ":10796,"ĠÙĪÙģØ§":10797,"ĠÙĦÙħØ¨ÛĴ":10798,"ĠØ¯ÙĨÛĮÙĪÛĮ":10799,"ĠØ¨Ø±ØµØºÛĮØ±":10800,"Ú©Ø±ÙħÛģ":10801,"ĠØ§ÙĪÙĦÚĪ":10802,"ÙħØ³ÙĦÙħØ§ÙĨÙĪÚº":10803,"ĠØ±Ø³ÙĪÙħØ§Øª":10804,"ĠÙģÚ©ÛĮØ´ÙĨ":10805,"Ø¢ÙĪØ±":10806,"ĠØ¨Ø±ÛģÙħ":10807,"Ø§ÙħØªÛĮØ§Ø²":10808,"ĠÙ¾ÙĪÙħ":10809,"ĠØ¹Ø§ÙĦÛĮ":10810,"ĠÙ¾Ø±Ø¯ÛĴ":10811,"ĠÙħÙģØ§ÛģÙħØª":10812,"ĠÙħØ§ÛĮÛģ":10813,"Ġ2002":10814,"ĠÙĤÙĦÙĨØ¯Ø±":10815,"96":10816,"ĠÙħÙĪÙħ":10817,"ĠØªØ¯ÙģÛĮÙĨ":10818,"ĠØ¢Ø±Ø§Ø¦ÛĮÚº":10819,"ĠÙħÚĨÙĦ":10820,"ĠØ§ÙĪÙĨØ³":10821,"ĠÛģØ§Ú©ÛĮ":10822,"ĠØ³ÙĪÙĨÙ¾":10823,"ĠØ¨Ø³ØªÛĮÙĪÚº":10824,"ØªØµ":10825,"ĠÙĦØ§Ø¯":10826,"ĠÙģØ±Ø§ÙĨØ²Ú©":10827,"ĠØ¨ÚĳÚ¾ÙĨØ§":10828,"ĠÙģÙĪÚ©ÙĦ":10829,"ĠÙ¾ÙĨØ¬Ø§Ø¨ÛĮ":10830,"ĠÙ¾Ø§ÙħØ§ÙĦ":10831,"ÙħØ±ÛĴ":10832,"Ø¯ÙĪØ´":10833,"ĠÙħØ§ÙĨÛĴ":10834,"Ø¨Ø±Ø¯Ø§Ø±ÛĮ":10835,"ĠØºÙĪØ±ÛĮ":10836,"ĠØ³ÙĨÛģØ±ÛĮ":10837,"Ú¯Ø²Ù¹":10838,"ĠØ´ÛģØ¯Ø§Ø¦ÛĴ":10839,"ĠØ§ÛĮÚ©Ø³Ù¾ÙĪ":10840,"ĠÙħÙĪØ¶Ø¹":10841,"ĠØ¨Ø§Ø¦ÙĪÙĦÙĨÚ¯":10842,"ÙħØ§Ø³Ú©ÙĪ":10843,"ĠØ³Ø§Ø¯Ú¯ÛĮ":10844,"ĠØ§ÛĮØ³ÙĪ":10845,"ĠØ³ÙħØ¬Ú¾ÛĮ":10846,"ĠØ¹Ø¯Øª":10847,"ĠØ§ÙĪÙĦÛĮØ§Ø¡":10848,"ÙħÙĤØª":10849,"ĠÙ¾ÛĮØ§":10850,"Ø§ØªÚ¾ÛĮ":10851,"ĠÙĤØ§ØµØ±":10852,"ÙĨÙ¹ÙĨ":10853,"ĠØ§Ø¹Ø±Ø§Ø¶":10854,"ĠØ§Ø¹ØªØ²Ø§Ø²":10855,"ĠÙĦÛģÙĪ":10856,"Ø§Ù¾ÛĮ":10857,"ĠØ¨ÙĪÙĦØªØ§":10858,"ĠØŃØ¬Ø§Ø¨":10859,"ĠØ¹Ú©Ø§Ø³ÛĮ":10860,"Ú©Ø§Ùģ":10861,"ØºÙĪØ±":10862,"ĠØ³ÛģÛĮ":10863,"ĠØ±Ø§ÛģÛĮÚº":10864,"ĠØ§ÙĦØ¹ÛĮÙĨ":10865,"ĠØ§Ø¯Ø§Ø¦ÛĮÚ¯ÛĮÙĪÚº":10866,"ĠÚ©ÙĨÙ¹ÛĮÙĨØ±":10867,"ÙĤØ§Ø¨ÙĦ":10868,"ĠØŃØ±Ú©Ø§Øª":10869,"ĠØºØ±Ø¨ÛĮ":10870,"ĠØ³Ø§Ø²Ú¯Ø§Ø±":10871,"ĠØ§ØªØ±ÛĮÚº":10872,"ĠÙ¾Ø±ÙĪÙ¹ÛĮÙĨ":10873,"Ø¯Ø³Øª":10874,"ĠØ±ÙĪØ²ÙħØ±Ûģ":10875,"ĠØ¨ØŃØ±ÛĮÙĨ":10876,"ĠØ³ÛĮÙĨÙ¹Ø±Ø²":10877,"Ø³Ù¹Ø±ÙĪÙĦ":10878,"ÙĨØ§Ø³Ø¨":10879,"ĠØ¨Ø®Øª":10880,"ĠØ¨ÙĨØ§Ø¯ÛĮ":10881,"ĠØªÙĨØ¸ÛĮÙħÛĮÚº":10882,"ĠÚ¯Ù¹":10883,"ĠØ¦ÙĦ":10884,"ĠÙ¾Ù¹Ú¾Ø§ÙĨ":10885,"ĠÚ©Ù¹ÙĪØªÛĮ":10886,"ÙĪÛĮÙĨ":10887,"ÙħØ§Ø¦ÛĮ":10888,"ĠØ¯ÙģØª":10889,"ĠØ§Ø¨ÙĦÛĮØ³":10890,"ĠØ§ÙĨØ¯Ø§Ø²ÛĴ":10891,"ĠØ±ÛĮØŃØ§ÙĨ":10892,"ĠØ¸ÛģØ±":10893,"ĠØ§Ø²ÙĪØ§Ø¬":10894,"ĠÚĨØ§Ø±Ù¹Ø±":10895,"ĠÚ©ÙĪÙĨØ³ÙĦÙĪÚº":10896,"ĠÙ¾ÙĦØ³":10897,"ĠØ³ÙĨÙ¹Ø±Ø²":10898,"ĠØ°Ø±":10899,"ĠØµÙĦØ§ØŃÛĮØªÛĮÚº":10900,"Ø§ÙĨØªØ¸":10901,"ĠØ®ÙĦÙĪØµ":10902,"ĠÙģÛĮÚ©Ù¹Ø±ÛĮÙĪÚº":10903,"ĠØªÙĪÙĦ":10904,"ÙģÙ¹ÙĨ":10905,"Ø±Ø¨Ø§":10906,"ĠØ¹Ø¨Ø¯Ø§ÙĦÙĤÛĮÙĪÙħ":10907,"ĠÙĨÚ©ÙĦØªÛĴ":10908,"ĠÚ¯ÚĳÚ¾ÛĮ":10909,"ĠØ±ÙĪØ§Ø¯Ø§Ø±ÛĮ":10910,"ĠÙħÛĮÚĪÛĮØ§Ø³Ø±ÙĪØ³":10911,"ĠØ¢Ø±Ø§Ø¦Ø´":10912,"ĠÚ©ÚĨØ±ÛĴ":10913,"Ø¨ÚĨÛĴ":10914,"ĠØ¯Ø§ÙĪ":10915,"ØµÛģ":10916,"ĠÙĪÚ©ÙĦØ§":10917,"ĠÙĪØ§Ø´ÙĨÚ¯Ù¹ÙĨ":10918,"ĠÚĨÙĨÛĴ":10919,"ÙħØ§ÙĨÙĪÚº":10920,"ĠÙħØ¹ØªØ¨Ø±":10921,"ĠÚĺÙĪØ¨":10922,"ĠØºØ§Ø±":10923,"ĠØ¬Ø§ÙĨÛĮÙĪØ§ÙĦÛĴ":10924,"ĠÛģØ¶Ùħ":10925,"ĠØ§ÙĦÙħØª":10926,"ĠØ§Ú©Ø§ÙĨ":10927,"Ø¸ÛĮÙħÛĮ":10928,"ÛģØ§Ø¦ÛĮÚ©ÙĪØ±Ù¹":10929,"ĠØ³Ø±Ø§Ù¾Ø§":10930,"ĠÚ©ÙĦÚ©":10931,"ĠØ§Ø´ØªÛĮØ§ÙĤ":10932,"ĠØ³ÙĨÚĨØ±ÛĮ":10933,"ĠØ§Ø¬Ø±Øª":10934,"ĠÚ©Ù¾ÚĳØ§":10935,"ĠÚĪØ±ÙĨÛĴ":10936,"ØŃØ¯ÛĮØ«":10937,"ĠØ±ÙĪÚ©ØªÛĴ":10938,"ĠÙĨÚ©Ø§ÙĦÛĮÚº":10939,"ĠÙ¹Ø±ÙħÛĮÙĨ":10940,"ĠØ§Ø¯Ú¾":10941,"ĠÚ©ÙĦØ§Ø´ÙĨÚ©ÙĪÙģ":10942,"ĠÙħØ±Ø¯Ùħ":10943,"ĠÙ¹Ø±Ø§ÙĨØ³ÙħÛĮ":10944,"ØªÙĨØ¸ÛĮÙħ":10945,"ĠØªØ¹ÙħÛĮÙĦ":10946,"ĠØªØ§Ø±ÛĮÚ©":10947,"ĠÚĪÛĮÙĪÙĦ":10948,"ĠØµÙģØŃØ§Øª":10949,"ĠØ§ÙĦØ¹Ø¨Ø§Ø¯":10950,"ÙħØ³Ø§Ø¦ÙĦ":10951,"ĠØ´ÛĮÙĦÚĪ":10952,"ĠÙĨØ´ÛĮÙĨ":10953,"Ù¾Ø§Ø±Ú©Ø±":10954,"ĠØ§ÛĮØµØ§ÙĦ":10955,"ĠÙ¹Ø±ÛĮØ¨ÙĪÙĨÙĦ":10956,"ĠÙ¾ÙĪÙ¹":10957,"ĠÙĪØ§Ø±ÛĮ":10958,"Ù¾ÚĨÚ¾":10959,"ĠÙĦÙĨÚ¯":10960,"ĠÙ¾ÛĮØ§Ø³":10961,"ĠØ¬Ø²Ø§Ø¡":10962,"ĠÚ©Ø±Ø¯Ø§Ø±ÙĪÚº":10963,"ĠÙħØ´Ø±ÙĪØ¨":10964,"Ø§ÙĨØ¬ÛĮÙĨØ¦Ø±":10965,"ĠÙĦØ³Ø¨ÛĮÙĦÛģ":10966,"ic":10967,"Ø¨ÛĮÙĦ":10968,"ĠÚ©Ø±Ø´":10969,"ĠØ¢Ø²ÙħØ§":10970,"ĠØ·ÙĦØ§Ø¦ÛĮ":10971,"ĠÚ¯ÙĨØ¯ÛĴ":10972,"ĠØ´Ø¨ÛģØ§Øª":10973,"ĠÚĨÚĳÚ¾Ø§":10974,"ĠÙ¹Ø±ÛĮÚĪÙĨÚ¯":10975,"ĠØ§ÛĮØ´ÙĪ":10976,"ĠØ§ÙĦØªØ±Ø§Ø«":10977,"ĠØ´Ø§ÙģØ¹ÛĮ":10978,"ĠÛģØ§ÙĪ":10979,"ĠÚ©Ø§Ú©":10980,"ĠØ¨ÛĮØ±ÙĦ":10981,"Ø¹ÙĦÛĮÙħÛĮ":10982,"ĠÚĨÚ¾Ù¾Ø§Ø¦ÛĮ":10983,"ĠÚ©Ø±ØªØ§Ø±":10984,"ĠÚ©ØªÙĪÚº":10985,"Ú¯Ø§ÙĦ":10986,"ĠØ´ÛĮØ·":10987,"ĠØ§ØµÙĪÙĦÛĮ":10988,"Ù¾Ø§Ù¹Ø§Ø¦Ù¹Ø³":10989,"ĠÙħØŃØµÙĪÙĦØ§Øª":10990,"ĠØ±Ø±ÙĪØ§Ø¦ÛĮ":10991,"ĠÚ©ÙħØ§ÙĨÛĴ":10992,"ĠØ¨ÛĮÙ¹Ú¾ÛĮÚº":10993,"Ø´Ø§Ø¯ÛĮ":10994,"ĠÙĦÙĪØ¦Ø±":10995,"Ø±ØŃÛĮÙħ":10996,"ĠØ³Ø±Ú¯Ø±ÙħÛĮ":10997,"ĠØªØºÛĮØ±":10998,"ĠØºØ§Ø±Øª":10999,"ĠÙĨÙĪØ±Ø§ÙĨÛĮ":11000,"ĠÙģØ§Ø¦ÛĮÙĪ":11001,"ĠØŃØ¯ÛĮØ¨ÛĮÛģ":11002,"ĠÙħØ¬ÙħÙĪØ¹Ûģ":11003,"ÙĨØ§ÙħÛĴ":11004,"ÙģØ±ÙĪØ®Øª":11005,"ĠØ¹Ø²ÙĪØ¬ÙĦ":11006,"Ø¯Ø´":11007,"Ú¯Ø§Úº":11008,"ĠØ³ÙħÚ¯ÙĦ":11009,"ĠÛģÚĪÛĮÙĪÚº":11010,"Ø¨Ø¬ÙĦÛĮ":11011,"ĠØ§ÙħØªÙĪÚº":11012,"ĠØ¬Ø²ÛĮØ±ÛĴ":11013,"ĠØ¨Ú¾Ø§Ú¯ÙĨÛĴ":11014,"ĠÚ¯ÙĦØ§":11015,"ĠØ³ÙħÚ¯ÙĦÙĨÚ¯":11016,"ÙĪØªØ§":11017,"ĠÙĦÙ¹Ú©":11018,"ĠØ´ÛĴ":11019,"ĠØ´Ø¹Ø±":11020,"ĠØŃÙĪØ«ÛĮÙĪÚº":11021,"Ú¯ÛĮØ´ÙĨ":11022,"ĠÚ©Ø´ÙĪÚº":11023,"Ø³Ø±ÙĪØ³":11024,"ĠÚĨÛĮØ¦Ø±Ù¾Ø±Ø³ÙĨ":11025,"ĠØ§Ø¯ÛĮØ¨":11026,"ĠØ³Ø§Ø¦ÛĮÚ©ÙĦÛĮÚº":11027,"ĠÙĪÙĦØ§Ø¯Øª":11028,"\\\"":11029,"ĠØ«Ø§ÙĦØ«":11030,"ĠØ¯Ú¾ÙħÚ©ÛĮÙĪÚº":11031,"KV":11032,"ĠØ¨ÚĳÚ¾ÛĮÚº":11033,"ĠÚ¯Ø±Ø¯ÙĪÙĨÙĪØ§ØŃ":11034,"Ġ700":11035,"ĠØ¹Ø¨Ø¯Ø§ÙĦØºÙģÙĪØ±":11036,"ĠØ§ÙĨÙģÛĮÚ©Ø´ÙĨ":11037,"ĠÙħØ§Ø¯Ø±":11038,"ĠØ¹ÙħÛĮØ±":11039,"ĠÙĨÚ©ÙĦÛĮ":11040,"ĠÙģÙĨÚ©":11041,"ĠØ¨Ø§Ø¹Ø²Øª":11042,"ĠØ¯Ø±Ø¢ÙħØ¯ÛĮ":11043,"ĠÙĦÙĤÙħØ§ÙĨ":11044,"ĠØ¯Ø§ÙĨØª":11045,"ĠØ¨ÛģÛģ":11046,"ĠÙħÚ©Ø§ÙĦ":11047,"ĠÚ©ÙĪÚĳØ§":11048,"Ø¢Ø¦ÛĴ":11049,"ĠØ·ÙĦØ¨ÛĮ":11050,"ĠØ®Ø´Ú©ÛĮ":11051,"ĠÙ¾Ø±Ø³Ú©ÙĪÙĨ":11052,"ĠØ³Ø¨ØŃ":11053,"ĠÚ©ÙĦØ§ÙħÛĮ":11054,"ĠÚ¯ÙĦÛģ":11055,"ĠØ¬ÙĪØªÛĴ":11056,"ĠØ±ÛĮØ§ÙĦ":11057,"ÙĪÚĳÙĪ":11058,"Ġ105":11059,"ĠÚ¯ÙĪÙĨØ¬":11060,"ĠÚ©ÙĪÚĨÙĨÚ¯":11061,"ĠØ¨ØŃØ±Ø§ÙĨÙĪÚº":11062,"ion":11063,"ĠØ§Ø°Ø§ÙĨ":11064,"ĠÙħÙĪØ§Ø²":11065,"ĠÚĨÚ¾Ù¹ÛĴ":11066,"ĠØ¢Ú¯ÛģÛĮ":11067,"ØµØŃÛĮØŃ":11068,"ĠÙ¹Ø§Ø¦ÛĮÚ¯Ø±":11069,"ĠÙ¾Ú¯Ú¾":11070,"ĠØ¯Ø§Ø¦Ø±ÛĴ":11071,"ĠÙ¾Ø§Ú©Ù¾ØªÙĨ":11072,"ĠØ³ÙĪÚ¯ÙĪØ§Ø±":11073,"Ġ\\\"":11074,"ÛģØ§Ùħ":11075,"ĠÛģÙĪØ§Ø¦ÛĮÚº":11076,"Ø§Ø³ÙħÛĮ":11077,"Ø§Ø¹ÙĦ":11078,"ĠÚ¯ÙĦØ§ÙĦØ¦ÛĮ":11079,"ĠÙĪØ³ÛĮ":11080,"ĠØ¢ÙĪÙ¹":11081,"ĠÙħØµØ§ÙĦØŃÛģ":11082,"ĠØ§ÛĮÚĪØ¬Ø³Ù¹":11083,"Ù¾ÛģÙĦØ§":11084,"ĠØ¨ÙĤØ±Ûģ":11085,"ĠØ¬Ø¹ÙģØ±ÛĮ":11086,"ĠØ§ÙĦØ¹ÙĦÙħÛĮÛģ":11087,"Ù¾Ø¨ÙĦÚ©":11088,"ĠÚ©Ø§Ù¹ÙĨ":11089,"ÙĪØ¨Ø²":11090,"Ø¨ÛĮÙĪ":11091,"Ø§Ø·ÛĮ":11092,"ĠØ¨Ø®Ø§Ø±":11093,"ĠØ±Ø§ÛģÙĨÙħØ§":11094,"ĠÙĪØ±Ú©Ø±":11095,"ĠØ§ÛĮÙ¾ÙĦÛĮ":11096,"ĠÙĦÛĮØ¨ÛĮØ§":11097,"ÙħØ±ØŃ":11098,"ØªÚ¾Ø±":11099,"ÙĪØ¯ÛĴ":11100,"ĠÚ©ÙĨÙ¹Ø±ÙĪÙĦØ±":11101,"ĠÙģÙĨØ§ÙĨ":11102,"ĠÙħØ±Ø§Ø³ÙĦÛģ":11103,"ĠØ´ÛĮÙĨ":11104,"ĠÙĨÙħÙĪØ¯":11105,"Ø§Ø®Øª":11106,"ĠØºÙĦØ·ÛĮÙĪÚº":11107,"ĠØ¹Ø´ÙĤ":11108,"ĠØ¬Ø§ÙĨØ¨Ø¯Ø§Ø±Ø§ÙĨÛģ":11109,"ĠÚ©Ø§Ø±Øª":11110,"ĠÙ¾Ø§Ø¦ÙĪÚº":11111,"ĠÙĨÙĪÛĮÚº":11112,"ĠÚ©Ú¾Ù¹":11113,"ĠÚ©Ø´ÛĮØ¯Ûģ":11114,"ĠÙ¾ÛĮØºÙħØ¨Ø±ÙĪÚº":11115,"ĠÚ©Ú¾Úĳ":11116,"Ù¾ÙĪØ±ÛĴ":11117,"ĠÙĨØ§ÙĦÛģ":11118,"ĠÙ¾Ø§Ø¯":11119,"ĠÛĮØ²":11120,"ĠÙ¹ÙĦ":11121,"ĠØ¨ÛģØ§ÙĨÛģ":11122,"ĠÙĤØ·Ø§Ø±":11123,"ĠØªØ§Ø±Úĳ":11124,"ĠØ®Ø±ÛĮØ¯Ø§":11125,"ĠØ¹ÙĨÛģ":11126,"ĠÙĨÚ©ÙĦØªØ§":11127,"Ø¯ÛģØ´ØªÚ¯Ø±Ø¯":11128,"ĠÙģØŃØ´":11129,"ÙĨØµ":11130,"ĠØ¢Ø´":11131,"ĠØ¯Ú¾ÙĪÙĦ":11132,"ĠØªÙĨØ§Ø²Ø¹ÛĴ":11133,"ĠÙĨØ§Ù¾Ø§Ú©":11134,"Ø¨ÙĦØº":11135,"Ø²ÙĦÙ¹":11136,"ĠØ¹ÙĤÛĮÙĦ":11137,"ĠÚ©ÙĨØ²":11138,"Ú©Ø±Ùħ":11139,"ĠÚ¯Ø²Ø§Ø±Ø§":11140,"ĠÚ¯Ø²Ø±Ø§":11141,"ÙģÙĦØ³Ø·":11142,"46":11143,"ĠÛģØ³Ù¾":11144,"ĠØ¨Ø±ØŃÙĤ":11145,"Ø´ØªÛĮØ§Úº":11146,"ĠØªØ±Ø¨ÛĮ":11147,"ĠÛ±Û´Û°Û":11148,"ĠØªØ§ÙĦÙ¾ÙĪØ±":11149,"Ø§ÙĦØ·":11150,"Ø§Ø´Ø¯":11151,"ĠÙ¹Ø±Ø§ÙĨØ³ÙģØ§Ø±":11152,"ĠÙ¾Ø±ÙĨØ¯ÛĴ":11153,"Ø±ÙĪØ³ÛĮ":11154,"ĠØ³ÛĮØ¨":11155,"ĠÙ¹ÛĮÚĨØ±Ø²":11156,"Ø±ÛģÙĨÙħØ§":11157,"ĠÛ±Û±":11158,"ĠØ±ÙĪØ¨ÙĪÙ¹":11159,"ØµÙĦÛĮÙ¹":11160,"ĠØ¬Ø²ÙĪÛĮ":11161,"ĠÚ©ÛĮÚĪÙ¹":11162,"Ø§ÙĨÚ¾ÛĮÚº":11163,"Ø§Ø¦ÛĮÙĨ":11164,"Ø§Ú©Ø«Ø±":11165,"Ø±Ø¯Ú¯ÛĮ":11166,"ĠÙħØ®ÙĦÙĪÙĤØ§Øª":11167,"ĠÙ¹Ú¾Ú©Ø§ÙĨÙĪÚº":11168,"ĠØ¨ÛĮÙ¹Ú¾ÛĮ":11169,"Ø³Ù¾Ø§ÙĨØ³":11170,"ĠØªØ¯Ø±ÛĮØ³ÛĮ":11171,"Ø³ÛĮÙĨÛĮ":11172,"ĠØªÙĦØ§ÙģÛĮ":11173,"Ø±Ø¯ÙĪ":11174,"ĠØ¨ÛĮÙĪÛģ":11175,"ØªÙħØ§ÙĦ":11176,"ĠØ¹Ø´Ø±Øª":11177,"ØªÛģØ±Ø§ÙĨ":11178,"ĠØ³Ù¹ÛĮØ´ÙĨØ²":11179,"ĠÚ¯ÛĮØ±ÙĪÚº":11180,"Ø´Ø§ÛģÛĮ":11181,"Ø¹Ø§ÙĦÙħ":11182,"Ø§Ø¹ÙĦØ§Ùħ":11183,"ĠØ¯Ú¾ÙĪÚ©ÛĴ":11184,"Ø¯Ú¯Ø§ÙĨ":11185,"ĠØ§Ø²Ø§ÙĦÛĴ":11186,"ÙħØ¹Ø§Ø´ÛĮ":11187,"ĠÛ±Û¹Û":11188,"ÙĦÛĮØ¦Ø±":11189,"ĠÚĨÙĨØ§ÚĨÛģ":11190,"ĠÙĨÙĪØ§Ø¨Ø²Ø§Ø¯Ûģ":11191,"Ú©Ø±ÛĮÙħ":11192,"ĠØ±ÙĪÙ¹Ø³":11193,"ĠÙħØ¬ÙħØ¹":11194,"ĠÙħØµØ±ÙĪ":11195,"ĠØ§ÙĨÚĪÙĪÚº":11196,"Ø§ÛĮØ±Ø§ÙĨ":11197,"ÙĨÙģØ±":11198,"ØµÙĪØ¨ÙĪÚº":11199,"ĠÙħØ³ØªÙĤÛĮÙħ":11200,"Ø§ÛģØ¯ÛĴ":11201,"ĠÚ¯Ø²Ø§Ø±ÛĮ":11202,"ĠØ¢ÙģØ§ÙĤ":11203,"ĠÙħØŃØ±ÙĪÙħÛĮÙĪÚº":11204,"Ø§ÙĦÛĮÛģ":11205,"ĠÙħØŃØ§ÙĦ":11206,"Ø¨ÛģØªØ±":11207,"Ø§ÛģÙħØªÛĮ":11208,"ĠØ¨Ø±ÛģØ§ÙĨ":11209,"ÛĮÙĪÙĨ":11210,"ĠØ®ÛĮØ§":11211,"ĠÚ©ÙħØ³ÙĨ":11212,"ĠØ¢Ø¬Ø§ØªÛĮ":11213,"ĠØ¹Ø¨Ø¯Ø§ÙĦÙĪ":11214,"ĠØ³Ø±Ø®Ø±ÙĪ":11215,"ĠÙħÙħÙĨÙĪÙĨ":11216,"ÙĨØ¹ÛĮÙħ":11217,"ĠÚ©Ø§Øª":11218,"Ø¬Ø±Ùħ":11219,"ĠÚĨÙĪÙ¹ÛĮ":11220,"ÛĮØªÚ¾":11221,"ĠØªØ¹Ø§Ø±Ùģ":11222,"Ø²Ø®ÙħÛĮÙĪÚº":11223,"Ø¶Ø±ÙĪØ±Øª":11224,"ÙħØ¹Ø§ÙĦØ¬ÛĴ":11225,"Ú¯Ø§Ø±ÙĪÚº":11226,"ÚĨÚ©Ø§":11227,"Ú©Ú¾ÙĦ":11228,"ĠØ§Ø³ØªØ«ÙĨÛĮ":11229,"ĠÚ¯Ø±Ø§ÙĨÛĴ":11230,"ĠØ¯Ø³ØªÚ¯ÛĮØ±":11231,"ĠØ±ÙĨÚ¯ÙĪÚº":11232,"Ø§ÙģØªØªØ§ØŃ":11233,"Ø³ÛĮÚ©Ø±ÛĮÙ¹Ø±ÛĮ":11234,"ĠØ¨ÛĮÛģ":11235,"ĠÙ¾ÛģÙĨÛĴ":11236,"ĠØ§ÙĦÙħØµ":11237,"ĠØ®ÙĪØ´ÛĮÙĪÚº":11238,"Ø³Ù¾ÙĦÙĨ":11239,"ĠÙħÙĨÙĤÙĪÙĦ":11240,"ĠÚ©ÙĪØ¦ÙĦÛĴ":11241,"ĠØ§ÛĮÙĨØ¬ÙĦØ³":11242,"Ø¹Ø±Ùģ":11243,"ĠØ¬Ø§Ø±Ø¬":11244,"ĠØ¢ÙħØ±":11245,"ÚĪÙĪØ±":11246,"ÚĪÙĪÙĨÙĦÚĪ":11247,"Ġ2006":11248,"Ø·Ø§ÙĦØ¨":11249,"ĠØ³ÙĪØ§ÙĦÙĪÚº":11250,"Ù¹ÙħÙĨÙ¹":11251,"ĠØ¯Ú¾Ø§Ø±ÛĴ":11252,"ĠØ¨Ø²Ø¯ÙĦ":11253,"ĠÙ¹Ø±Ø§ÙĨØ³ÙħÛĮØ´ÙĨ":11254,"ĠÙ¾Ø§ÙĪ":11255,"ĠØ§Ø¬Ø±Ø§":11256,"ØªÚ¾Ø§ÙĨÛģ":11257,"ĠÙħØ±Ø¯Ø§ÙĨÛģ":11258,"ÙħØ¹Ø§Ø´":11259,"ĠØ³ØŃ":11260,"ĠÚ©ÙĪÚĳÛĴ":11261,"Ø§ÙģØ³ÙĪØ³":11262,"ĠØ§Ø¹Ø²":11263,"ĠØŃÙĦÙģÛĮ":11264,"ĠÙĨØ§ØµØ±Ùģ":11265,"ĠÙĦÙĪØ±":11266,"ĠÚ©ÙĦÙĨÚ¯":11267,"ĠØ±ÛĮÚ¯ÙĪÙĦØ±":11268,"Ø¹Ø§Øµ":11269,"ĠÙħÙĪÙ¹Ø±ÙĪ":11270,"Ø°ÙĪÙĦ":11271,"ÙħÙĪÙĤØ¹":11272,"Ġ140":11273,"ĠØ§Ø³Ú©ÙĪÙĦØ²":11274,"ĠØ¢ÙĪØ§Ø²ÛĮÚº":11275,"ĠØ¹Ø§Ø¯Ø§Øª":11276,"ĠÙħØ¹Ø§":11277,"ĠØ¨ÚĨØ§ÙĨØ§":11278,"Ġ180":11279,"ÙģÛĮØµÙĦÛĴ":11280,"Ø§ÙħÙĨÛĮ":11281,"ÙĪÛĮØ³ÛĴ":11282,"ĠÚ¯ÙĪØ±ÙĨØ±Ø³ÙĨØ¯Ú¾":11283,"ĠÛģØªÚ¾Ú©ÙĨÚĪÙĪÚº":11284,"ĠÛĮØŃÛĮÛĮ":11285,"ĠØ³ÙĪØ§Øª":11286,"ĠÚĨÚ¾ÙĪÚĳÛĮ":11287,"ĠØ¯Ú¾ÙĪÚ©Ø§":11288,"ĠØ§ÛĮÙĪÙĨÙ¹Ø³":11289,"ĠØªØ§ÙĪÛĮÙĦ":11290,"ĠÙħÙĨØ¬ÙħØ¯":11291,"ÛĮÚ©ÚĨØ±":11292,"ĠÚ©ÙĨÚĪÛĮØ´ÙĨ":11293,"ĠÚ¯Ø²Ø±ØªÛĴ":11294,"ĠÙ¹Ú¾Ú©Ø§ÙĨØ§":11295,"Ø§ÙĦØ±Ø²":11296,"ĠØ§ÙĨØ§Ø±":11297,"Ø¨Ø±ÙĦÙĨ":11298,"ĠØ±Ø²Ø§ÙĤ":11299,"ĠØ¯Ø®Øª":11300,"ĠÚĨÙĨÚ¯":11301,"ĠØ¨ÙĨØ§ØªÛĮ":11302,"ĠØ§ÙĨØ¯Ú¾ÛĴ":11303,"ĠÚ©Ø§ÙĦØ¬ÙĪÚº":11304,"ĠÚĪÙĪÙħ":11305,"ĠØ¹ÛĮØ¯Ø§ÙĦØ§Ø¶ØŃÛĮ":11306,"ĠÚ©Ø±ÛĮÙĨ":11307,"Ú©Ø§Ø±ÙĪØ¨":11308,"ĠØ±Ø¶ÛĮ":11309,"ĠØ³ÙĨÚĨØ±ÛĮØ§Úº":11310,"Ú©Ø±Ø§":11311,"ĠØ§Ø¸ÛģØ§":11312,"ĠØ³ÙĨÙĪ":11313,"ĠÙģÛĮØ³ÙĪÚº":11314,"Ú¯ÛĮÙĪÚº":11315,"ÙħØ¹ÙĦÙĪÙħ":11316,"ĠØ³ÙĪÚĨÙĨØ§":11317,"ĠØ®ÙĪØ§Ø±":11318,"ĠÙĪÛĮÙĦØ²":11319,"ĠØ§Ù¾ÙĨØ§ÙĨÛĴ":11320,"ĠÙħÙĦØ²ÙħÛģ":11321,"ĠØ´Ø¹Ø§Ø±ÛĮ":11322,"ĠÙĤÛĮÙĪÙħ":11323,"ĠØ§ÙĪÙ¾ÙĨØ±":11324,"ĠÙħØ¹Ø§Ø¦ÙĨÛĴ":11325,"ĠØºØ±ÙĪØ¨":11326,"ĠÙĨÙĪÙ¹ÛĮ":11327,"ĠÚĪØ±Ø§Ø¦ÛĮÙĪØ±Ø²":11328,"ÙħØ³ÙĦ":11329,"ÙĪÙ¹Ø§":11330,"ĠØ§Ú©Ø´ÛĴ":11331,"ĠÙ¹Ú¾ÛĮÚ©ÛĮØ¯Ø§Ø±":11332,"ĠÙ¾ÙĨÚĪÛĮ":11333,"ĠÙ¾Ú©Ø§Ø±ØªÛĴ":11334,"ĠÚ©Úĳ":11335,"ĠØ±Ø²ÙĦÙ¹":11336,"ĠÙĪØ§Ø¦ÙĦ":11337,"Ø¬ÙĨÛģÛĮÚº":11338,"ĠØ¹Ø¨Ø¯Ø§ÙĦÙħØ¬ÛĮØ¯":11339,"ĠØ¨ÙĨØª":11340,"ĠØ¢ÚĨÚ©ÛĮ":11341,"ĠÙĦØ§ÙĨÚĪ":11342,"Ø¸ÙĦÙħ":11343,"ÙĪÛģØ§Ø¨":11344,"ĠØªØŃÙģÛĴ":11345,"ĠØ´ÛĮØ¹Ûģ":11346,"ĠÚ©Ø§ÙĦÙħ":11347,"ĠÛĮØ§Ø³ÙħÛĮÙĨ":11348,"Ø³Ø±ÙģØ±Ø§Ø²":11349,"ĠØ¨ÙĨÚ¯ÙĦ":11350,"ĠÙĪØº":11351,"Ø³ÛĮØ±ÛĮØ²":11352,"ĠØ§Ø¨ÙĪØ§ÙĦ":11353,"ĠÙĤØ±Ø¢ÙĨÛĮ":11354,"ĠÚ©ÙĦÙģÙ¹ÙĨ":11355,"ĠØ¨ÙĪÚĳÚ¾ÛĴ":11356,"ÙħØ¹Ø§ÙĦØ¬Ûģ":11357,"Ù¾ÛĮØ§Úº":11358,"ĠÙ¾Ø±ÙĪØ±ÛĮ":11359,"Ø®ÙĦØ§":11360,"ÙĨÚ¯ÙĪÚº":11361,"ĠÛģØ±ÙĨØ§Ø¦ÛĮ":11362,"ĠØ·ÙĦØŃÛģ":11363,"Ø§ÙħÛĮØ¯ÙĪØ§Ø±":11364,"Ø¨ÚĳÛĴ":11365,"Ø¨Ø±Ø§":11366,"ÙģÛĮÙĪ":11367,"ĠÙ¾Ø§Ø±Ù¹ÛĮØ²":11368,"ĠâĢ¦":11369,"ĠÙ¹Ø§":11370,"ĠÚ¯Ú¾ÙĪÚĳÛĴ":11371,"ĠÙĦØ¨Ø±ÛĮØ´ÙĨ":11372,"ĠÚĨÚ¾Ù¾ÛĴ":11373,"ĠÛģØ§Ø³Ù¹ÙĦ":11374,"ÛģÙĨØ¯ÙĪ":11375,"ĠÚĨÚ¾ÙĦ":11376,"ĠØ¢Ø¯Ú¾ÛĴ":11377,"Ġ08":11378,"ĠØ¯Ø±Ø¯ÙĨØ§Ú©":11379,"Ø³Ø±ÙĪ":11380,"ĠØ±Ø³Ø§Ø²":11381,"Ø³ÙĪØ§Úº":11382,"ĠÙ¾Ú©Ø§Ø±Ø§":11383,"Ø¢Ø®Ø±ÛĮ":11384,"ÙĪÙĦØ§":11385,"ĠÙħÙĦØ§ÙĨÛĴ":11386,"ĠÙ¾ÛģÙĨÚĨØ§Ø¦ÛĮ":11387,"ÚĺØ±ÛĮ":11388,"ĠÙĤØªØ§Ø¯Ûģ":11389,"Ø§Ø³ÙĦØ¦ÛĴ":11390,"ĠÚ©Ø§ÙĨÙ¹ÛĴ":11391,"ĠÙħØµØ±ÙĪÙģÛĮØ§Øª":11392,"Ú©Ú¾ÛĮÙĦ":11393,"Ø¬Ø§Úº":11394,"ÙħÙĨØ¹ÙĤ":11395,"ĠÚ©Ù¾Øª":11396,"ĠÙħÙĨÚ¯ÙĦØ§":11397,"ĠII":11398,"ĠØ¬ÙĪÚº":11399,"ĠÙĪÙģØ§Ø¯Ø§Ø±":11400,"ĠØ¯Ø³ÙĪÛĮÚº":11401,"ĠÙ¾Ø±Ú©Ø´":11402,"Ù¹ÛĮÙĪØ¨":11403,"ÙĪØ¨ÙĨØ¯":11404,"2013":11405,"ĠÙħØ´Ø±Ú©ÙĪÚº":11406,"ĠÙ¹Ø§Ø¦ÙħØ²":11407,"ĠÙħØ¨ØµØ±ÛĮÙĨ":11408,"ĠØ§Ú©ÛĮÙĦÛĴ":11409,"ĠØ¯Ø§ÙĨÛĮØ§ÙĦ":11410,"ĠØ¢Ø±Ùħ":11411,"ĠØ§ÙĨÙ¹":11412,"ĠØ´Ø±Ù¾Ø³ÙĨØ¯":11413,"Ù¾ÛģÙĨÚĨØ§ÙĨÛĴ":11414,"ĠÙ¾ÙĪÙħÙ¾ÛĮÙĪ":11415,"ĠÚ©Ø§Ù¹Ø§":11416,"ĠØºØ³ÙĦ":11417,"ĠÚ¯Ø²Ø§Ø±ÙĪÚº":11418,"ĠØ³ÙĨÚ¯Ø§Ù¾ÙĪØ±":11419,"ÙħØ§Ûģ":11420,"ĠÙħÙĤØªÙĪ":11421,"ĠÙĨÛģØ±ÛĮÚº":11422,"ĠÙħØ§Ø¬":11423,"Ø¹Ø§Ø±":11424,"Ø¬Ø¯Ûģ":11425,"ĠØ¯ÛĮØ¬ÛĮÛĴ":11426,"ĠØªØ¹Ø±ÛĮÙģÛĮ":11427,"ĠØ¬ÛĮÙĪ":11428,"ÙħÙĨÚĪ":11429,"ĠÚ¯ÙĪØ´ÙĪ":11430,"ĠÚĨØ´ØªÛĮ":11431,"Ø§ÙĨØªÛģØ§Ø¦ÛĮ":11432,"ĠÙħÛĴ":11433,"Ø´Ø¯ÛĮØ¯":11434,"ĠØ¹Ø§Ùģ":11435,"ĠØ§Ø¯Ø±Ú©":11436,"ĠÚ©Ø§Ø±Ø®":11437,"ĠØ·Ø¨Ø¹ÛĮ":11438,"ĠØ´Ø´":11439,"ĠØ®Ø§ÙĨÙħ":11440,"Ø§Ø¶Ø§ÙģÛģ":11441,"Ø§ÛĮØ¬ÙĪ":11442,"ĠØ§ÙģØ±ÛĮÙĤØ§":11443,"om":11444,"ĠØ´Ø¦ÛĮØ±":11445,"ĠØ§ÙģØº":11446,"ĠØ¬Ú¾ÙĦÚ©":11447,"ĠÚĪÚ¾Ø§ÙĦ":11448,"ĠØ¯Ú¾Ø±ÙĨÙĪÚº":11449,"ĠÛģØ¬ÙĪÙħ":11450,"ĠØ¨Ø±Ø¢Úº":11451,"ĠØµØ§Ø¨Ø±ÛĮ":11452,"ĠÙĦÛĮØ³Ú©ÙĪ":11453,"ĠØ¨ÚĳÚ¾Ø§Ø¦ÛĮÚº":11454,"ĠØ³Ø§Ø¤ØªÚ¾":11455,"ĠÙĨØ¹ÛĮ":11456,"Ø¦ÙĦÛģ":11457,"Ø´ÙĪÚ©":11458,"ĠØ¹Ø§Ø´":11459,"ĠÛĮÙĪÙ¹Ø±ÙĨ":11460,"ÙħÛĮÙĦØ§Ø¯":11461,"ĠÙħÙĪØ§ÙģÙĤ":11462,"ĠÙ¾Ø§Ø¯Ø§Ø´":11463,"ĠÙħÛĮØ§":11464,"ĠÙĪÙĦÙĪ":11465,"ĠÙĨÛģØ§ÙĦ":11466,"ĠØ§ÛĮÙĨÙ¹":11467,"ĠØ³ÙĨÛĮØ¦Ø±":11468,"Ġc":11469,"ĠØ¬ÛĮÙĨØ§":11470,"Ù¾Ø§Ø±Ú©":11471,"Ø¬ÙĪÙĨ":11472,"ĠÙģØ±Ø²":11473,"ØºØ±Ø¶":11474,"ĠÙħØ³ÙĪØ¯Ûģ":11475,"ĠØ§Ø³ØªÙĨØ¨ÙĪÙĦ":11476,"ĠØ¹ÙħØ±ÙĪ":11477,"Ú¯ÙĨÛĮ":11478,"ĠØªØŃÙħÙĦ":11479,"ĠØ³Ù¹ÛĮÙĨÚĪ":11480,"ĠØ°ÛģÛĮÙĨ":11481,"ĠØ¬Ø¯Øª":11482,"ĠØ¨Ú¾ÛĮÚĳ":11483,"ĠØ¨ÛĮÙĨØ§Ø¦ÛĮ":11484,"ĠØ³ÛģÙĪ":11485,"ØŃØ§ÙĦÛĮÛģ":11486,"ĠØ§Ø³Ù¹ÙĪØ±":11487,"ĠØ§ÙĦØ§ØŃØ³ÙĨ":11488,"ÙĨÛĮÙģÛģ":11489,"ĠØ¨Ú¾ÙĪÙĨ":11490,"Ø³Ù¾ÛĮÚ©Ø±":11491,"ĠØ§ÙĪÙĨÙ¹ÙĨÛĮ":11492,"ĠØ¨ÛĮÙĨÛĮ":11493,"Ú¾Úĳ":11494,"ĠØ¬Ù¹":11495,"ĠØ¬Ø§Ø¨":11496,"ĠÙĦÚ©ÛĮ":11497,"Ø·ÙĦØ¨Ø§Ø¡":11498,"ĠØ·ÙĪØ§Ùģ":11499,"44":11500,"ĠÙĤØ°":11501,"Ø¯Ø§ÛĮØª":11502,"ĠØ´Ø±ÙħÙĨØ¯Ú¯ÛĮ":11503,"ĠÚ¯ÙħØ´Ø¯Ú¯ÛĮ":11504,"ĠÛģÛĮÙħ":11505,"ĠÛģÙĪÙ¹":11506,"Ø§Ø¦ÛĮØ³":11507,"ĠÙ¾Ú¾Ù¹ÙĨÛĴ":11508,"ĠØ¹ÛĮØ´":11509,"ĠÚ©Ø§Ûģ":11510,"Ø°Ø§Ø¨":11511,"ĠØ±ÛĮØ³ÙĦ":11512,"ØªØ±Ú©ÛĮ":11513,"ĠØ³ÛĮØ¯Ú¾ÛĴ":11514,"ĠØ¬Ø§Ø¦ÛĮØ¯Ø§Ø¯ÙĪÚº":11515,"ĠØ³Ù¹ÛĮØ´ÙĨÙĪÚº":11516,"Ø¬Ø§Øª":11517,"ĠØ¨ÛĮØ¹Øª":11518,"Ø³Ù¾Ø±":11519,"ĠÙħÙĨÛĮØ¬ÙĨÚ¯":11520,"ÙħÙĪØ³":11521,"Ø´Ø´":11522,"ĠØŃÛĮÙĪØ§ÙĨ":11523,"ĠÙ¾Ø±Ø¯ÛĮØ´":11524,"ÙħØ´ØªØ±Ú©Ûģ":11525,"ĠØ´ÛĮØ§Ø·ÛĮÙĨ":11526,"ĠØ§ØµØ·":11527,"ĠÙĨØµØ§Ø¨ÛĮ":11528,"ĠÙĨØ§Ø±ÙħÙĦ":11529,"Ø²Ø±Ø¹ÛĮ":11530,"ĠÚ©Ø§Ø¨":11531,"ĠÙĨÛĮÙĨ":11532,"Ø§ÛģØª":11533,"ĠØªÙĨØ§":11534,"ĠÛģÙĪØªÛĮÚº":11535,"ĠØ¹Ø¨Ø§Ø±Øª":11536,"ĠÙĨØ¸Ø±ÛĮÚº":11537,"ĠØ§Ú©ÛĮØ³":11538,"ĠÙĤÙĪÙĨØµÙĦÛĮÙ¹":11539,"Ú©Ù¹Ø³":11540,"ÙĪØªÛĮ":11541,"ĠÙ¹Ú¾ÛĮ":11542,"ĠÙĦÛĮØ¬ÙĨÚĪ":11543,"ĠØ³Ú©ÛĮÙĨÚĪÙĦ":11544,"Ø§Ø¤ÙĨÙ¹":11545,"ĠØ³ÙħÙĪÚ¯":11546,"ÙĪØ§Ù¹Ø±":11547,"Ø³ÚĳÚ©":11548,"ĠÚ©ÛĮÙĦÛĮ":11549,"Ø¢Ø¨":11550,"ĠØ§ÙģØ¶Ø§ÙĦ":11551,"ĠØ³Ù¹ÛĮÙĦ":11552,"ĠØ§ÙĦØ¹ÙĦÙħ":11553,"55":11554,"ĠÙģØ±Ø¯ÙĪØ³":11555,"ĠÙħØŃØ§ØµØ±ÛĴ":11556,"ĠØ³ÙĪØ±ÛĮ":11557,"ĠÛ±ÛµÛ":11558,"ĠÛĮÚ©Ø¬Ø§":11559,"ĠÙħØ±ØŃÙĪÙħÛģ":11560,"ĠÚĪØ¨ÙĦØ²":11561,"ĠÚ©Ø§Ø¨ÙĦ":11562,"ĠÙ¾Ø±Ø§Ø¦Ø²":11563,"ĠØ§ÛĮÙĦÛĮÙ¹":11564,"ĠØªÚ¾ÙĪÚĳÛĴ":11565,"Ø±ÛģÙĨÙħ":11566,"ĠØ³Ø§Ø¦ÙĪØªÚ¾":11567,"ĠÙ¾Ø§ÙĨÚĨÙĪØ§Úº":11568,"ĠØ²ÛĮÙĪØ±":11569,"ĠÚĪØ³Ù¾ÙĪØ²ÙĦ":11570,"ĠØ¹Ø¯ÛĮÙĦ":11571,"ĠÛ±Û¶Û":11572,"Ø®Ø·ÛĴ":11573,"ĠÙħÙĨØ³ÙĪØ®ÛĮ":11574,"ĠÙĦØ§Ø¦ÛĮÙĪØ³Ù¹Ø§Ú©":11575,"ĠÚ¯Ø±ÛĮØ¬ÙĪÛĮÙ¹":11576,"ÙĨÙĪØ´ÛģØ±Ûģ":11577,"ĠØ¬Ø§Ø³ÙĪØ³ÛĮ":11578,"Ùķ":11579,"ĠÙ¹ÙĪÙĨÙ¹ÛĮ":11580,"ĠØ§ÙĨØªÚ¾Ú©":11581,"ĠÙ¾Ø®ØªÙĪ":11582,"ĠÚ¾Ø°Ø§":11583,"ĠØ¯Ø´ÙĪØ§Ø±":11584,"ÙĪØ±ÙģØª":11585,"ĠØ²Ø§Ø¯Ûģ":11586,"ĠÙĦÛĮÙ¹":11587,"ĠÙħØ¹ÙħØ±":11588,"ĠØ§ÙħØ±ÛĮÚ©ÙĨ":11589,"ÙĪØ§ÙĦÙĦÛģ":11590,"ĠØ§Ø³ØªØŃÙĤ":11591,"ĠÚ©ÛĮÙħÙ¾ÙĪÚº":11592,"ĠØ±Ø§Ø¤ÙĨÚĪØ±":11593,"ĠÙģØªÙĪØŃØ§Øª":11594,"ĠÛģÙĪÙ¹ÙĦÙĪÚº":11595,"ĠÙĦÛĮÙĪ":11596,"ĠØ§Ø¨Ø¯Ø§ÙĦ":11597,"ĠØ§ÛĮÚĪÙĪØ§ÙĨ":11598,"ĠØ§ÙħÙ¾Ø§Ø¦Ø±":11599,"ĠØ³Ú¯ÙĨÙĦ":11600,"ĠÙħÙĤØªÙĪÙĦÛģ":11601,"ĠØ§Ø¦ÛĮ":11602,"ĠØ¬ÙĨÚ¯Ø¬ÙĪØ¤Úº":11603,"ĠÙ¾Ù¹Ø±":11604,"ĠÙ¾ÙħØ²":11605,"ĠØ®ÙĪØ´ÛĮØ§Úº":11606,"ĠÛģÙ¹Ø§ÛĮØ§":11607,"ĠØ§ÚĳØ§ÙĨÛĴ":11608,"ĠØ¯ÛĮÙĪØ§Ø±ÙĪÚº":11609,"ĠÙ¾Ø±Ú©Ø´Ø´":11610,"ĠÙ¾ÙĪØ´":11611,"ĠÙħØ§Ø±Ú©Ø±":11612,"ĠÚ©ÙĨØ³ÙĦ":11613,"ĠÙĪÙĤØªÛĮ":11614,"Ø§Ø°Ø§":11615,"ĠÚĨÙĪÚ©ÙĪÚº":11616,"ĠØµØ±Ø§Ø·":11617,"ĠÚ©Ø³ØªØ§ÙĨ":11618,"ÙħØº":11619,"ĠØªÙħÙĨØ§":11620,"ÙģØ±ÙĤ":11621,"ĠØ§ÛĮÙħÙĪ":11622,"ĠÛ²ÛµÛ":11623,"ĠØ¨Ø¬Ú¾Ø§ÙĨÛĴ":11624,"ĠÚ©Ø§Ø¸ÙħÛĮ":11625,"ĠÙĪØ±Ø¯":11626,"ĠÚ©ÙħØ±ÙĪÚº":11627,"ĠØ¨Ø±Ø§ÚĪ":11628,"Ø¬ÛĮØ±ÛĮØ§":11629,"ØŃÚ©ÙħØ±":11630,"ÙħÙĪØ¹ÛĮ":11631,"Ú¾Ø±Ø§Úº":11632,"ĠØ³ÙħÙ¹":11633,"Ø§ÛĮÛĥ":11634,"ĠÙ¹ÛĮÚ©ÛĴ":11635,"ĠÙ¹Ø±Ø¨ÛĮÙĪÙĨÙĦ":11636,"ĠÙħÙĪÙĦØ§":11637,"ĠÙħØ´Ø§Ø¦Ø®":11638,"ĠØ¨Ø§ÙĦØº":11639,"ĠÚĪÚ¾Ø§ÙĨÙ¾":11640,"ĠØ³Ø¬Ø§ÙĪÙĦ":11641,"ĠÚ¯ÙĪØ§ÛģØ§ÙĨ":11642,"ØªØ¹ÙĦÙĤ":11643,"Ø°ÙĪØ§ÙĦ":11644,"ĠØ³Ø±Ú¯ÙĪØ¯ÛģØ§":11645,"ĠÙħØ³ØªØ«ÙĨÛĮ":11646,"ĠÚĨÙĪØ±ÙĨÚ¯ÛĮ":11647,"ĠØ¬Ú©":11648,"Ù¾Ø®Øª":11649,"ĠØ§Ø¬Ø²Ø§":11650,"ĠÙħØ§Ø±Ù¹ÙĨ":11651,"ĠØŃØ§ÙħÛĮÙĪÚº":11652,"ĠØ¬ÙĪØ²Ùģ":11653,"ĠÙĨØ§Ù¹":11654,"ĠØ¢ÚĨÚ©Ø§":11655,"ĠÙĦØ³Ø§ÙĨÛĮ":11656,"Ġ1000":11657,"Ġï¿½":11658,"ĠØªØ±Ø¨ÛĮÙĦØ§":11659,"Ú©Ø§ÛĮØ§":11660,"ĠØ¨ÙĨØ¯Ú¾":11661,"ĠÙħÙģØ§ÛģÙħØªÛĮ":11662,"Ø¹Ø§ÙĦÛĮÛģ":11663,"ĠÙ¾Ø±ÙĪÙħÙĪØ´ÙĨ":11664,"Ø¶ÙĨÙģØ±":11665,"ĠØ¬ÙĪØ§Ø±":11666,"ĠÙħØ¨Ø°ÙĪÙĦ":11667,"ĠÙħØ§ÙĨÚ¯ÛĮÚº":11668,"ĠÚ©Ø§ÙĪØ´ÛĮÚº":11669,"ĠØĵ":11670,"Ù¾ÛĮÚ©":11671,"ĠØ¯Ú¾ÙĪÙĨ":11672,"Ø³ÙĨÙĨ":11673,"ĠÙ¾ØªÙĨÚ¯":11674,"ØªØ±ÙĤÛĮØ§ØªÛĮ":11675,"ØŃÙħÙĦÛĴ":11676,"ĠØ³Ø±Ø¨ÙĦ":11677,"ĠØªØ±Ø§Ø´":11678,"ĠØ¯ÛģÙĨØ¯Ú¯Ø§ÙĨ":11679,"Ú©Ø§ÙħÛĮØ§Ø¨":11680,"ØªØ¹ÙĦÛĮÙħÛĮ":11681,"ÙĪØ¨Ø§Ø¦ÙĦ":11682,"ĠØªÙħÙĨ":11683,"Ø¬Ø¨Ø§Ø±":11684,"ĠØ¨ÛĮÙĨÚĪ":11685,"ĠØªØ´Ø®Øµ":11686,"ĠØªØ²Ø¦ÛĮÙĨ":11687,"ĠØ¬Ø§Ú¯ÛĮØ±":11688,"ĠØ§ÙĨØªÛģØ§Ø¡":11689,"ĠÙĨØ§Ø±ÙĪÙĪØ§ÙĦ":11690,"ĠØ³Ø§Ø¦ÙĦÛĮÙĨ":11691,"ĠØ³Ø§Ø³":11692,"Ù¹Ø´":11693,"ĠØŃÙĪÛĮÙĦÛĮ":11694,"ĠÚĪØ³Ù¾ÙĦÙĨ":11695,"Ø³ØªÙħ":11696,"Ġ1500":11697,"ĠØ³ÙĪØ¯Ø§":11698,"ĠÙĦØ§Ù¾Ø±ÙĪ":11699,"ĠØ±Ø§Ø¦ÛĮÚ¯Ø§Úº":11700,"ĠØ¬Ø§ÛģÙĦ":11701,"ĠÙħÙĦØ§ÙħØª":11702,"Ø¢Ø³":11703,"Ø¤Ùģ":11704,"Ù¾ÙĪÙĦÛĮÙ¹ÙĨ":11705,"ĠØ®ÙĦÛĮØ§Øª":11706,"ĠÙĨÚ¯ÛģØ¯Ø§Ø´Øª":11707,"ĠØ¸ÛģØ¨ÛĮ":11708,"ĠØ§ÙģÙĪØ§ÛģÛĮÚº":11709,"ĠÙħØ§ÙĪØ±":11710,"ĠØ³Ø§Ø¦ÛĮÙ¹":11711,"Ú¾Ø¯":11712,"ÙĤØ§ÙĦ":11713,"ĠÙĪÙħØ§ÙĦ":11714,"ĠÙħÙĪØ¬Ø¨":11715,"ĠÙħÙĤØ±ÙĪØ¶":11716,"Ø§ÙĪÛĴ":11717,"ĠØ±ÙĪÙħØ²":11718,"ĠØ¹Ø¨Ø¯Ø§ÙĦØŃÙħÛĮØ¯":11719,"ĠÙĤØ±Ø¶Ûģ":11720,"ĠÙħØ¶Ø§Ùģ":11721,"ĠÚ©ÙģØ§Ø±Ûģ":11722,"ĠÙĨÛĮÙĪÙ¹":11723,"ĠØªØŃØµÛĮÙĦÙĪÚº":11724,"Ú©ÙĪÙ¹ÙĦÛĮ":11725,"ĠÚ©ÛĮÙħØ·Ø§Ø¨ÙĤ":11726,"ĠØŃØ¬Ø±":11727,"ĠÙ¹Ú¾ÙĪ":11728,"ĠØ³Ø±Ø¬ÛĮÚ©ÙĦ":11729,"ĠØ¬ÙĦÛĮÙĦ":11730,"Ù¾Ø§ÙĦÛĮ":11731,"ĠØ§ÙĦØ°":11732,"ÙħÙĨØµÙĪØ¨Ûģ":11733,"Ú©ÙħØ§ÙĨ":11734,"Ø±Ø§Ø´Ø¯":11735,"ØµØ§Ø±":11736,"ÙħÙĦØª":11737,"ĠØ¨Ø±ØªÙĨ":11738,"ĠØ³ÙĪÚĨÙĨÛĴ":11739,"Ø¬ÛĮÙĨ":11740,"ĠÙ¹Ùħ":11741,"Ø§Ø¹Ø¬Ø§Ø²":11742,"ĠØ±ÛĮÙģØ±ÛĮ":11743,"ÙħÙĨØ¸ÙĪØ±":11744,"ĠØ¨Ø¯ØªÙħÛĮ":11745,"Ø®ÙĦØ§ØµÛģ":11746,"ĠÙģØ§ÙĦØ¬":11747,"ĠØ¨ÙĦÛĮÙĪ":11748,"ĠØ´ÙĪØ±ÛĮ":11749,"ĠØ³ÛĮØ±ÛĮÙĦ":11750,"ĠÚ©Ú¾Ø§Ø¦ÛĴ":11751,"Ø§ÙĪØ§Øª":11752,"ĠØŃÙħØ§Ø³":11753,"Ø¬Ø¯Ø§Ø±ÛĮ":11754,"Ø§ÙĨØªØ®Ø§Ø¨Ø§Øª":11755,"ĠÙħÛģØ±Ø§ÙĨ":11756,"ÙħØŃÙĤÙĤÛĮÙĨ":11757,"ĠØ¨Ø±ÛĮÚ¯Ø²Ù¹":11758,"ĠØ¨Ø§Ø´ÙĨØ¯ÛĴ":11759,"ĠÙ¹Ø±ÙħÛĮÙĨÙĦ":11760,"ĠÚ©Ù¹ÛĮ":11761,"ĠØŃÙĪÛĮÙĦÛĮØ§Úº":11762,"ĠØ´Ø§ÙĦ":11763,"ĠÙħÙĦØ¨ÛĴ":11764,"ĠØ¹ÙħØ§Ø±ØªÛĮÚº":11765,"ĠØ¨Ø§Ø´Ø¹ÙĪØ±":11766,"ĠØ§Ø³ØªØŃÙĤØ§ÙĤ":11767,"Ø¬Ø¹ÙĦÛĮ":11768,"ĠØ´Ø§Ø¨":11769,"ĠØ¬Ø§ÙĨØªÛĮ":11770,"ĠØ±ÛĮÙ¹ÙĨÚ¯":11771,"ĠÙħØ¦":11772,"ĠÚ¯ÙĨÚ¯":11773,"Ø§Ø¹Ø¯Ø§Ø¯":11774,"ĠÙĦÙĪÛģÛĴ":11775,"ÙĤÛĮØ§ÙħØª":11776,"ĠÙ¾ÙĪØ³Ù¹ÙĪÚº":11777,"ĠØ¢Ø±Ú¯ÙĨØ§Ø¦Ø²Ø±":11778,"ĠØ§Ú©Ø§ÙĪ":11779,"ÛģØ§ÙĦ":11780,"ĠÙ¾ÛģÙĨÚĨÙĨØ§":11781,"ĠØ³ÛĮÙĨÛĮÙ¹Ø±Ø²":11782,"ĠØ§Ø¹ØªÙĤ":11783,"ĠØŃÙĤÛĮØ±":11784,"ĠØªÙĨØ¸ÛĮÙħÛĮ":11785,"ĠØ®Ø±ÛĮØ¯ÛĴ":11786,"Ø®ØµÙĪØµØ§":11787,"ĠÙ¾ÙĪÚĨÚ¾ÙĨÛĴ":11788,"ĠØ§Ù¹ÙĦÛĮ":11789,"ĠÚ©ÛĮÙĪØ¨":11790,"ĠØ§Ø®Ø±ÙĪÛĮ":11791,"ĠØ´ÙĪÚ©Ø§Ø²":11792,"ĠÚ©ÙħÙ¾ÙĨÛĮØ²":11793,"ĠØŃØ§Ø¶Ø±ÛĮÙĨ":11794,"ĠØ¢ÙĨÛĮÙĪØ§ÙĦÛĴ":11795,"ĠÚ©ÙĪÙĦÛĮØ³Ù¹Ø±ÙĪÙĦ":11796,"ĠÚ©ÙĨØ³":11797,"ÛĮØ§Ûģ":11798,"ĠØ¨Ø§Ø±Ú¯Ø§ÛģÙĪÚº":11799,"ĠÚ©ÙĨÙĨØ¯Ú¯Ø§ÙĨ":11800,"ĠÛģÙĦÚ©Ø§":11801,"ĠÚ¯Ø±ÙĪÙ¾Ø³":11802,"ĠØ¯Ø§Ø±Ø§ÙĦÚ©ØªØ¨":11803,"ĠÙĨØ§ÙħÚ©ÙħÙĦ":11804,"ĠØ¨Ø±ÙģØ¨Ø§Ø±ÛĮ":11805,"ĠÚ©Ú©":11806,"Ø¨Ø§Ø¨Ø±":11807,"ĠÙ¹ÛĮÙĨØ³":11808,"ĠØªØ±Ø§Ø´ÛĮ":11809,"ĠØ§Ø¹ÙĦØ§ÙĨØ§Øª":11810,"ĠÚ©ÙĪÙĨØ³ÙĦØ²":11811,"ĠÙħÛĮÙ¹ÙĨÚ¯Ø²":11812,"ĠÛģÙħØ§Ø±":11813,"ĠØªÙĤØ§Ø±ÛĮØ¨":11814,"ĠØ¯ÙĦÙĪØ§ÙĨÛĴ":11815,"ĠÚĨÙĦÙĪ":11816,"Ø¨ÛĮØ±ÙĪÙĨ":11817,"ĠØ§Ø¨ÙĪØŃ":11818,"ØµØŃØ§ÙģÛĮ":11819,"ĠÙĨØŃ":11820,"ÙĪÙĨØ¯ÛĮ":11821,"ĠØªÙĪÙĤÛĮØ±":11822,"Ø±ÙħØ¨Ø§Ø¯ÙĦÛģ":11823,"ÙħØ¹Ø§ÛģØ¯ÛĴ":11824,"ÙĪØ§Ú©":11825,"ĠØ®Ø±ÙĪØ´":11826,"ĠÙģØ±Ø§":11827,"ĠÚ¯Ø±ÙħØ§":11828,"ĠØ®ÙĦÛĮØ¬ÛĮ":11829,"ÛĮØ¹":11830,"ĠÙĨØ§Ûģ":11831,"ĠÙħØ§ÙĨÙĨØ¯":11832,"Ø¬Ø§Ù¾Ø§ÙĨ":11833,"Ø§ÙĨÙĪØ§ÙĦÛĮ":11834,"ĠØŃØ´":11835,"ĠÛĮÛģÛĮÚº":11836,"Ú©ÛģØªÛĴ":11837,"Ú¯ÛĮÚĪ":11838,"Ú©ÙĪÛģØ§Ù¹":11839,"ĠÛģØ§Ùģ":11840,"ĠØ®ÙĦÙģ":11841,"ĠØµÙģÙĪÚº":11842,"ÙģØ§Ø¦ÙĨÙĦ":11843,"ĠÙĦØ§ÙĨÚĪÚ¾ÛĮ":11844,"ĠÛĮØ³ÛĮÙĨ":11845,"ĠØ§ÙĦØ¬":11846,"ĠØªØŃÙĦÛĮÙĦ":11847,"ĠÚ¯Ú¾Ù¹ÙĨÛĴ":11848,"ĠÙģØ±ÛĮØ§Ø¯":11849,"ĠØµØ¯ÛĮÙĪÚº":11850,"ĠØ¯Ú©Ø§ÙĨØ¯Ø§Ø±":11851,"ĠÚ¯Ø§Ø¦ÛĮÚĪ":11852,"ĠØºÙĦÛģ":11853,"ÙĪØªÙĪÚº":11854,"ĠÙ¾ÚĳÚ¾Ø§Ø¦ÛĮ":11855,"ĠØ§ÙĦØ¹Ø²Øª":11856,"ĠÙĦÚĳÛĮ":11857,"ĠØŃÙĨÙģÛĮ":11858,"ÙģÛĮÚĪØ±ÛĮØ´ÙĨ":11859,"ĠÙħÚĨØ§":11860,"Ø§ÙĨÚ©ÛĮ":11861,"ĠÙĪÙĪÙĦ":11862,"ĠÙ¾ÛĮØ´Ø§Ø¨":11863,"ĠØ§ØªØ±ÛĮ":11864,"ĠØ§Ø±Ø§Ø¯ÛĴ":11865,"ĠØ´Ø¬Ø§Ø¹":11866,"ĠÚĨÚ¾Ù¹Ú©Ø§Ø±Ø§":11867,"ÛģØ²":11868,"ĠÙĨØ§ÙĪÙĦ":11869,"ĠÙĦÚĳØªÛĴ":11870,"ÚĪØ§Ú©Ù¹Ø±ÙĪÚº":11871,"Ø¸ÙģØ±":11872,"ĠØ¬Ø¨Ø±ÛĮÙĦ":11873,"ĠÙħÛģÙĨÚ¯Ø§Ø¦ÛĮ":11874,"ĠØ¨Ø®ØªÛĮØ§Ø±":11875,"ĠÙĦÙħØŃØ§Øª":11876,"ĠÙģÙĨØ§ÙĨØ´ÙĦ":11877,"ĠÚ©ÛĮØ¨ÙĦ":11878,"ÙħØ§ÙĨØ³ÛģØ±Ûģ":11879,"ĠØ¨ÛĮÚĨÙĨÛĴ":11880,"ĠÚ©Ø¨ÛĮØ±Ûģ":11881,"Ø§ÙĦØ·Ø§Ùģ":11882,"ĠÙĪØ®ÙĪØ´ØŃØ§ÙĦÛĮ":11883,"ĠÙ¾Ø®ØªÙĪÙĨÙĪÚº":11884,"85":11885,"ĠØ§Ù¾Ø§Ø±Ù¹ÙħÙĨÙ¹":11886,"Ú©ÛģÛĮÚº":11887,"ĠØ´Ø§ÛģØ¯ÛĮÙĨ":11888,"ĠÙĨØ§Ø¨ÛĮÙĨØ§":11889,"ĠÙħØ±ÛĮØ¯":11890,"Ø§ÛĮÚ©Ø³Ù¾":11891,"ĠØ±ÛģÙĨÙħØ§ÙĪ":11892,"ĠØ¢ÙħØ¯ÙĪØ±ÙģØª":11893,"ĠÚ¯Ú¾ÚĳØª":11894,"Ø³Ú©ÛĮÙĪØ±Ù¹ÛĮ":11895,"ĠÙ¾Ø§ØªØ§":11896,"ĠÚĨØ´Ùħ":11897,"ĠÙĪØ§ÙĦÛģ":11898,"ĠØ¬ÛĮÙ¾":11899,"Ø§Ø¦ÙĨÚĪ":11900,"ĠØ¨Ø¬Ú©Ø±":11901,"Ø§Ø¦Ø²ÙĨÚ¯":11902,"ĠÙħÙĪØ³":11903,"ĠÙĤØ¨Ø¶":11904,"ĠÚĨÙĦÚĪØ±ÙĨ":11905,"ĠØ¬ÛĮÙĦØ§ÙĨÛĮ":11906,"Ø²Ø®ÙħÛĮ":11907,"Ú©Ù¹Ø±Ø²":11908,"ĠØ¹ÙĤÙĦÛĮ":11909,"ĠÙħØ¹ØµÛĮØª":11910,"ĠÙ¾Ú¾ÛĮÙĨÚ©ÙĨÛĴ":11911,"Ø³ÛĮÚ©Ø±Ù¹Ø±ÛĮÙ¹":11912,"ĠØ¨ØµÛĮØ±Øª":11913,"ĠØ¬Ø¯ÙĪÙĨ":11914,"ĠÙħÛĮØ³Ø¬":11915,"ĠØ«ÙħÙĪØ¯":11916,"ĠØ§Ø¹Ø²Ø§Ø²ÛĮ":11917,"Ø´ÙĪÚ©Øª":11918,"ĠØºÙĦØ·ÛĮØ§Úº":11919,"ĠØ¨ÙĦÙĨØ¯ÛĮÙĪÚº":11920,"ÙħØ¬ÙħÙĪØ¹ÛĮ":11921,"ĠØ§Ú©Ú¾Ù¹ÛĴ":11922,"ĠÙĨÙĨÚ¾ÛĴ":11923,"ÙħØ±ØŃÙĪÙħ":11924,"Ù¹Ø±ÙħÙ¾":11925,
[...]
